memory_initialization_radix=10;
memory_initialization_vector=
43,
44,
-13,
46,
-15,
6,
-30,
25,
41,
-44,
39,
4,
32,
1,
19,
-14,
41,
5,
-27,
10,
-29,
-8,
-27,
28,
-44,
-25,
-15,
-30,
6,
-50,
49,
-42,
42,
10,
-16,
33,
9,
42,
6,
-17,
13,
-13,
24,
45,
26,
-26,
29,
9,
39,
-22,
-44,
-14,
-36,
46,
17,
22,
17,
-1,
40,
-37,
3,
-36,
15,
-19,
26,
-7,
51,
-22,
-31,
-29,
51,
22,
48,
-45,
-54,
-43,
-37,
19,
16,
41,
-29,
-38,
25,
-23,
29,
-15,
28,
-43,
-28,
14,
9,
-16,
29,
33,
-41,
-28,
48,
-18,
-19,
-51,
-30,
13,
-7,
-38,
1,
-36,
-44,
-29,
-46,
-33,
52,
10,
16,
-49,
-34,
-17,
8,
-46,
-23,
-31,
-10,
-25,
-4,
-29,
-26,
-19,
-4,
-27,
58,
4,
60,
31,
-30,
50,
0,
-6,
-49,
-42,
33,
1,
29,
-38,
41,
-37,
-2,
17,
32,
46,
50,
-39,
14,
-22,
-5,
-39,
47,
-39,
27,
17,
15,
-30,
54,
14,
6,
-55,
18,
-3,
-23,
40,
12,
-29,
-26,
-2,
29,
-13,
-30,
-18,
-39,
19,
40,
-49,
12,
27,
9,
-19,
27,
27,
20,
-9,
-14,
6,
-9,
-16,
39,
47,
-6,
-16,
-6,
-11,
4,
5,
-56,
-28,
35,
12,
-11,
-40,
-40,
-55,
-15,
12,
44,
40,
-55,
-16,
-15,
39,
40,
14,
42,
-10,
-31,
34,
-32,
-21,
-59,
26,
30,
13,
-40,
-54,
-45,
38,
53,
51,
23,
5,
13,
-24,
-21,
-37,
24,
-24,
-10,
-30,
-10,
-38,
-35,
16,
-17,
31,
-19,
-40,
-11,
-27,
-18,
-52,
31,
-37,
30,
23,
35,
-41,
37,
-26,
39,
66,
7,
12,
-2,
-35,
32,
-45,
39,
45,
55,
-7,
-38,
17,
33,
-47,
5,
-21,
7,
-13,
-19,
3,
-36,
49,
75,
11,
4,
-25,
-56,
-63,
7,
-41,
-43,
-13,
-25,
-23,
-3,
-15,
-22,
-29,
-20,
41,
15,
17,
-28,
10,
46,
25,
-28,
34,
60,
21,
40,
55,
-6,
12,
-35,
-10,
40,
28,
-31,
-40,
-34,
-49,
-27,
-8,
50,
30,
-44,
-31,
30,
-26,
3,
33,
-17,
1,
1,
-7,
-22,
-42,
-38,
-24,
54,
-22,
-32,
15,
17,
31,
48,
35,
-48,
4,
30,
-2,
-29,
52,
-14,
-25,
-43,
5,
26,
13,
11,
-39,
-49,
1,
47,
29,
-31,
-8,
-40,
-27,
14,
30,
43,
-51,
31,
-37,
19,
44,
-3,
44,
-48,
-23,
27,
-15,
-14,
-25,
33,
22,
13,
-33,
-45,
3,
12,
-27,
-18,
32,
1,
-1,
-16,
-51,
-49,
-25,
-15,
26,
-7,
-14,
55,
22,
40,
-23,
-18,
22,
-33,
-32,
0,
-17,
-37,
33,
52,
14,
-3,
-47,
-19,
17,
26,
0,
-10,
37,
-36,
36,
-19,
1,
-12,
4,
-18,
35,
-5,
37,
46,
-30,
-42,
38,
49,
-39,
-1,
-42,
-46,
15,
15,
15,
-3,
58,
16,
-24,
3,
17,
22,
-34,
22,
-25,
-42,
-28,
51,
45,
47,
30,
49,
-2,
-25,
26,
-31,
-29,
-15,
12,
21,
-26,
-36,
1,
-36,
-40,
22,
-15,
42,
45,
10,
12,
6,
-5,
-10,
-5,
14,
43,
-20,
-28,
-18,
-31,
3,
34,
30,
15,
-46,
-33,
-15,
-11,
4,
-48,
16,
-40,
-33,
-43,
46,
-50,
39,
-2,
-15,
30,
-13,
30,
36,
-51,
19,
12,
11,
7,
13,
-27,
-9,
46,
31,
-6,
-53,
-2,
-41,
37,
-37,
-9,
-17,
3,
49,
2,
27,
35,
34,
-21,
-16,
20,
1,
39,
1,
-24,
32,
18,
33,
61,
45,
58,
11,
-36,
-28,
-24,
-38,
-18,
-34,
-37,
-24,
-55,
-28,
25,
46,
-9,
-6,
37,
-18,
-18,
39,
-40,
12,
51,
14,
19,
-26,
4,
7,
17,
24,
49,
-31,
8,
-33,
-49,
-4,
-36,
39,
6,
-26,
30,
-46,
-16,
-6,
-40,
-29,
-4,
44,
54,
37,
-28,
-31,
48,
21,
4,
10,
-37,
-14,
50,
-14,
-1,
-44,
-31,
-1,
-32,
-6,
21,
-51,
16,
-35,
-26,
20,
42,
-14,
-21,
-47,
-27,
-46,
-12,
11,
-49,
46,
33,
-51,
-25,
17,
-11,
3,
-16,
48,
-24,
48,
7,
14,
43,
-6,
-28,
-7,
44,
-38,
13,
-51,
28,
27,
7,
26,
-3,
25,
-40,
-7,
23,
50,
24,
-42,
36,
-17,
-17,
-53,
-14,
31,
1,
-37,
9,
-24,
41,
-53,
-24,
-53,
-26,
16,
43,
0,
45,
3,
23,
55,
51,
-26,
47,
29,
-28,
-29,
-49,
8,
-47,
17,
12,
-50,
9,
-9,
19,
38,
-54,
56,
38,
13,
-47,
-25,
-22,
-13,
30,
19,
40,
-21,
15,
16,
-47,
-54,
-31,
32,
-53,
-50,
25,
24,
38,
-39,
-40,
26,
38,
25,
1,
12,
47,
-36,
-26,
34,
-38,
-31,
36,
14,
15,
-24,
-3,
46,
-33,
-2,
23,
-38,
49,
-28,
-15,
-15,
-37,
-53,
27,
12,
-49,
-27,
58,
25,
25,
-28,
-21,
-6,
-8,
-35,
5,
5,
-7,
7,
-21,
13,
19,
-22,
-49,
29,
12,
-29,
52,
-23,
30,
32,
-40,
37,
-46,
-27,
-8,
-35,
51,
-11,
20,
-48,
29,
-18,
-41,
6,
23,
49,
-31,
-24,
9,
10,
21,
28,
-13,
25,
35,
-17,
34,
22,
42,
-33,
-29,
-19,
-1,
28,
-33,
23,
-22,
28,
-6,
-49,
-32,
-42,
22,
-38,
-8,
7,
-31,
8,
-57,
-42,
-51,
-19,
-22,
5,
-11,
23,
46,
17,
-22,
-51,
17,
-28,
24,
29,
17,
42,
41,
6,
-44,
40,
-32,
-16,
51,
47,
21,
8,
-40,
-2,
53,
16,
6,
-9,
-17,
32,
4,
34,
-9,
30,
26,
13,
32,
29,
50,
41,
-12,
-38,
15,
4,
-10,
-5,
6,
41,
19,
-16,
-19,
-11,
-18,
49,
29,
48,
1,
16,
22,
-53,
1,
-6,
-26,
-40,
46,
59,
38,
61,
-13,
-2,
25,
-5,
-8,
-40,
16,
-30,
3,
52,
-15,
-16,
33,
-5,
2,
57,
-15,
-38,
-21,
-10,
-20,
6,
40,
9,
-32,
-63,
-42,
-48,
-43,
-70,
-11,
-59,
-59,
-59,
7,
-43,
-30,
63,
10,
63,
-16,
-18,
6,
34,
13,
-50,
-8,
-46,
-15,
-17,
44,
16,
-9,
9,
-14,
21,
21,
15,
-19,
46,
-6,
-29,
30,
40,
52,
18,
-19,
22,
36,
-16,
13,
-41,
-8,
-2,
-35,
-28,
-1,
-31,
-64,
23,
-43,
-19,
-5,
-11,
-55,
47,
-43,
13,
37,
-59,
-11,
-16,
-7,
-22,
-14,
14,
-42,
-32,
1,
7,
29,
-37,
17,
30,
29,
-49,
-20,
-45,
-33,
29,
-8,
22,
-31,
8,
-32,
26,
-23,
1,
-34,
9,
56,
29,
-26,
1,
-7,
-43,
39,
-2,
9,
-24,
-27,
6,
16,
23,
-22,
62,
-3,
-35,
-21,
52,
3,
0,
-16,
-8,
-39,
-38,
34,
47,
52,
-36,
29,
-32,
32,
38,
40,
37,
32,
7,
28,
-31,
11,
-24,
-1,
-45,
-16,
-30,
-20,
-36,
-50,
0,
31,
44,
27,
-31,
-56,
15,
25,
-50,
14,
39,
-2,
-34,
40,
19,
28,
-43,
26,
-41,
46,
-20,
33,
12,
15,
-7,
22,
-22,
-50,
-21,
40,
-15,
15,
-21,
38,
30,
17,
-25,
-42,
-1,
-35,
39,
-54,
21,
51,
26,
18,
-50,
50,
-9,
-49,
52,
-21,
-4,
48,
-36,
-37,
8,
-7,
12,
-44,
2,
-23,
-26,
-48,
28,
10,
-44,
41,
26,
18,
-24,
13,
54,
39,
-39,
49,
5,
25,
40,
44,
-42,
45,
-37,
2,
-28,
-8,
0,
-11,
-13,
3,
50,
29,
27,
18,
38,
-5,
2,
8,
-48,
-45,
4,
-23,
-4,
-15,
6,
31,
-20,
39,
39,
-43,
-43,
-45,
-31,
-23,
-6,
-15,
-18,
-10,
-13,
56,
-15,
-34,
24,
-1,
42,
34,
49,
-38,
34,
44,
-26,
48,
46,
4,
29,
-20,
-49,
14,
16,
-32,
33,
-38,
50,
55,
18,
-30,
28,
10,
15,
18,
40,
-23,
-12,
13,
5,
41,
-21,
1,
8,
-18,
32,
6,
-49,
-7,
-28,
1,
-10,
-56,
-14,
-9,
-19,
44,
-16,
29,
9,
-48,
8,
39,
-38,
-38,
47,
38,
-34,
30,
-13,
-54,
0,
13,
-11,
23,
-40,
40,
48,
32,
12,
20,
-36,
-11,
-3,
-28,
-37,
36,
36,
-47,
21,
24,
55,
31,
45,
-15,
38,
44,
-41,
-35,
17,
34,
-21,
10,
4,
17,
-25,
32,
37,
-34,
2,
1,
18,
50,
23,
-7,
43,
-25,
-18,
6,
-40,
5,
-38,
3,
2,
5,
-47,
-52,
21,
42,
-49,
16,
-41,
0,
46,
37,
-41,
29,
25,
-3,
48,
-24,
-15,
-29,
5,
11,
-9,
-38,
-27,
18,
-42,
-2,
8,
-11,
30,
15,
49,
7,
-21,
49,
20,
-2,
-43,
17,
-19,
43,
38,
-39,
-23,
-31,
55,
53,
10,
53,
-15,
-49,
18,
17,
49,
-3,
37,
29,
34,
-56,
39,
-49,
55,
0,
-45,
11,
-17,
-47,
-21,
4,
38,
-18,
29,
4,
0,
8,
-36,
-46,
-19,
-51,
-26,
0,
-37,
-24,
-11,
-8,
-31,
0,
-10,
13,
0,
-28,
-20,
-3,
-26,
9,
0,
23,
15,
41,
-1,
-38,
23,
-36,
-8,
-18,
-21,
-21,
46,
27,
20,
51,
-45,
6,
28,
34,
-42,
19,
-14,
9,
-4,
-42,
-52,
-39,
16,
15,
-55,
-30,
-10,
-55,
20,
38,
0,
-46,
24,
17,
57,
-12,
-48,
24,
1,
-8,
-26,
-31,
38,
-13,
33,
42,
2,
7,
-8,
32,
-51,
16,
-13,
19,
-5,
-24,
-10,
24,
-41,
-38,
-16,
-23,
16,
31,
-20,
37,
-31,
-36,
-28,
-39,
-39,
-47,
-46,
15,
34,
51,
47,
0,
13,
-28,
8,
-55,
13,
9,
24,
20,
-29,
36,
36,
43,
13,
37,
37,
25,
40,
-11,
33,
10,
29,
49,
9,
-22,
-8,
12,
17,
-12,
40,
28,
-37,
-4,
-5,
-32,
13,
-13,
-25,
-17,
-20,
47,
16,
47,
10,
7,
16,
3,
-47,
-37,
-19,
-5,
23,
18,
46,
18,
-28,
-39,
-40,
-30,
32,
42,
56,
-9,
2,
-11,
2,
18,
-1,
3,
6,
20,
-17,
-32,
12,
-6,
-10,
27,
9,
7,
-27,
3,
-40,
18,
11,
41,
11,
10,
19,
44,
-21,
34,
15,
-33,
20,
-30,
-15,
-24,
-35,
42,
-38,
31,
-43,
-9,
0,
38,
-18,
16,
18,
38,
8,
23,
-30,
-36,
46,
-40,
-11,
-9,
48,
-14,
-43,
-17,
23,
17,
51,
-9,
24,
-56,
15,
22,
30,
-28,
-14,
13,
-37,
-42,
-50,
3,
32,
13,
3,
18,
-33,
6,
-13,
-26,
45,
-40,
8,
-46,
-2,
-23,
17,
-29,
33,
-42,
34,
-37,
30,
-21,
1,
-9,
34,
17,
-46,
4,
-37,
38,
8,
-14,
-28,
17,
-29,
25,
28,
29,
11,
-47,
37,
-18,
-2,
7,
49,
49,
16,
32,
-43,
5,
-41,
22,
-33,
-15,
40,
54,
-28,
-26,
19,
28,
2,
-16,
-35,
27,
53,
-17,
31,
31,
45,
-4,
3,
39,
32,
50,
-16,
19,
34,
-37,
8,
-14,
31,
-26,
9,
32,
-54,
-59,
-28,
32,
33,
-37,
5,
-33,
-29,
40,
20,
-19,
3,
5,
7,
-23,
-36,
30,
2,
17,
-24,
21,
33,
27,
11,
47,
-5,
6,
44,
44,
-13,
54,
24,
-4,
46,
-27,
33,
50,
-37,
-32,
-53,
-11,
-48,
-18,
15,
37,
36,
30,
28,
-26,
-33,
6,
50,
7,
-9,
-40,
-30,
-44,
38,
-13,
-50,
2,
0,
-11,
15,
24,
-53,
-44,
-7,
-53,
-52,
42,
-8,
-30,
-22,
-45,
36,
-16,
-26,
-37,
33,
-6,
-5,
-13,
-25,
9,
40,
-31,
2,
-41,
-26,
44,
-1,
49,
-6,
-28,
-27,
46,
-43,
28,
13,
15,
42,
-3,
40,
-37,
-16,
39,
15,
-8,
-13,
-34,
29,
-4,
-4,
10,
36,
-29,
-8,
38,
32,
-19,
-51,
17,
30,
17,
29,
-48,
21,
-37,
26,
36,
14,
40,
-36,
-48,
-52,
32,
17,
-39,
25,
47,
-58,
34,
11,
9,
49,
45,
19,
38,
28,
10,
-48,
4,
-46,
6,
-1,
-10,
-45,
-40,
31,
19,
23,
-19,
-11,
-14,
38,
-29,
40,
44,
-57,
-1,
-10,
-8,
33,
3,
54,
-26,
31,
-39,
-21,
8,
46,
31,
-39,
9,
-28,
5,
-41,
-13,
45,
-41,
-42,
8,
6,
-8,
46,
-30,
-32,
-40,
-10,
-14,
31,
-5,
15,
-24,
40,
42,
-49,
-16,
-47,
19,
-48,
-28,
52,
-51,
38,
1,
39,
-30,
32,
4,
17,
47,
-41,
-35,
56,
-27,
-34,
0,
-14,
-5,
-33,
21,
-43,
6,
32,
11,
18,
14,
-3,
-7,
-23,
-24,
-27,
52,
-1,
25,
42,
1,
-24,
-32,
-16,
22,
-41,
-4,
22,
44,
17,
12,
37,
25,
25,
-12,
-47,
-16,
-9,
5,
-4,
20,
63,
3,
-29,
-11,
-12,
40,
-27,
0,
-5,
-27,
27,
-18,
2,
-32,
-1,
12,
23,
-6,
32,
-5,
-29,
-26,
-3,
-36,
53,
-16,
-14,
12,
20,
1,
41,
-25,
24,
4,
-38,
-16,
17,
13,
41,
38,
-20,
-16,
-11,
-40,
-15,
-33,
22,
38,
12,
-31,
-34,
-16,
19,
5,
12,
52,
26,
13,
-9,
26,
20,
-47,
-31,
2,
27,
30,
-39,
-59,
-4,
-6,
14,
-16,
48,
11,
44,
-31,
25,
10,
-24,
28,
-50,
43,
5,
6,
24,
4,
22,
33,
-33,
38,
-5,
-14,
7,
42,
-28,
-34,
39,
-19,
22,
-3,
18,
43,
-24,
-23,
28,
5,
-4,
-44,
45,
-1,
-9,
-21,
-5,
29,
3,
45,
-6,
-5,
31,
1,
-3,
24,
46,
17,
39,
36,
16,
19,
17,
5,
44,
48,
18,
-4,
46,
-42,
45,
30,
36,
-5,
-43,
38,
-22,
15,
27,
-51,
1,
-21,
35,
-36,
29,
30,
25,
47,
4,
-52,
33,
0,
-4,
-55,
-14,
-28,
47,
30,
31,
30,
-38,
-29,
-4,
-8,
51,
26,
48,
2,
-43,
-12,
40,
34,
18,
-13,
-47,
-26,
29,
-20,
39,
21,
-10,
41,
-27,
4,
-16,
-35,
11,
18,
-24,
34,
-46,
-50,
-32,
-18,
-6,
-10,
24,
-46,
7,
0,
13,
51,
35,
-28,
-41,
-14,
-29,
18,
1,
41,
8,
-18,
-4,
10,
-7,
44,
-37,
31,
-27,
-38,
-2,
35,
47,
23,
7,
9,
-30,
-4,
7,
61,
48,
-35,
2,
-30,
0,
-34,
20,
-32,
56,
43,
-33,
-46,
5,
-12,
18,
-33,
24,
-43,
-25,
-25,
33,
4,
-40,
-34,
-24,
-54,
6,
19,
5,
-8,
12,
-31,
-22,
8,
55,
-8,
33,
-14,
-7,
-43,
49,
57,
4,
38,
56,
35,
18,
-60,
-52,
-32,
21,
-38,
-40,
-25,
-48,
0,
8,
-31,
34,
-20,
-15,
40,
45,
-6,
-38,
-26,
7,
31,
26,
-23,
-49,
-46,
-17,
1,
-23,
-41,
-10,
-54,
-51,
-52,
-22,
38,
13,
-13,
4,
14,
-7,
-49,
-39,
-42,
-8,
-54,
-23,
-28,
35,
35,
28,
-4,
-23,
7,
-36,
-22,
-10,
-12,
-50,
21,
43,
-29,
14,
-6,
-2,
3,
45,
7,
-33,
-19,
26,
16,
1,
-7,
-20,
-19,
-28,
9,
23,
47,
-6,
8,
38,
26,
9,
18,
4,
-44,
2,
-11,
47,
47,
10,
46,
-20,
49,
48,
-5,
-46,
-16,
-14,
1,
-56,
5,
-22,
-9,
-20,
-3,
-38,
-17,
16,
45,
59,
-29,
33,
-19,
-30,
8,
-35,
-39,
-26,
-19,
49,
37,
-13,
-48,
-45,
-36,
-27,
26,
12,
-26,
30,
-39,
-49,
5,
-36,
8,
37,
-32,
-44,
12,
-52,
41,
-28,
16,
-52,
-42,
-2,
10,
54,
56,
8,
3,
17,
-4,
9,
-43,
-37,
42,
-25,
46,
11,
17,
52,
-25,
4,
18,
15,
-58,
20,
-14,
13,
35,
-2,
1,
-2,
45,
30,
9,
-32,
-30,
40,
36,
28,
-43,
38,
-8,
35,
42,
8,
-22,
39,
-39,
27,
-52,
-19,
-50,
-23,
23,
-37,
-45,
37,
27,
-2,
-38,
-15,
-19,
31,
-19,
-17,
-39,
-27,
26,
34,
7,
-18,
49,
8,
-21,
-20,
-9,
35,
28,
45,
4,
48,
-17,
-20,
-16,
-46,
-32,
-45,
-1,
2,
-12,
-34,
49,
-9,
30,
42,
-35,
-9,
32,
52,
-3,
45,
-34,
-28,
48,
-1,
55,
7,
-19,
52,
47,
6,
-31,
-2,
-25,
38,
2,
18,
36,
16,
-39,
41,
33,
-32,
39,
13,
-13,
-41,
-13,
-56,
25,
33,
-20,
43,
-25,
3,
-42,
-8,
15,
17,
-8,
-29,
32,
33,
5,
-31,
7,
-5,
43,
12,
8,
7,
31,
2,
47,
30,
-38,
2,
-43,
-39,
11,
12,
-4,
50,
-28,
-18,
-6,
2,
-8,
44,
-24,
-29,
4,
50,
22,
36,
17,
50,
36,
41,
-4,
-41,
-23,
19,
38,
-20,
44,
8,
0,
11,
-4,
50,
-2,
29,
-41,
-25,
5,
49,
31,
15,
-47,
5,
-31,
-42,
10,
-30,
50,
-26,
19,
32,
-39,
28,
-6,
33,
54,
-25,
-27,
39,
9,
-6,
36,
-29,
-6,
32,
18,
-37,
11,
-43,
-31,
31,
-17,
-30,
0,
9,
-36,
-39,
-54,
10,
-37,
0,
-15,
-38,
-20,
-40,
-28,
26,
-22,
-27,
53,
15,
-15,
4,
43,
-39,
-24,
-35,
-1,
1,
-38,
39,
-37,
72,
-23,
15,
22,
-27,
53,
-31,
18,
-31,
20,
49,
51,
8,
-25,
51,
3,
34,
-29,
-26,
-45,
46,
6,
-40,
2,
-17,
4,
12,
-36,
4,
-36,
7,
-49,
16,
59,
54,
23,
42,
53,
16,
18,
7,
46,
45,
-25,
-3,
-27,
17,
-52,
25,
-11,
21,
13,
-30,
27,
21,
-43,
60,
52,
39,
0,
23,
-24,
-15,
27,
25,
22,
-49,
44,
-21,
46,
43,
19,
59,
34,
33,
-20,
45,
15,
31,
-12,
38,
46,
-40,
43,
-35,
-36,
-44,
15,
-39,
-20,
-26,
14,
-51,
-24,
0,
5,
-24,
19,
-34,
-44,
-7,
-28,
33,
-36,
6,
31,
-37,
48,
-17,
-9,
-27,
-16,
-17,
-44,
20,
2,
53,
37,
46,
16,
37,
55,
41,
-47,
-13,
-45,
5,
-17,
41,
4,
-4,
-42,
-45,
4,
-30,
-28,
32,
-32,
-28,
35,
16,
-34,
11,
22,
-51,
6,
7,
-7,
45,
-40,
24,
-32,
-39,
41,
-20,
6,
31,
-41,
-42,
20,
47,
-4,
38,
19,
15,
-33,
49,
23,
13,
40,
-51,
7,
-28,
-5,
17,
23,
17,
-35,
-28,
5,
-5,
-40,
55,
10,
-34,
25,
25,
-24,
28,
-31,
19,
50,
39,
30,
-9,
7,
15,
13,
-10,
8,
-21,
-30,
-48,
-43,
-33,
50,
10,
-47,
-27,
12,
-16,
-15,
-20,
-13,
6,
3,
34,
33,
43,
-2,
-23,
0,
-35,
21,
4,
-8,
-38,
30,
33,
51,
-16,
17,
3,
-33,
-33,
27,
-31,
37,
17,
17,
43,
29,
25,
23,
-26,
-26,
-10,
27,
35,
36,
-20,
-10,
-40,
27,
-40,
-27,
38,
7,
-28,
-42,
-43,
35,
-55,
38,
39,
-1,
-7,
33,
13,
43,
35,
-40,
57,
47,
-21,
38,
-17,
-24,
6,
-2,
-10,
-31,
31,
54,
-9,
-32,
0,
-42,
-22,
-7,
44,
-27,
-4,
-12,
-34,
-5,
6,
-1,
44,
25,
35,
22,
6,
28,
-33,
26,
24,
-23,
-2,
-40,
-46,
-1,
17,
-8,
20,
-43,
-32,
35,
-48,
11,
53,
48,
24,
-45,
7,
-19,
-17,
37,
-20,
-40,
-45,
31,
1,
50,
9,
-49,
22,
49,
43,
30,
-36,
-27,
35,
-26,
18,
-2,
21,
6,
-39,
-20,
45,
5,
26,
-28,
40,
-13,
-20,
8,
-21,
-24,
-3,
-2,
-27,
18,
-55,
33,
49,
10,
-6,
-42,
29,
47,
48,
7,
20,
52,
9,
-24,
-49,
23,
20,
46,
-27,
22,
-12,
-10,
31,
-51,
35,
26,
-30,
27,
-16,
3,
-9,
-53,
-5,
26,
-6,
-26,
4,
21,
-16,
-30,
-26,
3,
21,
46,
-2,
24,
36,
-19,
-23,
32,
34,
17,
-37,
30,
-43,
27,
-1,
13,
-56,
-21,
23,
41,
-19,
40,
-10,
-31,
-15,
22,
-14,
38,
-29,
-12,
-53,
38,
-12,
-41,
-3,
-3,
16,
-5,
30,
-16,
-14,
-15,
12,
42,
-5,
40,
47,
-32,
-8,
-24,
23,
-8,
17,
2,
-34,
-37,
-46,
-31,
9,
7,
35,
-46,
5,
-49,
2,
21,
-50,
50,
-14,
58,
-5,
29,
49,
-16,
-11,
21,
-37,
31,
-33,
48,
-28,
-22,
30,
-23,
46,
42,
40,
-44,
-2,
-19,
16,
-39,
17,
-3,
-23,
-46,
24,
-8,
36,
10,
17,
-8,
-3,
-23,
-45,
34,
-33,
32,
-24,
45,
46,
-28,
45,
2,
-20,
3,
11,
17,
-22,
11,
14,
22,
10,
-14,
9,
33,
-13,
-3,
12,
13,
13,
15,
-14,
-9,
-12,
6,
2,
-19,
-6,
-24,
-21,
16,
-15,
6,
-11,
-7,
-5,
13,
-6,
14,
9,
9,
-17,
-13,
-23,
-8,
-5,
1,
16,
6,
-21,
-14,
13,
0,
3,
-16,
-6,
2,
-21,
12,
4,
-17,
-11,
-9,
1,
-11,
18,
-25,
-15,
-12,
2,
0,
-6,
12,
-20,
6,
-16,
-7,
-25,
-24,
-21,
6,
-11,
7,
-18,
-11,
-2,
20,
-11,
10,
2,
8,
11,
5,
-5,
-11,
-1,
9,
3,
11,
-18,
13,
-6,
-20,
-15,
-22,
1,
-21,
-11,
-5,
-17,
-5,
-7,
3,
14,
-17,
9,
-4,
-17,
-10,
2,
1,
-6,
-16,
11,
-1,
-26,
3,
-9,
-11,
-17,
-22,
20,
-23,
18,
-19,
-5,
-12,
-15,
8,
10,
-18,
-14,
10,
-6,
2,
9,
-11,
-15,
5,
-11,
-18,
-14,
-13,
20,
1,
6,
0,
-15,
13,
-6,
-9,
16,
-13,
2,
-22,
9,
6,
-21,
10,
-1,
-14,
16,
7,
8,
-11,
-15,
-15,
6,
6,
-16,
19,
10,
-11,
9,
-12,
4,
17,
-23,
-14,
-3,
1,
-21,
-17,
-5,
-6,
2,
0,
2,
-1,
3,
-4,
5,
13,
-14,
-14,
7,
-20,
12,
8,
1,
-13,
-2,
-21,
-23,
18,
-23,
-22,
-11,
-2,
2,
-14,
-5,
-8,
16,
17,
8,
0,
14,
-18,
7,
-16,
15,
-23,
6,
-22,
10,
1,
17,
-20,
12,
-18,
-14,
6,
-6,
-20,
-22,
-6,
3,
17,
14,
-2,
-14,
-23,
18,
-16,
-7,
-21,
-18,
2,
1,
0,
10,
-1,
-4,
-14,
18,
17,
28,
-3,
-21,
14,
15,
27,
24,
10,
-13,
7,
23,
16,
-11,
3,
-18,
1,
25,
-10,
14,
-15,
24,
17,
15,
9,
6,
-8,
-9,
-13,
21,
-6,
16,
16,
5,
29,
-18,
13,
-20,
1,
-17,
14,
-14,
7,
16,
-15,
19,
21,
-19,
5,
-14,
25,
19,
-16,
-5,
-15,
-9,
1,
0,
30,
-11,
-11,
-18,
-15,
34,
10,
0,
2,
-13,
-6,
21,
16,
28,
7,
-14,
-7,
29,
4,
11,
4,
24,
17,
-1,
-17,
16,
-10,
-19,
13,
26,
-6,
-13,
-19,
-17,
-2,
-8,
11,
-8,
-17,
23,
17,
21,
22,
-11,
-6,
-14,
32,
20,
23,
-12,
-12,
28,
-16,
-10,
11,
-20,
-2,
14,
42,
6,
-3,
18,
26,
-20,
-4,
-19,
-12,
8,
10,
6,
-21,
-9,
6,
-5,
-9,
-14,
17,
-21,
-21,
14,
-17,
10,
-16,
-6,
-14,
16,
11,
-3,
-3,
-9,
-15,
-12,
4,
-7,
14,
0,
-3,
-17,
6,
-24,
2,
2,
3,
13,
4,
-6,
-19,
-24,
8,
9,
-17,
3,
-10,
16,
-11,
16,
13,
9,
13,
6,
4,
-19,
-8,
-5,
8,
-11,
7,
12,
6,
8,
-6,
11,
-11,
15,
-4,
-4,
-23,
18,
-6,
14,
-18,
-22,
-7,
-20,
1,
-3,
-11,
11,
11,
-23,
-22,
10,
-17,
-1,
-9,
2,
-16,
-4,
-8,
-13,
-11,
2,
12,
-3,
-4,
16,
15,
-7,
-22,
2,
3,
-21,
-24,
2,
17,
-23,
-14,
-11,
-20,
-17,
15,
14,
-20,
0,
-22,
6,
-18,
-15,
-14,
0,
12,
-4,
2,
23,
-3,
2,
-12,
4,
14,
20,
-3,
20,
15,
10,
31,
2,
16,
-16,
27,
27,
-13,
-15,
-5,
-11,
10,
12,
-3,
16,
3,
-3,
-14,
7,
-19,
4,
5,
-9,
9,
6,
15,
24,
17,
-17,
27,
-16,
14,
-16,
-14,
7,
14,
-4,
-20,
6,
13,
22,
3,
12,
-18,
5,
-10,
-14,
18,
7,
19,
-14,
21,
29,
15,
21,
-12,
-5,
5,
19,
-6,
18,
-1,
-8,
6,
-13,
-21,
18,
11,
7,
1,
-13,
3,
24,
-16,
9,
20,
20,
-13,
1,
-14,
2,
-16,
-14,
-15,
20,
15,
18,
12,
-6,
-10,
-13,
6,
14,
6,
-13,
1,
-9,
-1,
0,
16,
-16,
23,
-7,
7,
18,
11,
18,
14,
17,
8,
18,
6,
-5,
23,
10,
1,
-12,
6,
21,
-5,
5,
3,
-17,
-4,
4,
12,
13,
26,
21,
28,
-15,
6,
1,
-7,
12,
11,
4,
12,
15,
27,
3,
2,
0,
6,
-10,
4,
-19,
-13,
-13,
20,
-9,
1,
5,
21,
20,
22,
22,
22,
3,
29,
20,
-1,
-15,
10,
21,
-9,
1,
-12,
14,
7,
8,
-5,
-36,
-4,
-16,
-3,
30,
-13,
2,
-17,
-4,
-7,
-4,
-6,
3,
12,
25,
14,
4,
5,
20,
-11,
25,
-23,
3,
11,
-11,
9,
23,
36,
25,
-5,
-8,
1,
-1,
-8,
8,
26,
-23,
19,
17,
13,
9,
-8,
13,
-10,
-7,
24,
20,
-17,
25,
7,
11,
21,
2,
-4,
18,
16,
0,
-5,
26,
11,
-1,
0,
4,
-11,
6,
-14,
4,
16,
0,
38,
12,
13,
-8,
0,
10,
9,
-7,
-16,
-12,
14,
24,
29,
9,
23,
32,
19,
8,
8,
-10,
13,
13,
-13,
-2,
-14,
-12,
19,
22,
-5,
7,
-4,
7,
1,
-14,
-7,
25,
5,
-9,
3,
-21,
1,
31,
38,
3,
11,
-4,
19,
-14,
-9,
15,
6,
13,
-18,
19,
-2,
7,
19,
-23,
9,
-32,
22,
8,
4,
-1,
14,
-13,
10,
27,
-5,
-3,
11,
4,
-2,
29,
2,
9,
20,
0,
14,
22,
9,
9,
22,
-15,
9,
9,
32,
-16,
9,
-11,
14,
12,
-17,
10,
9,
-1,
23,
22,
4,
11,
-21,
19,
-7,
16,
13,
1,
13,
-8,
9,
13,
-8,
12,
-18,
-8,
22,
17,
-17,
11,
2,
27,
-22,
-2,
-11,
-14,
-1,
-18,
33,
0,
23,
-10,
3,
-18,
11,
16,
12,
-8,
7,
-21,
10,
-5,
-20,
-26,
5,
0,
-3,
-17,
16,
-9,
7,
-5,
14,
5,
8,
1,
-7,
22,
-10,
-14,
2,
-8,
-22,
-3,
-7,
-16,
-16,
-12,
-14,
-3,
20,
-1,
-13,
-20,
-5,
2,
-21,
10,
-25,
16,
4,
-6,
-10,
7,
13,
-18,
-11,
11,
-7,
-25,
-11,
0,
-9,
-18,
-16,
2,
13,
18,
8,
3,
-21,
12,
13,
17,
-10,
14,
-23,
-5,
-14,
-24,
-17,
-19,
-1,
-9,
5,
-6,
19,
0,
16,
14,
-25,
-19,
8,
37,
-25,
-10,
-13,
37,
19,
11,
12,
-6,
12,
-14,
3,
-9,
-25,
-16,
2,
-6,
-22,
-6,
2,
-18,
6,
-22,
-4,
-23,
-20,
-2,
17,
21,
3,
18,
-17,
8,
35,
-24,
-18,
5,
-2,
-7,
-22,
22,
0,
0,
-30,
29,
-15,
23,
23,
-1,
26,
12,
9,
18,
-17,
14,
4,
3,
22,
10,
-21,
24,
-1,
25,
-8,
22,
9,
1,
15,
-4,
-13,
16,
17,
2,
21,
4,
-10,
3,
57,
-13,
55,
-22,
9,
-14,
9,
18,
9,
-4,
-18,
-5,
-11,
26,
-11,
5,
19,
-11,
-13,
-4,
-4,
38,
4,
-5,
26,
17,
25,
-2,
24,
3,
-6,
16,
-8,
4,
23,
-21,
-13,
28,
-2,
23,
9,
-14,
22,
4,
16,
16,
-12,
-1,
6,
-3,
13,
-6,
-3,
-24,
24,
23,
-17,
8,
0,
26,
13,
-10,
28,
-2,
-9,
16,
26,
11,
-22,
-3,
26,
-7,
11,
-10,
-7,
-8,
5,
15,
19,
19,
3,
12,
17,
-15,
35,
-4,
40,
-4,
8,
-4,
7,
0,
-18,
9,
10,
-15,
-15,
-19,
-14,
-6,
-2,
-4,
-8,
11,
-2,
-14,
-10,
-16,
-12,
-25,
0,
-21,
5,
12,
-20,
-12,
-21,
3,
1,
-15,
12,
6,
-24,
-4,
-13,
-7,
9,
-4,
-17,
13,
-23,
-8,
5,
17,
19,
-9,
8,
-23,
-7,
-10,
3,
-18,
1,
9,
15,
-7,
17,
-21,
-10,
5,
3,
7,
-18,
11,
-26,
-19,
-5,
-22,
-25,
-24,
15,
2,
-10,
-4,
-23,
-24,
-19,
-25,
11,
-11,
-10,
-23,
1,
-7,
-19,
11,
16,
-19,
9,
2,
-4,
7,
-8,
21,
14,
-18,
-14,
-26,
4,
-20,
-23,
-18,
-26,
-22,
17,
9,
17,
-14,
-13,
-10,
-3,
-19,
0,
-18,
4,
17,
1,
13,
-19,
-3,
-17,
-6,
-11,
-16,
-25,
-12,
0,
4,
-23,
24,
14,
-14,
-3,
22,
-21,
-2,
39,
-2,
18,
13,
18,
17,
-3,
-3,
-13,
5,
20,
-15,
0,
21,
1,
-4,
-6,
-9,
6,
-17,
16,
-7,
-4,
4,
16,
-9,
-18,
-14,
-15,
2,
62,
-20,
32,
-18,
-2,
0,
-10,
1,
8,
0,
13,
10,
25,
4,
22,
13,
12,
-2,
-9,
-15,
13,
31,
27,
-2,
2,
26,
13,
26,
-4,
-7,
-1,
22,
-12,
-2,
28,
11,
16,
5,
-16,
11,
-7,
-19,
17,
11,
11,
25,
12,
12,
-6,
20,
-14,
28,
-7,
-2,
-2,
25,
-19,
-3,
-6,
-9,
-9,
1,
9,
19,
-5,
30,
-8,
-6,
-1,
0,
12,
25,
29,
-12,
-3,
-1,
-21,
12,
18,
15,
3,
-2,
-6,
3,
41,
-2,
26,
-10,
-3,
0,
-24,
10,
-21,
-9,
21,
23,
-2,
-19,
-17,
-6,
5,
26,
-20,
19,
4,
-9,
23,
12,
3,
-18,
-9,
5,
39,
11,
-18,
-22,
13,
19,
14,
-15,
14,
-11,
12,
10,
-22,
4,
11,
-4,
33,
12,
6,
0,
-12,
-11,
3,
-6,
18,
18,
-1,
-20,
9,
17,
-6,
-13,
-8,
-9,
-18,
11,
9,
-25,
-11,
-13,
16,
10,
12,
0,
6,
22,
2,
-1,
9,
-11,
-2,
-17,
-3,
1,
-16,
12,
29,
-21,
5,
-9,
-6,
19,
2,
5,
-7,
19,
-14,
12,
-2,
-3,
-2,
31,
6,
12,
0,
5,
43,
-10,
6,
15,
5,
-19,
8,
-26,
-9,
8,
20,
-7,
18,
22,
16,
-23,
-8,
7,
16,
-1,
4,
12,
-13,
-16,
35,
-2,
18,
-23,
-8,
21,
-9,
9,
-22,
22,
-21,
5,
-15,
-1,
-1,
-25,
4,
5,
26,
-2,
16,
-2,
11,
27,
-13,
-7,
16,
-4,
-4,
6,
-17,
2,
-9,
6,
0,
-13,
-11,
6,
11,
-20,
-18,
-21,
10,
28,
13,
-2,
38,
-12,
9,
19,
20,
6,
-4,
-12,
-6,
3,
0,
16,
-21,
-1,
-10,
-17,
26,
-1,
-4,
1,
-19,
-25,
14,
-6,
23,
-4,
14,
17,
-2,
16,
26,
-6,
23,
-21,
15,
-1,
-6,
33,
5,
14,
-9,
-9,
35,
-13,
19,
23,
16,
-7,
-2,
-10,
-12,
-20,
-16,
24,
12,
-11,
-4,
24,
-5,
18,
26,
-7,
-29,
26,
-10,
22,
-16,
7,
10,
-7,
28,
-15,
-7,
-2,
17,
15,
8,
12,
20,
-6,
-6,
-1,
24,
0,
25,
9,
6,
16,
1,
12,
-7,
-20,
13,
7,
19,
6,
-3,
-18,
-26,
2,
14,
-4,
-10,
9,
-14,
5,
-21,
-23,
-16,
-7,
4,
8,
-17,
-5,
4,
-8,
-3,
12,
-9,
9,
16,
5,
-7,
-17,
-18,
-10,
3,
10,
-2,
18,
-12,
2,
-14,
4,
19,
5,
0,
-11,
-21,
-18,
-22,
14,
-12,
-3,
-23,
-7,
17,
2,
-6,
9,
14,
15,
-21,
-1,
-21,
-16,
15,
-22,
-14,
8,
19,
-24,
-17,
-12,
15,
10,
11,
13,
-8,
14,
-3,
-1,
-9,
7,
7,
-5,
17,
-10,
3,
22,
10,
-9,
-10,
2,
0,
-1,
13,
5,
-16,
-21,
19,
-6,
-12,
-19,
19,
8,
-17,
-22,
18,
7,
-6,
-21,
14,
-18,
9,
-24,
-23,
-22,
18,
18,
-33,
14,
-17,
-24,
8,
7,
16,
-4,
24,
-19,
30,
-13,
1,
9,
-22,
14,
-28,
7,
-12,
11,
19,
-11,
-29,
15,
-17,
0,
15,
-7,
10,
10,
1,
6,
-2,
20,
13,
-11,
0,
11,
15,
4,
9,
-8,
-3,
-24,
-19,
17,
-29,
-19,
11,
-24,
11,
-24,
-12,
-14,
19,
-9,
15,
2,
19,
19,
13,
39,
-12,
-5,
4,
7,
-13,
-11,
-23,
-16,
-7,
-7,
-11,
-11,
10,
-25,
17,
-8,
-2,
6,
-6,
12,
-3,
-7,
-24,
7,
6,
-1,
-20,
12,
12,
12,
-7,
-1,
-18,
-22,
-6,
18,
-17,
-20,
10,
12,
-15,
10,
-1,
16,
6,
-12,
28,
-18,
-15,
13,
-7,
-14,
-1,
-2,
13,
13,
5,
1,
6,
-4,
2,
-4,
12,
13,
-6,
5,
-29,
2,
10,
-20,
-1,
-8,
-25,
-25,
-4,
16,
-18,
4,
13,
-19,
6,
2,
-32,
-3,
-24,
17,
8,
8,
14,
14,
19,
6,
-19,
18,
3,
-13,
-11,
21,
2,
14,
-1,
18,
-19,
2,
3,
-3,
17,
2,
-2,
6,
-3,
-4,
-20,
0,
-14,
10,
17,
-24,
-13,
19,
-12,
17,
19,
-9,
-21,
7,
8,
17,
0,
11,
-22,
0,
2,
11,
-15,
-5,
-18,
-18,
7,
3,
6,
-4,
-3,
-4,
9,
-19,
2,
10,
10,
-14,
14,
-16,
9,
15,
-2,
4,
-25,
-12,
-12,
-24,
-8,
4,
-5,
20,
-23,
-4,
20,
19,
-9,
-23,
-11,
14,
-1,
19,
-19,
-17,
8,
5,
-18,
18,
-12,
-20,
3,
-15,
-14,
-16,
6,
7,
13,
-16,
-8,
21,
-15,
-11,
-14,
-23,
-19,
17,
1,
6,
2,
10,
9,
16,
1,
22,
15,
-4,
19,
-15,
-1,
31,
-15,
-11,
-23,
-19,
12,
13,
-11,
1,
-19,
3,
15,
7,
-17,
15,
-14,
-7,
-17,
12,
5,
-12,
15,
19,
6,
-16,
0,
31,
50,
-13,
31,
-15,
4,
25,
-1,
-20,
7,
13,
14,
-14,
-1,
-4,
-4,
-4,
-11,
-11,
13,
-6,
18,
-11,
4,
3,
-6,
-2,
8,
11,
-9,
-10,
-27,
0,
11,
17,
-22,
-11,
8,
-12,
13,
5,
-18,
-2,
-15,
15,
-21,
27,
-4,
14,
-13,
-21,
6,
24,
-2,
-36,
-15,
1,
6,
0,
16,
23,
-6,
15,
30,
4,
-28,
-13,
13,
14,
16,
6,
-4,
-22,
-10,
2,
2,
19,
-16,
21,
16,
-13,
-11,
-6,
4,
19,
16,
17,
28,
17,
-18,
-18,
-4,
-3,
2,
19,
18,
-9,
-10,
-1,
0,
10,
3,
4,
4,
14,
10,
-3,
-19,
12,
-5,
-19,
-7,
14,
-14,
-6,
4,
16,
-6,
-19,
-13,
-10,
1,
-18,
17,
3,
-19,
9,
-2,
18,
-4,
-3,
-25,
-19,
-3,
17,
-17,
2,
-16,
-21,
-10,
-18,
-22,
-10,
-6,
10,
8,
0,
-8,
-5,
-21,
13,
18,
-24,
-25,
-24,
-8,
-3,
-18,
13,
-2,
-15,
-25,
15,
19,
-1,
-14,
11,
11,
-6,
18,
-20,
-6,
16,
-24,
-10,
-13,
-12,
17,
11,
-24,
-21,
-3,
-10,
-15,
-23,
17,
10,
7,
-8,
-25,
-4,
5,
-9,
14,
2,
-4,
6,
9,
-20,
4,
-22,
-9,
-10,
14,
-25,
8,
-24,
7,
2,
-12,
7,
19,
11,
-30,
-9,
17,
0,
0,
-1,
-13,
18,
2,
17,
17,
-6,
4,
-7,
44,
17,
40,
9,
17,
34,
8,
8,
-11,
-24,
-6,
-3,
20,
2,
11,
9,
-23,
-12,
-10,
1,
13,
23,
6,
-20,
20,
19,
-10,
-1,
23,
15,
41,
-1,
10,
8,
31,
19,
-20,
17,
-4,
-14,
1,
-5,
-16,
-23,
-12,
3,
11,
25,
4,
22,
-21,
-23,
6,
-18,
19,
0,
9,
20,
9,
19,
13,
9,
19,
0,
1,
5,
-22,
-13,
19,
-15,
16,
16,
-3,
-1,
32,
29,
-7,
18,
-18,
7,
9,
16,
-12,
-9,
24,
35,
-8,
14,
-3,
-6,
39,
7,
29,
11,
-14,
0,
19,
-18,
6,
16,
5,
-3,
38,
-20,
16,
16,
-6,
-6,
-7,
23,
-10,
7,
-23,
4,
46,
5,
3,
-1,
18,
16,
-7,
-12,
15,
-8,
1,
1,
0,
-10,
0,
0,
-10,
7,
25,
17,
19,
-4,
9,
-12,
18,
9,
20,
0,
27,
17,
18,
-1,
-15,
-15,
-16,
3,
-15,
-4,
14,
24,
-4,
18,
0,
9,
34,
-10,
31,
0,
-4,
17,
-7,
-14,
8,
2,
-10,
-14,
-3,
-14,
14,
-5,
14,
-5,
7,
-2,
-9,
11,
-15,
-10,
23,
1,
31,
17,
0,
-18,
16,
12,
27,
-17,
11,
-16,
-3,
-14,
-19,
10,
26,
0,
2,
26,
18,
-9,
20,
19,
22,
22,
23,
3,
7,
-21,
1,
30,
-18,
14,
-13,
4,
-8,
-6,
9,
-8,
19,
-2,
18,
-1,
-17,
22,
-1,
-6,
12,
5,
11,
-2,
-7,
18,
12,
24,
5,
-6,
-1,
-1,
10,
-1,
6,
11,
12,
15,
-22,
17,
-6,
-22,
15,
-14,
-10,
16,
21,
22,
-12,
44,
13,
22,
-8,
1,
5,
19,
-13,
-23,
-14,
3,
-26,
-1,
-3,
4,
-17,
15,
-17,
-5,
2,
-17,
5,
-11,
-12,
14,
-8,
11,
24,
8,
60,
22,
-11,
-25,
-17,
4,
9,
9,
7,
20,
-19,
-18,
-8,
19,
-20,
4,
2,
14,
21,
26,
19,
2,
-12,
9,
23,
-1,
-7,
-4,
-1,
10,
-26,
18,
-4,
-17,
-2,
-17,
-23,
9,
-2,
-9,
11,
-3,
26,
-19,
-4,
-3,
-17,
18,
-12,
23,
24,
-8,
17,
-13,
-2,
-18,
-14,
5,
24,
-9,
-7,
-15,
8,
-19,
-20,
-7,
23,
3,
-8,
13,
32,
13,
-3,
-4,
15,
12,
14,
15,
-8,
19,
4,
21,
37,
17,
18,
17,
-13,
1,
-9,
-11,
13,
2,
-16,
0,
-20,
14,
49,
10,
33,
20,
18,
-1,
-18,
15,
-7,
-6,
18,
19,
-14,
16,
-19,
14,
7,
4,
-11,
-15,
23,
0,
-13,
22,
-4,
0,
4,
21,
-7,
14,
24,
-15,
11,
0,
15,
-10,
11,
16,
-3,
1,
10,
-15,
21,
-5,
2,
11,
3,
-17,
-10,
-23,
-17,
-3,
-11,
-6,
-4,
22,
28,
23,
-6,
-16,
3,
6,
28,
-18,
31,
-15,
-22,
8,
-11,
9,
16,
12,
13,
10,
6,
-9,
28,
-9,
-17,
24,
-2,
27,
-7,
9,
-19,
29,
18,
-3,
15,
5,
-22,
8,
-7,
6,
-24,
-4,
-2,
-8,
-21,
-4,
-14,
-18,
-15,
-5,
0,
25,
-16,
-8,
-23,
28,
-1,
-6,
16,
-10,
8,
30,
30,
-14,
-2,
0,
5,
-13,
10,
0,
-23,
4,
-22,
-1,
-25,
-9,
20,
-23,
-8,
-2,
-15,
1,
10,
0,
-24,
-2,
-14,
4,
-19,
-16,
-4,
13,
-9,
-4,
-5,
-20,
-4,
-3,
1,
8,
4,
10,
-7,
-10,
19,
15,
11,
16,
9,
17,
17,
-21,
-21,
-14,
15,
18,
-1,
-19,
-13,
3,
19,
-1,
-17,
20,
17,
-12,
-15,
10,
-19,
16,
-5,
-3,
-14,
-22,
2,
-8,
-16,
15,
2,
-8,
-24,
-15,
-10,
7,
-23,
11,
18,
5,
-22,
0,
-11,
5,
-4,
9,
-5,
8,
6,
-24,
1,
30,
16,
-1,
-4,
7,
-23,
-10,
18,
0,
-4,
-20,
-17,
1,
-20,
-9,
-13,
4,
3,
-24,
5,
-4,
-11,
14,
-17,
-23,
0,
-12,
-12,
-22,
4,
16,
-23,
-18,
-7,
-16,
4,
10,
17,
-22,
9,
10,
3,
3,
33,
-19,
43,
17,
38,
15,
0,
2,
-3,
-10,
21,
15,
9,
-4,
-20,
8,
9,
-18,
18,
0,
9,
18,
10,
-8,
9,
11,
12,
-10,
0,
9,
23,
-15,
31,
22,
-18,
-6,
-8,
-19,
21,
-18,
-13,
-12,
-2,
-15,
-16,
22,
7,
10,
19,
3,
3,
-3,
5,
-21,
4,
-6,
22,
-13,
-11,
-13,
-15,
4,
-25,
18,
9,
-25,
-20,
3,
6,
32,
-1,
12,
-8,
0,
16,
-19,
4,
7,
16,
-19,
-6,
34,
7,
-1,
-15,
31,
-20,
-10,
11,
-2,
-8,
-21,
22,
-1,
6,
6,
-16,
-6,
12,
-10,
-9,
11,
8,
-2,
-12,
7,
2,
-12,
-19,
13,
-6,
12,
3,
-7,
30,
-9,
29,
20,
-3,
-7,
14,
21,
12,
0,
-1,
7,
-9,
-2,
35,
8,
31,
11,
21,
14,
-5,
17,
7,
-1,
-5,
-7,
-19,
6,
32,
6,
1,
-8,
-8,
-8,
9,
2,
-10,
5,
-4,
5,
15,
-8,
22,
0,
64,
6,
24,
-5,
-3,
-14,
-23,
15,
22,
9,
-5,
9,
1,
-20,
-18,
8,
-10,
-12,
-10,
10,
-10,
-11,
19,
19,
25,
21,
13,
20,
26,
10,
5,
15,
12,
16,
21,
-15,
-16,
-4,
-8,
23,
-7,
-23,
-14,
13,
22,
-2,
8,
-3,
-11,
-8,
-9,
-9,
-21,
-14,
9,
35,
-1,
13,
7,
-16,
-8,
-8,
-15,
5,
3,
-14,
-3,
-20,
22,
16,
-6,
19,
6,
24,
-6,
9,
16,
14,
4,
0,
1,
19,
-6,
-6,
28,
-1,
11,
5,
19,
2,
-11,
9,
-6,
6,
30,
10,
-5,
-13,
-7,
13,
-38,
19,
-12,
1,
-22,
-2,
-11,
-15,
6,
-25,
3,
-6,
-17,
13,
24,
7,
-4,
12,
-13,
-18,
19,
-9,
3,
-3,
18,
18,
-21,
-10,
-20,
14,
55,
-9,
0,
-10,
-8,
13,
-21,
-8,
-2,
-25,
4,
12,
-22,
5,
-4,
43,
-26,
18,
-12,
21,
-16,
6,
0,
9,
2,
8,
-10,
-18,
3,
14,
14,
-17,
11,
7,
6,
7,
-5,
0,
-17,
-2,
18,
8,
6,
-7,
9,
-14,
-6,
6,
16,
26,
-20,
3,
12,
-14,
20,
22,
-9,
1,
30,
-10,
14,
-3,
4,
-25,
13,
-27,
13,
-13,
-10,
0,
39,
-20,
-21,
9,
-11,
-13,
11,
-15,
9,
-9,
13,
19,
-9,
-13,
6,
2,
-5,
25,
-10,
6,
-8,
-4,
-9,
11,
10,
23,
40,
9,
34,
41,
10,
9,
-14,
-15,
4,
-19,
18,
-21,
-12,
-6,
7,
34,
-23,
-14,
7,
1,
-1,
8,
-22,
2,
10,
18,
-18,
18,
7,
31,
50,
-14,
11,
-5,
20,
-2,
4,
7,
21,
15,
16,
-18,
-6,
-21,
15,
9,
5,
-2,
5,
7,
-11,
6,
-19,
-14,
11,
22,
0,
24,
1,
-17,
9,
20,
-7,
20,
-10,
-13,
-18,
-18,
19,
9,
-3,
-12,
17,
26,
10,
-1,
14,
4,
23,
2,
14,
25,
2,
-28,
-6,
-3,
4,
-1,
18,
-18,
-20,
8,
30,
-1,
14,
24,
7,
-12,
21,
28,
15,
13,
7,
-1,
-4,
-19,
11,
-2,
-22,
4,
-7,
-14,
-4,
2,
14,
2,
8,
3,
-10,
27,
9,
20,
-24,
15,
-3,
-15,
21,
10,
37,
17,
28,
32,
-8,
23,
7,
4,
-10,
-4,
28,
23,
18,
1,
-9,
10,
-12,
-15,
9,
20,
-12,
-21,
1,
-5,
-11,
1,
-1,
-4,
18,
27,
50,
-8,
40,
15,
9,
-19,
4,
12,
-6,
-1,
0,
19,
21,
-14,
16,
8,
10,
-21,
-8,
24,
7,
14,
2,
16,
0,
27,
6,
9,
12,
-12,
-1,
15,
-13,
-1,
13,
23,
4,
-8,
-8,
46,
0,
15,
6,
20,
12,
26,
9,
-2,
20,
15,
-15,
12,
19,
-3,
-3,
-2,
-16,
13,
10,
-16,
-7,
10,
-14,
22,
-5,
-3,
5,
12,
5,
26,
17,
1,
22,
12,
-5,
-17,
-2,
-3,
-24,
12,
-8,
22,
12,
13,
26,
18,
35,
21,
1,
-1,
-9,
-23,
-6,
7,
-1,
-7,
9,
5,
-2,
-1,
24,
35,
-23,
16,
23,
-15,
27,
0,
15,
11,
-14,
4,
45,
28,
-31,
0,
5,
2,
0,
-9,
-17,
-2,
-8,
-10,
7,
-9,
-3,
12,
-9,
-5,
-23,
-10,
-21,
6,
5,
17,
0,
-17,
0,
2,
22,
-9,
-16,
-4,
-9,
-15,
12,
8,
16,
-41,
-17,
17,
18,
-13,
35,
15,
9,
-12,
-20,
37,
0,
-11,
27,
-13,
23,
13,
12,
19,
23,
5,
-1,
8,
-26,
0,
16,
4,
-13,
-5,
8,
26,
-24,
-23,
-33,
45,
-18,
-2,
-7,
-25,
3,
-21,
10,
16,
-10,
5,
4,
-19,
-3,
21,
1,
-20,
3,
24,
-34,
9,
22,
6,
-16,
24,
15,
-2,
-21,
2,
-7,
-20,
27,
14,
15,
-22,
15,
13,
19,
-2,
-8,
-23,
17,
-5,
-26,
17,
-3,
9,
-7,
-8,
16,
19,
-14,
-2,
10,
-2,
-8,
17,
16,
-11,
13,
-2,
-3,
15,
-5,
-6,
-7,
-23,
14,
-21,
-21,
-1,
-7,
-1,
-2,
19,
-25,
-14,
0,
-23,
-21,
13,
9,
-11,
4,
1,
-6,
15,
-4,
12,
-20,
-13,
0,
11,
-13,
13,
-21,
-12,
14,
-20,
-24,
-9,
-22,
7,
-9,
-10,
10,
-2,
-23,
-25,
9,
7,
9,
-22,
-8,
12,
14,
11,
15,
-12,
-21,
9,
10,
-10,
-5,
-4,
-24,
-15,
-12,
8,
-7,
7,
20,
-8,
-9,
-18,
-5,
-23,
10,
16,
3,
18,
7,
11,
17,
-17,
-6,
6,
-9,
-19,
-7,
-15,
-11,
-23,
-10,
13,
-14,
6,
-19,
-17,
0,
17,
-24,
6,
0,
-22,
-19,
11,
-15,
12,
-16,
13,
-16,
5,
-1,
-22,
-16,
-9,
-4,
8,
-14,
0,
-17,
-14,
11,
-10,
-24,
-4,
-8,
6,
-15,
-3,
-15,
-17,
3,
3,
0,
18,
-2,
-2,
-7,
-27,
6,
14,
-2,
-18,
16,
1,
13,
6,
4,
-10,
2,
3,
-5,
-18,
-16,
-27,
-12,
-8,
15,
-14,
-26,
9,
16,
-21,
-4,
3,
10,
-8,
7,
17,
9,
6,
10,
-24,
1,
14,
-22,
-23,
-22,
3,
17,
-6,
-13,
-2,
-24,
0,
-19,
-19,
-21,
-10,
11,
-1,
12,
-26,
-22,
7,
18,
15,
-21,
6,
-26,
-10,
-4,
7,
-11,
-24,
-26,
-13,
13,
6,
7,
-21,
-25,
17,
11,
-13,
2,
12,
17,
-22,
-15,
9,
13,
0,
-10,
-3,
17,
-22,
6,
-9,
-2,
-16,
12,
-13,
-12,
-6,
2,
1,
1,
-13,
25,
17,
6,
20,
6,
-4,
7,
-1,
-3,
-1,
5,
-17,
-12,
21,
-8,
-1,
10,
-8,
22,
-7,
4,
-13,
10,
-12,
14,
-1,
-6,
6,
48,
19,
40,
14,
-12,
-2,
-12,
-16,
4,
-4,
8,
-4,
-17,
-8,
-20,
2,
-15,
1,
15,
-11,
-5,
-10,
22,
-13,
1,
10,
23,
-3,
18,
12,
-5,
25,
-12,
-9,
7,
2,
7,
25,
-17,
28,
9,
16,
15,
1,
13,
-11,
11,
20,
10,
23,
10,
16,
-2,
-32,
-1,
32,
20,
-9,
19,
23,
-25,
-19,
-4,
1,
6,
16,
18,
-7,
15,
10,
-11,
-13,
19,
28,
-10,
6,
-21,
20,
6,
-1,
14,
9,
19,
6,
16,
19,
25,
-15,
-5,
21,
-15,
22,
-8,
22,
-27,
24,
-10,
29,
36,
6,
16,
26,
1,
-7,
7,
-11,
9,
17,
-14,
5,
0,
-15,
21,
7,
-24,
-8,
6,
17,
-1,
17,
-7,
-16,
-6,
-10,
7,
17,
-17,
-4,
51,
-9,
59,
21,
-9,
17,
-21,
9,
-13,
3,
25,
8,
-9,
13,
-3,
18,
-16,
-18,
-13,
-13,
-5,
-4,
-9,
-9,
-7,
-4,
13,
-13,
20,
15,
18,
16,
6,
-1,
-2,
20,
11,
25,
-6,
6,
10,
17,
-1,
24,
33,
11,
-1,
-5,
-2,
3,
-4,
-10,
-13,
-20,
20,
21,
-21,
-18,
-13,
26,
-1,
21,
-11,
25,
15,
7,
-7,
13,
-12,
-4,
14,
-14,
17,
5,
5,
4,
5,
-8,
7,
-17,
11,
-18,
25,
8,
22,
15,
22,
-5,
-19,
22,
5,
-2,
-4,
-1,
-14,
25,
-14,
-9,
33,
-21,
4,
-2,
12,
13,
11,
21,
27,
15,
7,
4,
-23,
3,
0,
1,
10,
10,
16,
10,
-9,
-2,
-2,
3,
11,
-4,
11,
2,
-3,
32,
57,
-13,
36,
-5,
3,
-12,
-15,
1,
-5,
0,
8,
-4,
15,
20,
18,
17,
-6,
-14,
-2,
-10,
-4,
18,
-16,
-21,
18,
22,
10,
-2,
5,
16,
9,
3,
14,
-22,
-3,
-4,
-17,
1,
16,
35,
1,
-15,
-2,
25,
10,
5,
13,
16,
14,
-7,
7,
19,
0,
-34,
16,
27,
3,
0,
-6,
-12,
-11,
-27,
30,
13,
-4,
-9,
-11,
12,
-18,
10,
22,
-19,
23,
-11,
0,
19,
17,
28,
13,
-17,
5,
-20,
15,
7,
38,
16,
36,
1,
-15,
-10,
-4,
-21,
17,
-14,
-17,
26,
-15,
19,
44,
16,
-2,
49,
-6,
6,
-23,
-19,
13,
14,
-7,
12,
-3,
17,
2,
-4,
11,
-21,
13,
34,
36,
-15,
-12,
-2,
7,
-14,
-11,
-8,
18,
17,
21,
-14,
13,
-3,
5,
-15,
-18,
-7,
1,
17,
8,
-11,
-19,
8,
-2,
11,
-21,
-9,
-13,
-11,
-12,
9,
4,
28,
24,
35,
13,
3,
30,
-16,
-23,
-7,
23,
25,
1,
-17,
-16,
18,
-12,
64,
1,
17,
17,
17,
33,
-18,
5,
-13,
-3,
14,
-6,
23,
4,
-22,
-14,
-14,
8,
10,
20,
9,
30,
0,
12,
-3,
10,
-3,
15,
8,
11,
4,
12,
19,
25,
21,
-22,
0,
-20,
4,
-1,
7,
-7,
11,
-8,
11,
37,
-15,
26,
-14,
10,
-37,
2,
-28,
18,
11,
50,
-25,
20,
-22,
-10,
12,
-30,
15,
-43,
15,
-10,
22,
-33,
-24,
-26,
17,
12,
13,
-41,
16,
0,
-11,
-16,
22,
-7,
35,
20,
9,
6,
21,
20,
3,
-2,
-20,
5,
18,
6,
6,
-17,
24,
-10,
-20,
-7,
-20,
9,
-3,
-29,
19,
-2,
-2,
14,
32,
-29,
20,
4,
-33,
8,
33,
-24,
-40,
-28,
4,
-33,
10,
12,
-35,
-22,
-4,
-13,
-20,
42,
-20,
18,
-39,
17,
14,
8,
-32,
-23,
-31,
-33,
-2,
7,
-3,
25,
-28,
6,
49,
-27,
26,
-21,
23,
-16,
-30,
21,
1,
-20,
-11,
15,
-16,
4,
-5,
5,
-29,
-14,
-20,
3,
-24,
-5,
-14,
-20,
6,
8,
-18,
9,
-4,
-5,
4,
-13,
-34,
-38,
1,
-37,
-28,
34,
7,
-12,
5,
-1,
3,
14,
-7,
-45,
4,
-18,
-32,
-18,
12,
-20,
4,
-14,
-16,
-15,
-17,
-8,
-11,
17,
-16,
42,
1,
0,
26,
-25,
0,
16,
6,
25,
-3,
30,
9,
1,
-29,
-44,
19,
14,
4,
-10,
4,
38,
16,
8,
-13,
-10,
14,
19,
-2,
16,
8,
17,
21,
-23,
-22,
6,
9,
-17,
39,
6,
7,
-2,
-18,
-20,
12,
25,
-29,
-24,
23,
-35,
19,
11,
-10,
19,
-22,
-11,
16,
-18,
-27,
-8,
-17,
6,
-6,
29,
8,
20,
9,
-9,
4,
-1,
4,
11,
20,
22,
8,
19,
0,
-13,
-7,
0,
-21,
-17,
1,
-6,
12,
-12,
-20,
3,
7,
1,
2,
6,
-15,
-7,
-13,
2,
18,
-12,
9,
-22,
-12,
-20,
-2,
2,
17,
-25,
14,
19,
-9,
-5,
4,
16,
23,
6,
13,
27,
35,
2,
7,
18,
19,
6,
20,
21,
26,
24,
-9,
-18,
-8,
9,
-11,
16,
10,
14,
21,
-15,
-3,
5,
-10,
-14,
-1,
0,
-1,
60,
-19,
27,
18,
9,
-1,
-1,
-22,
22,
9,
9,
-12,
22,
-12,
-3,
-17,
-33,
-20,
-14,
-22,
9,
14,
15,
-11,
1,
11,
6,
-6,
37,
5,
-14,
5,
-3,
-7,
30,
14,
21,
7,
-12,
49,
0,
-25,
21,
13,
26,
22,
18,
-6,
4,
-1,
0,
9,
-8,
-29,
14,
12,
-10,
18,
-7,
-7,
19,
-2,
1,
20,
-11,
6,
23,
8,
-17,
-9,
10,
-1,
-4,
4,
12,
-15,
-21,
13,
-12,
-16,
-16,
19,
26,
10,
34,
24,
39,
-1,
-1,
10,
4,
-23,
13,
22,
-18,
-24,
-22,
-18,
-14,
-17,
-25,
11,
17,
14,
10,
9,
-13,
-22,
-17,
7,
1,
-1,
-18,
-14,
-14,
-3,
-8,
-2,
-12,
-7,
-17,
7,
-23,
1,
-25,
-17,
19,
-9,
-7,
9,
-22,
-5,
-5,
-1,
-8,
-19,
-21,
-3,
19,
-14,
-1,
11,
-26,
15,
18,
-14,
16,
17,
14,
16,
3,
9,
-15,
0,
18,
-12,
1,
-12,
4,
3,
14,
-4,
7,
11,
-1,
-24,
13,
-18,
6,
-21,
2,
-7,
-26,
7,
-9,
-14,
-11,
12,
9,
1,
5,
6,
5,
13,
14,
-15,
-3,
7,
14,
-23,
-14,
-14,
17,
18,
-14,
-11,
-4,
-2,
-9,
-18,
-17,
-5,
-2,
-3,
-21,
17,
-17,
-9,
17,
0,
-22,
9,
-16,
18,
-10,
-21,
-20,
-4,
-7,
12,
1,
-14,
-1,
-20,
3,
2,
-26,
-19,
-17,
-11,
-9,
5,
-22,
9,
-20,
16,
-17,
-21,
12,
14,
-13,
15,
0,
8,
-6,
-10,
-13,
-22,
14,
7,
17,
-25,
18,
11,
2,
-15,
4,
11,
18,
-19,
-2,
4,
-26,
17,
14,
-22,
-22,
-3,
14,
3,
-1,
-6,
-25,
18,
10,
-16,
-8,
18,
-12,
-15,
9,
7,
15,
-14,
2,
5,
14,
7,
1,
-7,
-8,
-14,
9,
15,
-15,
-19,
12,
6,
-14,
11,
-28,
-15,
-12,
-5,
0,
7,
-12,
-8,
-17,
-18,
7,
12,
20,
-21,
11,
-11,
-3,
-2,
15,
15,
-14,
0,
9,
2,
-5,
-15,
-20,
-24,
-7,
-13,
1,
-14,
19,
-20,
17,
-13,
-1,
-8,
5,
14,
6,
-19,
11,
11,
-23,
9,
2,
10,
18,
1,
-14,
-11,
3,
5,
4,
4,
21,
30,
19,
-6,
15,
3,
-11,
8,
16,
-11,
1,
13,
-35,
12,
19,
-15,
-4,
11,
26,
17,
-17,
-4,
11,
20,
21,
7,
20,
-3,
33,
-19,
25,
-15,
-16,
7,
7,
5,
15,
-22,
-8,
16,
-22,
17,
7,
-18,
3,
-17,
5,
-8,
9,
28,
14,
1,
-23,
26,
13,
19,
7,
0,
10,
12,
-5,
3,
-3,
13,
24,
-7,
16,
38,
23,
-2,
10,
-11,
34,
-18,
-26,
5,
-16,
4,
-10,
6,
1,
3,
-19,
11,
0,
-18,
17,
3,
-20,
-19,
13,
17,
2,
-5,
-23,
16,
-11,
-10,
10,
17,
29,
4,
19,
-1,
4,
0,
-17,
4,
-12,
13,
-15,
-17,
10,
16,
-8,
-6,
-5,
-3,
8,
24,
10,
-5,
-26,
-13,
-5,
8,
3,
4,
-3,
27,
2,
-1,
-5,
18,
-13,
-1,
9,
-1,
1,
19,
11,
5,
7,
-12,
-7,
15,
10,
14,
0,
27,
16,
-2,
-9,
7,
-19,
1,
49,
0,
55,
-9,
27,
-13,
-8,
15,
-4,
9,
-1,
-12,
1,
15,
17,
14,
0,
0,
12,
0,
3,
21,
13,
0,
20,
7,
-2,
11,
-6,
14,
17,
12,
3,
3,
21,
-13,
-5,
-3,
-22,
5,
-9,
15,
18,
-12,
9,
22,
10,
13,
7,
-5,
-10,
23,
-17,
-31,
12,
2,
4,
14,
-13,
-9,
-14,
-13,
2,
20,
-2,
19,
-9,
8,
-18,
1,
8,
-7,
43,
12,
16,
26,
10,
1,
10,
25,
-20,
-4,
15,
-1,
2,
-4,
7,
15,
16,
-2,
-29,
-2,
7,
-9,
35,
-5,
8,
12,
28,
5,
31,
3,
-24,
16,
20,
11,
30,
17,
9,
11,
-20,
-4,
23,
12,
-37,
1,
6,
-15,
-13,
-19,
4,
-29,
-2,
4,
1,
-18,
-2,
3,
-14,
-27,
-29,
3,
-9,
20,
13,
12,
9,
14,
12,
-17,
19,
-1,
-7,
-9,
15,
4,
-1,
-9,
-11,
-7,
-16,
-18,
-15,
3,
22,
9,
22,
-18,
-22,
3,
1,
-12,
-9,
-10,
8,
15,
-1,
-3,
24,
-25,
-13,
7,
-11,
11,
-8,
14,
17,
-1,
-14,
22,
-19,
-23,
10,
40,
2,
-3,
-2,
-27,
40,
-21,
5,
-5,
11,
-2,
17,
-11,
-8,
-22,
19,
0,
-17,
13,
6,
-6,
18,
16,
-5,
25,
17,
-3,
-6,
13,
9,
17,
-12,
-13,
12,
-14,
-11,
-7,
7,
1,
-26,
25,
-10,
12,
27,
-17,
7,
8,
7,
-8,
16,
-7,
-7,
17,
13,
6,
2,
25,
-2,
-16,
-25,
6,
11,
2,
-12,
-20,
-14,
17,
6,
-8,
-21,
15,
1,
35,
26,
-22,
41,
15,
22,
24,
15,
10,
-14,
25,
-7,
19,
12,
-10,
-1,
-7,
19,
2,
10,
-12,
8,
33,
-6,
15,
11,
22,
19,
18,
-12,
9,
-22,
8,
26,
-15,
-7,
-5,
-2,
6,
-20,
27,
-1,
-13,
3,
13,
22,
-12,
20,
6,
-7,
23,
5,
23,
19,
-12,
22,
11,
18,
2,
10,
15,
-16,
23,
7,
10,
-20,
-1,
17,
-10,
3,
24,
-17,
3,
15,
21,
-3,
-19,
-14,
11,
-19,
-16,
1,
6,
-11,
-5,
28,
-7,
0,
-2,
21,
-11,
-3,
-17,
0,
16,
27,
-15,
-20,
-15,
-23,
30,
-14,
9,
8,
6,
5,
12,
-12,
3,
-4,
5,
6,
19,
-19,
3,
-3,
-15,
-14,
9,
0,
-11,
15,
17,
30,
-14,
-6,
7,
14,
-2,
-8,
15,
50,
-9,
-22,
-23,
-2,
7,
20,
14,
-13,
4,
17,
9,
-2,
-11,
0,
29,
-8,
-4,
14,
11,
-12,
21,
12,
3,
-15,
-17,
9,
1,
0,
-31,
-15,
-12,
0,
19,
8,
10,
-1,
-15,
-14,
-7,
21,
9,
34,
-8,
3,
-2,
26,
-19,
2,
-36,
9,
0,
-9,
-16,
23,
33,
16,
-6,
16,
-7,
1,
4,
32,
-24,
-10,
-9,
-17,
-18,
1,
12,
32,
-11,
9,
20,
1,
-16,
-12,
11,
-2,
-18,
14,
10,
-23,
-25,
-11,
-2,
-7,
-4,
15,
17,
17,
9,
2,
24,
0,
24,
26,
-22,
18,
16,
-2,
14,
-19,
14,
-13,
-1,
-21,
18,
6,
20,
13,
-13,
4,
15,
-18,
-12,
-1,
-17,
-4,
26,
14,
-16,
-11,
18,
-5,
-1,
40,
-7,
50,
0,
20,
8,
10,
3,
-6,
-20,
-3,
-15,
-19,
-17,
-7,
-21,
2,
-6,
16,
-23,
19,
30,
20,
12,
6,
5,
27,
-13,
21,
20,
1,
-3,
-14,
0,
26,
3,
-3,
-4,
-4,
30,
8,
1,
-12,
11,
28,
-23,
21,
15,
1,
-3,
20,
31,
7,
9,
15,
17,
-1,
0,
14,
-9,
-16,
19,
-7,
13,
-5,
-9,
-2,
1,
2,
-18,
-20,
0,
42,
-11,
-9,
2,
17,
16,
-6,
-3,
-18,
22,
15,
9,
-2,
20,
4,
5,
9,
5,
-15,
18,
13,
2,
-29,
-6,
-20,
-3,
-11,
-5,
-12,
26,
-9,
-16,
-12,
-3,
15,
22,
27,
0,
5,
4,
14,
14,
11,
15,
20,
3,
22,
-14,
-2,
-4,
-6,
5,
-20,
-11,
-2,
15,
51,
-18,
40,
10,
-7,
5,
-10,
-1,
-12,
-4,
-6,
23,
8,
-19,
4,
8,
-7,
-30,
0,
-18,
-7,
9,
-12,
-23,
-9,
-10,
10,
11,
19,
23,
9,
-3,
3,
-9,
19,
12,
10,
-11,
17,
-7,
14,
-22,
20,
-9,
-4,
14,
24,
0,
11,
24,
-17,
18,
8,
-26,
17,
29,
17,
-16,
20,
22,
0,
1,
22,
-12,
-17,
17,
18,
2,
20,
15,
16,
22,
30,
21,
22,
5,
18,
16,
-11,
16,
3,
-8,
20,
9,
29,
11,
18,
17,
-3,
21,
-15,
-1,
0,
16,
-2,
29,
-12,
10,
24,
16,
29,
16,
-7,
-16,
5,
-16,
0,
-10,
17,
3,
-18,
17,
-16,
2,
20,
11,
-18,
4,
3,
8,
22,
22,
-1,
15,
-22,
20,
13,
-3,
34,
-12,
21,
9,
-1,
11,
-6,
17,
-9,
-1,
-4,
5,
-6,
-13,
-20,
11,
5,
-25,
17,
4,
-6,
9,
9,
14,
-15,
-8,
-7,
-14,
7,
13,
4,
19,
11,
2,
-11,
25,
20,
8,
3,
25,
26,
-2,
-2,
-7,
22,
13,
-14,
10,
8,
14,
11,
6,
5,
-26,
14,
-8,
-20,
-17,
-13,
5,
12,
-2,
22,
-1,
17,
22,
17,
12,
-15,
26,
-17,
-12,
-1,
0,
14,
8,
-19,
27,
18,
15,
-20,
13,
9,
1,
-4,
28,
11,
-14,
20,
10,
3,
15,
3,
-5,
-11,
21,
-1,
-14,
1,
-22,
24,
18,
18,
3,
7,
-13,
21,
9,
-13,
-15,
-22,
-7,
11,
3,
-15,
6,
-18,
6,
15,
8,
-5,
-9,
7,
16,
-7,
-2,
-3,
9,
-3,
-20,
10,
-11,
18,
14,
-4,
-11,
1,
-6,
-15,
21,
-4,
-3,
-17,
1,
6,
19,
-8,
13,
-1,
11,
2,
-3,
8,
-9,
24,
-21,
-17,
22,
-13,
-16,
-17,
22,
-1,
-16,
-7,
-8,
-16,
-7,
14,
5,
13,
2,
-11,
-8,
-17,
-19,
-22,
4,
10,
34,
-2,
-9,
-3,
23,
-4,
-10,
-6,
-24,
-23,
-8,
7,
-15,
3,
-14,
21,
-19,
9,
-12,
-8,
-19,
-21,
-22,
-3,
19,
10,
14,
5,
-10,
-11,
-7,
-23,
11,
7,
-12,
14,
-1,
11,
-17,
31,
-10,
12,
21,
15,
-23,
-22,
21,
-32,
0,
0,
-22,
13,
5,
8,
5,
-2,
10,
-22,
4,
-5,
23,
18,
-13,
22,
-4,
13,
-3,
-14,
17,
14,
23,
11,
-8,
10,
3,
20,
-3,
-10,
8,
-25,
-14,
18,
21,
11,
-13,
17,
10,
-17,
5,
21,
-12,
4,
13,
-6,
36,
19,
24,
-18,
2,
18,
26,
-8,
13,
5,
-2,
13,
13,
4,
-16,
-15,
-16,
-16,
8,
16,
-8,
2,
12,
5,
-10,
20,
11,
-7,
10,
-21,
14,
8,
-3,
-4,
8,
6,
7,
12,
-9,
-8,
22,
23,
-1,
2,
-9,
-17,
12,
24,
-16,
11,
2,
1,
-9,
-23,
-17,
11,
-6,
-2,
-13,
-4,
-12,
6,
-23,
4,
-20,
-15,
1,
-19,
-9,
2,
2,
4,
17,
-2,
-13,
-12,
14,
4,
16,
20,
-1,
22,
-6,
10,
29,
-9,
4,
23,
-9,
27,
-11,
10,
-7,
6,
7,
13,
0,
-9,
-22,
6,
23,
-12,
-11,
9,
14,
9,
19,
3,
-3,
-18,
-8,
24,
8,
57,
22,
25,
4,
17,
8,
-15,
-1,
-18,
25,
8,
23,
-2,
16,
13,
-13,
5,
15,
-1,
30,
11,
-12,
-4,
0,
29,
21,
-4,
-21,
10,
7,
-11,
8,
8,
20,
3,
-2,
-6,
-1,
14,
2,
16,
-12,
10,
-10,
-13,
-18,
-16,
21,
-6,
10,
9,
-4,
13,
-3,
20,
-3,
-11,
19,
-21,
-11,
20,
11,
-12,
5,
-1,
12,
4,
13,
23,
-12,
-1,
2,
-5,
-12,
21,
25,
17,
-10,
-1,
-18,
-5,
22,
23,
18,
-2,
14,
18,
-12,
14,
9,
-17,
-17,
3,
-25,
-16,
6,
-5,
-3,
24,
16,
19,
14,
-23,
-9,
8,
11,
-8,
9,
-4,
0,
14,
15,
-18,
-14,
5,
11,
-8,
17,
-5,
-14,
-5,
-22,
4,
-24,
18,
-8,
38,
-20,
17,
-13,
9,
10,
-24,
-22,
3,
-4,
-2,
4,
-8,
16,
-1,
-17,
5,
-23,
-14,
5,
-12,
-23,
8,
3,
4,
5,
-18,
-13,
-14,
22,
-13,
-17,
-11,
-1,
6,
14,
14,
0,
18,
10,
9,
-21,
-1,
-8,
13,
-14,
14,
5,
18,
12,
-3,
39,
2,
-10,
-12,
32,
10,
13,
-4,
-24,
3,
0,
-17,
2,
-5,
16,
-2,
-14,
14,
-2,
-7,
8,
45,
7,
-2,
15,
-10,
17,
-16,
-3,
18,
9,
-8,
11,
55,
-23,
-4,
-21,
-8,
5,
-13,
-4,
8,
-1,
-35,
13,
-22,
-2,
33,
14,
3,
0,
21,
-21,
15,
17,
18,
15,
11,
-11,
-10,
17,
22,
7,
3,
-21,
18,
-12,
-6,
20,
-5,
-10,
3,
23,
19,
3,
17,
29,
37,
-22,
34,
-8,
14,
-14,
-15,
-18,
-17,
20,
-20,
4,
-11,
-7,
-6,
8,
17,
-19,
6,
1,
22,
19,
2,
12,
-12,
19,
29,
-8,
16,
10,
-22,
16,
26,
4,
5,
-5,
-17,
14,
-24,
3,
-5,
-24,
24,
-1,
2,
9,
15,
19,
-7,
0,
-18,
-10,
-7,
-10,
-9,
5,
8,
3,
14,
14,
5,
-9,
21,
-17,
3,
-8,
10,
-17,
-4,
19,
-5,
17,
6,
28,
25,
-10,
-5,
1,
-12,
12,
-19,
-14,
-1,
-18,
-7,
18,
0,
19,
-10,
9,
8,
-18,
-27,
1,
-24,
22,
8,
17,
44,
11,
23,
20,
-2,
19,
-4,
16,
-9,
-5,
-4,
19,
-4,
-20,
26,
16,
13,
3,
6,
14,
-11,
17,
-13,
0,
-16,
-10,
14,
-4,
-1,
34,
63,
-25,
17,
6,
27,
-1,
-11,
-14,
6,
8,
3,
3,
-11,
-10,
-8,
5,
9,
0,
-11,
-1,
-3,
23,
25,
-22,
-5,
-5,
10,
-17,
19,
-10,
-16,
14,
5,
18,
31,
-17,
1,
13,
10,
14,
-1,
-4,
9,
19,
18,
7,
-11,
-11,
-12,
-18,
20,
5,
-15,
-23,
11,
4,
-19,
-23,
5,
3,
-30,
-17,
-7,
13,
2,
10,
-2,
-11,
10,
2,
3,
-4,
6,
14,
23,
24,
-6,
13,
-20,
-10,
20,
3,
-8,
11,
26,
18,
30,
3,
-12,
-12,
18,
21,
-21,
18,
-28,
24,
16,
30,
38,
-17,
4,
20,
22,
21,
2,
13,
-8,
5,
20,
8,
18,
-16,
-10,
13,
-3,
-19,
12,
3,
12,
2,
-20,
-12,
-17,
22,
-13,
22,
-6,
19,
67,
-16,
20,
3,
-10,
15,
10,
16,
-2,
-12,
-17,
-10,
23,
-2,
1,
-8,
-16,
4,
0,
-11,
23,
33,
19,
14,
-8,
19,
7,
5,
19,
-8,
19,
11,
23,
5,
-9,
-10,
-21,
16,
-18,
10,
9,
-24,
-9,
-9,
33,
24,
14,
-10,
20,
25,
-6,
30,
8,
-28,
-3,
-5,
7,
11,
-22,
-5,
-2,
21,
-4,
1,
-4,
-4,
-7,
-2,
-7,
-2,
7,
2,
5,
21,
21,
0,
-4,
-16,
-20,
3,
-3,
7,
-8,
-1,
23,
32,
40,
-10,
1,
-5,
-7,
13,
-14,
-5,
-34,
-9,
-22,
5,
-19,
-17,
-8,
15,
-6,
15,
-16,
15,
-4,
-18,
21,
-17,
-18,
9,
3,
5,
17,
-18,
-12,
6,
-8,
-5,
-10,
-7,
14,
-7,
5,
14,
18,
16,
36,
-10,
0,
-10,
-21,
17,
-25,
-19,
-8,
-23,
-20,
-14,
0,
-23,
-20,
-17,
-19,
-4,
-1,
4,
17,
-12,
-10,
4,
18,
5,
2,
5,
-25,
-15,
-17,
-13,
-18,
-20,
5,
5,
-6,
-6,
-3,
11,
-20,
12,
8,
-7,
22,
3,
-12,
17,
4,
15,
-10,
-16,
15,
-11,
9,
3,
11,
-22,
1,
15,
-11,
16,
12,
8,
17,
-8,
-8,
11,
-17,
-19,
15,
-22,
-11,
3,
1,
-17,
-6,
15,
-18,
15,
-6,
-8,
-24,
-9,
22,
-14,
-18,
-4,
13,
-9,
20,
19,
20,
-13,
-18,
-24,
-4,
-17,
8,
0,
18,
-23,
-22,
-7,
3,
17,
-5,
16,
-10,
-6,
-11,
-12,
-12,
-24,
-5,
-8,
-18,
-19,
-25,
-7,
-20,
17,
-9,
4,
-19,
-1,
-24,
4,
11,
-25,
10,
3,
-18,
-13,
20,
-14,
20,
2,
8,
-14,
4,
2,
15,
-27,
-10,
-2,
-19,
4,
12,
11,
-14,
7,
-19,
12,
-22,
-24,
5,
-2,
2,
16,
19,
10,
-23,
-5,
0,
-25,
16,
13,
-14,
-6,
-16,
6,
3,
-11,
9,
-8,
-1,
13,
-13,
-23,
9,
-19,
6,
-12,
15,
-3,
-10,
-19,
13,
-17,
3,
15,
-20,
-22,
-1,
-11,
-20,
12,
-24,
-10,
-21,
3,
-1,
6,
9,
-4,
-9,
17,
-2,
5,
-22,
-25,
-13,
-15,
4,
-13,
-1,
17,
-11,
1,
-1,
15,
6,
-4,
12,
-5,
-8,
-13,
-40,
14,
-19,
-26,
-14,
2,
-6,
7,
9,
10,
-23,
5,
6,
-16,
-5,
3,
-1,
8,
15,
18,
3,
9,
6,
-15,
11,
-6,
5,
-20,
12,
1,
-1,
-20,
-7,
-11,
17,
-24,
-6,
-15,
-19,
5,
-19,
7,
-1,
-16,
-5,
-2,
-14,
-16,
-17,
1,
-23,
10,
11,
17,
14,
-17,
-13,
17,
-7,
-21,
-14,
12,
-17,
4,
-24,
11,
3,
11,
-4,
9,
14,
-6,
-24,
-20,
10,
-18,
-24,
-23,
-14,
-2,
-25,
-14,
17,
-9,
-8,
6,
-19,
-22,
0,
3,
-26,
17,
-14,
-1,
13,
5,
3,
-24,
-24,
5,
-5,
10,
7,
-22,
4,
-21,
-15,
3,
-5,
-14,
3,
12,
-36,
17,
9,
-6,
-25,
-9,
6,
-11,
-8,
-9,
56,
24,
-18,
3,
50,
-11,
25,
24,
7,
4,
-19,
-6,
13,
-2,
18,
7,
2,
10,
5,
-11,
-21,
-18,
-2,
-18,
8,
5,
18,
-1,
7,
10,
-6,
-9,
-22,
-5,
31,
-12,
25,
6,
13,
-3,
-4,
16,
4,
11,
-11,
-16,
19,
16,
-6,
-3,
-19,
20,
-18,
13,
-20,
-19,
20,
-14,
-13,
22,
7,
7,
17,
6,
-19,
26,
13,
-13,
-11,
-4,
8,
15,
6,
34,
27,
3,
12,
18,
34,
5,
23,
16,
16,
-11,
-9,
23,
-21,
1,
8,
28,
-8,
-10,
-17,
-14,
36,
-10,
13,
20,
-10,
19,
-12,
0,
-18,
2,
-14,
23,
-2,
11,
-15,
7,
0,
0,
-7,
15,
-2,
2,
-6,
-16,
26,
21,
33,
-11,
5,
12,
15,
8,
-2,
-7,
-10,
-14,
-23,
7,
3,
-20,
10,
21,
23,
-8,
0,
25,
14,
24,
-2,
-14,
-12,
4,
-1,
-6,
17,
-21,
3,
9,
-1,
7,
2,
-13,
-13,
-6,
-24,
16,
24,
3,
39,
4,
28,
-13,
-8,
28,
13,
21,
16,
2,
19,
5,
4,
-8,
19,
-5,
6,
-33,
14,
-9,
-4,
2,
15,
-4,
11,
-6,
-4,
12,
-2,
-20,
-12,
-11,
13,
4,
30,
-8,
-15,
15,
-7,
33,
6,
-4,
-7,
21,
2,
14,
21,
-15,
-18,
-8,
11,
1,
4,
-9,
6,
3,
1,
13,
12,
9,
-26,
12,
0,
20,
5,
2,
14,
-7,
5,
5,
7,
11,
28,
-3,
27,
0,
22,
12,
0,
-2,
-10,
-22,
-9,
0,
35,
21,
22,
-18,
20,
21,
-12,
19,
-19,
-11,
-16,
-15,
-1,
15,
20,
20,
29,
0,
8,
15,
-18,
2,
17,
-9,
25,
-11,
-14,
-13,
6,
13,
8,
-11,
23,
-8,
24,
8,
-5,
22,
11,
-16,
15,
25,
-16,
11,
22,
15,
50,
17,
17,
-3,
2,
-16,
14,
-5,
5,
5,
10,
-13,
-1,
6,
-14,
-28,
-7,
-18,
26,
33,
18,
-17,
5,
10,
24,
9,
-8,
1,
-20,
23,
20,
-4,
-13,
5,
14,
-8,
11,
26,
-13,
11,
17,
-6,
45,
-6,
23,
-14,
22,
-1,
-17,
25,
4,
-8,
19,
16,
7,
-16,
-20,
-6,
-13,
-15,
11,
1,
-5,
6,
14,
-3,
2,
2,
16,
1,
27,
-4,
22,
8,
4,
16,
-20,
14,
22,
14,
19,
-14,
43,
12,
-8,
26,
21,
3,
19,
6,
16,
-20,
-32,
13,
0,
-7,
4,
11,
20,
0,
1,
1,
1,
-12,
24,
-9,
21,
-8,
-22,
9,
-6,
18,
-8,
2,
19,
-12,
-3,
14,
21,
8,
19,
18,
14,
1,
22,
4,
43,
-9,
41,
14,
24,
4,
17,
15,
11,
-3,
16,
23,
21,
10,
18,
-20,
7,
-35,
17,
2,
-3,
31,
3,
8,
17,
-2,
-10,
5,
-8,
-13,
9,
13,
2,
-5,
-8,
-4,
1,
-5,
-22,
-3,
-17,
-12,
10,
-6,
35,
15,
-13,
8,
-7,
22,
18,
20,
-7,
-9,
-10,
12,
22,
-4,
-13,
-7,
-18,
17,
-9,
18,
11,
20,
1,
0,
7,
0,
13,
9,
23,
-4,
18,
-1,
13,
2,
-24,
1,
-5,
-11,
2,
-5,
17,
1,
2,
13,
-16,
-10,
-8,
3,
-24,
11,
-13,
17,
0,
6,
5,
-5,
-8,
21,
17,
16,
-20,
2,
-1,
8,
9,
3,
-3,
-2,
9,
-6,
-6,
11,
17,
4,
3,
1,
13,
6,
-13,
-14,
10,
-8,
10,
-7,
54,
6,
26,
-17,
4,
16,
18,
-1,
-2,
22,
7,
26,
24,
-12,
-15,
-10,
-1,
5,
-12,
11,
19,
8,
-13,
-20,
9,
15,
17,
17,
21,
-20,
8,
23,
-4,
-11,
-12,
-18,
10,
14,
-14,
-5,
-19,
18,
10,
9,
11,
13,
8,
12,
7,
-7,
-10,
17,
8,
3,
-14,
23,
-21,
0,
-18,
-7,
-21,
23,
28,
-7,
-4,
-13,
-15,
-8,
2,
-16,
1,
7,
8,
6,
8,
26,
-19,
-11,
11,
12,
21,
18,
-14,
-2,
-7,
17,
30,
-14,
-9,
18,
3,
-7,
-2,
-15,
-3,
10,
6,
8,
13,
-18,
30,
16,
14,
4,
-19,
9,
28,
20,
8,
11,
6,
4,
17,
11,
7,
-14,
0,
18,
21,
-13,
10,
-10,
9,
11,
-11,
19,
17,
29,
44,
9,
37,
-12,
15,
-9,
9,
-11,
-10,
-14,
-4,
18,
10,
3,
16,
12,
-7,
-35,
23,
-19,
-15,
-4,
-10,
-14,
6,
-3,
29,
-16,
-11,
-21,
-22,
15,
-9,
-1,
-4,
-2,
-8,
22,
-10,
1,
18,
19,
23,
1,
27,
-8,
3,
5,
-10,
0,
13,
16,
26,
-21,
-3,
-11,
11,
-9,
-21,
7,
-11,
-8,
19,
-11,
10,
26,
17,
-4,
17,
-12,
23,
-1,
8,
7,
25,
-3,
17,
9,
-15,
-13,
22,
21,
17,
26,
5,
-4,
7,
-7,
-3,
4,
0,
18,
-10,
23,
9,
17,
13,
4,
18,
17,
-15,
3,
-14,
0,
-17,
-9,
-12,
-24,
24,
-9,
-5,
-3,
2,
-17,
3,
-15,
-15,
-12,
-21,
14,
12,
23,
-17,
-13,
8,
-4,
0,
-18,
-23,
-13,
-10,
14,
3,
19,
22,
18,
-15,
12,
14,
-7,
-8,
10,
-1,
-10,
-7,
-9,
10,
12,
17,
4,
-17,
25,
5,
10,
-21,
-10,
6,
-19,
-26,
1,
22,
15,
8,
-9,
11,
-15,
22,
12,
-35,
26,
-2,
-27,
-19,
28,
-35,
5,
-14,
-35,
9,
14,
20,
-29,
12,
20,
-9,
17,
23,
-28,
-6,
-9,
-26,
21,
-1,
-15,
18,
15,
9,
-15,
-32,
-11,
-12,
-12,
-23,
14,
-9,
-38,
-28,
-41,
14,
-6,
-20,
-29,
9,
-35,
-38,
-11,
12,
-22,
-17,
15,
-28,
24,
20,
20,
31,
33,
-11,
22,
23,
21,
-5,
-13,
-17,
12,
3,
7,
32,
-21,
11,
9,
6,
23,
25,
-12,
8,
-10,
-14,
-23,
14,
1,
-16,
4,
-13,
7,
34,
-18,
2,
37,
24,
25,
-6,
11,
5,
4,
25,
-5,
-4,
26,
12,
-26,
-2,
24,
24,
24,
-14,
-12,
14,
29,
28,
14,
23,
-24,
6,
-9,
-3,
10,
-30,
-3,
-15,
9,
-31,
-24,
-26,
19,
18,
23,
29,
6,
2,
5,
0,
1,
-31,
22,
-24,
15,
11,
4,
5,
4,
-18,
-20,
-22,
-25,
9,
-4,
-4,
6,
5,
-5,
-18,
-26,
20,
-33,
10,
23,
13,
-6,
-10,
15,
-22,
4,
-13,
11,
-13,
-28,
-16,
16,
9,
-27,
-26,
-12,
-9,
-15,
16,
0,
-11,
-5,
13,
-25,
-35,
-29,
11,
0,
-31,
16,
15,
-32,
17,
-4,
0,
24,
22,
5,
-18,
22,
21,
-7,
-28,
18,
-16,
-22,
-35,
11,
10,
-16,
-35,
19,
-1,
25,
-16,
26,
-35,
-17,
16,
6,
25,
0,
-27,
-26,
-10,
-8,
-21,
24,
-21,
0,
16,
3,
-2,
7,
-19,
-34,
7,
-27,
-30,
-27,
21,
-25,
22,
24,
9,
-15,
-25,
-23,
23,
-17,
0,
10,
-2,
12,
-17,
33,
-19,
-15,
-23,
28,
-9,
-5,
20,
3,
31,
14,
6,
-18,
-27,
21,
5,
48,
-30,
11,
14,
21,
21,
11,
-48,
-14,
37,
-20,
-16,
38,
1,
5,
7,
18,
5,
29,
4,
-8,
-13,
0,
-1,
26,
18,
27,
31,
31,
-25,
5,
0,
27,
1,
13,
0,
-34,
0,
-5,
-22,
27,
-30,
-31,
-26,
-33,
-9,
-23,
23,
13,
13,
24,
-29,
-22,
24,
20,
1,
15,
3,
-5,
-13,
4,
-29,
28,
-34,
-27,
21,
-21,
-21,
-12,
-32,
-5,
-10,
-10,
-22,
-24,
-8,
-7,
-36,
-27,
20,
-35,
-10,
-23,
27,
19,
11,
-21,
-31,
-10,
15,
-2,
-21,
-31,
24,
2,
17,
-33,
-1,
25,
-35,
-31,
-25,
-12,
1,
18,
-9,
28,
29,
26,
-27,
18,
31,
30,
-26,
-5,
-12,
2,
18,
7,
17,
-17,
-6,
19,
-5,
7,
-17,
41,
3,
38,
0,
9,
32,
-11,
33,
1,
-18,
-24,
13,
-27,
15,
-2,
31,
52,
24,
-25,
16,
-22,
7,
-14,
21,
-2,
17,
14,
22,
23,
5,
-17,
17,
6,
-2,
6,
30,
24,
-1,
-12,
32,
22,
-25,
2,
-21,
-4,
-24,
-22,
-19,
-3,
16,
-23,
-9,
11,
12,
4,
-22,
3,
14,
-23,
-17,
9,
5,
25,
14,
25,
-22,
-2,
-1,
-4,
-3,
20,
-15,
-2,
-15,
3,
13,
-1,
20,
-19,
26,
17,
25,
-25,
27,
21,
24,
23,
-10,
-4,
5,
12,
-26,
-4,
-26,
-19,
-8,
2,
11,
27,
-9,
-4,
15,
8,
35,
10,
7,
-21,
15,
13,
13,
4,
-9,
15,
11,
2,
-26,
17,
-15,
23,
17,
24,
0,
1,
29,
-14,
-19,
30,
33,
40,
24,
17,
15,
-12,
17,
31,
-1,
-2,
-48,
-22,
5,
33,
10,
-12,
1,
13,
14,
14,
-19,
15,
24,
4,
-26,
21,
-25,
20,
4,
-4,
-3,
11,
-14,
11,
26,
4,
-17,
24,
24,
29,
-7,
-30,
-8,
24,
10,
29,
19,
-30,
-28,
-2,
-15,
-17,
7,
-2,
29,
-13,
18,
-10,
-15,
32,
6,
36,
-21,
-11,
-22,
30,
17,
12,
34,
-18,
-23,
32,
-6,
28,
10,
4,
-23,
-6,
32,
17,
-7,
21,
-6,
2,
7,
25,
34,
35,
-4,
4,
-26,
-1,
3,
-20,
33,
-9,
-25,
-4,
-4,
-25,
21,
5,
-17,
0,
-30,
5,
-4,
-7,
-3,
-20,
18,
-28,
-3,
19,
3,
-27,
29,
-22,
-16,
17,
-22,
-2,
7,
15,
-26,
28,
22,
-20,
-3,
-14,
-23,
25,
21,
6,
23,
-35,
-2,
-21,
12,
0,
-41,
-2,
10,
-12,
-8,
-26,
23,
-35,
-22,
-29,
-19,
-21,
6,
23,
-1,
2,
21,
-38,
-1,
12,
3,
-18,
-15,
-22,
26,
-18,
-10,
-2,
-26,
-26,
-24,
2,
-25,
-30,
-22,
-17,
-11,
-26,
6,
-8,
-25,
12,
5,
2,
29,
-9,
16,
-19,
-21,
5,
-19,
7,
-33,
-15,
26,
-4,
15,
26,
-14,
-12,
-10,
-20,
-4,
12,
15,
19,
29,
-19,
-27,
-35,
14,
10,
-11,
22,
-27,
-10,
-5,
7,
24,
-23,
28,
25,
5,
-24,
8,
2,
-16,
26,
-30,
-16,
-16,
-12,
21,
-6,
2,
-32,
-26,
16,
-13,
7,
-27,
-25,
13,
19,
0,
-32,
-23,
-14,
12,
-29,
-24,
-35,
-28,
20,
-15,
-14,
-2,
-9,
-16,
-3,
-19,
18,
-6,
10,
0,
21,
10,
-20,
-32,
5,
-14,
-25,
22,
19,
-20,
4,
20,
-23,
-10,
-30,
-33,
21,
8,
-25,
-7,
-20,
-9,
-9,
7,
1,
-25,
11,
-3,
-21,
-23,
5,
13,
-23,
-7,
-36,
-31,
23,
10,
-21,
-9,
-11,
30,
-5,
-14,
-3,
-5,
44,
7,
-10,
-16,
49,
-23,
3,
45,
7,
38,
-8,
45,
33,
-6,
-27,
-17,
18,
8,
0,
-23,
25,
36,
-12,
11,
8,
23,
5,
-27,
13,
16,
-7,
-36,
16,
10,
12,
20,
-2,
32,
-15,
25,
28,
20,
3,
33,
-19,
2,
31,
6,
20,
28,
19,
-7,
9,
29,
12,
-21,
33,
34,
22,
23,
24,
-16,
-5,
17,
14,
17,
5,
-28,
22,
-17,
-22,
39,
16,
20,
-4,
14,
11,
25,
8,
31,
-3,
34,
40,
-3,
-26,
8,
29,
-18,
-2,
14,
18,
33,
11,
3,
7,
-4,
-23,
-6,
-25,
28,
6,
8,
-1,
-12,
-19,
0,
22,
-14,
-16,
22,
-10,
22,
28,
28,
-33,
0,
-31,
-8,
-5,
-17,
-2,
-12,
7,
-3,
16,
20,
4,
4,
-18,
-23,
18,
15,
2,
17,
14,
19,
-16,
1,
-38,
-39,
11,
-21,
22,
-34,
-34,
-35,
12,
-23,
-31,
-12,
-9,
-33,
20,
14,
21,
13,
-31,
-19,
-19,
-37,
17,
-18,
1,
-19,
21,
11,
13,
12,
24,
8,
1,
-14,
18,
-39,
14,
-11,
-5,
-24,
-19,
4,
-18,
6,
-1,
-31,
11,
-17,
-19,
-15,
8,
-34,
-27,
10,
-13,
-9,
-32,
-2,
12,
-18,
-1,
-2,
-13,
22,
4,
0,
-4,
-4,
14,
-4,
2,
21,
17,
-20,
-30,
-27,
-25,
-35,
19,
-32,
28,
-35,
-31,
14,
-3,
-20,
7,
-26,
-23,
-34,
-22,
-33,
20,
-17,
3,
-18,
-12,
18,
1,
9,
5,
-31,
18,
24,
6,
24,
-17,
-27,
-28,
-7,
-7,
-20,
-18,
-12,
28,
-4,
24,
1,
9,
16,
-31,
-17,
-26,
25,
10,
-13,
-28,
16,
-2,
-21,
-25,
-18,
6,
-29,
-6,
15,
12,
3,
1,
-2,
11,
23,
7,
13,
20,
-27,
-19,
15,
4,
-21,
8,
-31,
-17,
14,
-6,
-27,
7,
1,
-7,
-32,
-14,
1,
-20,
1,
-27,
22,
21,
16,
-8,
-34,
-17,
-7,
-34,
22,
5,
21,
-34,
-19,
4,
-3,
-22,
21,
10,
-4,
27,
-35,
-32,
1,
26,
15,
-23,
20,
14,
-3,
17,
3,
-3,
-13,
-21,
-24,
-7,
-33,
11,
-16,
-34,
-26,
20,
-21,
-4,
-25,
-11,
12,
4,
11,
-6,
-30,
-5,
16,
3,
2,
1,
23,
13,
-8,
-22,
22,
-21,
-26,
6,
-25,
-28,
-26,
2,
-20,
23,
-8,
-18,
-23,
-15,
29,
-25,
-32,
6,
10,
-30,
-14,
25,
-16,
10,
-19,
-31,
-33,
22,
8,
5,
9,
9,
16,
22,
24,
8,
0,
2,
-31,
10,
8,
12,
-8,
24,
1,
-10,
-6,
-15,
-10,
23,
8,
-7,
-4,
4,
-23,
-23,
25,
-7,
6,
-19,
-26,
4,
15,
-31,
-34,
-16,
14,
-32,
20,
24,
-10,
-5,
-4,
24,
-4,
0,
-17,
-8,
-17,
-6,
-10,
-2,
3,
-31,
19,
12,
20,
18,
1,
12,
8,
16,
-19,
8,
-7,
5,
4,
-29,
-17,
-26,
-16,
3,
0,
17,
-24,
5,
16,
-28,
-28,
4,
-20,
1,
-23,
-2,
-35,
18,
-28,
-35,
-23,
-7,
26,
-1,
-15,
-31,
8,
-1,
-12,
-14,
-3,
12,
-26,
-15,
8,
-25,
-3,
22,
20,
-29,
-19,
1,
17,
-17,
-32,
-6,
17,
-20,
-32,
-1,
24,
-29,
4,
17,
-3,
-20,
-16,
-24,
-1,
-19,
-2,
-10,
-27,
28,
5,
13,
15,
9,
-11,
-12,
-27,
-31,
-35,
-15,
27,
-33,
-24,
-28,
-26,
22,
-29,
-27,
-23,
5,
-14,
-26,
23,
1,
-27,
-17,
17,
9,
-23,
-20,
-16,
8,
-30,
26,
-1,
8,
6,
17,
-14,
-19,
-28,
19,
-8,
-8,
25,
-15,
-18,
-21,
15,
-1,
-22,
13,
8,
-14,
0,
-37,
-31,
-16,
12,
-13,
18,
-45,
16,
-40,
-11,
25,
-18,
-21,
10,
-25,
2,
-13,
-5,
-24,
-22,
-30,
-13,
24,
11,
-32,
9,
22,
24,
-3,
2,
16,
25,
-7,
-13,
18,
-16,
21,
23,
3,
-33,
17,
8,
0,
-1,
12,
16,
-26,
-28,
11,
-19,
-33,
23,
-30,
-14,
-26,
24,
-9,
-19,
23,
27,
14,
22,
-32,
-34,
14,
-13,
10,
27,
-12,
-21,
26,
-21,
-21,
22,
-5,
-21,
6,
-21,
-3,
-36,
-14,
-4,
2,
-8,
21,
12,
14,
10,
-16,
-33,
-24,
-24,
4,
21,
24,
22,
-1,
17,
-4,
11,
-24,
27,
10,
-5,
-18,
0,
-9,
-26,
-17,
-10,
11,
-18,
20,
-15,
22,
4,
4,
7,
7,
23,
5,
-9,
6,
-16,
20,
6,
23,
-3,
3,
-9,
-11,
7,
23,
-9,
36,
-7,
13,
28,
-2,
19,
-1,
26,
23,
-35,
-36,
22,
11,
-1,
-3,
-10,
-10,
12,
-25,
-1,
27,
21,
23,
4,
-16,
20,
29,
14,
26,
-20,
-25,
-4,
20,
23,
-5,
-11,
20,
3,
-3,
-33,
-9,
12,
25,
-3,
14,
-1,
-32,
-4,
-17,
-9,
-19,
21,
-31,
-23,
-15,
23,
-12,
7,
11,
21,
-11,
3,
-22,
-7,
-32,
-33,
3,
-28,
13,
17,
5,
6,
-37,
-18,
-28,
-44,
10,
3,
26,
-15,
-27,
-34,
-4,
-24,
-1,
15,
22,
-11,
-27,
-22,
14,
2,
-5,
-36,
13,
17,
-2,
-12,
-21,
-6,
-5,
3,
-5,
28,
16,
5,
-32,
-20,
8,
-24,
4,
5,
-27,
3,
-8,
21,
-11,
25,
25,
-14,
2,
-13,
22,
10,
-3,
17,
-33,
-11,
3,
-36,
25,
0,
25,
-14,
-3,
-13,
-16,
-26,
16,
-1,
6,
15,
11,
-5,
-27,
4,
-15,
8,
-25,
-7,
-17,
-34,
-34,
26,
-5,
-32,
-1,
-5,
24,
27,
-13,
-23,
-23,
-14,
-22,
24,
-15,
14,
9,
5,
11,
21,
8,
11,
-33,
-5,
-9,
22,
10,
23,
22,
-17,
2,
28,
8,
13,
10,
-18,
5,
-24,
22,
-1,
20,
-30,
-32,
1,
-7,
-19,
12,
-26,
22,
-34,
5,
-39,
4,
29,
-6,
2,
-16,
-21,
-31,
15,
-5,
6,
-29,
-30,
-34,
-21,
-9,
-10,
6,
-18,
29,
-17,
-35,
20,
-25,
-3,
-8,
-11,
3,
-29,
33,
-18,
22,
-16,
-4,
3,
-8,
-11,
-22,
-15,
5,
-6,
-1,
11,
1,
-27,
-6,
13,
17,
20,
5,
27,
-19,
-23,
0,
3,
35,
-15,
-19,
1,
12,
-24,
-1,
-42,
0,
9,
-25,
-17,
7,
-6,
-14,
-6,
-25,
-1,
0,
6,
9,
-2,
29,
-7,
19,
16,
-2,
-19,
-23,
13,
21,
23,
-10,
28,
33,
-1,
-13,
-7,
-26,
21,
5,
15,
22,
-13,
1,
27,
-24,
32,
20,
-7,
-24,
20,
21,
-12,
19,
11,
41,
19,
8,
-29,
26,
32,
4,
-2,
-5,
-4,
21,
5,
-26,
12,
-18,
23,
9,
-15,
25,
4,
-10,
28,
32,
25,
-19,
-24,
-29,
22,
24,
-19,
13,
11,
-12,
3,
-19,
-7,
15,
7,
-1,
9,
-5,
-23,
-29,
3,
-27,
-22,
4,
0,
-18,
1,
12,
-15,
-15,
3,
5,
8,
19,
-4,
7,
-21,
-7,
21,
-34,
-25,
-30,
23,
-6,
27,
-16,
-12,
18,
-36,
-34,
-25,
-2,
-34,
2,
23,
-4,
-10,
-31,
-2,
0,
4,
-13,
-24,
-20,
18,
-22,
-1,
-10,
-17,
-6,
20,
20,
-9,
-11,
-23,
-20,
-8,
22,
1,
-32,
-12,
-32,
25,
-1,
-12,
17,
-27,
-5,
6,
25,
28,
6,
-27,
11,
-14,
23,
-36,
-6,
0,
39,
18,
-30,
10,
-10,
-4,
37,
-35,
-12,
24,
23,
19,
-23,
11,
-47,
-21,
-17,
-1,
16,
-1,
17,
21,
53,
-12,
-12,
9,
36,
11,
18,
-21,
47,
24,
9,
-10,
-17,
34,
15,
27,
27,
-14,
25,
-9,
-24,
32,
11,
10,
6,
-22,
27,
15,
20,
-4,
-28,
4,
-4,
-4,
-22,
34,
-16,
1,
-3,
-18,
15,
2,
2,
-26,
15,
-25,
21,
-31,
-39,
-3,
-39,
25,
32,
-21,
20,
-16,
13,
-20,
-6,
4,
14,
18,
-37,
6,
40,
40,
25,
3,
36,
26,
-26,
2,
-39,
15,
10,
-23,
14,
35,
-35,
-36,
-15,
9,
-35,
-5,
37,
-31,
-9,
-6,
27,
-1,
38,
-23,
18,
-4,
42,
-18,
-14,
43,
-32,
12,
27,
-2,
42,
-39,
-2,
-20,
46,
47,
-38,
-16,
-30,
-22,
17,
8,
-32,
-21,
-26,
8,
-31,
-32,
-33,
40,
36,
-18,
14,
-1;
