FFDD
0011
0009
001F
FFFE
FFFF
0021
001E
000B
000D
FFFD
FFCF
FFE5
FFEA
0018
0028
FFEA
0004
0011
FFE9
002C
002A
FFFB
FFD5
000B
0017
000E
000E
0014
0030
FFEA
0037
FFFD
0008
0021
FFD6
0006
0016
FFF8
FFF3
FFEA
000F
0013
FFD2
FFE2
0004
FFF4
FFD6
002D
001E
FFEC
0006
FFFD
0034
0019
FFDD
FFE4
0020
000F
001C
FFFB
001B
0006
0026
001C
001E
FFE2
001F
002A
0004
001C
FFD6
FFE0
001A
FFF3
FFFE
FFF9
002C
FFFD
FFE6
FFE9
FFD0
000C
FFFE
002B
0013
FFF2
FFE3
FFF0
FFCF
FFED
FFDF
0006
FFF2
0028
0025
001E
002C
0036
FFFB
FFFF
0008
000C
FFDC
002D
0002
0007
FFEE
0026
0020
FFE2
0014
002E
FFEC
FFE3
0011
FFCE
FFFD
0032
0013
0022
0020
FFE1
001D
0035
0009
FFED
0027
FFF7
FFF6
0003
FFE7
0036
000D
FFEC
0036
FFE1
FFE3
FFD3
0026
FFD2
0003
0003
0024
FFF7
FFF4
FFDD
FFD2
FFF4
0007
FFEB
FFF2
0026
0020
001E
0002
FFFB
0001
000A
FFD2
FFFB
FFCD
FFE4
FFFF
FFE0
0019
0016
FFD9
001B
0005
FFFD
002B
000D
FFE2
0020
FFF3
0004
0008
FFEA
FFEB
001F
0027
0008
FFF2
0037
0036
FFEE
0002
FFEC
002E
FFDD
001D
FFD4
000A
0004
FFF8
0015
FFEC
FFD9
FFE0
FFD1
FFD9
002C
FFEA
FFD0
0026
FFCF
0014
FFD6
0034
FFF2
FFDE
0010
0021
FFEE
FFDA
FFD8
FFEC
0003
FFCF
0013
0001
FFCE
0031
002A
0010
0003
FFCE
0001
0001
FFFB
FFDB
0027
FFF1
FFDC
0011
002C
FFE3
FFEF
0002
FFFC
FFFE
FFDB
0011
FFCC
FFF8
002B
FFCC
FFD1
FFF7
0019
0017
FFE6
002B
FFF4
0025
0017
0014
FFD3
FFDF
0020
FFF8
FFE5
001E
0028
0014
FFEA
FFF6
FFCB
FFD2
002A
0006
0020
FFE0
FFEA
FFF1
000C
FFDA
0017
0005
FFD0
FFE3
FFE7
0003
FFF6
FFDE
FFD2
FFF8
FFDA
FFF2
FFD0
FFDB
0025
FFF3
0027
0014
FFDC
FFE0
FFF7
FFFE
001D
FFD1
FFEA
002C
0025
0020
0004
0028
0004
0027
FFCC
0016
0009
0025
0013
FFFF
0037
FFE6
0008
FFEB
002F
0016
FFDC
001E
FFFC
0008
FFFA
FFDC
0004
002D
001C
0010
002A
0010
0023
0027
FFEB
0005
FFDA
0011
FFE7
002F
FFE4
FFF7
0033
0001
000A
000D
002A
002B
0025
FFCF
FFFE
FFF9
000D
0021
0010
FFD5
0006
0022
FFF5
FFE8
000D
FFD1
FFF1
FFF8
002F
FFD1
FFEA
000A
0016
002D
FFEF
0020
FFDC
FFE9
000F
FFEB
FFFF
FFF7
002C
FFF8
0021
000D
002F
0036
FFF7
000B
FFED
000D
000D
000B
0034
0002
FFD7
000F
FFD5
002B
FFE9
0002
FFFE
FFD1
0009
FFE9
001D
002B
001F
FFCA
FFF2
000C
FFE7
FFD2
FFE8
0030
0010
0014
FFED
FFF3
FFDF
000E
FFFB
001E
0012
0003
000B
0016
FFDE
FFF2
FFC6
FFEF
0015
001A
001F
FFDC
FFF6
FFDE
FFDC
FFEA
FFD8
FFDF
FFF9
FFFD
FFDA
FFEA
0029
001B
0034
FFE0
0003
FFCE
FFEC
0000
FFD7
FFCC
FFEB
FFD7
0017
0028
000E
000E
0014
FFFF
0004
0008
FFD1
FFCE
001E
FFD4
FFD6
0023
0028
FFD6
FFCD
001E
0008
0030
FFE0
FFCE
0019
001A
0019
000D
FFF3
FFE4
0010
0031
0035
0013
001E
001C
FFD7
0013
0027
002A
FFE1
FFCF
FFF4
0001
002A
001C
FFC0
FFF6
001F
0000
0026
FFD4
0002
FFD0
0032
0027
000F
FFE4
0020
FFF8
0034
FFED
0002
FFD5
000C
0024
0018
FFF6
FFE4
000C
0017
FFF9
0029
002B
0016
000A
002B
FFF3
FFF6
FFF9
000D
0032
002D
FFEE
FFDA
002B
0020
FFF7
FFE1
FFEE
0036
0020
FFD6
FFD7
001C
FFFE
FFD3
0029
FFE5
000A
0021
FFED
FFDD
0021
FFDF
000D
0003
0002
FFFD
FFFB
002F
0010
FFFC
0000
FFDE
FFE4
FFDD
0018
FFF2
FFFE
FFEA
0028
FFE5
0022
000D
0011
000C
0024
0023
FFD0
0005
001B
FFDE
0021
0032
000B
FFDE
FFF4
001F
002D
FFEC
FFC9
0001
001D
0026
FFDB
000C
0026
FFCF
0015
FFEC
FFD7
FFF9
0027
0023
FFE6
0001
FFDF
0019
FFE0
FFF5
FFF5
0011
0014
FFCA
FFF5
001F
0013
0027
FFFB
0018
FFE7
0035
FFDE
0024
FFE8
FFE9
0035
FFCF
FFE6
0032
FFFA
FFEA
0022
0020
FFEA
0003
000C
0030
FFD4
0018
0030
0034
FFFF
0017
FFD9
000E
0015
FFEE
FFD6
002B
0032
FFD1
0004
FFF2
000E
0014
001D
FFEA
FFFF
FFFE
FFDD
0016
0006
FFFF
FFEE
FFEE
0005
002D
FFFE
FFD2
FFCA
FFEA
0003
0004
002C
0014
FFFC
FFD9
002D
FFF8
FFDE
FFE1
FFE6
0023
FFE2
FFE8
0022
0007
FFE8
FFD6
FFF2
003D
002B
FFDC
FFED
000A
0011
0020
FFFC
FFD4
FFEF
FFE7
0020
0008
FFE0
FFFF
FFE8
002F
FFF1
FFEF
002A
FFCE
FFFC
FFF7
FFF4
FFD4
FFCD
0019
FFEC
0030
0032
FFEE
FFCF
0024
001C
FFDD
FFD5
FFDF
FFEF
FFE6
FFFE
002A
FFEB
0017
FFD8
001E
0001
000B
FFEE
0029
FFCF
0003
0008
FFDD
000D
0033
001A
0000
FFF1
002E
FFCD
FFF3
0022
FFF2
002F
001B
0003
0024
FFEA
FFE2
FFED
000E
FFEA
FFF8
000A
0009
FFE9
FFE6
FFF8
FFF2
FFF7
0003
FFFB
FFEC
FFF5
001D
FFEB
0017
FFE3
FFF5
0021
FFD7
0039
FFDA
002C
FFE7
002D
0025
0019
FFEC
000A
0028
FFED
FFFE
0012
000E
000F
FFD3
FFE2
0000
FFD3
FFD3
FFED
FFD2
FFF9
0007
0037
FFE9
001F
0034
FFD6
FFFA
FFCF
0006
0015
FFCD
FFD2
FFE3
FFCD
0019
FFCE
FFFE
0021
FFDD
FFE4
FFFC
FFDA
0030
0013
FFFC
FFD4
0017
001F
FFD2
FFD8
FFE0
FFE0
FFE3
0025
001E
0009
001A
002D
0015
000C
FFDD
FFDD
000D
FFFD
0031
000B
FFCA
FFFA
0028
FFF2
FFCB
FFF7
001F
FFCD
FFF0
0024
FFFD
0003
FFE6
FFD6
FFD5
FFF1
FFF0
0019
FFD2
FFF1
002E
FFE4
0017
FFF5
FFF1
001F
FFFA
FFF5
FFED
FFF8
FFEF
000E
002A
0006
FFE3
FFF8
000C
0030
FFE1
FFF2
FFF7
FFD6
0031
FFD2
FFD2
0009
0034
001F
002C
0003
FFFA
FFDC
0011
FFE9
0005
0013
FFE9
FFFB
FFD3
0026
0015
FFEC
FFF2
0000
FFF5
000C
001B
FFE6
FFE1
FFD5
0013
FFE4
0001
000F
000F
0028
002F
FFE8
001F
FFE2
FFF1
002D
FFF4
FFE3
FFE3
FFE3
0000
001D
FFE2
FFE1
FFF3
FFEF
FFFD
0006
FFD0
002E
FFF0
0009
FFD1
001F
0028
FFFB
FFD0
FFFF
FFCC
0028
0017
FFDE
FFE8
FFE7
0009
FFF7
000D
0025
FFFF
FFE0
0000
0025
0008
000A
001A
001A
0015
0003
002D
FFEF
FFF6
FFD1
FFDC
FFD2
0017
0028
FFD0
FFD7
000C
FFE5
0007
0030
000A
000C
000A
0005
000E
FFD5
FFCF
FFE9
FFE6
FFF7
FFF4
0026
0009
0021
001F
FFDC
FFFF
0019
0007
FFE9
FFDF
FFF7
FFE3
FFF2
0024
FFD3
000D
0010
FFD6
FFE5
003C
000A
0038
FFEA
0002
0031
FFF5
FFCD
FFF2
0016
FFE0
FFEE
002A
FFF2
FFE5
0003
0036
0017
000A
001B
002D
FFF0
0030
0033
FFE1
FFD8
FFE1
002F
FFF2
FFD9
002A
0033
000F
000C
FFE6
FFF6
0013
FFE9
0020
000D
FFF3
FFE3
FFDF
002C
001D
0031
000C
0035
000B
0018
0021
0005
0027
0023
FFE3
0025
FFCA
0020
0021
000E
000B
FFF3
FFD6
0012
FFFC
FFE7
0028
FFF9
0027
FFFF
FFD5
000C
FFE5
FFFA
0022
FFE7
000B
FFFB
FFF5
000D
001A
FFD8
FFE9
000F
0023
0005
002E
FFE6
0030
002B
001D
0002
FFCD
FFD8
0022
FFD1
0013
0027
0010
FFF1
0013
FFE3
0030
002D
FFFB
FFD8
000F
0026
0027
000A
FFEA
FFCF
0022
FFEF
FFF2
0015
FFD7
0008
FFE3
0017
FFF7
FFD5
0015
0033
FFD8
FFEE
FFF0
0019
001A
0005
FFEA
000D
000D
0026
FFD8
0032
001E
0007
FFED
FFD3
0033
FFE9
0007
0009
0025
0018
0025
0008
FFDC
0027
0013
FFCE
0035
FFF8
0009
0033
FFEE
0013
FFFE
FFFC
FFE5
FFE1
0017
0008
0018
FFCC
FFE6
0014
FFF3
0018
FFF7
0009
FFE4
FFE3
FFE9
0017
0005
FFE4
FFF0
FFEF
000A
000A
FFCF
0019
FFF0
FFF9
FFE0
0014
FFD6
FFFD
FFFA
FFDD
FFF7
0033
FFD6
FFFF
FFCE
0031
FFD2
0020
002B
FFF9
FFEA
0006
FFFB
FFFA
001C
FFFE
FFE9
0031
0002
002C
0011
000F
FFF8
FFFE
0026
0015
002A
0020
FFE7
0009
0004
0032
0000
FFEC
FFFE
0029
FFDE
0033
FFDF
FFF0
0013
0005
FFE9
0028
FFF3
FFEA
FFFA
001E
FFFD
001D
FFD1
001D
001C
FFE0
FFF3
0012
FFF0
000A
FFDB
FFF5
FFF7
000B
FFCF
FFE5
001C
FFFA
FFE9
002D
002E
0025
FFCD
FFEF
FFED
0017
FFE0
FFEA
0025
FFDC
0011
FFF9
0023
0015
002E
FFE3
0002
FFFA
0037
0015
0018
FFF2
001F
FFFB
001D
FFD3
FFF6
0013
0038
0000
FFD2
FFFE
0020
001B
FFD4
0017
FFCA
000A
0020
FFDC
000B
FFE6
FFEF
FFE0
FFDC
000A
0019
000C
0025
0010
FFF6
FFD8
FFD4
FFF4
002A
FFD1
0018
0019
FFFE
0006
FFD9
FFFE
0017
0025
0033
FFDB
0029
FFDE
0020
002B
0025
FFE4
002A
0033
0023
FFF5
0008
000A
002B
0005
FFE2
0030
0004
0010
FFD4
FFFD
0019
FFD7
FFE6
0028
FFD0
002A
001B
0005
FFEB
000E
FFD5
FFDC
002C
002C
FFE3
FFD2
FFD0
0005
FFF7
000E
FFE2
FFE4
0001
0034
FFD8
FFF8
FFE3
FFF4
FFFE
002F
FFF5
0033
0010
FFE9
0019
0025
001C
0001
0030
FFD8
0031
FFEA
0010
FFEE
0016
FFF7
FFEF
0014
FFD7
FFFC
FFF0
0024
0018
001C
002E
FFDD
0005
FFD2
FFF2
0001
0002
FFE3
FFCD
FFD8
000E
002B
FFD0
FFF6
001E
FFF8
0037
0018
0016
000B
FFD3
FFCF
002C
000D
FFF0
0033
FFD0
0016
FFCF
0018
0019
001E
FFD8
0031
000C
FFF3
FFFF
0012
000D
002C
FFC9
0001
FFD2
FFEA
0001
FFF0
0015
0023
000C
0022
0021
001F
0029
0007
FFFF
0030
FFE8
FFDB
000B
000F
002D
002B
FFD4
FFDE
FFEE
0007
FFFD
0003
0011
FFE6
002B
FFE0
FFD9
0017
000E
0015
0029
0028
001A
FFE2
0012
FFE1
000B
FFED
FFDF
FFF4
FFC9
000F
FFD5
0010
0005
0023
FFDB
FFD5
FFD9
0022
001F
FFE3
0017
FFDF
FFD9
0001
FFCE
FFD2
FFD7
0026
0030
FFCD
FFE2
0018
FFD5
0021
001B
FFDB
000D
FFDD
002A
FFDA
0008
0013
0020
0016
FFF1
0013
0012
FFF8
000D
FFF1
0025
FFF6
FFDA
FFD1
001F
FFDC
0015
FFE3
FFEA
000F
FFDA
FFEC
0014
002E
0033
FFCF
0011
FFED
FFCB
0027
FFDD
FFD5
FFE4
0002
FFCD
FFF0
000F
000B
FFED
FFEF
0028
0018
0010
FFEF
0004
FFF2
FFED
FFE6
FFCE
0026
002F
000C
FFE0
0021
FFEE
FFDD
FFFA
FFD3
0002
FFEB
0009
FFD8
FFC9
FFD5
0026
002D
000C
0018
FFEE
0037
0033
FFD5
000C
FFFE
FFF8
FFD0
FFFD
FFD4
FFFF
FFE0
000B
FFFB
000D
0024
0006
002A
FFDF
0010
FFE5
FFFC
0019
FFCD
FFE2
0025
0018
FFE3
FFE1
FFEB
FFFA
002E
FFDB
FFF3
000C
FFEA
FFEC
FFD2
0005
001E
002C
0003
FFF1
FFDF
FFFC
0016
FFD8
FFED
FFE0
FFD3
FFD4
0024
FFF9
001B
FFD3
FFFB
FFF6
0003
000D
FFD2
FFE1
FFF8
0009
000B
FFD3
0017
FFDC
FFE9
FFFC
001F
001C
0009
FFE9
FFEF
0022
FFD1
0001
001A
FFE9
0019
FFCC
0033
0006
FFE0
0032
002D
0001
001D
FFCF
FFED
FFEB
FFFF
FFD5
0010
FFF0
0003
FFCC
FFF1
002E
FFE7
FFE5
FFE3
FFFC
0017
001D
FFDC
0010
FFF0
0013
FFDC
FFE5
FFDB
FFC7
FFCF
0024
0000
0027
FFCE
002F
001A
0038
FFE6
0032
0034
0037
FFF9
FFF7
000D
FFD9
FFEE
FFE7
FFD7
001B
0033
FFFB
0038
FFD2
000F
FFD8
001B
FFEE
FFE4
FFFB
FFCF
0025
FFF9
FFCF
FFD0
FFDE
0003
001D
0023
FFF1
FFCE
0030
0009
FFD7
0033
0005
FFD4
FFE4
001E
001D
002D
FFF8
FFFF
FFFE
FFE5
0010
002F
0027
FFEB
FFF8
FFFC
FFF5
000E
FFD7
0025
FFF4
FFCC
0032
002E
FFEA
FFFB
FFDB
0028
FFF8
001F
0016
FFD2
FFF7
FFE9
FFE5
FFDE
FFFA
001B
FFE8
FFF7
FFEC
FFF4
FFFB
001B
FFDA
FFE1
001E
0022
0009
0025
FFCD
FFD5
0003
FFD5
FFEB
FFCD
0020
0012
002C
FFF8
0018
FFCC
FFCD
FFCE
000D
FFCF
001C
FFDC
FFDE
FFD0
0021
FFD0
0014
0032
000B
FFFC
FFD2
FFDB
FFCF
0016
FFF0
0018
FFEF
FFF0
0020
0011
0033
000C
FFE1
FFE3
002E
002B
FFE2
0022
FFFB
FFED
FFD9
0027
0017
FFEB
001D
FFDC
FFEB
000B
001B
FFD9
FFCC
000B
0006
FFFA
FFE0
001B
000C
0011
0035
FFF4
0002
002C
0031
0007
FFDF
FFF0
000D
0018
0034
FFE2
FFEA
0024
0016
FFF4
FFDF
0016
001B
0035
0015
FFFA
0018
0033
0026
FFF2
FFE7
FFE7
000B
FFE2
001F
FFEA
0008
0034
0022
0008
FFE4
002E
FFF0
FFF5
000C
FFF1
002C
0010
0004
FFFE
0013
FFF8
0003
000D
FFEC
0008
0025
FFE2
FFF6
FFE3
0020
FFFF
0021
0028
FFE4
FFC4
0002
FFCE
FFF8
FFE9
FFE4
FFE7
FFEA
FFDA
FFED
000F
FFF9
002C
001F
FFD9
000B
001E
FFF7
0013
002B
FFDA
FFDA
FFFF
0012
FFD2
FFCE
001F
FFDE
FFFB
0029
FFE3
001B
FFE6
FFD0
FFD0
0025
FFE6
0032
FFE4
001E
0018
FFDC
FFCD
FFDC
0028
002A
FFF8
FFFD
0025
FFFB
FFE5
FFFD
FFE8
000B
FFE1
0004
0012
FFEC
FFE7
002C
FFFF
0026
0014
FFCD
FFFF
FFE9
0013
FFFD
FFE7
0004
0028
FFFC
000A
FFDE
002A
0004
0034
000F
001F
FFFF
FFD3
FFDB
FFEB
FFFD
0024
FFED
001E
FFDA
0013
0038
000B
FFFB
000E
FFDB
FFE7
FFD5
0012
FFF5
0039
FFF9
FFE4
0031
0025
FFEB
FFE1
001E
000E
001B
0031
0035
FFD4
FFD1
0004
002B
FFD1
FFDA
0021
FFDC
FFF1
FFDD
FFF5
FFE7
002E
0012
001D
FFFB
FFF9
FFE1
001C
001A
FFF7
FFDC
0004
FFF1
FFD8
FFF4
FFD3
0013
0033
0014
FFF3
0000
0009
FFF9
000E
FFFD
0028
0037
001B
FFEE
000D
FFCF
002A
002D
002C
002B
FFE5
0010
FFEE
FFE0
FFDC
0008
000B
000E
002C
FFEE
0024
FFE6
000B
0017
FFDE
FFE6
000B
000B
0023
FFCC
002B
FFD0
FFFE
FFCD
000B
FFCE
0013
FFD1
FFD8
000D
FFD9
FFE3
0022
0032
FFCB
0030
002F
0036
000B
000E
FFD1
FFF4
001D
0034
0032
0001
FFE0
0011
0009
000E
0023
FFF0
002F
0023
FFD6
0013
0002
FFFA
002A
0033
FFDD
001B
000A
002A
FFE3
FFE7
002B
0026
FFE8
0004
002D
001D
002C
FFDC
0024
002C
FFD0
001A
0013
0011
FFCE
FFDC
FFE9
0024
FFFB
0021
FFE8
FFDF
000B
0007
0002
0022
002D
0020
FFF0
0015
FFCA
FFEC
002D
0025
0023
0000
002D
0020
002A
FFD8
0003
FFF8
FFFD
0026
0025
0008
FFF7
0016
FFFE
002A
000F
001B
FFE5
0023
FFD2
000D
002C
0026
001B
0019
FFED
0007
FFDF
FFE9
FFF7
FFD6
FFE9
FFD5
0039
FFFB
FFDD
0016
0002
002D
FFD8
0000
0023
FFE4
0027
0011
0006
0026
FFF8
0008
002F
FFD9
FFDF
0027
FFE5
FFD1
0025
FFD6
0025
0005
001E
0027
0019
FFCE
000C
0009
0023
FFF4
0023
0004
000E
FFDF
0012
FFD9
002D
0009
FFD5
000F
FFF5
FFEA
002E
FFD3
002B
0020
0007
FFF2
FFDD
0016
FFF8
FFED
0028
FFCE
0034
FFF3
0032
0024
001E
0009
002D
0030
FFFF
002C
FFD7
0024
0004
000D
FFE6
FFCA
FFED
FFFC
FFCE
FFE4
FFFB
0000
0009
000C
0029
FFD0
001B
FFE3
0030
FFEB
0012
FFDE
FFCE
FFF8
FFD2
FFE5
0025
001B
0007
0007
FFDA
0005
0002
FFFB
0019
000F
FFF9
FFCE
0017
001A
0001
FFCC
FFEE
0019
FFDA
FFE5
FFDA
FFF7
FFEB
FFD3
FFE3
FFE7
0032
FFEA
001C
0026
001D
000A
FFDA
0012
FFEA
FFD1
FFD8
FFEA
FFF7
FFDD
0013
FFF0
0015
FFDE
0011
0003
002F
002D
001A
0012
0008
000E
0028
0019
0019
0022
FFF6
000E
FFD5
FFD6
0039
0019
FFEF
FFDA
FFDA
0042
FFF7
000A
0007
FFE8
FFFC
0010
FFFB
0029
FFFA
0019
FFE0
FFF5
FFCD
FFEF
FFCD
0018
FFE9
FFDE
0027
FFD3
0029
FFFD
FFD6
0003
002C
0007
FFEE
0025
FFF6
FFE1
0029
0008
0031
000A
0019
0015
0030
0019
0017
FFD9
0033
FFD0
FFCF
FFF9
0011
0003
FFDD
0006
0019
002E
001C
FFCF
0002
FFCD
0016
FFFF
FFFF
FFE2
0015
FFDC
002D
0002
0013
0026
FFD3
001F
FFDD
0011
0021
FFE9
0028
0004
0005
000C
FFDA
0017
0021
0004
000C
FFF3
FFD9
FFCE
001E
000B
0009
FFEF
001B
0012
0001
0009
FFDE
FFF3
002A
002A
FFF4
FFD2
FFF1
FFD3
FFE7
FFDF
FFE7
FFE6
FFDC
FFD8
FFEF
0003
FFE2
002A
FFFF
FFF1
000A
FFE6
0017
0031
FFCB
FFFB
0006
0006
0031
0012
000C
FFD4
FFF2
0001
000A
FFD5
FFE7
FFCE
0024
0015
0012
0024
0003
000A
FFF8
FFFC
FFF5
002E
002E
FFF5
000C
FFD5
0026
001A
FFE2
FFD1
FFDD
FFEF
FFFD
0007
FFD4
FFCD
001B
0012
FFF0
0019
FFF1
0012
FFEF
001A
0023
FFE9
FFD4
FFE1
001C
FFD5
002E
000D
FFE0
0000
FFDB
0020
0000
0004
FFED
FFF8
000B
001E
0003
0022
FFCF
000B
000F
FFFB
FFE7
FFF9
000C
0022
0026
FFD3
0021
0011
0033
FFE0
0029
0029
FFD8
0013
0033
FFF4
0007
FFD4
FFFB
FFDB
FFD4
0005
0028
0002
FFE7
0015
001A
0033
FFFC
0024
0016
0028
0032
FFEC
FFF0
002A
0007
0030
000A
FFEF
0015
FFFE
0028
0005
0027
0031
FFDF
0001
001D
0010
FFE2
0005
0031
FFFE
0015
FFEA
FFE2
000F
FFE1
0004
FFEB
FFD3
0005
0017
FFEF
0001
0015
FFF8
0009
000F
FFFC
0005
0012
0001
0003
FFF5
FFE8
0008
FFFA
FFF6
0000
FFE9
0008
FFFD
0021
FFEC
0013
000B
FFF7
FFE4
FFE7
FFF2
0028
FFCE
0024
0014
0015
FFE2
0033
FFE4
001D
FFF9
0033
002A
0015
0008
0025
FFE9
002A
FFD8
0011
000D
FFDC
0033
0033
FFE5
0028
FFDE
FFDC
000D
FFE1
002B
0006
0025
000E
001B
0006
0032
FFD1
0013
0004
FFDF
002B
001F
000A
0037
FFCF
002A
FFFC
0022
FFED
FFD1
0025
0033
0001
0016
0002
0026
000F
0019
0028
FFD2
0000
002F
0023
FFF4
0013
FFE2
0007
FFD2
0012
0009
FFCE
0023
0019
0029
FFDC
FFF0
FFF2
FFD0
0028
FFD5
FFD7
FFE3
FFF2
FFEC
001E
0013
FFDB
0017
000E
002D
FFDA
001C
0004
FFD8
FFFE
FFCD
002B
0025
FFF8
000B
FFD0
000F
FFD2
002B
FFED
FFF4
001F
0003
FFD4
0004
FFF8
FFE8
FFDB
0029
FFD1
FFD4
FFE2
FFE1
0010
FFEB
0004
0022
002E
FFF8
0008
FFF7
FFDD
0006
000F
0003
FFDC
0028
002A
0025
FFF1
0027
0020
FFDA
001E
0000
001D
FFD2
FFF8
0035
FFD2
FFD8
FFF4
FFDA
FFEC
0004
FFCF
0002
FFF9
002D
001F
000E
0015
FFD8
0026
0004
0022
FFD0
0025
FFE5
FFDB
FFFB
0013
0030
FFCF
FFFD
FFEB
FFF3
FFD7
000B
002C
000B
FFD0
FFF9
FFF5
0004
FFD1
0015
FFDD
FFDB
FFD0
FFD2
002A
000B
FFF1
0014
0025
FFF6
0011
0030
FFF2
0006
FFE7
FFF6
FFCE
FFE9
0029
002B
FFD1
0031
FFF0
FFE2
0008
000D
002D
FFE2
0010
0019
FFCB
0013
0029
0009
FFD5
FFF0
FFCE
FFD4
FFD8
0018
001F
000F
FFFB
FFF1
000D
002D
FFF2
FFCD
FFE4
0020
FFEB
FFD9
0003
0014
FFD8
0029
FFFC
FFF9
0028
FFEA
FFDA
FFD9
002F
001C
000B
000C
001B
001C
002A
FFE2
0001
FFD9
FFFC
001C
000A
002A
FFD9
002C
001B
0026
FFE8
FFD9
FFEE
0026
FFE7
FFE0
FFD4
FFE6
0009
0016
FFF2
FFDF
001E
001A
FFD1
000D
0029
001D
0027
FFE8
FFD7
0003
FFE8
FFCF
FFF1
FFDE
000B
001B
FFF9
FFDD
FFE8
0031
0006
FFE6
FFF3
FFFB
FFDB
001F
FFD4
0004
FFFE
000B
FFFE
FFD3
FFFD
001A
0017
0020
FFF7
0009
FFF8
001F
0009
0012
FFEB
FFD8
0016
0028
FFD9
001A
FFFD
FFCF
FFE9
0006
0009
0015
001C
0004
FFD4
FFFE
0026
FFDB
0020
FFF7
FFF4
FFE9
0009
0028
002B
FFFD
FFDC
FFF8
FFCF
FFDB
FFF3
0023
0024
FFDC
FFEB
0031
0006
FFCD
0009
FFE1
002E
0023
0001
0014
0006
FFE6
001D
0008
0017
000F
FFFC
001D
FFFC
0012
0019
FFEB
FFD2
0015
001A
FFF9
FFCB
002B
0005
0037
0007
FFEE
002C
FFEB
FFD4
FFDA
FFF6
0030
FFD5
002C
0026
0002
FFE6
0027
FFD8
0021
0027
0025
FFFC
FFE8
0000
FFEE
FFF3
FFE5
0005
001E
FFDF
FFCF
FFE0
001C
0017
FFEC
FFFE
FFD4
001E
0032
0021
FFFA
0029
FFE1
0026
0009
0006
FFDB
000E
0013
FFD7
FFCB
FFDE
FFF3
FFD3
FFE8
0031
FFE7
001D
000E
000D
0010
FFCD
FFD6
FFE9
FFD0
FFCD
FFF4
0019
0009
0005
FFEE
FFE5
FFFC
002B
FFF6
002D
FFF0
0029
FFCC
FFEA
FFEB
001D
0013
000E
FFEB
FFD1
FFF0
FFD3
FFFC
000A
000D
FFFE
002E
002A
FFE8
000D
0000
0015
FFDA
0025
002D
FFFF
FFDE
0014
FFD7
0016
000E
FFFE
0003
0009
0037
002C
001C
FFE1
FFE0
0019
FFD8
000D
FFE9
FFF7
FFFA
0003
0016
FFE8
FFD1
FFE8
000B
002F
FFD1
001C
0005
0015
FFE9
0021
FFE2
FFF4
0030
001E
002B
0026
0028
FFDB
FFED
0000
FFD2
001B
0000
001D
FFD5
0016
FFEF
0028
FFE4
0004
0010
0016
0011
0008
0006
000F
0016
FFF5
FFF9
FFF5
FFED
0017
0001
000E
000A
0002
000B
0015
0014
000B
0018
000C
0008
0016
FFF7
FFF0
0008
000D
0013
FFF8
FFF2
0011
0005
0019
0003
FFF9
0014
FFED
FFF0
FFF1
FFF3
000D
FFF2
000C
FFEF
0007
0009
FFFA
FFEA
0000
0011
FFFB
0006
FFED
FFF9
FFEF
000B
0013
0011
000E
FFEF
000C
000D
FFF5
FFF9
0011
FFEF
000B
FFFB
FFF6
000E
FFF5
FFF9
0015
0010
0012
0004
0012
0006
FFFC
FFFC
FFFB
FFF5
0006
0002
000E
0009
0014
000B
FFF2
FFED
0003
0003
FFF1
FFEE
0009
FFFA
FFFC
FFFF
000F
FFFA
0009
FFEB
FFFD
0002
FFFD
0001
FFF1
FFEA
FFE9
000B
0006
000D
0007
000A
0004
000A
FFFC
0015
0010
FFFE
0010
FFEA
FFF2
0007
FFEE
FFEE
FFF0
FFF4
FFF2
FFEF
FFEB
FFF8
000C
0010
FFFA
FFFF
000C
FFF7
FFF7
000D
FFF2
FFF6
FFF6
FFF9
FFFC
FFED
0007
FFF7
FFED
000B
FFE6
0011
0006
0005
FFEF
FFF6
0011
FFEA
FFF6
0002
FFF1
0003
0006
0004
FFE4
FFF0
FFF4
0007
FFE9
0011
000E
0011
FFF9
0009
0008
FFEF
0001
0010
FFE8
FFF5
0002
FFE8
FFE9
FFEF
FFF8
FFF1
0011
0010
FFF5
0005
FFFE
FFFF
FFE9
0004
FFF3
000A
FFFF
FFEB
FFF4
FFFA
000E
0012
FFF4
0010
FFF7
0013
FFEB
FFEB
0000
0007
000F
0000
FFFC
FFE7
0002
FFFB
FFFD
0011
FFEC
FFF8
000D
0002
FFF5
000C
FFEE
0007
000C
000F
000F
FFFB
0011
0003
0010
000B
0011
000B
FFF0
0003
0003
FFF7
FFE8
FFF9
0006
FFE7
FFF3
0016
FFF7
FFF0
FFF3
FFE9
FFF2
FFFE
000F
FFE9
FFF3
000E
0016
FFEF
000E
001E
001C
0007
0012
0004
000E
FFFC
0018
FFFC
FFF7
0016
0011
000B
FFF5
FFF6
FFFF
0014
0001
0017
0000
FFFA
0010
000C
FFFF
0011
001C
000E
0015
0022
0020
0004
FFF7
FFFE
0019
0018
FFF2
0003
FFFA
001F
0016
0004
FFF3
FFF6
0002
0019
001D
FFFA
0010
FFEE
000F
0018
FFEA
FFF4
FFFD
FFF2
FFF7
0004
FFE6
FFF1
FFF2
0016
0003
0003
001C
0003
0000
FFF2
FFF7
FFFA
FFE8
FFFE
0004
FFF9
0011
FFF7
FFF1
0006
FFF9
0008
0017
000D
001A
0004
000B
FFFF
000C
0019
FFF8
FFFB
000F
000D
0006
0003
000D
FFFA
001B
FFEE
0010
FFFC
000A
0011
0003
0009
0004
000F
0013
0009
FFF8
FFF3
0000
0019
0012
FFE9
0014
FFF9
FFFC
0002
FFF3
FFF8
FFF0
FFF3
0001
0009
0015
FFF6
FFF7
0002
FFF4
0012
FFF3
FFFA
FFFC
0012
FFE9
000E
FFFC
FFF2
FFED
000E
0008
0001
0010
0001
0015
001B
000E
000C
0012
0017
FFED
FFFA
000B
0008
0001
FFFD
0007
0013
0016
0000
FFF6
000D
FFEE
FFFE
0009
000C
0010
0009
000D
0005
0010
000B
0001
FFFE
FFFC
FFF4
0010
FFEC
FFFC
FFF3
0000
0004
FFE7
FFEA
0000
0009
FFE9
FFF7
0011
FFF2
FFF7
FFEF
0006
0007
0001
0014
000B
0013
FFFD
0014
FFF1
FFF1
FFF4
FFF0
FFE9
FFF0
FFF6
0000
0006
0004
0001
0017
000B
FFE6
FFF2
0017
0009
000B
FFEF
0013
0012
0005
0005
FFF2
0015
FFFB
FFFC
0000
0000
FFED
0007
FFFB
FFFE
FFF5
0016
0003
FFEF
FFF9
0008
0015
FFF4
FFF4
FFFF
0003
FFF9
FFF9
000C
FFEA
0012
FFEC
0013
FFF8
001D
0010
0008
FFF5
0007
FFF6
FFF8
0003
000C
000B
0000
0009
000D
FFF9
FFF1
FFF4
FFF7
0007
000D
FFFB
FFFA
FFF4
FFF3
FFE6
0002
000F
FFFC
0008
0006
FFFF
FFFA
FFF2
000C
0012
FFFA
0014
FFF9
FFFF
000B
FFE6
FFED
FFF4
0001
0017
FFE9
FFF7
000E
000A
0009
FFF8
000E
FFF8
FFF4
000B
FFED
FFEA
FFF5
FFF4
FFFB
FFF9
000B
FFF9
0013
0001
FFEE
FFEA
FFFB
0001
FFEB
FFFB
0009
0002
000F
0000
FFF6
0004
FFF8
000E
000F
FFF6
000C
0005
0011
0001
FFF8
FFF7
FFE8
000B
FFED
0003
0006
FFEC
0011
000B
0012
FFEF
0009
0011
FFEC
FFF8
FFE7
FFFE
0001
0004
FFEF
0012
000C
000B
000C
0007
000F
FFEB
000F
FFF3
0010
FFFF
FFF6
FFE5
FFEE
FFF2
FFF7
FFF4
0000
FFFA
FFFB
FFFE
FFFE
0009
FFF4
0012
FFF6
0000
FFF9
FFF9
FFFB
000A
0012
FFED
FFF5
FFFA
000D
FFF1
000A
000C
000B
FFF6
0015
000D
0006
000B
FFF8
FFF9
0004
0003
FFED
000A
0009
0004
FFFD
FFEE
FFF6
0017
001B
FFFC
FFEB
0003
FFF1
FFF2
0004
0006
000E
000F
0007
FFF8
FFEF
000B
0005
FFF7
0010
0001
0013
FFF2
0001
0000
FFEA
FFFE
0002
0011
FFF6
0013
FFEF
FFF5
0009
FFEE
FFF6
FFF7
001C
FFF2
000C
0004
0001
FFF2
0012
FFF0
FFEB
0016
FFFD
FFE9
FFFF
000C
FFEF
FFEF
FFF3
001C
FFFC
001A
0005
0003
0010
FFFC
001A
000E
000F
0008
0010
FFFD
FFF1
FFF4
0009
0015
0000
0016
FFEF
FFF9
FFF3
0000
0013
000F
000C
0003
FFEE
FFF9
FFFE
FFEF
0002
0008
0003
FFF7
0010
0010
FFFF
0012
0010
FFF4
0017
000B
001F
0007
0019
0008
0004
0002
0003
FFFA
FFF6
FFFC
000E
000F
FFEF
0011
0001
0011
0002
0008
0007
FFED
0009
FFFC
0009
FFF1
FFFC
0016
0017
000D
0013
FFFC
000F
FFF1
FFF4
0009
FFF6
0003
FFF2
0014
FFF1
FFF0
0006
0009
FFFD
0019
FFFB
0014
FFEF
0000
FFFA
000A
0001
0000
000B
0000
FFF7
0007
FFF1
000F
000B
FFF2
FFF1
FFF4
000C
0005
FFFF
001B
0011
0005
0018
FFF7
FFF1
000B
FFF9
FFFE
0013
0017
FFF7
FFF8
FFF9
000D
FFFA
0003
FFFD
000D
FFF1
0000
FFF1
001A
FFFC
0015
0011
0000
000F
001D
0010
FFF5
FFEE
0002
0001
FFF7
0017
FFF1
0006
0000
FFF4
0012
0011
FFFD
FFFA
0016
0016
000D
0005
0012
0007
000C
FFFA
0013
FFF2
FFF5
000F
0008
0006
FFFE
0004
000A
FFF9
FFF4
0003
FFEC
0001
000B
000E
0007
001A
0015
0014
000D
0015
FFED
FFF3
FFF3
0014
0007
0006
FFF0
FFFE
0006
FFFE
FFF4
000F
0013
0000
0004
000F
000C
0004
FFF7
000D
0005
0007
000C
FFF2
0005
0007
FFFE
0005
FFF6
FFFC
FFFB
0007
0005
0003
FFF7
FFF4
FFF8
000A
0013
0003
FFF2
000D
0003
FFFA
0012
000D
0009
000D
FFEB
FFFB
000E
FFE9
FFF7
000E
FFEC
0002
0003
001D
FFF3
FFFB
0016
000C
FFFA
0012
FFF7
FFEE
FFEC
0007
0003
FFF4
0009
0013
FFF1
FFF1
0008
0016
000C
000B
0001
0017
FFF7
000B
FFF8
0015
FFEF
000F
FFEF
FFFA
0004
000E
000A
0001
FFF9
FFF4
000C
FFF2
0005
0008
0001
0006
000C
FFF6
0003
000E
000C
0008
0006
000D
FFFC
FFF4
FFFC
0002
FFF3
0006
000D
FFEC
FFFF
FFFB
FFF4
0013
FFF0
0019
FFF9
0007
FFF6
FFF7
FFF8
000D
0002
000E
000F
FFFF
0004
FFFA
0010
0003
FFFD
000A
0006
0005
FFFE
0018
0019
FFFD
FFEC
0001
000C
FFF6
0006
000F
FFFE
0011
000C
0007
FFEC
0018
0008
000D
FFFE
0000
FFFA
FFEE
0018
000E
000C
000E
0016
0016
FFEC
FFF6
0018
000A
0006
0014
FFF2
FFF2
FFF7
FFEA
FFFB
0001
0016
FFF5
FFFA
FFF0
0014
0019
0010
0012
FFF0
FFFA
FFFF
0001
FFFD
000C
FFF0
0009
FFF1
FFFF
001A
FFF5
0019
0019
0005
FFED
FFFE
FFF0
0003
FFED
0004
0013
FFED
0007
0002
0010
0001
FFF4
000B
000F
FFEE
FFF5
0004
FFF0
FFFF
FFF4
000B
FFF0
0000
FFFA
FFF0
FFEF
0015
FFF3
0014
FFFF
FFFE
000A
FFFD
FFF5
FFF1
0016
FFFF
0010
FFF0
0009
FFF2
0011
FFFE
FFFA
FFF3
FFF6
FFF8
0015
FFFC
0000
FFF0
FFE8
0015
000A
FFEC
FFF7
FFF3
0002
000B
0000
FFEF
0017
000B
000F
FFFC
000C
FFF3
FFF4
000B
FFFD
0007
0006
FFF8
FFF4
0014
0012
FFF4
0009
0000
0001
000F
FFF6
0009
FFEA
FFFD
0006
0009
0013
0002
0007
FFED
FFFD
0010
000A
FFEF
000F
FFFC
0010
0008
FFF1
FFFD
FFEE
0000
0004
0007
FFF1
0009
000B
0008
FFF5
0011
FFF7
000B
000F
FFF2
0007
FFFD
FFFD
0014
FFFC
0005
FFEF
FFFB
0012
0009
0014
0002
000D
FFF8
000E
0016
000E
FFF8
000F
FFF8
0010
FFF3
FFEF
0004
FFF5
0006
0007
0008
0017
FFFA
FFEB
FFED
000D
0006
0006
FFFB
FFF8
FFF7
0004
000F
FFEF
0018
FFF5
FFEC
FFFC
000C
FFF7
000B
0003
0016
FFF9
0000
0014
0004
FFFA
000D
0011
0011
0004
FFE9
000B
FFE7
FFFF
0008
0006
FFEE
FFEC
FFFE
0001
0001
FFFA
0001
FFF7
FFF0
FFF7
0002
FFE8
0008
FFFF
000A
0004
FFE9
0012
000E
FFE7
0015
FFF1
FFEF
FFE9
FFFE
FFFF
0015
FFF7
000A
000B
000F
FFE9
FFF2
FFE9
0000
000D
FFFA
FFF2
FFFE
FFFF
000B
FFFD
000E
FFF4
000C
FFED
FFEC
0001
FFF6
FFF1
FFEC
FFFC
000A
FFF6
FFE7
FFF6
000A
000E
FFFE
FFE9
FFFD
FFFE
000A
FFF2
FFFD
0011
000A
FFED
FFF3
FFE9
FFE7
FFF5
0000
FFE8
0005
FFF0
FFE8
FFFA
000C
0012
0007
FFE9
0000
0012
FFEE
FFE6
FFE9
0008
000E
FFF2
FFEF
0006
FFE9
000E
0014
FFE7
FFF7
0011
FFEB
FFE8
0001
FFF8
0007
0002
0003
FFF7
0000
FFF1
FFFA
0006
0010
FFF5
FFF9
0011
FFF7
0008
FFF3
FFF7
0005
000D
000B
0007
000A
001B
FFFF
0009
FFF4
FFF0
0017
0001
0009
000F
0014
0010
000D
FFFB
0009
FFF5
0019
0004
0009
FFF0
FFFA
FFFE
000F
0006
0014
0011
FFF2
0008
0010
0003
FFF6
FFF1
0004
000B
000E
0012
FFF7
FFEF
FFEF
000E
FFF7
0003
0018
FFFF
000E
0001
FFEC
0005
FFF4
FFFF
000D
FFFE
000F
0003
0006
FFF2
FFF9
FFF6
0004
0014
FFFF
FFF5
FFEF
0004
0002
FFF6
FFF3
0014
0005
FFF1
FFED
FFFA
0007
0008
FFEA
0010
FFF6
FFFF
FFEA
FFF6
0017
0011
FFFE
0012
FFFA
000E
FFFA
FFF8
0014
FFF9
FFF5
000C
FFF9
FFFD
0016
001E
FFFC
000A
0015
FFF3
0003
000D
FFF8
FFF9
0001
0006
FFF5
0001
FFF2
FFFA
FFF2
FFF0
FFE9
FFEE
0016
0018
000F
FFF1
FFEF
0015
FFFE
0010
0004
001B
0002
FFF6
FFFD
0011
FFFA
FFF2
FFFE
FFF0
0001
0004
FFFE
FFF0
000F
0006
FFFA
0002
FFF1
0002
FFF7
0005
0005
FFEF
000F
FFE9
000F
FFF7
FFEE
0016
FFEB
FFEB
FFF7
0008
0004
0014
FFEA
FFF1
FFEB
FFF8
FFF6
FFFF
000F
0000
FFF3
FFE8
FFF6
000D
0005
000B
000C
000F
0012
0010
FFED
FFE7
000B
000B
000C
0016
FFF1
0008
000D
FFF6
FFE7
FFEC
0009
FFF4
FFEB
FFEC
0003
FFF4
FFE8
0013
FFFA
FFED
FFE7
FFFB
000A
FFE9
0010
000B
000D
000D
FFF7
FFF3
FFE9
FFE7
FFFC
0009
0004
000C
0007
FFEC
FFFA
000D
FFF2
FFEA
FFFC
FFFF
FFF4
FFF8
FFEF
0001
0013
FFEB
FFEA
FFFA
0003
0005
FFFB
FFED
FFE6
FFFC
FFF3
0010
FFF5
FFFA
0010
FFF2
0012
000C
FFF8
FFF4
FFEA
FFF7
0001
0000
FFFE
FFF2
0006
000D
FFF7
FFF4
0015
001F
FFEE
0007
FFFE
FFFF
0008
FFF7
FFF5
0007
000C
FFE6
FFEE
001A
0014
FFF6
0015
0000
FFF1
0007
0011
000B
0007
FFF5
0008
0020
0000
FFF2
000B
0001
FFF9
0003
0000
000A
FFFF
FFEF
FFF7
FFED
0007
FFEB
FFF8
FFF9
000A
0012
000B
0011
0012
FFFB
FFEC
0006
000E
0008
0005
FFF7
FFF6
FFEE
0006
FFFC
FFFB
FFF4
0013
FFFC
FFF5
0002
0005
0010
000E
FFFE
FFF3
0005
FFF8
0007
0012
0000
0002
FFF1
000D
FFF4
FFFC
000D
0008
FFF8
0004
001B
FFF9
FFF3
FFFF
0012
0006
0004
0009
0004
0016
FFEE
FFF2
0013
0006
0006
000A
0012
0011
0018
FFEE
FFFE
0012
FFF9
FFF1
FFF7
FFED
FFF4
FFF9
0009
0003
0006
000A
FFFE
0015
0007
FFFD
0015
0018
0014
0011
001A
0005
0001
FFE7
000A
0013
0011
FFE9
0007
0014
0007
0012
0001
FFF3
FFFC
FFF0
0009
FFEB
0009
0013
0006
FFED
000D
FFF5
FFF4
0009
0013
FFF3
FFEA
000A
FFFB
FFFC
0009
FFE9
000F
FFFE
0007
FFF8
0005
0008
0004
0012
FFF7
FFF0
FFF3
0000
0003
0005
FFF9
0006
FFFA
0002
FFED
0000
FFF9
0011
FFF2
FFEF
FFF7
FFF1
0008
000B
0006
0009
FFFB
0000
FFF5
FFF7
0002
0013
0003
FFFA
FFF0
000E
000C
0007
FFEF
FFEF
FFF3
FFF5
0010
FFEC
FFFF
FFF1
FFF7
0004
FFEB
0001
FFFD
FFE7
FFFE
FFEB
0002
000F
0012
FFFB
FFED
0002
FFF2
000C
FFEB
000F
FFEB
0013
FFEB
0013
FFFE
0012
FFFA
FFFE
FFF5
FFF7
0012
0004
FFF3
FFE7
0006
0004
0008
FFF3
FFF4
FFF9
FFE8
FFEC
FFFA
000E
0000
FFF2
0008
0003
FFF6
FFFE
0011
FFF0
0014
0000
FFF3
0006
FFF9
FFFB
FFF7
FFF4
FFF4
0003
FFF3
FFFB
FFF9
FFF7
FFFF
FFFB
0009
0010
000E
FFF5
000D
FFF6
FFFF
0002
FFFD
0008
000B
0002
000B
FFF1
0002
0002
FFFF
FFEA
FFFD
0012
000D
FFF0
0008
FFF8
FFF8
0003
FFFF
000A
FFFF
000B
FFE9
FFFF
0011
0008
0008
FFF1
FFFA
FFEA
0012
FFF8
FFF5
FFEF
0003
000B
000B
0007
0010
FFEB
0003
FFFC
FFF3
FFEC
FFF8
0003
0009
FFF1
0002
0007
FFEB
FFF7
0009
0010
0009
0013
0014
FFFA
000B
0000
FFF1
FFFA
FFE9
0001
FFFB
0007
0011
FFFC
0011
0003
0013
FFF4
0007
FFEC
FFF6
FFF7
FFEB
0000
0003
FFFC
000C
FFF4
0013
FFFF
FFF8
FFEF
0009
000C
0004
FFF2
FFEF
000D
0007
FFE9
FFFE
FFF6
FFEA
FFFE
FFF8
0012
FFFF
FFFB
000C
FFF7
0016
FFEE
000E
000A
FFFB
FFFA
000C
0011
0010
FFFE
FFFC
0013
FFEF
000A
FFFD
0021
0012
0009
0001
001A
FFFB
000A
FFF1
FFFB
0005
FFEA
000F
FFF1
0012
FFEE
FFF7
000E
FFF6
FFF0
FFF6
000C
0016
FFFE
0007
0012
FFFC
0005
000F
FFF9
FFF6
0007
FFEE
000D
FFFE
FFFB
FFF7
FFF3
FFED
0018
FFEA
0016
FFFC
0001
FFEE
0007
FFFA
001A
0001
0010
0010
FFF4
0004
001C
0001
0004
0007
FFF9
000E
FFEC
0016
FFFF
FFEE
FFFB
000A
001A
0004
0016
FFEF
0007
0007
0014
0016
0003
0002
0009
FFF4
0009
0001
FFFD
001F
FFEC
FFF6
000B
000C
FFF3
FFFC
FFF0
0007
FFFA
0011
0015
FFF0
FFF0
000E
0000
0007
000B
000B
FFF8
0015
0009
0018
0005
FFEE
FFF4
0001
FFF8
FFFE
0006
001A
0001
FFF8
FFFA
0023
FFF1
FFFA
0001
000A
0004
000C
FFFF
FFEB
FFFA
0007
000F
FFF2
000E
FFF4
0018
0015
FFEE
0000
0011
FFFE
000A
FFEF
FFF1
0005
FFFD
000E
001D
0007
FFF0
FFF5
0002
FFF0
FFF8
FFEE
FFEB
000F
0011
0007
0004
FFEB
000B
0021
0010
0014
FFEF
FFF3
0006
0003
FFFF
FFE4
0011
FFFC
FFF1
FFF1
FFF8
FFF9
FFEF
0008
0008
0003
0006
FFF9
FFE8
FFF2
0003
FFE7
FFFD
FFEF
000D
0011
0009
0014
FFE7
FFEE
0009
FFF0
FFF5
FFEC
001E
001F
001C
FFF2
0019
FFFD
0014
FFFA
0008
0003
FFF3
FFF6
0005
FFF6
001D
000E
000A
000B
000B
0013
0007
000B
FFEE
FFEF
FFFC
FFFA
0005
001B
0018
0010
FFEA
000E
0003
FFFC
000B
0002
0005
000C
000A
0000
FFE9
0005
FFF0
0016
000C
0005
000C
000E
FFF1
FFFA
0000
FFF3
FFFE
FFFD
000A
0007
0000
0010
0014
FFF5
000B
FFFA
FFF5
FFEE
0001
FFF8
FFF2
FFEE
0014
0017
0003
0014
0008
0002
FFEA
000E
000D
000F
FFFD
0004
FFFD
FFF4
FFEA
FFEE
0009
FFF4
001D
FFFB
0013
FFFF
0019
0013
000B
0001
000A
0018
0006
0007
000B
FFF1
FFEE
0013
FFF3
FFF7
FFFB
0002
FFF9
0016
FFFC
FFF8
FFF6
FFF9
000E
0000
0003
0004
0000
0014
FFFB
FFFC
0009
FFFB
FFEA
0004
FFEC
000E
0000
0003
0011
FFF7
000F
FFEF
FFF0
0000
FFF0
000F
000F
0016
FFFC
FFFA
0012
FFEC
0011
FFFB
000A
0012
FFF2
0016
000D
0015
FFF9
FFF8
0001
FFFB
FFFE
0013
0008
0014
0003
FFEE
0011
0017
0016
FFEF
0016
FFFA
0009
0016
0014
000F
0014
FFFD
0011
0008
FFFA
FFEE
000D
FFE4
0013
FFF2
0014
000F
FFF9
FFE7
FFE7
0006
FFEF
0008
0007
FFF1
0014
FFFC
FFE8
0011
0003
000F
0010
000D
FFFD
0012
0002
FFE9
FFFB
FFFB
000A
0004
0009
0012
0003
FFF4
FFF1
000B
0002
000B
0003
000A
FFE7
FFFC
FFF5
0010
000B
FFEC
FFFD
FFF0
0006
0011
0000
0002
0011
FFED
000A
FFF5
000C
0002
FFF8
0007
000A
FFEB
FFFF
0001
0012
FFF7
FFF8
FFEF
000A
FFE8
0012
0002
FFF9
0002
FFF1
FFF3
FFEC
0000
000C
FFE6
000B
000A
FFFD
0010
0011
FFFD
FFEF
0008
000D
FFEC
0007
FFF3
000E
0009
FFFA
FFFC
FFFD
0002
FFF7
000E
000A
FFF8
0004
0008
0002
FFFD
FFFB
FFEE
FFFF
FFF5
000D
0005
0005
FFFD
FFEC
FFEB
0014
0005
000D
0015
FFEE
0004
FFED
0011
0004
FFEF
FFEC
0009
FFF5
000B
FFFB
0003
000F
FFF5
FFF3
0009
FFFC
0004
0008
FFEF
FFF5
0008
FFF4
FFF2
000C
0008
FFFE
0006
FFEB
0002
FFF2
0006
FFF0
0007
FFFB
FFFC
0011
0009
0014
FFF1
0005
FFF6
FFEA
0011
000A
0013
0007
FFEB
FFF2
0004
FFEA
0003
0011
0001
FFFA
000A
FFF3
FFEA
0004
FFF7
FFF0
0009
0006
000B
FFF2
FFF2
FFF2
FFEA
FFEF
0006
0013
FFF7
0011
FFFB
0005
FFFD
0005
000E
FFF8
0010
0009
FFF9
0002
FFEA
0000
FFEC
0006
000E
FFF9
000A
FFE5
000B
FFE9
FFF1
FFF8
FFF9
FFF5
FFF1
FFE9
FFF2
FFFF
0013
FFF7
0002
FFF3
FFED
000C
FFFF
FFF3
FFF1
FFE9
FFF6
0004
0002
0012
0005
FFE8
0006
FFFC
FFEF
000A
0004
0002
FFEA
0003
0007
FFEE
FFFF
FFF3
0006
FFEA
000A
FFF4
000A
FFEB
FFE9
FFEA
FFF8
FFF9
FFFA
FFF6
FFEA
FFEF
FFED
0012
0010
000D
FFFC
FFFA
000C
FFEF
0015
0002
FFFA
0001
FFF8
0013
FFED
0000
0001
0008
0002
FFF0
0009
FFF2
FFEC
FFF7
FFF9
0007
FFEE
0007
0008
FFFB
0008
0007
0012
FFF2
FFF3
FFE9
FFF4
0018
000A
FFEF
FFFC
0013
FFFB
0009
0004
0010
0007
000E
FFFC
0009
FFF4
FFED
0014
0009
FFF9
FFED
FFED
0000
000B
0008
FFFF
FFFB
FFF8
FFE9
000D
FFFA
FFF4
0000
FFF5
FFEE
000A
FFF0
FFED
FFF0
FFF1
0006
000E
0011
FFEB
FFF4
FFE9
0005
FFEA
FFF0
0011
0004
0007
000F
0029
FFFE
000F
FFFB
000B
FFFD
0014
FFF7
000B
FFFA
000F
FFF7
0009
FFF7
FFED
000D
FFFF
FFF8
000B
0000
FFF0
0010
FFF7
FFEE
FFF1
0003
FFF2
0013
FFF5
0007
0019
0004
FFF1
0006
FFFE
000A
FFF2
0014
FFEF
0005
FFEF
FFF0
0003
0016
FFF3
FFFD
0010
000A
001A
001A
000B
0005
FFF0
FFF8
0017
0008
0004
FFF8
FFFB
FFF6
0001
0000
0010
FFEA
FFF3
FFF7
0000
0005
FFF2
FFF4
FFEF
FFF3
FFF9
FFFB
FFED
0001
FFF4
FFF2
FFF2
FFF2
FFFA
FFF7
FFFC
000C
000A
FFF9
0001
000D
0004
FFFD
FFF9
FFFF
FFF2
0005
FFF5
FFF8
0008
0008
0006
0011
0017
0007
FFFC
0008
FFF2
FFFD
FFF6
FFF2
0019
FFF7
0005
0011
0002
FFFE
001D
0005
000A
0003
0010
0015
FFF5
0001
0001
FFFE
0001
000C
0016
000F
FFF1
0008
000F
FFFB
FFFD
000A
FFF8
0017
000D
000C
0000
FFFA
000D
0002
0007
0018
0009
0011
FFF3
0013
FFF5
FFF6
FFFF
0010
FFF1
0008
0019
0013
0016
000E
0005
0004
0003
0007
FFF3
0008
FFF7
FFF2
0014
0002
0000
0011
001B
FFFD
FFFC
FFF1
FFFF
FFF8
FFF4
FFF1
000B
001B
FFF1
0006
FFFF
FFF1
0013
0005
000D
0005
FFF2
0018
FFFA
0014
001A
0013
0001
0006
0006
000B
FFF1
FFF9
0003
0016
0006
FFF8
0010
FFF1
000A
FFF6
0008
0013
0008
FFF3
001E
001A
FFFE
001A
FFF6
FFF1
000C
FFF2
FFFA
001D
0016
000B
FFF8
FFF0
0007
FFF8
FFFA
001A
0014
FFF7
0000
000F
FFFA
0003
000A
FFF7
FFF8
FFFA
FFF2
000D
FFFC
FFF7
FFFB
0008
0000
0019
001A
0001
0008
0011
001C
0003
0002
0017
0013
FFFC
FFF7
FFFE
0006
0007
0017
000D
0003
000B
FFF8
0007
000D
0017
FFF7
0014
0012
FFF9
FFF9
FFFA
0003
FFF0
000F
0004
FFEA
000A
FFF4
0012
FFF0
FFF3
FFFB
0004
FFF7
FFFE
0006
FFEF
0007
FFEC
FFF8
0014
0012
0009
000A
FFF4
0006
0000
FFFD
0004
001A
0004
000D
FFFD
FFF6
001A
FFEE
FFF5
FFFD
FFF4
0017
000D
FFFF
FFFB
0018
000B
0016
0004
0008
FFFD
000A
FFF7
FFFF
0018
000C
FFF3
0016
000A
0009
0015
0010
FFF2
FFEF
0013
000D
000F
FFEB
0014
FFF2
FFF4
0014
FFF6
FFE8
0018
0014
0006
FFF5
0000
0007
0003
000E
0010
0001
0005
FFEE
FFFC
FFF6
FFF3
0006
FFF6
FFF1
FFFA
000C
FFFC
0015
FFF4
0012
0009
FFF8
FFED
0012
FFF8
FFF2
FFF2
FFFE
0003
FFEB
0003
FFF5
0009
0019
0005
000F
0009
FFF7
FFF8
0005
000B
0005
000C
0009
FFF1
0007
000F
0000
FFEE
0001
0005
0007
FFFF
0004
FFFA
000A
0001
FFEE
FFEC
0002
FFFD
0021
FFFE
000D
000F
0009
FFF9
0012
FFFF
000E
FFF9
0015
FFF4
FFF7
000A
0011
FFF6
FFEB
0017
FFF5
FFF4
FFFD
001C
FFEB
0015
0009
0016
FFF5
000B
000E
FFF9
0003
0014
0007
001B
FFF9
FFEC
0010
FFFE
0004
0009
0013
FFF4
0014
FFF1
000B
FFEE
0006
000B
0011
FFF5
000D
000C
0010
000E
FFFA
FFF4
FFF2
0005
000A
FFEE
FFFB
FFF4
FFFE
0014
0003
0009
0007
FFEE
0004
FFEE
0015
0004
FFF9
0003
0013
0017
0014
0005
FFFF
FFEE
0001
0016
0010
0000
FFFF
0012
000F
FFFA
000F
FFF9
FFEF
0005
FFFF
001B
FFFE
FFF6
0012
0010
FFF5
FFF3
0023
FFF4
FFF8
0005
FFEB
FFF0
FFFD
FFEF
FFFE
FFE9
000B
000B
001A
FFED
FFFC
FFF1
0011
000D
000C
0003
0007
FFEF
FFF7
0014
FFF8
FFEF
000C
000F
0005
FFF8
FFF4
FFFB
000E
0013
FFFF
0012
0019
0003
FFF8
0012
FFF4
FFEC
FFF6
0000
0002
FFFD
FFF1
FFF5
FFF1
FFFF
0007
FFEE
0014
0019
FFF2
FFFF
FFFD
FFF7
001C
0007
000B
0006
000B
0005
FFF7
0015
0000
000A
FFEB
FFEC
0008
FFF4
FFFA
0012
FFEF
0016
FFF8
0006
0007
FFFD
FFFC
000D
0006
FFF6
000D
FFF5
0002
0005
FFFF
0014
FFF7
FFF3
FFEE
0006
FFF9
000A
FFF7
FFF3
FFF0
000B
FFF0
001D
0012
0011
0005
FFEA
FFF9
FFEF
0001
0013
FFEA
FFF0
FFF8
0004
0004
000B
0001
0006
0014
0009
FFF9
FFF3
FFE9
FFF7
0009
FFF3
FFFD
0004
0012
FFF7
001B
FFF2
0015
000A
0018
0005
0015
FFFD
0005
FFF9
FFFA
0016
FFF0
0017
0005
FFE5
0002
000A
000C
FFFD
0016
0012
0010
0001
0013
FFFA
FFF7
0014
0007
0004
FFEE
0009
000D
0000
FFEC
FFFB
FFFF
000A
FFEE
FFF4
FFF4
FFE9
FFF9
FFE7
FFEB
FFED
FFFE
FFF0
0005
FFE8
000F
0004
FFF4
0007
000A
FFFE
0003
FFF3
000E
FFE9
FFF9
0009
FFFF
FFEA
FFF5
FFE7
FFF0
000C
FFFC
FFF1
FFF3
000D
FFEC
0013
FFFC
FFF3
0007
0008
0000
FFEF
0002
FFF6
FFEA
FFEF
0009
FFF6
000D
FFF9
0003
FFF2
0004
FFF5
FFFB
FFF7
000B
0006
FFE8
FFFA
FFF1
FFEB
FFF3
FFFF
FFFB
0002
0005
0014
FFF9
FFEB
000F
FFE9
000D
FFED
FFEE
FFF2
0002
FFF1
FFF8
0005
0001
FFED
FFE9
FFF5
FFF4
FFF4
FFED
FFFA
000E
FFEB
0003
FFEC
000B
FFF9
FFFE
000D
0007
FFF4
FFFF
000A
FFF9
FFEB
000B
FFF4
FFEB
0009
FFE9
FFF7
FFEF
0004
000C
FFFE
0006
0001
FFF6
0000
FFF2
FFFB
0004
0009
0007
FFE7
FFE8
FFF4
0007
FFEA
0007
FFFD
0000
FFED
0005
FFF2
FFEB
FFFF
FFF6
000E
0000
000E
FFF7
0013
0010
FFED
FFFE
FFF7
0016
0007
FFFF
000D
000A
0004
0009
FFF9
FFEA
000D
FFE9
0007
FFFA
FFF7
FFFD
FFF7
000A
FFF3
FFFB
FFEA
0008
0007
FFEB
FFF6
FFFF
FFEC
FFFE
FFEA
FFED
000A
000D
FFF1
FFF9
0004
FFF2
0009
0017
0013
0013
FFED
FFEC
0006
FFF3
FFFD
FFEB
FFFD
FFE8
FFF3
0008
FFEE
000B
0013
FFED
0003
000A
0010
0003
FFEA
FFF1
000E
0010
0007
FFFA
0008
FFF5
0005
FFFE
FFEE
0005
0001
FFF6
FFFF
FFFF
0007
FFF8
FFE9
FFF1
FFED
FFEC
FFEC
0012
0001
0012
0001
000B
FFF7
FFF9
000B
0007
FFEF
0013
0012
FFF1
0005
FFFB
FFFD
FFF1
FFF0
0005
FFFC
FFFE
0001
0004
FFF0
FFE8
FFEB
FFEF
FFF8
FFEA
FFEA
000D
0011
FFFF
000D
0004
0004
FFFA
FFE9
FFED
0004
0004
FFEB
0008
FFF6
0004
FFF9
FFF2
FFEF
FFEC
FFEC
0010
000C
000B
000B
FFEA
0002
FFFA
0002
FFFC
FFF6
000A
000A
000C
FFEB
FFF7
0013
000C
0003
FFF2
0004
FFF0
0016
FFEF
0000
FFF0
000D
000F
0013
0000
FFEF
FFFE
FFF4
FFF3
FFF9
FFFA
FFED
FFEF
0004
FFEA
0007
000B
0010
FFF1
000A
0003
000B
FFEB
FFED
0003
FFF4
FFFF
FFF5
0016
FFF9
0013
0013
FFEC
0011
FFF8
0006
FFF6
0000
FFF6
FFEF
FFFE
0004
FFFE
000B
FFED
FFFC
FFFC
0008
FFF0
FFF5
FFF3
0012
FFF0
000E
0010
FFE9
FFF6
FFEA
FFF7
FFF6
FFEC
000D
FFFF
000F
FFF5
0006
000F
FFF3
0003
0001
0011
FFF7
FFF0
FFF7
FFFD
FFED
0015
FFF3
0009
FFF8
FFF0
FFFF
0012
FFFF
0012
FFF8
FFF7
0013
FFF7
000E
FFF8
000C
0005
FFFD
0003
FFFD
FFF6
FFEC
0000
FFF6
FFF2
FFED
0014
0001
0004
000F
0015
000A
FFF5
FFF8
FFED
FFFF
FFFF
000D
0007
0004
FFFC
FFF7
FFF8
0011
0009
FFF6
FFFC
FFFD
FFF0
0008
000C
0012
0008
FFEB
FFF8
000C
FFEB
FFFC
0008
FFE8
FFEA
0003
000F
0006
0012
0001
FFF8
0008
000B
000D
0007
FFEB
000C
FFF7
0012
FFEA
FFF5
0014
FFEF
FFE8
000F
0001
000B
0000
FFF9
FFF2
FFFA
FFEC
FFE8
000E
FFFD
FFFA
FFF3
FFF6
0000
FFF5
FFF9
FFF9
FFF4
0007
0000
0000
0016
FFE9
0013
FFF6
0012
FFEE
FFFC
0000
0008
0015
0013
0005
000A
FFEE
0008
FFF9
FFFD
FFF0
0014
FFFC
FFEA
FFFA
000A
000B
0005
000A
0014
0006
0004
FFEE
0017
FFF6
0013
FFEB
000C
000F
FFEC
FFF2
FFEF
FFEF
FFF8
0007
000E
0016
000C
0018
FFED
FFEB
0006
FFFA
0013
0011
0014
000E
0006
0000
000F
FFFF
0000
0008
0004
FFEC
000E
000A
FFF3
0013
FFFF
0010
FFFF
FFF0
FFF9
FFEB
0004
FFF1
000A
0008
FFE9
FFEA
FFF9
0007
FFF8
FFEA
FFEB
FFFF
0003
FFFB
000E
0002
FFFE
FFE8
FFF0
FFEA
FFF1
FFF8
FFFA
0007
0009
FFEA
FFEC
0004
FFED
0004
000E
FFF2
0007
0006
000A
0012
FFF5
FFF9
0015
0009
0002
0010
FFEF
FFFD
FFEE
0011
0008
0005
FFF8
000F
0016
0005
0015
FFFC
000C
FFEB
FFEA
FFF8
0000
0004
0005
0010
FFFC
0005
FFED
FFE8
FFF1
FFFE
FFF6
FFFB
0013
FFEC
FFF0
000C
0002
000C
FFF8
FFFA
0009
FFF4
0006
0012
0004
FFF1
FFF1
0002
000E
0003
0005
FFF3
0005
FFF8
FFFA
0011
FFFB
000A
FFFC
FFF8
FFFF
000E
000A
000D
FFF8
FFFA
FFF3
FFF6
000D
FFEF
0010
FFF9
FFE8
FFFD
FFEC
FFF9
FFF3
FFF6
000F
FFF3
FFEE
0004
0012
0002
FFF9
0001
FFF3
000B
0006
0013
FFF5
FFF1
0005
0013
0009
FFF4
FFE6
FFFD
0002
FFE7
0004
FFEB
0005
FFFF
0013
000E
0001
FFE8
000B
FFF4
FFFA
000C
0006
000B
0007
FFF4
000C
0002
0013
000C
FFFF
FFFD
FFF7
FFF1
0003
FFF2
0008
0008
FFF3
000C
FFE9
FFF6
0010
FFEE
FFF4
000D
000F
FFF5
0002
FFF7
FFF2
000F
FFDB
000A
FFFE
FFFC
000A
FFF1
000F
FFEC
FFFD
FFEE
FFEA
FFF9
0005
0012
0001
0013
0004
FFEF
FFF0
FFFD
0009
0009
FFF3
FFF9
FFEE
0001
FFEA
0001
FFEC
FFF9
0002
0009
FFF4
0006
FFE7
0010
FFFF
FFF9
FFEB
FFFA
FFE7
FFFE
FFF3
000C
0011
0006
FFF6
FFFC
0005
FFEA
0003
FFF6
0005
FFFB
000B
0002
FFF1
0003
FFF8
0000
FFF7
0001
0007
000A
FFF3
FFF2
FFFA
FFF5
0009
FFF3
000E
FFF7
0005
FFEF
FFF6
FFF3
FFF4
FFFA
0009
FFEE
FFE8
FFFD
0005
FFF7
000C
FFED
FFFB
FFFE
FFFE
FFE8
FFFD
0006
0006
FFF6
FFE7
FFF1
FFE8
0008
FFF1
FFFB
FFF0
FFF3
FFE6
000C
FFF6
FFFD
FFEB
000D
FFFE
0008
0002
000A
0008
FFEA
FFFC
FFFC
000C
0011
FFFA
FFF7
0001
0008
0012
000B
FFF6
FFEE
FFEC
0003
FFEE
FFFA
FFF4
FFFF
FFF0
0010
0007
0000
FFEF
FFE9
FFED
FFE8
0001
0001
000D
000E
FFF1
0012
0001
0008
0013
FFFD
FFEA
FFE7
0015
0006
000C
FFF3
FFF4
000C
000E
000D
FFFB
0010
0008
FFF2
0010
FFF0
0005
0010
0017
FFFF
FFED
FFEC
FFFA
FFFD
0000
0001
FFF9
0010
0017
FFF3
0004
000F
0010
0013
FFF7
FFF0
000C
0012
000A
0011
000C
0011
FFFD
0000
0002
0010
0014
0001
0011
000B
FFEB
000A
FFF2
000E
FFF8
FFFE
000E
FFEB
FFEE
FFFC
0008
FFF5
0012
FFF7
0005
FFFE
0013
0015
000F
001A
0000
000F
000F
FFF7
0012
FFEF
FFFD
FFFB
000C
001C
FFF3
0008
FFE9
FFFF
FFF6
FFFC
0017
000B
0004
000A
FFFB
FFF0
0005
0006
0005
FFEB
000C
0011
0016
0009
0003
0007
0013
0009
FFFD
FFF9
001D
000A
0009
FFF0
0004
0016
FFFE
FFF0
0013
FFFC
0007
FFF3
FFFC
000E
FFFA
FFF1
0010
FFFE
0011
FFEC
0000
FFFA
0013
0005
FFEB
FFFB
0011
000C
000C
FFFD
000C
000B
FFEC
0010
FFEF
FFEF
FFF2
FFFD
FFF4
FFF1
FFF9
000E
FFFD
0000
FFF8
0012
0004
FFFF
FFEB
0009
FFF5
FFFD
0008
FFE9
0003
000F
FFEB
0013
FFF3
0001
0007
FFF5
0001
0014
FFFD
0012
0004
FFF1
FFFF
FFEF
FFF6
000E
FFF4
000F
FFE7
0006
0007
000D
0003
0015
0013
0012
FFEF
0006
000B
0014
FFEE
FFEB
FFF3
000F
FFF2
0010
FFE9
0009
FFF8
000C
0012
FFF9
0006
000D
FFFF
FFEF
FFF7
FFFE
FFF1
000C
0003
FFF2
FFF2
0010
0005
0003
FFFF
FFEC
0012
000C
000F
0004
000A
FFE7
FFEA
0001
0003
0006
000E
FFEF
0007
0006
0001
0006
0010
0005
0011
0003
FFF1
0010
000F
0014
FFF6
000A
FFED
0001
0002
FFFC
0005
FFFC
0018
0001
FFEC
FFFE
0003
FFFE
0010
FFF0
FFF5
FFF5
FFF6
FFF7
0002
FFF8
FFFA
000C
0014
FFEE
0011
FFF1
FFF9
FFFC
FFEF
000F
0018
0001
FFEC
0017
0018
000D
0003
000B
0009
0008
0015
0007
0019
0001
FFEE
FFEE
000B
FFF3
001B
0014
0005
0007
0010
FFEF
0018
FFF7
FFFE
FFEC
FFED
0012
FFF1
FFF5
FFF4
0004
0004
FFF6
0013
0016
000F
000E
FFED
0012
FFF4
0016
FFF3
0008
0012
000C
0006
0000
FFEB
0012
FFEF
FFFB
0016
0017
FFF2
0014
FFEE
0004
000A
000D
FFF7
FFF9
FFF4
FFE3
FFFA
0004
0008
FFFF
0007
001A
FFF3
0011
FFF6
FFF7
000F
0000
FFF4
0004
FFF5
FFF6
FFEF
0005
0014
0003
0015
0005
0000
FFF2
FFEC
000A
FFFB
0007
0004
0013
FFED
000F
0018
FFF6
0013
FFFE
0002
FFED
0009
0015
001A
0002
0006
0004
0000
0004
FFFF
FFFF
000E
FFF9
FFF3
0003
0006
000C
0004
FFF7
FFF9
FFFD
FFF4
FFF0
0000
000D
0003
FFEA
FFF7
0016
000F
FFED
FFFD
0003
FFFB
FFFF
FFF1
0002
0017
0002
0014
0001
0015
0000
0015
FFF8
FFF3
FFF1
FFFD
0012
FFFB
0012
FFEA
FFF3
000B
0002
000F
FFF9
000F
FFF2
FFF9
0018
FFFD
000B
0018
0008
FFF3
000C
000B
000D
FFF3
FFED
0014
0004
FFE8
FFEF
FFEA
000E
000D
0015
0007
0005
0010
0009
FFFE
0014
FFFE
0012
0005
0016
000A
FFE8
0003
000A
FFF8
0003
FFF1
0003
0012
000D
0011
0014
FFF6
FFF3
000C
000C
FFE9
0018
0003
FFEE
FFFE
0004
0001
FFF2
0008
0001
0016
0016
FFEE
FFF6
0008
FFFC
FFF3
FFF7
FFF7
0011
FFEC
0016
FFE9
FFFC
FFF7
000A
0005
0006
FFF4
0000
000F
FFFC
FFED
0014
000C
000C
000B
000E
FFF0
FFF3
FFF4
0006
0012
0009
000B
000F
0007
FFEF
FFEF
0008
0010
FFEE
000C
0002
0014
000A
FFF7
FFF6
FFFB
000A
0006
0009
0006
0008
FFFF
0016
FFFC
0005
0008
0008
FFED
0007
FFEF
FFF8
0015
FFF7
FFEC
001B
0005
FFFF
FFED
FFF6
000F
000B
0013
FFF3
FFF7
0013
FFF7
FFF9
0009
0002
FFFE
000A
FFF2
FFFB
000A
0013
000B
0011
FFFB
FFF7
001A
FFF0
FFF8
0012
000F
000C
0013
0015
0007
000F
FFF4
0000
FFF1
FFFD
FFF1
000E
0010
000F
0001
0015
FFFF
FFEC
0010
0005
0010
0008
FFF6
000D
FFE9
FFF9
000E
000E
0012
0004
0015
FFFD
0008
0015
FFF4
FFF6
0004
0012
0005
000D
FFEC
0017
FFF8
FFFA
FFF7
FFFA
FFFC
0016
FFFE
0002
FFF7
FFEC
FFF7
0011
000F
0014
000D
FFEF
0000
0001
0001
0007
FFF3
0014
0001
0000
FFE7
0009
0016
0014
FFEB
FFE7
FFF7
0004
0001
000D
000C
FFEE
0001
0007
FFFD
0001
0004
0002
FFF8
FFEC
FFEA
FFF9
0011
FFF5
FFFC
0014
0001
0009
FFFC
FFF2
FFFE
FFFE
FFF3
000F
0010
0004
000D
FFF2
FFF7
FFEF
000F
FFF9
FFF5
FFFA
000E
0011
000A
FFF6
000F
000F
FFF5
FFF5
FFF1
0015
FFEC
FFF0
FFEF
FFFD
0002
FFEE
0015
FFEB
FFFD
FFF7
0003
0008
FFFA
FFF4
FFE7
FFEA
FFF1
000C
0014
FFF1
0003
FFEB
0004
FFED
0006
FFEB
FFEB
FFF1
0004
000B
FFFD
FFEE
0011
FFEC
0002
0001
FFFA
000F
FFF4
0014
FFED
000B
FFFA
FFEE
FFF0
000F
FFF0
000D
FFE7
FFED
0014
0008
0013
000B
FFE6
000C
FFF1
0015
FFF2
0010
0011
0000
FFE6
0012
FFFE
FFE8
FFF5
000B
FFE9
000D
000A
0009
0006
FFF3
FFF4
0005
FFFD
0007
FFEF
FFF4
0003
FFE9
FFED
0011
000E
FFF9
0002
0007
FFF7
0012
FFFC
FFEB
FFED
FFF1
0002
000A
FFEC
FFF2
FFFD
000E
0004
0000
FFE5
FFF8
0005
0003
FFF1
0013
000F
FFEF
FFE7
FFFF
0008
000F
000D
FFFE
FFF9
FFEE
FFF8
0000
FFFC
FFEA
FFE8
0006
000D
FFFF
FFF1
000F
FFF1
0001
0006
000E
FFEB
FFE9
0011
000D
FFE9
FFFA
FFEC
000A
FFEC
000F
FFF6
FFF1
FFFB
000E
FFF1
FFF1
FFF6
0007
FFF6
FFF4
FFFA
000B
0008
0010
0012
FFE6
000B
000C
FFE7
FFED
0002
FFF8
FFF9
FFF1
0001
FFF8
0005
000D
FFFF
FFF5
FFF8
FFE7
FFFA
0000
0002
000A
FFEB
000A
FFFC
FFFD
FFFD
0000
FFFF
0003
0003
FFFF
FFFC
FFE7
FFFE
FFF8
FFEC
FFEB
0011
0007
FFF9
FFFA
FFEE
000D
FFEC
0002
0015
FFED
0006
FFFA
0001
0003
0005
FFF9
FFFA
000E
0002
0012
FFEB
000E
0017
0001
FFFF
FFFE
0009
FFF6
000B
0003
0001
0011
FFEE
FFF6
0005
000C
0010
FFF8
FFF3
FFF8
0011
FFF2
FFEA
FFE9
0002
0005
000F
FFF9
0015
FFF3
FFF3
000E
FFFD
FFFF
FFEC
000B
FFF3
FFE9
FFF5
FFFC
000F
FFF4
0010
FFFA
0007
FFFE
FFF1
FFF4
FFED
000C
0012
FFFF
FFF2
000C
FFF0
FFF3
FFEC
0001
FFF1
FFED
FFFB
FFFA
FFF9
0009
FFEF
000A
FFEE
0009
FFF5
FFF3
FFF9
000A
0006
FFF8
FFF1
000F
FFFB
FFF2
000F
FFF0
FFEA
0009
FFFF
FFF5
FFFA
FFF1
0013
0009
000C
0006
FFEF
FFEB
FFEF
FFFF
0016
000E
FFEE
0008
0014
0013
FFFF
FFF2
FFFB
0000
000E
FFF4
000A
0002
FFF9
0002
0003
FFEC
FFE7
000B
FFFC
0012
FFF8
000B
FFE5
FFF5
FFF0
000B
FFE6
0009
0003
000E
FFEB
FFFF
FFF6
FFFB
0004
FFF5
0006
0001
FFEB
0006
FFFE
0006
0004
0005
0001
FFEA
FFEA
0012
FFF8
0015
FFEA
FFEF
FFF6
0011
FFF9
FFE6
FFFB
0012
FFE7
FFEE
0007
0009
0001
FFF9
FFFE
FFFE
FFFD
FFEF
FFFD
0005
FFFD
FFFA
FFF7
0011
FFFC
FFF8
FFF2
FFFF
FFEF
0006
0006
0000
000E
FFEF
000C
0007
FFF4
FFFE
FFF7
FFEC
FFF8
0003
FFF6
0011
FFF0
FFE9
FFEA
FFF5
FFFB
FFFE
000C
0000
000C
0011
FFF5
FFEB
000E
0010
0001
FFF4
FFED
FFE7
000D
0012
0010
FFF1
000F
FFF8
0012
0001
FFFE
000D
FFE9
FFE9
0003
000E
0003
FFFD
FFEA
FFF5
0003
000A
0011
FFE8
000D
0012
FFFD
FFF7
FFF6
0003
0011
FFEC
FFF7
0007
0000
0006
FFEA
0014
0008
FFF8
000A
000F
0004
0001
FFED
FFEC
000D
FFEE
FFF4
FFFA
FFE8
0001
0011
0007
0012
0009
0006
0015
FFFB
000D
FFF9
0012
FFEB
FFEB
000C
FFEE
FFE5
FFFA
0008
FFEC
FFFB
0002
0009
FFFF
000D
FFED
FFF6
FFF3
0005
0001
FFFF
FFF9
FFF4
0005
FFF1
FFEF
0006
FFF0
FFFC
FFF5
FFFE
FFF5
FFF7
FFF3
0011
000B
000F
0006
FFFA
0011
0003
FFF1
0012
000C
0003
0005
000D
FFFD
0014
0001
000F
000E
0003
FFE8
0001
0007
FFE7
FFF1
FFED
000E
000F
0000
FFEB
0010
FFE9
000A
FFF0
FFF4
0010
FFFB
000C
FFE9
0003
0017
FFEF
0002
0005
000E
000A
FFFD
000B
000A
FFEE
FFFA
FFFA
FFF4
FFFF
FFF8
FFF2
FFF1
FFE8
0006
0004
FFF0
FFF9
FFF8
000D
000E
FFFF
000E
000F
FFF9
000D
FFFA
FFF3
0002
FFF2
000A
0010
FFF2
FFEA
0008
FFEF
000F
FFFD
0013
000E
FFFC
000A
000B
FFFA
0002
0012
FFF4
FFF9
FFF9
0006
000E
FFF4
FFF7
000E
0012
FFE9
0002
FFF0
FFE8
FFF6
FFFB
FFFF
FFF2
0001
0013
FFFF
FFFA
FFFE
FFF5
0012
FFFB
FFF8
FFEF
FFFF
0013
FFF1
0010
FFFA
FFF1
FFF1
0001
FFE9
FFFE
0003
0005
FFFF
0002
FFF8
000F
0002
000D
FFF0
FFEE
FFFC
FFEB
0007
0009
FFF5
0002
0010
0003
000D
FFEE
000A
FFF0
FFFE
0010
000A
0004
FFE9
0001
FFF3
000C
0000
FFFF
0004
0000
0004
FFFA
0015
FFE8
FFEC
FFF8
0014
FFF8
FFF6
FFEA
FFEE
0013
0001
0009
FFEB
0005
000B
000D
0015
FFEE
FFF0
FFFD
FFF9
FFFF
0001
FFFC
FFEE
0011
FFFF
FFFC
0001
0004
001C
000B
000B
0017
0014
0000
0014
FFF1
000F
0002
FFFA
FFFC
000E
FFF8
FFFC
FFF9
0009
000D
001A
0009
0012
0003
FFF9
000F
FFF1
FFF9
FFFB
FFF6
FFFD
FFF6
0015
FFFA
FFF6
FFF1
0001
0015
0011
FFEF
0010
FFFF
FFEF
0015
FFF7
0018
0012
FFF1
FFF9
0013
FFFF
0010
FFF5
FFEA
0005
FFFA
FFF5
0001
000D
FFF4
FFF9
0010
0009
0000
FFEE
FFFC
FFFF
000F
000F
0010
FFFA
FFFE
0005
001B
FFFC
FFFC
0001
FFFE
FFFB
000B
000F
FFED
FFF5
FFFA
000E
FFFA
001C
0006
0009
FFEC
FFF9
0002
0007
0000
FFF0
FFF8
000B
0000
0009
000D
0024
000A
FFFC
0014
0007
0007
FFFF
FFED
FFFE
0002
000A
FFF7
0011
0013
000F
FFFE
FFED
FFED
FFFD
FFFC
0005
0001
0018
0011
000D
0018
FFF3
FFF2
0014
FFFC
0011
0019
FFEF
0012
0003
FFEE
0016
000B
FFEB
0015
0014
FFEF
000E
000E
FFF0
000B
000B
0004
FFF5
FFFF
0007
000E
FFF8
000B
FFFD
000F
FFFD
FFEE
000A
0009
FFF6
FFF4
FFF2
000D
FFF7
000E
0014
FFFE
0004
FFFC
FFF8
000F
FFF5
FFF7
0011
FFEF
0000
000C
0007
FFF3
000C
FFF0
0014
0009
0002
0006
FFF5
0007
000D
0010
FFEF
0001
0003
0014
FFF3
000B
000D
FFED
FFF5
000E
0010
0016
0016
0017
FFFF
000F
0012
0000
0018
FFEF
0001
000D
FFF4
FFF5
0004
FFFD
0017
000F
001A
0005
FFF0
0011
000F
FFF4
FFFC
FFF8
FFEE
FFFF
0017
0011
001B
001A
0003
FFFC
FFFF
FFED
FFFA
FFF7
0006
FFFB
001A
0005
FFF8
0003
FFEB
000C
0009
FFEE
FFF5
FFEF
FFFB
0018
FFF0
000D
0018
FFEF
0009
000B
0004
0016
0002
FFF5
0018
0018
0001
FFF5
FFF2
0012
FFFF
0014
0011
000E
FFEB
FFF0
0001
0009
000D
FFFD
000C
0012
0007
0010
0018
FFFF
0008
000C
001B
0016
FFF3
0019
0000
000B
000C
0012
FFF4
0016
0016
0011
FFFC
0006
0010
FFF8
FFFA
000E
000F
000D
FFF7
0005
000E
0003
000A
0009
0006
000F
FFFB
0011
FFFC
000B
0010
FFF2
FFEF
FFFC
FFFE
0007
0010
0015
0014
FFF6
000D
001B
FFEF
000E
0001
FFF1
FFFE
FFFD
FFF0
FFFD
FFF3
FFFA
001A
FFF3
0006
FFF3
001A
FFEC
FFEE
0010
0018
FFF3
FFFE
FFFF
FFF7
0011
FFFF
0014
0022
FFFF
0014
0005
000D
FFF8
FFF0
0014
000D
000A
FFF5
000F
0008
0010
FFFC
0003
0010
0005
FFFF
000E
FFFF
FFF6
0015
000F
FFF8
000B
0008
FFFE
001E
FFFF
0000
000E
0002
0010
001F
001C
FFFA
FFF9
000F
0000
FFF5
FFFD
000E
0000
FFFF
0009
000A
0006
FFFF
FFF8
FFEE
001C
FFF6
0018
0018
FFED
0006
000C
000F
000A
0012
001F
0006
FFF2
000F
000F
0015
FFFC
0015
FFEE
0019
FFF4
0000
FFF6
FFFA
FFFD
FFF5
FFF8
0015
0000
0006
FFFB
0008
000C
0009
0003
FFF7
FFF6
FFFB
FFF9
0004
0000
FFED
0006
0010
0007
0011
0006
FFF1
0000
FFEF
000D
FFF9
001A
FFEC
0009
000F
FFED
0018
000B
FFF1
FFEE
000E
001B
000E
0015
0006
0012
FFFC
001A
001B
FFF5
FFF2
0008
FFF7
FFEF
0001
0001
0004
0017
FFFE
0006
0009
0002
FFFE
0014
FFEE
0010
0009
FFF3
FFFA
000E
FFFB
0002
FFEE
0008
000D
FFF5
000A
FFFD
0001
0011
0001
0017
FFFF
FFF9
0007
000C
0007
FFE9
FFE8
FFFF
0006
FFF7
0012
FFF7
0007
000A
000E
0006
0000
000B
FFFE
FFEB
000A
0011
FFF7
FFEF
0004
FFFE
FFF4
0010
FFFD
0001
0011
0016
FFF4
0009
0001
FFEB
0008
FFFB
FFEB
000D
0001
0004
0001
FFF6
000E
FFEA
0008
FFEB
0011
FFFC
000C
FFF0
FFF8
0012
0009
0014
000F
FFF0
FFF9
FFFB
0001
0004
FFF7
FFE9
0010
0006
0000
FFF9
FFEC
000C
FFFF
FFEE
FFF5
FFEF
0005
000B
FFEA
FFEF
FFF2
FFEC
FFF1
FFED
000E
0006
FFEB
FFEA
FFEE
FFF7
0004
000B
FFFB
FFF4
FFEC
0006
FFF7
000F
0011
0012
FFED
FFE9
FFF2
0008
FFFC
0000
0001
FFEE
FFF5
FFF8
0001
FFF4
000F
0011
0011
FFE9
000F
FFED
FFFB
FFF2
FFFB
0004
FFFF
FFF7
FFF3
FFFA
FFEC
FFFA
0003
FFE8
000D
FFE8
FFED
0010
0010
FFF5
FFEF
FFFE
0013
0002
FFF9
0016
FFF5
FFEF
FFF6
0000
0018
0016
FFF2
0015
FFF9
FFFC
FFFF
FFFA
0018
0016
FFEF
FFF7
FFFD
000A
0011
FFFB
0016
000A
FFF6
000E
0013
FFF3
0013
FFFD
FFF6
0016
FFF1
0007
0004
0009
0015
0014
0006
FFF0
000B
0017
000D
0013
0013
0001
0006
0003
000B
0011
FFEC
FFFF
FFFF
0003
FFEF
FFF3
FFED
0013
FFF4
FFF6
0005
0002
FFED
000B
0005
001A
FFFD
000B
0006
FFEE
FFFE
FFEF
FFEE
000A
FFF3
000C
0001
0012
FFF4
0007
000A
FFF5
000A
FFF3
0005
001A
0009
FFF8
FFFC
0016
000D
0008
0016
000F
FFF2
FFF1
FFFC
FFF6
0004
0017
0006
0012
0003
000F
0018
000E
0013
001A
0008
FFF3
FFF8
000F
FFF3
000D
FFF8
FFF5
FFF8
0014
0019
FFFF
FFFF
FFE8
0001
0003
0000
FFF7
000D
FFEA
FFF1
FFF1
0000
0010
FFF6
000E
000C
FFE7
0006
FFEB
000E
FFFA
0003
FFED
FFEB
000D
FFE9
0002
0005
0004
FFF1
FFFE
FFFA
0014
FFEF
000A
000F
0004
000A
0014
FFFB
0008
FFFA
FFF5
FFFE
000E
FFFC
FFFA
FFF3
0011
0004
000A
FFED
0008
FFFB
FFEF
FFF2
0010
FFF5
0000
0007
0013
FFF1
000B
0014
0007
FFF1
FFF2
FFFD
0003
000C
FFEE
FFF9
FFEE
FFED
0000
FFE7
FFF1
000D
FFF8
FFF4
FFE8
FFE9
FFFC
0002
FFE6
FFF3
FFFC
FFF1
0011
FFEF
0011
0008
FFF7
FFF4
0008
FFED
0007
0006
FFEE
FFEA
FFFA
FFFD
0007
FFEE
FFF1
000E
FFF9
FFF0
FFFA
FFF7
FFF1
0002
FFE9
0002
FFF9
FFF9
0006
FFED
0009
FFE8
FFF0
0009
000E
FFED
FFFA
0010
FFF1
FFEF
000E
FFF1
000C
0006
FFFC
FFED
FFF3
FFF2
000C
0005
0013
FFF2
0000
0012
0000
FFFB
0010
0009
FFF6
FFF4
FFEF
0006
0002
FFFD
000A
0001
0005
FFE8
FFEC
0004
FFFE
FFEA
000F
FFF1
FFF1
0010
0005
FFF3
FFEA
0011
FFF6
000B
FFF0
000C
0009
FFE7
FFEB
000B
FFF3
FFFC
FFF6
FFF8
0017
FFE7
FFE9
FFFF
0012
FFF5
FFE8
FFF7
FFE7
0012
000B
0009
000A
0004
FFEC
0010
FFFB
000D
FFF2
0003
0008
000F
0007
FFFF
0013
0005
0015
FFF0
0005
FFFA
0012
000A
FFEE
FFF2
FFFF
FFF2
FFF8
FFFD
FFE8
FFE7
0013
0007
000B
000E
FFFC
0011
000B
0010
FFF0
0006
0002
0008
FFF7
0015
0000
0003
FFE9
FFFF
FFFF
0005
0007
FFF2
FFFE
FFF8
0007
0002
FFFE
0007
0001
000E
000B
FFEC
FFF5
0011
0008
0000
FFFE
FFFD
0018
0006
0014
FFF8
0001
0006
0017
0018
FFF7
0016
0011
0019
0016
FFF3
0014
FFF3
000C
000C
0003
FFFD
000A
0005
FFFB
000A
FFEE
0000
FFF9
0011
0006
0018
0005
FFF5
FFF0
FFF0
FFF5
FFFE
0009
0008
0004
000E
FFEF
FFF3
FFF6
FFF7
0012
FFF1
FFF6
FFFB
FFF9
0007
000D
FFF2
0015
000E
FFFE
FFE9
0005
000C
0018
FFEB
000E
0002
000E
FFF1
000F
000F
0010
0008
0001
0000
0002
FFFA
0009
0011
0019
FFF5
FFFD
0018
FFEB
0011
FFEC
0016
0004
000D
0003
FFF4
0006
FFFE
000E
0000
0002
000C
0016
0012
0012
0016
0004
000D
000F
000C
0008
0006
0019
FFF1
FFF1
0010
0014
0014
FFF9
FFFF
000F
FFF8
0015
0013
0004
FFEB
000E
FFEE
000D
0006
FFEF
FFF7
FFEC
FFF5
000B
000A
FFF0
FFF2
0007
0003
FFEA
FFE8
FFF4
0018
FFFF
FFFD
000E
FFF4
FFF4
0009
FFFD
0009
FFEA
FFE7
FFEF
FFF4
FFF6
FFEE
FFF7
FFFB
0006
0001
0000
0007
FFF2
0011
FFF1
FFF6
000D
FFFB
0003
0007
0008
FFF6
FFEF
000F
FFE8
0007
FFFE
0001
000B
FFF0
0009
0003
0007
0012
FFF7
FFF1
FFFE
0009
000F
FFFD
FFEB
0008
000D
0012
FFFC
0007
FFF1
FFF9
000F
FFEF
0010
0009
FFF7
000F
0012
0007
FFF7
FFF5
000B
FFEB
FFFA
FFFE
0010
FFEB
FFE8
FFF8
FFF0
FFFE
FFFA
FFE7
000E
FFFA
FFEC
0009
0011
0005
FFF7
FFF6
FFFE
000D
FFF0
FFF3
000F
0009
FFF0
000D
000B
FFE7
000A
FFFD
000C
FFEB
0013
FFFA
FFE8
000F
0008
FFF9
FFEE
000C
FFF7
000C
000D
000F
FFEC
FFFF
FFF3
0013
FFF9
FFEA
0010
FFEA
FFF0
0013
FFFE
0002
FFF9
FFED
FFE7
0011
FFF4
0002
0013
FFEE
0002
000F
FFFE
FFEF
FFF2
0013
0000
FFFC
FFFF
FFF0
0008
0000
0003
000B
000E
0007
0007
0004
0012
000B
000B
FFFC
0008
0004
0001
FFF9
FFEA
FFFF
0005
0007
FFF2
0004
FFF5
000E
FFF5
FFF9
FFEF
0009
FFED
0005
0009
FFEC
000A
FFFC
FFF4
0006
000A
FFF2
FFFA
0007
FFFC
0006
FFFB
0001
FFF0
000A
FFF7
000D
000F
0002
FFFD
FFF4
FFF7
0009
000A
000C
FFFF
FFFC
FFEC
0006
0013
FFFF
FFF3
0010
0002
FFFB
FFFC
FFEC
0008
0000
0012
0010
0006
FFE9
0003
FFE8
FFF3
FFF7
FFF5
FFE2
0003
0004
FFE8
0000
000C
FFFC
FFE9
0005
0007
0007
FFFE
FFED
0001
0000
000E
0005
000D
000F
000E
FFF7
FFF9
FFF5
0000
0015
000A
FFFA
000D
FFFF
FFFA
0010
FFFA
FFEF
0000
FFFA
0014
0002
FFF1
FFF5
FFF8
0010
FFF1
FFF9
FFF9
FFED
0006
0015
0015
0016
0011
FFFE
0017
000A
FFFF
FFF1
0016
FFF1
0014
0018
0002
FFF3
0007
FFFD
000C
FFF1
FFF4
000B
0015
FFFB
FFF6
FFEB
0024
0008
0001
FFF9
0013
0005
000A
0010
FFFD
0004
FFEC
0003
0013
000C
FFF4
0007
0017
FFFD
FFF4
FFE6
001A
FFF5
FFFB
FFF2
000A
FFF9
FFEF
FFFB
0012
0005
0013
FFE9
0008
FFFA
0006
0007
FFE8
0005
FFF4
FFF3
FFE9
000C
0017
001B
0013
FFF9
FFF9
FFFA
0016
0000
000D
0012
FFF9
0012
0019
FFFC
FFF7
0020
000A
FFF1
000F
0015
000D
FFF6
FFF0
0005
FFFA
FFF1
FFFD
FFF3
0010
0002
0012
0000
0006
0006
FFFA
0016
0013
FFFC
FFF5
0005
FFEE
FFF1
FFFF
0011
FFEC
0018
0010
FFF0
0014
001B
0003
0003
FFF4
000D
FFFD
001A
0015
0000
0007
FFFC
0017
001B
0010
0003
000E
0017
0006
0015
FFF0
FFFE
FFFC
0003
FFF4
0007
FFF1
000B
FFF1
FFFE
000A
0016
000C
FFFA
FFEE
0009
FFF9
0016
0002
FFF2
FFF2
FFF8
0008
0006
FFF4
000A
0009
FFFD
0001
FFEF
000D
FFF4
FFFD
FFF7
0015
0005
FFF1
0004
FFEF
FFF0
0004
FFFD
0007
FFFE
0007
FFF4
000C
FFF4
0004
FFFD
0004
0002
0002
0017
FFEF
FFF6
000C
FFFA
0005
FFF9
0014
000E
0018
000F
000C
0000
0009
0004
0007
000E
0005
0008
FFEC
0001
FFF8
0018
FFE9
0019
0007
0016
0004
FFF6
0003
0013
FFEC
FFF3
FFF3
0017
0000
FFFA
FFEF
0002
FFF7
FFF9
FFED
0007
0017
0003
0010
000E
000F
FFF4
0000
0016
0013
0015
FFF6
FFF9
000E
0014
001A
0009
FFFD
FFFA
000C
0001
0013
FFF6
FFF6
0017
FFF8
FFF1
FFEA
0010
0014
FFFF
0010
000D
FFFD
FFFF
FFEF
000D
0002
000F
0005
FFF2
001F
001C
000F
0012
000C
0000
FFFE
0010
0015
000D
000F
0011
FFFD
FFFA
0019
0016
0013
FFF6
0016
0009
0000
FFFD
000C
0002
0019
000E
0003
FFF4
FFEF
0005
0017
0009
FFFE
0019
FFF6
FFF9
0010
0019
FFFF
0006
0006
FFEC
0004
FFFB
FFF9
FFEF
FFEB
001A
000A
FFF4
0009
000D
000E
0008
0017
FFFB
FFF0
0010
FFF2
0008
000B
0017
000B
0012
FFFA
FFEC
001D
001B
FFEE
000F
FFF2
0008
0010
000E
000E
0015
0011
0013
0000
FFFC
0017
0007
0002
0004
0011
000A
FFFF
FFFC
FFF5
0016
FFFE
0014
FFF1
FFFD
0019
0014
FFF5
0009
FFFF
FFFE
0015
001C
FFF6
FFFD
FFF7
0000
000B
FFF1
0003
0004
FFFE
FFF8
FFFD
0000
0004
FFF6
0010
FFF9
000C
FFF7
FFFD
FFE8
FFF1
FFEB
FFEC
0014
FFF0
FFF2
0009
000F
FFFD
FFF1
FFFC
001B
0017
FFF6
FFE7
FFE8
0008
FFEC
000D
0005
FFF4
FFFF
000A
0005
0015
0014
000D
FFFA
FFF0
FFFE
000C
0009
FFF7
FFED
FFF3
FFFC
0015
0006
FFF1
FFFE
0003
0011
FFEE
0010
0002
0007
FFFF
0010
000F
FFF1
0000
0005
FFEB
0011
0012
FFEE
FFFD
0001
000B
000A
0020
000C
FFF6
FFFB
FFF7
FFFD
000E
FFF0
FFFD
0002
FFFC
FFFB
000A
001D
0004
FFFA
FFEA
0004
0004
000B
FFF0
FFF4
FFFF
0002
0006
FFF4
000D
FFFF
FFED
000F
FFFB
0004
FFEF
FFFB
FFEB
FFEE
FFF3
0013
000E
FFF8
0008
FFFE
FFFC
000E
0016
FFF9
0011
0002
FFFB
0004
FFF8
FFED
0003
0006
0010
0000
FFEE
FFF2
FFF5
FFFF
0005
0010
0009
FFEE
FFFB
0005
0000
FFF8
000A
0004
FFF1
001A
FFF9
000D
001D
0004
0007
0012
FFEB
0005
000D
0017
FFF6
FFF4
0007
0012
0002
FFFD
FFFC
FFF3
FFF5
FFF3
FFEF
0007
0002
FFFA
0001
FFF8
0014
0011
000F
0007
FFFC
000D
001B
FFED
0008
000E
000C
FFF4
FFF1
FFFC
0002
0007
000C
000A
0009
FFF5
FFF5
000E
FFE2
0015
0010
FFF6
0016
FFF4
0018
FFFC
001C
000F
FFED
FFF5
0005
FFF2
0016
0003
FFF0
0016
FFFF
0007
000A
0004
0002
0014
0001
FFF6
FFF7
FFF4
0015
0016
0005
FFF5
FFFC
0005
0013
000B
FFEF
0015
FFFD
FFFA
FFF6
000E
FFF9
FFF0
000B
000D
0001
0000
FFF8
0008
0009
0000
000E
FFEB
0005
FFF4
FFFA
0002
000C
FFF0
FFEF
FFF5
FFED
0000
0010
000D
FFF5
000F
FFF3
FFF9
FFFA
0006
FFFA
000F
FFEB
FFF9
000E
FFEB
0013
FFF4
0009
0001
FFFB
FFF2
FFFE
000B
0009
000A
0008
0013
0008
0012
FFF6
000A
000E
FFE7
0007
FFF1
0003
FFF9
0011
0003
FFF6
FFF3
FFE6
FFFB
FFEE
FFE5
0008
FFEE
000C
FFF7
FFF6
0009
000E
FFEC
FFE8
0003
0002
0003
FFFC
000D
FFF3
0006
FFE8
FFFB
0011
000A
FFFC
FFEE
FFEA
000E
0010
FFE7
000A
0002
0007
FFEC
0007
000F
FFEC
FFF3
FFF0
FFF1
FFF3
FFFA
0001
0000
FFEA
FFFF
FFF8
FFF1
FFFE
0002
FFF4
FFFF
FFF5
FFEC
FFED
FFFC
FFF6
0003
FFFC
FFED
FFFE
FFFC
FFF3
0002
0012
FFF6
0001
FFFA
FFE5
0003
FFF7
FFFC
0004
FFF9
FFE9
0004
000D
0012
FFFB
000F
FFFC
0019
FFF7
000F
FFF6
0011
0009
0013
0009
0009
FFFB
0019
FFF3
001A
0001
000B
000F
0008
FFEF
0016
000C
FFEF
FFF0
FFFA
0014
001A
FFF2
000C
FFEC
0004
0003
FFFF
0003
0000
FFF4
FFEE
001D
FFFB
0008
FFEE
FFF4
0016
FFF3
0015
FFFD
0009
000E
FFEF
0012
0009
0014
FFED
FFFB
FFED
0005
FFEF
001B
FFF5
000A
0002
FFED
FFFB
FFF9
FFF0
0009
FFF1
0009
FFF5
FFF0
FFF2
0011
000B
0008
0002
0000
0016
0004
0000
0007
0002
FFFB
FFF3
FFF3
0005
0005
FFFA
FFF8
0012
000D
0011
0000
0002
0010
001D
FFF2
0012
000C
FFF4
FFF8
0005
0006
0003
000D
FFF4
000D
FFF3
0008
0010
0004
FFEC
FFEF
FFF3
FFED
FFFC
0012
0005
FFFE
FFF6
FFF9
FFF9
0002
000E
FFF2
0015
0002
0007
0014
001D
0017
FFF8
FFF5
FFE9
FFFB
FFF7
FFEE
0005
0007
000A
FFFB
0001
FFFF
0004
0005
FFFB
0018
FFEE
0006
FFFF
FFFD
FFEF
000A
0008
FFFF
0011
FFF8
000A
FFF2
000A
FFF8
FFFA
0007
FFFE
FFEF
0010
0016
0006
FFFA
000F
FFFC
000D
0012
0009
FFF8
FFF7
0015
000D
0007
0009
FFF2
0002
0010
0004
0004
FFF8
001A
0013
0003
FFFB
0015
000C
FFF4
FFF1
0014
0010
0000
FFEF
0000
FFF5
0009
FFF9
FFEC
FFFA
FFEE
0016
FFEB
000B
0016
0000
000C
0016
0013
FFF9
0011
FFF7
000E
000E
000B
FFED
FFF9
FFF9
000B
FFFC
0015
0015
FFF4
0001
FFFC
0013
0019
FFF5
0008
0010
FFF4
FFFA
0001
0008
0014
FFEC
FFF7
0014
FFFF
000C
0012
0016
0011
000F
FFF8
FFFB
FFF3
0010
0000
FFF5
FFF1
FFFA
FFFF
0007
0008
FFFD
FFF3
0002
0006
0002
FFEE
0019
FFEF
FFED
0000
0003
FFFF
FFFA
FFF1
FFFF
001B
FFF6
FFF2
0013
000F
0012
FFF6
FFF7
0014
FFF5
FFFC
0010
0011
000B
0016
FFFF
FFF6
0013
FFFB
0013
0010
FFE8
FFF8
FFF4
FFF5
0017
0002
FFEF
0004
FFFC
0007
FFF8
0001
FFED
FFFF
FFFD
000E
0010
001A
FFF8
0018
0017
FFF5
FFE7
FFFD
FFE9
0014
0013
0011
FFFF
FFEF
0013
FFE8
001F
0003
0015
FFF2
FFF0
0007
0027
FFEA
FFF7
0021
FFFA
0011
0004
001B
0011
0016
0001
FFF1
FFF9
FFF5
001A
FFEE
FFF6
0000
FFF7
FFF7
FFE9
FFF1
000B
0013
FFF6
FFF8
FFEC
0023
FFEF
0023
000E
FFF3
0015
001A
0006
FFFA
000C
FFEC
FFED
FFF7
FFEC
FFF2
0028
0015
0013
000D
FFEB
FFF8
001B
FFEC
0005
000C
FFE4
FFE0
FFE8
FFE9
FFF0
0004
FFE2
FFFD
0002
001C
0013
001C
0016
FFF6
FFF4
000D
FFE2
FFE2
0005
FFE3
0004
001A
FFFE
0004
FFE5
0001
001C
FFE8
FFE1
FFF9
FFFD
FFE0
FFF0
0010
FFE3
FFE3
FFE8
FFF6
000F
FFED
FFF0
0008
0002
FFE1
FFE6
FFE5
0014
0012
FFE9
FFF4
001E
FFED
0000
FFE3
0013
0015
FFE1
FFFA
000D
001E
0001
FFE1
0011
000B
FFE7
0000
FFFE
FFEB
FFF4
0018
0012
FFF7
FFE0
0012
FFEB
0016
0008
000C
0001
FFE9
0008
FFE6
FFF4
FFED
FFF6
0005
000B
0007
001D
001F
0017
FFFB
0013
FFFE
FFEA
0017
0009
001E
001A
0016
0001
FFFD
FFF6
0016
FFFE
0003
FFED
FFEA
0004
000A
0017
FFFE
0004
FFFA
FFEC
001B
FFF5
FFEE
000F
FFFC
001B
001E
FFEE
FFEC
FFFD
FFF5
FFE2
0015
0013
FFFD
0013
FFDF
000D
0005
FFF1
000F
0015
0009
FFE5
FFFE
001A
FFDF
0012
FFE5
001B
FFE3
FFF2
FFD8
FFF0
0013
000F
0011
FFF8
FFF3
0015
0003
000E
FFE7
FFDE
0004
FFF4
0001
FFE4
000B
FFDE
001A
FFE1
0019
0001
FFDD
000E
FFF5
0010
FFEB
FFF5
0013
FFF5
FFFA
0008
0009
FFE3
0015
0018
FFE5
FFE4
FFF9
0010
000D
0021
FFE8
FFF8
FFEB
FFE9
FFFD
000D
FFF5
FFFF
0004
FFEF
FFF4
0017
FFF8
FFFF
0013
FFE4
0008
FFF6
FFF7
0019
0018
FFEA
FFF2
0007
000C
FFFB
FFF2
FFE2
000C
0018
0011
0016
001B
FFEB
FFF8
0003
0012
FFFE
001B
0004
0010
001F
001A
FFEE
FFEE
0007
0015
FFEA
FFED
000E
FFF5
000C
FFEA
0002
FFE3
FFE7
FFE0
FFF9
FFFE
FFF1
FFF0
FFF4
000A
FFFB
FFFB
001B
0011
FFE7
FFE8
FFE8
001C
FFFC
FFEF
0019
FFEF
0019
0002
0017
FFEA
FFE3
FFE9
0002
FFF7
FFED
0007
0014
001D
001B
0003
FFE5
FFDE
0003
FFFF
FFFE
001D
0003
FFEF
000C
FFFF
0016
FFFF
FFEC
FFE5
FFF7
0007
FFEF
0009
FFEC
FFF4
FFE3
FFEC
FFF8
FFF6
FFF2
0005
FFE2
0007
000B
FFF6
FFEB
000C
FFEA
0000
FFED
FFEB
FFF4
0004
001A
FFE4
000E
0007
0015
FFE1
FFE4
FFF5
FFEA
FFF3
001A
FFFE
000A
001C
FFEE
FFF4
000B
FFE7
FFFB
FFF3
FFF2
0009
FFE4
0004
FFFA
FFE3
000D
000C
FFE2
FFF0
0012
0011
FFED
FFE0
FFFF
FFE9
0016
0013
FFF6
FFE2
FFEC
0013
000B
0002
FFEE
FFF7
FFF2
000A
0009
FFED
FFF2
FFFD
FFDD
0012
0009
0013
0017
FFF2
0010
FFFE
FFFB
0016
FFFB
0019
FFF9
0006
0018
0006
FFF9
FFFE
000E
0003
0020
0016
0015
FFEF
0002
FFE4
0009
0022
0024
FFEA
FFF2
FFED
0004
0005
0018
0021
0019
0011
0012
FFE9
0022
FFE5
0021
FFF7
FFFD
FFFF
0015
0014
001B
000D
000B
FFFA
FFEB
FFFE
0003
0010
0021
001D
FFFB
0019
FFED
001A
FFF1
FFF0
0002
0004
FFF3
0019
001A
001A
FFF4
000F
FFED
0016
001D
FFE8
0014
FFF5
000A
FFF1
000C
000A
001E
0003
FFEF
0008
FFFF
001C
0015
0015
FFE6
000B
000E
000A
FFEE
FFE7
FFEC
0010
0019
FFEA
0008
0015
FFFB
FFF8
FFF2
0021
FFF5
000E
FFE7
0022
000C
0020
FFE7
0012
0015
FFF5
FFE6
000F
0015
0020
0014
FFF8
0011
0019
0008
FFF8
FFF6
0022
0010
FFEB
0022
0010
0003
001C
FFF7
000E
FFF9
FFF9
0010
FFE5
FFE8
FFDD
FFFC
0014
0012
FFEB
0002
FFF0
FFEC
000F
0015
FFEC
0001
FFDF
0006
FFF4
000E
0008
0006
FFF4
0004
FFDF
FFDF
FFF2
000C
FFE7
0006
FFE7
FFFB
FFE6
000B
0005
0009
000F
FFE6
FFFB
FFF4
0007
0014
FFDF
FFE1
0011
0005
FFEF
0000
FFF9
FFF0
FFEF
FFE0
FFE4
0002
0016
FFE1
FFEC
FFDE
FFF3
000E
0017
FFE0
0015
001B
FFF7
FFFF
FFFE
0023
000C
000A
0014
FFFE
FFE6
FFFA
0007
001E
FFF4
0001
001B
FFE9
FFE6
FFEE
FFE3
FFFB
FFFF
FFEA
0005
FFF0
FFE5
FFF6
001A
0008
FFF7
FFFF
FFF9
0000
001D
000A
0000
FFE8
FFFD
0006
FFEC
0013
0001
0013
FFF3
0019
FFE4
FFFB
FFEA
000D
FFE1
001B
FFE2
FFEF
0001
FFFE
0008
0020
FFFA
FFE5
001B
001E
FFE5
FFE7
FFE8
FFF9
0004
0018
FFEE
0017
000D
0001
0001
0010
FFDC
FFFE
000B
FFE0
0002
FFF2
0018
000E
FFE6
0001
FFE5
FFFD
0012
0007
FFE0
0009
FFE4
000F
0014
FFF7
FFE5
FFEA
FFFA
000D
FFFC
0005
0003
0004
0013
FFF6
FFDC
FFF4
0011
0006
FFFD
0018
FFF8
FFFD
FFEC
FFE2
FFE2
FFFE
FFE7
0007
000E
FFFE
FFF3
0012
0006
FFF9
000B
FFFC
FFF0
FFF8
000B
0004
FFF2
0005
0013
0016
001C
0025
FFF9
0021
0004
FFE4
0020
FFF7
FFEE
0011
0012
0016
FFE7
0012
000B
001F
FFFE
0020
0012
0003
0006
FFE7
0003
0019
0004
FFEF
FFE9
0010
FFE7
FFEF
FFFE
0016
0015
0012
FFFA
000D
FFFD
0012
FFFF
0008
0023
FFFF
000A
FFE7
000C
FFF1
0021
FFF6
0008
FFF3
FFE7
0014
0018
0015
FFE8
FFEB
FFF0
FFF2
FFF3
0021
FFE6
0020
FFFC
FFFF
FFEE
001E
0009
001B
FFE8
0013
FFF6
001C
000B
001C
FFE9
0023
FFF5
000B
FFE6
0020
000C
FFFB
FFE7
0001
000E
FFEC
0018
0003
0014
000D
FFF4
FFED
0008
0014
0011
0003
001B
FFFD
0003
FFF3
FFE6
0003
FFE7
000A
000D
FFE7
0004
FFEC
0010
FFEA
001E
FFE8
FFE7
FFFA
0019
FFFF
001A
FFE4
0017
0008
FFE4
0004
001E
0008
001D
0015
FFE7
FFFF
FFF0
000C
0012
FFFF
FFF1
0017
0001
FFFF
FFE2
FFE0
0012
FFDE
0001
FFEB
0011
FFF6
FFE6
FFDE
FFEB
FFF0
FFDF
FFE0
FFFE
FFE5
001A
0001
0001
FFF8
FFDC
0006
FFF5
FFEB
FFF9
0018
000F
0006
000C
FFFD
000D
FFEA
0009
0002
FFF6
FFDD
FFDC
FFF9
000C
000A
000D
FFE2
0004
FFDE
FFF9
000E
0015
0004
0017
FFFB
001A
0010
001A
FFEB
000C
001F
0010
000B
0016
FFE3
FFED
FFF7
0010
0006
0024
FFE5
FFF4
001E
FFFE
000B
FFEA
FFFA
FFF1
FFF4
FFE3
002F
0010
0023
FFFD
FFF6
FFE8
0021
FFFB
FFE3
0010
0004
0020
FFF1
0018
0012
FFFC
0006
0008
FFF3
FFF9
0005
FFEF
FFFA
001E
0004
0008
FFFE
FFE6
FFF2
0014
FFF6
0022
0017
FFF9
0006
0003
001E
FFEF
0003
FFF5
0007
0003
002B
0012
FFE9
001F
FFF3
FFF1
0022
000A
001B
0020
FFEA
FFE5
001B
0013
0006
FFEA
0022
0017
FFF8
0014
0009
FFE5
FFF1
000D
FFF8
0018
001D
0008
FFF6
FFF4
000F
FFF6
0021
FFF1
FFFD
0000
0009
0015
000D
0023
FFE9
001B
0010
000D
FFE9
FFF1
FFEC
FFF2
FFF8
FFF8
FFF9
0009
FFF9
0011
0015
0003
FFE3
0020
0010
0021
001D
0018
FFF1
FFFA
001B
FFE8
FFE9
0005
0017
0008
FFE7
FFED
0006
001D
FFF3
0017
FFF3
0004
FFFF
FFF1
001B
000C
0014
000B
0004
0004
0028
0015
FFEE
001F
FFFF
001D
0009
FFFE
FFFF
0022
FFFF
0003
0024
0008
0003
FFEC
FFF3
FFE6
FFFA
FFED
001F
FFF2
000D
FFF9
000E
0008
FFEB
FFE5
FFF8
0009
0009
FFFA
0004
FFF0
001D
0021
0018
FFFB
FFEE
000C
FFFD
000C
FFE7
0000
FFEB
FFF0
001E
FFFD
0004
0000
0005
000F
0001
0001
FFF6
0001
FFF2
000D
0013
FFE9
FFFC
0015
FFEE
0000
001D
FFF6
0020
FFE2
0005
001D
FFEB
FFFB
FFFD
FFF8
0007
FFF8
000D
FFE5
FFFA
FFED
001A
0003
FFF3
0005
FFF3
0001
0004
0016
FFFA
001F
0019
FFE7
FFF5
0016
FFF4
0002
001C
0007
0005
FFF8
FFFE
FFE5
0022
0017
0014
FFE9
FFFE
FFEA
FFEA
001D
FFFB
FFFF
0013
0000
0001
001A
FFEA
0015
FFF9
FFEB
000E
FFEB
FFF2
0009
001E
FFEF
001D
FFFF
FFFC
0000
FFF8
0004
0019
0011
0020
0017
FFEC
FFEA
0000
0016
FFED
0005
FFE8
000C
FFEB
FFF6
000D
0003
000B
FFF8
0010
FFF1
0008
0016
FFFB
FFE1
FFE8
000A
FFFA
0012
0011
0004
FFF5
FFE8
FFF3
FFE5
0007
FFF5
FFF9
FFEA
0002
0007
0018
FFE5
0022
FFF5
0001
000D
0006
000B
0011
0008
FFEB
0010
001C
FFEB
FFF7
001C
FFE9
FFED
FFE9
0003
000C
0009
0003
FFFD
000C
FFE8
0008
001A
0006
0013
0017
000F
FFF9
FFF0
FFE7
FFF2
0015
0021
0005
FFF4
FFF9
FFFC
FFE2
FFFA
0013
FFF3
FFF2
FFE3
FFE7
FFE9
0006
000D
FFF1
000D
0017
0017
FFE6
0002
FFE4
FFFB
FFE4
0019
FFEF
FFF0
FFE7
0013
001B
0003
000B
0020
0022
0007
0016
0014
0004
000A
0022
0010
FFED
FFEE
0001
0008
FFFB
0006
0021
FFF0
0013
0005
001C
0018
0009
0008
0012
FFF3
FFFE
0016
FFF1
FFE7
FFE9
FFEA
0004
FFF9
FFEF
0008
0001
000D
0002
0002
0018
000C
0023
0014
FFF9
FFF9
000D
000B
FFF3
001F
0009
000E
FFFD
0008
0000
FFFF
FFE7
001E
FFEC
000A
0006
000E
FFDE
0000
0005
FFF5
FFFA
FFE7
FFDB
000A
FFFB
0012
000E
0012
FFEF
0003
FFE2
FFF0
FFE9
0015
0017
FFE4
FFF3
0016
FFFB
0016
FFE4
001D
0015
0009
0019
0016
FFEB
0017
000F
FFED
FFEB
FFEE
000E
0001
FFF3
0009
FFEC
0003
FFF5
FFF5
FFE1
0016
FFFD
FFE7
FFEA
0014
FFFD
FFEC
0001
0010
FFEE
FFE0
0008
0013
FFEE
000D
000B
FFE5
FFF7
FFEE
FFFD
0010
FFE2
FFF1
0006
001D
0008
FFFC
000E
FFF0
FFE6
FFE1
FFF6
FFE3
0017
000F
FFE3
FFE2
0013
000C
FFF9
0014
FFFC
FFF4
FFFF
FFF7
FFDE
FFE5
FFF5
FFE6
FFEE
FFE7
FFF3
000A
000D
000E
0016
FFF5
0019
001B
FFED
FFE7
FFEF
FFF6
0006
000A
FFFC
0016
0003
0017
FFF4
000E
001D
0009
0010
0000
0002
FFE8
FFEA
FFE9
FFE4
0011
001C
001E
FFED
FFFE
FFF4
FFF3
001B
FFF9
0008
FFE8
000B
FFF3
FFF5
0016
FFFD
0014
000F
0012
FFF2
FFE5
0014
001A
FFF0
FFFF
0006
0020
FFF3
001B
FFEE
0001
FFFA
FFF7
FFF7
0010
FFEA
0005
001D
0008
0007
FFE8
0005
FFFB
FFF3
FFF7
FFF9
0012
0012
001B
001B
0004
FFF3
FFEA
FFF9
FFE9
FFEC
0022
0011
001C
0018
FFFB
000D
0019
0006
0003
000C
0008
FFDE
FFE6
FFDD
0004
0019
000B
FFEC
FFE5
FFDF
FFF6
FFED
001D
FFE9
FFDE
FFE3
0010
0010
0003
FFF1
0018
0007
FFFE
FFFA
FFEB
0014
0005
FFF5
FFFF
000B
0018
0009
0005
FFE5
000C
0003
FFED
FFF7
FFFB
FFEB
FFE8
FFE9
000A
FFDD
FFE5
0017
0012
0013
FFF9
0014
0001
0000
0018
0001
0017
0005
FFE2
0014
FFE2
FFE1
FFF6
FFF6
0003
0001
0000
0012
000B
000E
0017
FFE5
0012
FFF9
0001
FFEE
FFED
001D
FFF5
FFE8
001A
FFF3
0005
0008
FFF8
0019
000A
0013
FFEB
FFED
0006
FFFB
000A
000D
FFF0
FFE9
0003
FFE9
0009
FFF7
FFF7
0004
001F
0003
000E
000F
0000
FFF0
FFF5
000A
001C
000A
001E
FFF3
0016
FFF5
0015
000A
001D
FFF6
000F
000F
FFFC
0002
FFE9
FFF7
0002
FFF9
0001
FFF0
FFF8
0013
001A
000F
0001
FFF4
FFF3
000D
0002
FFF9
FFF6
0013
0008
0014
0000
0005
0006
FFF4
000D
FFE7
0015
FFF8
FFFE
000B
FFE7
000F
001D
0018
0013
FFEB
FFFD
FFFF
0013
FFEB
FFEE
FFF1
FFFA
FFED
FFE3
FFFE
FFF2
FFDF
0001
FFF0
FFEB
0001
FFE3
0017
FFE1
0004
0003
FFED
FFDE
000B
000E
000D
0006
FFFC
000E
001A
FFDC
FFE8
0019
FFEF
FFFF
FFEE
FFEC
0008
0014
FFEF
0019
000A
0015
FFE0
FFFF
0015
FFFE
FFFD
0017
FFDA
FFDC
FFF6
000F
0006
FFDF
0002
FFE8
FFF1
000C
0001
0002
000B
FFFC
FFFC
FFF9
0015
FFDE
FFEF
FFE7
000C
0012
FFE3
FFFE
FFF9
FFDD
FFF1
0009
0015
FFEC
FFDE
0006
FFFC
0017
0001
FFDE
FFE5
000D
FFFB
0015
FFF8
0010
0004
FFE5
0011
FFF5
FFE4
FFF1
FFE7
0019
FFF8
FFEF
FFEC
FFEE
FFE2
FFEA
FFFA
FFE3
FFF3
0019
FFF6
000C
0008
FFF5
0018
FFF7
000A
0002
0000
0007
0005
0012
FFFB
FFF0
001C
0009
0008
0015
FFF4
0000
FFE6
FFF6
001C
FFE6
FFFA
FFEC
FFFA
0004
FFF4
000F
FFFC
FFE5
FFF3
0013
FFE2
000B
FFFA
FFE5
FFE5
0018
FFF7
FFE2
000F
FFEE
0014
FFEF
FFFD
0005
FFE5
FFE3
0010
FFE6
000D
000A
000A
000D
0001
0019
0006
FFEC
FFEA
FFF8
000B
FFE6
000C
FFEB
0018
FFF9
FFF6
FFF2
FFE9
000C
0013
FFF3
FFFB
001C
0018
0010
FFF4
FFF3
000E
000A
FFFE
FFE5
001C
000F
FFEC
0006
0021
0012
FFE6
000F
0019
FFEA
0012
000D
0020
FFFF
001E
FFFA
0011
0013
FFE5
0004
0016
0023
0021
001C
0015
0013
0026
FFE2
0021
0015
0022
0021
FFF2
001B
FFFA
FFF5
0011
0016
000A
FFFA
001F
FFFE
001B
FFF8
0020
FFE5
001A
0020
FFFE
0015
0013
001D
001B
FFE6
FFFC
0017
001E
FFFD
0007
0022
FFE9
FFE9
FFEB
FFFA
0008
0010
0000
0012
001C
FFF3
0006
FFFB
0003
FFE9
0018
FFEA
001A
FFFE
FFFE
0010
0019
001F
001B
FFEE
FFEA
001C
FFE3
FFE6
0001
0014
0013
0020
FFFA
FFEA
0008
0014
FFE2
FFEB
000A
0018
001B
0015
0013
000A
000A
0018
FFEB
FFF1
0003
FFE0
0000
0025
FFED
FFFD
000D
0002
FFFD
000A
FFF8
001D
000E
FFEC
0005
FFDA
FFEB
FFED
000E
0021
FFEB
FFF9
FFE3
FFDF
000A
FFE7
000B
0030
FFD8
FFF5
FFE5
001A
001C
FFE3
0033
0031
002B
0001
FFF9
0010
0020
FFF1
000A
0019
0012
001D
FFF2
FFF0
0022
000E
0014
FFDF
0000
FFE3
001D
FFD9
002D
FFF4
FFEF
0021
0020
0001
002A
000E
FFF4
0021
FFF2
0002
0013
000F
001D
001E
FFF8
FFFD
FFFD
FFF5
002C
FFDE
FFE3
0010
FFE0
FFE3
002C
002C
FFEA
