memory_initialization_radix=10;
memory_initialization_vector=
24,
43,
24,
35,
-43,
49,
17,
-30,
-32,
17,
-33,
51,
41,
26,
-33,
11,
44,
11,
8,
8,
-43,
56,
42,
11,
19,
-42,
-32,
-35,
43,
-45,
-23,
-18,
10,
45,
-39,
0,
-35,
22,
12,
10,
-28,
18,
-21,
-5,
2,
-43,
-24,
-43,
54,
-26,
19,
30,
50,
28,
51,
-17,
9,
-20,
23,
48,
35,
-36,
12,
-1,
20,
-24,
0,
27,
-19,
39,
52,
-1,
-4,
14,
46,
-15,
40,
-22,
44,
-48,
-44,
22,
4,
-34,
27,
29,
27,
-22,
-23,
1,
-47,
-42,
2,
-39,
30,
39,
52,
49,
47,
-21,
42,
-28,
-3,
-36,
9,
-38,
-24,
14,
-43,
52,
11,
26,
55,
12,
34,
24,
-31,
12,
6,
48,
-41,
1,
9,
-4,
40,
-30,
30,
-3,
22,
-47,
9,
8,
16,
-1,
-50,
-42,
-5,
-27,
-30,
22,
23,
-14,
28,
-21,
50,
33,
1,
53,
27,
30,
-20,
35,
-47,
-24,
18,
43,
7,
56,
-15,
-7,
56,
52,
18,
-25,
-5,
-35,
-19,
2,
-25,
32,
46,
42,
41,
40,
-19,
15,
-40,
39,
40,
-26,
12,
33,
48,
55,
10,
35,
42,
-46,
48,
49,
-7,
-36,
12,
-40,
25,
-23,
-43,
-39,
-12,
-35,
-39,
18,
15,
-28,
-30,
-51,
-13,
-37,
23,
38,
-44,
6,
48,
50,
-18,
-26,
37,
21,
-3,
23,
-32,
30,
-22,
-16,
24,
-33,
53,
45,
-31,
-3,
48,
-17,
-7,
38,
-1,
34,
23,
-27,
-35,
36,
24,
-4,
51,
52,
-17,
51,
-30,
-24,
-10,
11,
-21,
27,
-25,
-35,
21,
42,
-5,
-18,
-31,
36,
-46,
-11,
51,
-33,
-16,
-42,
28,
14,
-43,
26,
4,
-44,
31,
40,
8,
4,
41,
-32,
1,
-13,
25,
-30,
33,
11,
-34,
-31,
-9,
-14,
48,
19,
-9,
-33,
45,
-26,
49,
-6,
49,
-54,
2,
-46,
14,
-11,
9,
-52,
41,
-19,
-32,
-48,
33,
6,
-3,
-4,
-8,
31,
35,
7,
34,
23,
-31,
-9,
-20,
-23,
-8,
32,
-17,
-23,
36,
47,
45,
12,
43,
6,
35,
6,
3,
31,
-26,
26,
25,
-39,
-24,
36,
-30,
53,
27,
-40,
-4,
3,
-2,
-48,
-30,
48,
-8,
-17,
25,
49,
-33,
9,
-49,
47,
24,
3,
16,
-49,
18,
-54,
-24,
-13,
45,
-28,
-23,
-40,
29,
-45,
-26,
-32,
5,
34,
-22,
38,
-8,
40,
-26,
30,
20,
29,
22,
-35,
-33,
-44,
0,
-20,
-3,
33,
-33,
-8,
4,
44,
51,
51,
-4,
-37,
-4,
-41,
15,
-4,
-7,
-22,
-34,
33,
-1,
15,
42,
16,
-32,
11,
30,
-40,
-28,
47,
52,
-9,
43,
-2,
9,
53,
-23,
31,
18,
1,
38,
45,
-14,
13,
-9,
-32,
-13,
-23,
-51,
-51,
4,
-9,
19,
40,
-6,
-32,
19,
2,
-55,
-19,
-28,
-22,
-13,
48,
-39,
-22,
-17,
17,
22,
24,
5,
17,
12,
-1,
33,
-17,
1,
-11,
-35,
-48,
27,
30,
-41,
34,
40,
45,
-52,
39,
37,
46,
0,
24,
-7,
-10,
-35,
-42,
35,
48,
-20,
-11,
-6,
-39,
-37,
-33,
-7,
-36,
52,
4,
-21,
-21,
-32,
-5,
14,
3,
45,
3,
-32,
-51,
52,
45,
-49,
44,
-7,
-40,
-6,
22,
9,
-37,
-18,
-27,
-6,
-16,
34,
-31,
12,
-14,
20,
-42,
42,
19,
-40,
35,
22,
-47,
40,
20,
-20,
26,
24,
47,
-4,
-18,
-17,
21,
-20,
14,
54,
-36,
35,
12,
22,
26,
13,
-10,
34,
-13,
42,
19,
-27,
-34,
-26,
50,
-25,
21,
44,
-24,
23,
-9,
31,
-33,
-12,
-24,
-9,
8,
-33,
46,
-37,
11,
-17,
5,
-20,
-38,
34,
-44,
-8,
48,
-46,
52,
-27,
48,
34,
52,
11,
-45,
-1,
-35,
11,
-6,
10,
39,
17,
-21,
42,
-36,
-34,
20,
39,
14,
10,
12,
51,
51,
-19,
9,
-21,
-30,
-48,
-13,
40,
41,
-45,
30,
3,
50,
1,
54,
-31,
52,
-28,
49,
17,
33,
48,
-30,
14,
-41,
4,
51,
33,
4,
-19,
-32,
25,
-27,
2,
-25,
24,
-46,
23,
-2,
22,
-29,
-26,
19,
-43,
51,
-28,
-15,
-24,
-36,
52,
26,
-45,
8,
9,
-24,
47,
36,
53,
25,
26,
-27,
-1,
-2,
10,
20,
44,
34,
52,
49,
-22,
-28,
-19,
45,
12,
25,
-17,
-16,
-47,
31,
-34,
1,
-38,
-14,
34,
37,
-50,
13,
8,
13,
-36,
2,
32,
1,
-38,
31,
-31,
27,
18,
24,
-34,
-52,
-25,
25,
-45,
-22,
-14,
-19,
36,
13,
-16,
-21,
5,
7,
0,
14,
21,
-18,
-15,
13,
36,
28,
24,
-18,
10,
21,
13,
7,
-54,
-14,
-1,
43,
-50,
-30,
0,
-21,
-42,
-29,
-13,
-52,
-14,
32,
27,
36,
39,
-45,
38,
23,
-13,
21,
-6,
-5,
-11,
25,
46,
9,
-56,
14,
-2,
-38,
-11,
-38,
28,
-4,
-22,
48,
9,
23,
54,
20,
-5,
-44,
4,
-45,
-47,
30,
27,
-46,
-6,
-28,
-32,
-19,
46,
-14,
49,
-41,
-24,
-26,
24,
33,
28,
-16,
-12,
-39,
13,
48,
-37,
1,
32,
4,
-38,
32,
40,
1,
-1,
18,
45,
-21,
34,
5,
15,
16,
47,
17,
-41,
1,
1,
-11,
44,
41,
10,
-21,
19,
19,
-1,
-40,
11,
32,
40,
-38,
-9,
-41,
-4,
-40,
34,
-27,
30,
-44,
36,
20,
-46,
-2,
41,
-52,
12,
-11,
-17,
34,
-50,
37,
7,
-32,
-32,
-17,
-30,
35,
23,
46,
7,
-12,
42,
-44,
-26,
-31,
-38,
1,
31,
-15,
42,
14,
-41,
30,
-16,
29,
46,
43,
-24,
2,
24,
13,
-34,
6,
1,
20,
35,
16,
46,
18,
-36,
-26,
2,
46,
-17,
51,
-10,
-4,
8,
48,
-9,
9,
11,
17,
-14,
-7,
16,
-13,
-27,
23,
-51,
43,
-1,
33,
6,
-41,
7,
16,
-20,
-15,
-19,
48,
-16,
-18,
-19,
-38,
42,
12,
-28,
-8,
-4,
0,
-43,
-21,
-2,
9,
32,
-32,
-53,
1,
-2,
-3,
35,
-16,
-5,
8,
-16,
7,
13,
-23,
11,
-7,
-51,
-50,
-20,
-25,
39,
-22,
-41,
-17,
38,
-38,
45,
-53,
-13,
2,
-18,
43,
-40,
-23,
32,
4,
-24,
34,
-14,
45,
-34,
20,
-34,
-48,
2,
30,
-6,
-13,
25,
1,
42,
-4,
37,
16,
37,
-36,
-7,
50,
-29,
-31,
-31,
28,
-37,
11,
-51,
-9,
-15,
4,
51,
-37,
40,
-22,
21,
-6,
-11,
4,
5,
37,
32,
39,
19,
46,
49,
-11,
43,
15,
-8,
-9,
-26,
-13,
-13,
34,
12,
25,
23,
-5,
43,
-2,
44,
51,
5,
6,
-3,
9,
-45,
48,
-28,
47,
52,
-26,
41,
-49,
19,
-30,
28,
-40,
-44,
23,
-56,
-10,
-33,
-14,
3,
33,
32,
-14,
42,
-51,
5,
37,
6,
36,
-32,
-53,
7,
-2,
47,
-4,
-18,
5,
45,
-26,
-1,
-20,
43,
45,
1,
-27,
-36,
-36,
8,
-29,
-25,
2,
-39,
22,
-30,
36,
46,
7,
-4,
-44,
-39,
-5,
-14,
15,
-44,
-8,
19,
22,
-4,
-11,
51,
-39,
24,
-19,
9,
1,
22,
-23,
-19,
-12,
-15,
-10,
-6,
-9,
-6,
54,
-13,
42,
-29,
28,
-47,
2,
47,
39,
41,
-18,
-29,
20,
52,
2,
-37,
-13,
38,
-17,
-10,
36,
5,
24,
-25,
-44,
-19,
-47,
-39,
8,
5,
14,
14,
43,
20,
28,
25,
43,
-12,
9,
-14,
44,
23,
5,
1,
-31,
-22,
6,
23,
13,
-12,
-43,
-18,
41,
-39,
24,
-39,
5,
21,
42,
-36,
-20,
11,
27,
30,
20,
18,
-22,
18,
42,
-46,
-50,
24,
45,
41,
46,
-42,
-45,
-10,
-27,
37,
24,
-37,
3,
34,
5,
2,
-40,
23,
9,
0,
26,
8,
36,
6,
-37,
42,
-52,
17,
-2,
-45,
-48,
-6,
-13,
-3,
-49,
37,
28,
-38,
14,
30,
25,
0,
-26,
1,
-8,
-22,
20,
-42,
13,
10,
-23,
13,
34,
32,
15,
16,
-20,
17,
26,
2,
-2,
43,
-4,
-6,
-9,
-27,
-13,
-9,
-44,
4,
-26,
-28,
-30,
34,
-40,
-37,
30,
-21,
-26,
-14,
25,
-32,
-15,
-3,
26,
-38,
17,
-41,
-11,
31,
31,
11,
21,
45,
-34,
-44,
39,
-47,
-33,
32,
-47,
33,
3,
38,
-22,
-6,
31,
-44,
-15,
49,
-46,
43,
34,
20,
-9,
11,
-39,
47,
53,
29,
-49,
-42,
14,
29,
51,
18,
20,
2,
49,
-8,
-53,
-46,
4,
36,
-12,
-6,
3,
21,
-16,
-11,
22,
44,
-3,
-32,
3,
-11,
-10,
53,
-36,
2,
11,
53,
23,
17,
-31,
-6,
49,
-28,
7,
-27,
23,
-34,
-44,
19,
-22,
-46,
16,
0,
28,
-29,
49,
38,
17,
34,
52,
29,
37,
-4,
27,
-5,
-21,
17,
-32,
41,
1,
-32,
-33,
4,
-28,
13,
19,
38,
40,
8,
12,
40,
1,
8,
40,
-55,
39,
-54,
0,
-18,
8,
-14,
21,
-11,
30,
-20,
43,
-14,
-24,
-35,
32,
-42,
-6,
-39,
51,
13,
15,
30,
23,
8,
-37,
54,
38,
54,
-36,
53,
41,
-45,
-14,
29,
24,
20,
9,
-23,
-3,
-52,
45,
17,
14,
-42,
39,
28,
-27,
48,
-22,
-11,
-46,
17,
-26,
-29,
39,
-22,
-7,
-42,
33,
-40,
-38,
24,
45,
-18,
-30,
-2,
-27,
-48,
-19,
-23,
51,
-20,
38,
-16,
-51,
40,
1,
33,
20,
-1,
-23,
-33,
-50,
18,
2,
-15,
3,
-36,
12,
40,
12,
1,
-52,
-37,
23,
20,
-32,
15,
21,
-12,
-15,
-38,
-48,
-28,
-23,
-16,
34,
4,
-42,
-36,
-39,
-2,
25,
41,
9,
-32,
-5,
41,
35,
50,
33,
39,
28,
0,
-34,
-38,
8,
-19,
43,
48,
37,
-22,
50,
37,
-7,
56,
-1,
31,
48,
-11,
20,
-22,
-31,
19,
51,
2,
53,
19,
45,
-23,
14,
-21,
50,
23,
-22,
-27,
37,
13,
-42,
8,
40,
33,
-18,
6,
26,
7,
-3,
-29,
-35,
26,
-13,
-55,
-55,
44,
-50,
-26,
-27,
-53,
35,
2,
-11,
36,
19,
-35,
42,
-39,
34,
4,
20,
-35,
15,
29,
-29,
-50,
-50,
37,
-5,
-34,
-32,
31,
-35,
1,
18,
32,
-8,
-42,
-2,
-17,
-39,
-1,
23,
56,
-47,
13,
-32,
47,
51,
52,
-13,
26,
44,
27,
-41,
-35,
15,
-46,
-45,
-46,
40,
-48,
-47,
36,
45,
39,
-28,
-29,
52,
35,
11,
-17,
8,
25,
37,
-47,
28,
36,
-14,
38,
4,
-2,
37,
-2,
44,
13,
21,
-4,
-28,
52,
3,
40,
0,
36,
10,
49,
28,
5,
14,
-9,
-45,
-33,
21,
-10,
-19,
12,
15,
-10,
-5,
39,
16,
-52,
49,
-22,
25,
-40,
-2,
-50,
6,
-15,
8,
34,
25,
-49,
-42,
11,
-23,
40,
-9,
34,
18,
41,
-33,
8,
5,
-34,
40,
-42,
-37,
-8,
7,
44,
21,
-30,
14,
-4,
49,
26,
17,
-13,
46,
-43,
25,
14,
19,
8,
45,
-27,
7,
19,
-42,
-9,
48,
28,
55,
-29,
27,
0,
-16,
18,
44,
25,
22,
36,
0,
31,
26,
4,
-30,
48,
-32,
53,
0,
-3,
-25,
43,
-19,
25,
19,
18,
45,
44,
-11,
36,
21,
42,
6,
21,
0,
16,
-25,
32,
33,
2,
-41,
56,
29,
45,
-39,
-29,
43,
-28,
44,
-37,
-50,
47,
32,
-38,
34,
2,
49,
-55,
-40,
-15,
-25,
17,
-7,
40,
10,
-21,
14,
-1,
38,
-51,
29,
-29,
-18,
10,
-38,
11,
-5,
16,
9,
-11,
-32,
6,
6,
-49,
-4,
8,
-2,
30,
34,
-20,
-3,
-4,
-20,
14,
-18,
23,
27,
42,
-42,
5,
18,
4,
32,
23,
-41,
-3,
43,
-3,
39,
-43,
47,
-27,
52,
-25,
8,
38,
-15,
-44,
25,
16,
-18,
-41,
-13,
1,
-35,
-44,
-44,
45,
1,
-48,
-54,
45,
-49,
0,
18,
48,
-50,
-26,
39,
-50,
-36,
5,
37,
-6,
10,
1,
-5,
18,
-41,
-9,
-47,
19,
-39,
23,
43,
-5,
7,
21,
34,
25,
-22,
43,
-4,
-27,
44,
-39,
-34,
-28,
-49,
-24,
45,
6,
41,
-13,
40,
53,
44,
-44,
11,
28,
23,
49,
-13,
23,
36,
12,
50,
-26,
10,
29,
45,
-11,
-9,
40,
-47,
-27,
12,
39,
29,
-10,
53,
9,
17,
-34,
5,
-18,
-6,
8,
33,
9,
49,
41,
28,
21,
2,
16,
27,
-25,
13,
-20,
35,
26,
-3,
-26,
47,
33,
39,
-18,
21,
-44,
-33,
40,
-30,
-39,
14,
14,
5,
-20,
-8,
31,
19,
46,
-17,
10,
-48,
20,
-8,
4,
-40,
10,
-28,
-39,
29,
39,
51,
5,
-8,
24,
33,
-44,
-21,
56,
20,
25,
1,
-28,
-38,
-37,
-2,
32,
30,
-1,
-29,
24,
-28,
-24,
-37,
-28,
-37,
-4,
-41,
33,
0,
29,
-38,
-19,
-46,
26,
20,
45,
37,
-42,
-13,
-36,
-13,
-43,
26,
-47,
30,
13,
-9,
-22,
-25,
34,
35,
13,
48,
-5,
29,
-43,
31,
-47,
-45,
-15,
6,
11,
55,
24,
-23,
12,
-36,
53,
-38,
46,
46,
-15,
-18,
-4,
15,
-7,
-13,
29,
16,
44,
6,
-20,
-15,
-3,
-9,
23,
-36,
-17,
49,
44,
53,
-39,
25,
-13,
23,
-26,
-48,
-31,
-48,
-21,
36,
-44,
47,
-43,
-35,
4,
-40,
43,
-46,
-48,
-24,
30,
22,
40,
32,
-5,
17,
-44,
40,
48,
52,
14,
-48,
-12,
14,
-43,
-6,
4,
-34,
43,
28,
24,
-10,
-40,
-14,
34,
-46,
-51,
49,
-54,
-21,
28,
-10,
18,
46,
25,
-51,
25,
-38,
-37,
50,
-10,
-44,
31,
41,
53,
-29,
27,
46,
-31,
-8,
-15,
31,
-43,
-14,
40,
-25,
-32,
35,
10,
-34,
-27,
-39,
-46,
28,
27,
41,
-45,
-36,
45,
46,
-1,
-4,
-26,
23,
33,
-3,
-33,
39,
-30,
-41,
-29,
12,
-39,
-20,
41,
-14,
3,
-6,
-30,
20,
-45,
23,
-36,
34,
-2,
-48,
-32,
-51,
-30,
25,
8,
12,
-22,
36,
-12,
11,
36,
30,
41,
-15,
-22,
1,
-37,
-39,
-35,
-50,
28,
31,
41,
-26,
-44,
49,
-24,
-50,
4,
-36,
-45,
-31,
20,
-13,
-21,
-27,
-8,
-12,
1,
-10,
10,
-37,
-12,
-22,
46,
26,
8,
0,
-8,
-40,
-16,
19,
-9,
-42,
-35,
42,
5,
-22,
26,
28,
-36,
18,
23,
21,
17,
17,
16,
-12,
30,
26,
-2,
-26,
-51,
-1,
-36,
-41,
-44,
-25,
-7,
22,
14,
-50,
11,
-3,
-49,
41,
-7,
-28,
19,
15,
-36,
-14,
-31,
18,
-31,
14,
47,
-37,
-15,
-16,
45,
27,
-11,
44,
-25,
43,
-19,
-21,
-50,
-35,
16,
-28,
6,
-4,
0,
16,
-55,
-37,
47,
-47,
-21,
39,
-39,
-2,
11,
-54,
-23,
47,
-19,
43,
-12,
38,
-38,
-17,
-29,
-43,
-20,
-15,
-33,
18,
-45,
26,
7,
10,
-9,
-51,
21,
7,
-41,
-34,
-26,
41,
-9,
35,
-47,
42,
-31,
6,
8,
18,
-42,
-13,
-40,
32,
42,
-26,
-26,
-53,
22,
-30,
-18,
20,
-31,
45,
-29,
-16,
18,
30,
15,
41,
16,
-29,
15,
-42,
-43,
12,
29,
-28,
17,
27,
-44,
-23,
-37,
-19,
11,
-37,
-24,
-34,
-25,
-33,
-26,
-21,
-27,
7,
40,
32,
-29,
39,
-9,
17,
-13,
3,
-47,
31,
-12,
-53,
-53,
-20,
48,
-40,
-21,
2,
36,
-33,
-33,
-36,
3,
26,
23,
4,
-18,
2,
-14,
16,
-30,
-2,
-39,
42,
-51,
43,
20,
-29,
-45,
-50,
-48,
0,
15,
-50,
-35,
-4,
37,
-1,
-32,
-42,
8,
20,
-19,
-37,
-19,
-32,
-29,
27,
-53,
1,
46,
-12,
34,
46,
-46,
-4,
-12,
-39,
44,
-17,
9,
3,
-2,
-38,
-44,
-47,
41,
37,
-7,
-36,
-22,
0,
2,
39,
-23,
1,
42,
48,
-49,
-22,
13,
9,
-6,
-35,
40,
-25,
-29,
-46,
-37,
41,
19,
-43,
-47,
-43,
54,
-41,
14,
49,
3,
-38,
51,
-32,
-44,
-5,
46,
-14,
-25,
49,
-42,
13,
5,
49,
25,
54,
50,
-29,
-22,
33,
37,
-4,
-24,
4,
26,
-29,
-5,
-14,
44,
-12,
26,
17,
-17,
21,
-31,
-33,
-43,
48,
32,
-7,
-32,
-43,
7,
-28,
46,
15,
-13,
-22,
-24,
-29,
-6,
-18,
-43,
42,
11,
16,
-40,
-37,
6,
0,
-5,
37,
55,
29,
34,
55,
-44,
-21,
46,
-44,
2,
-9,
32,
-12,
-23,
16,
56,
52,
15,
27,
-40,
3,
24,
-11,
0,
6,
52,
9,
-26,
-39,
34,
-22,
-38,
-5,
-15,
37,
49,
-33,
38,
31,
-34,
-8,
12,
22,
-21,
46,
-44,
30,
-41,
9,
38,
42,
-38,
35,
22,
42,
16,
40,
30,
-8,
41,
-19,
-18,
-10,
-31,
-9,
-47,
35,
51,
-28,
-32,
-47,
-24,
43,
8,
55,
-6,
-45,
20,
-14,
-32,
-49,
12,
-24,
28,
-10,
27,
-3,
-7,
-35,
-20,
-30,
46,
28,
44,
43,
13,
10,
-29,
29,
31,
26,
-26,
-6,
-10,
-24,
38,
9,
-4,
37,
35,
-48,
7,
-29,
-11,
-2,
40,
-2,
-4,
41,
-18,
14,
-26,
-19,
-36,
17,
29,
5,
19,
32,
-14,
-31,
11,
46,
-24,
-15,
50,
-35,
-23,
-9,
-21,
16,
-5,
41,
-13,
2,
49,
12,
-22,
-15,
-40,
44,
-40,
10,
-31,
10,
-34,
44,
43,
26,
3,
31,
42,
-23,
11,
46,
35,
-13,
-31,
-34,
-15,
47,
-4,
35,
44,
-3,
-21,
2,
38,
50,
-25,
-44,
-12,
-44,
50,
46,
-16,
-18,
28,
-23,
51,
-16,
-35,
-26,
47,
1,
10,
-46,
-24,
24,
-5,
-26,
-19,
-3,
-24,
-48,
20,
-16,
-52,
-38,
-44,
9,
-10,
-2,
29,
5,
20,
-39,
-3,
45,
31,
-31,
-47,
56,
1,
-44,
-5,
39,
36,
1,
-19,
-47,
37,
55,
-11,
-37,
-42,
-27,
-7,
-5,
51,
55,
25,
43,
21,
25,
-2,
-51,
11,
-27,
12,
14,
6,
-34,
-15,
6,
-32,
4,
-19,
38,
28,
28,
2,
-21,
22,
12,
25,
5,
-33,
47,
26,
11,
42,
28,
-15,
11,
-11,
-26,
-15,
-50,
-17,
-23,
-44,
-29,
-13,
-2,
-34,
-41,
2,
-16,
24,
-3,
-6,
-25,
19,
-27,
9,
37,
-18,
47,
9,
0,
-6,
8,
-44,
36,
52,
31,
-8,
-22,
-26,
-13,
29,
19,
49,
41,
-38,
-18,
-40,
50,
-21,
2,
-36,
20,
-21,
-12,
44,
16,
-23,
-36,
34,
17,
3,
-45,
-16,
52,
31,
43,
1,
-7,
35,
26,
29,
-4,
-31,
-47,
34,
3,
-46,
-13,
-29,
-38,
38,
-4,
-28,
10,
52,
11,
33,
47,
-4,
22,
50,
-40,
39,
-2,
-1,
53,
-3,
-32,
-42,
19,
29,
0,
-10,
-17,
20,
26,
-6,
-31,
0,
47,
45,
17,
31,
-10,
22,
-13,
-5,
-32,
30,
50,
28,
1,
-9,
30,
27,
9,
36,
-45,
11,
5,
10,
3,
-49,
35,
45,
-11,
-27,
12,
7,
16,
7,
-26,
38,
18,
41,
-27,
39,
6,
13,
32,
46,
43,
-2,
41,
13,
-36,
-22,
-43,
34,
43,
-43,
2,
23,
42,
-51,
-42,
-23,
-34,
20,
-40,
-18,
-34,
19,
-9,
-41,
-8,
-36,
-4,
-50,
23,
-16,
40,
-25,
-4,
-15,
10,
-10,
-15,
-26,
17,
15,
-29,
-41,
8,
9,
-14,
39,
52,
40,
25,
3,
22,
-14,
45,
2,
24,
19,
-22,
44,
-48,
-41,
-41,
-2,
-44,
-2,
25,
-4,
-1,
-17,
22,
-33,
43,
44,
7,
-22,
-12,
46,
22,
-17,
-21,
37,
4,
-50,
22,
35,
49,
47,
-14,
37,
16,
18,
-27,
-25,
-28,
8,
-37,
-36,
6,
-15,
-24,
-40,
7,
0,
-44,
-35,
-42,
36,
-53,
32,
-32,
-6,
5,
33,
-22,
23,
4,
54,
-25,
47,
-30,
-8,
-5,
29,
21,
40,
19,
-10,
26,
42,
28,
-31,
22,
13,
-12,
47,
-28,
-37,
40,
-36,
23,
32,
31,
-29,
-5,
40,
-50,
14,
-36,
55,
32,
-19,
29,
12,
18,
45,
-37,
-36,
-43,
-20,
16,
-32,
-18,
-31,
47,
-22,
-16,
-31,
23,
-33,
8,
30,
52,
-41,
7,
13,
45,
7,
29,
-25,
-3,
15,
44,
17,
22,
33,
-11,
40,
-29,
40,
-28,
-1,
-12,
25,
23,
-4,
-14,
-18,
-40,
-22,
-8,
32,
-21,
19,
25,
-19,
-8,
1,
44,
-33,
32,
-25,
-1,
-22,
7,
-19,
-21,
1,
-6,
4,
-20,
-10,
9,
-24,
3,
8,
-9,
12,
1,
-1,
-15,
18,
-9,
-10,
-4,
-4,
16,
13,
6,
5,
18,
-13,
6,
-11,
13,
19,
-10,
13,
-11,
18,
-25,
0,
1,
20,
6,
11,
15,
13,
4,
-8,
-10,
-20,
9,
8,
-3,
18,
4,
9,
-24,
7,
-8,
9,
-18,
-14,
-18,
22,
-8,
4,
-19,
-12,
-12,
20,
-5,
4,
-9,
3,
-22,
-9,
18,
7,
20,
-8,
-10,
17,
-10,
-4,
-15,
9,
10,
-10,
-18,
-13,
6,
10,
16,
9,
-14,
12,
-1,
-17,
-13,
5,
-15,
11,
-3,
19,
-3,
-20,
12,
-17,
-3,
18,
20,
10,
-3,
1,
-23,
-17,
-21,
-15,
-22,
-6,
-22,
0,
-4,
-10,
5,
12,
11,
-8,
-23,
6,
18,
-17,
19,
9,
7,
1,
6,
4,
8,
-17,
-11,
16,
22,
-1,
-19,
12,
-5,
-16,
-8,
10,
14,
-14,
21,
16,
13,
15,
-10,
15,
-14,
-18,
2,
-19,
-16,
4,
6,
7,
8,
2,
3,
15,
3,
-7,
-2,
15,
1,
14,
21,
17,
-5,
-5,
-1,
10,
-4,
-2,
15,
-19,
22,
-1,
-11,
-8,
5,
4,
6,
11,
-10,
0,
-18,
-2,
-1,
-15,
16,
24,
3,
-16,
17,
7,
14,
-13,
25,
21,
3,
8,
-16,
-12,
11,
25,
22,
20,
-11,
-4,
8,
5,
3,
-12,
-7,
19,
9,
4,
0,
14,
7,
6,
24,
-12,
-18,
6,
-3,
-2,
20,
17,
-1,
-20,
9,
-5,
-22,
22,
23,
-4,
13,
-15,
-10,
-17,
-13,
19,
-11,
4,
4,
-16,
-22,
0,
9,
17,
5,
-9,
9,
-10,
8,
8,
8,
6,
10,
11,
4,
-20,
-24,
-16,
-24,
6,
-22,
5,
5,
-5,
17,
-12,
-7,
-16,
15,
-4,
-2,
-17,
-15,
13,
-2,
-16,
-16,
6,
-8,
-18,
12,
-17,
13,
-2,
11,
13,
17,
-11,
-6,
-16,
5,
5,
15,
18,
-2,
-9,
-4,
-23,
5,
-19,
10,
-16,
-22,
-5,
-5,
-1,
12,
10,
-2,
2,
-1,
10,
-18,
-14,
-10,
8,
15,
5,
-20,
-24,
18,
-5,
13,
-17,
-4,
9,
0,
17,
-5,
17,
0,
-11,
7,
-6,
-9,
12,
-2,
0,
-16,
5,
15,
0,
4,
-8,
4,
11,
-7,
-21,
-8,
-4,
8,
17,
-3,
5,
-18,
-23,
-17,
-17,
20,
-25,
5,
-8,
-2,
2,
-1,
-13,
0,
25,
-5,
-8,
1,
26,
-9,
5,
1,
4,
16,
16,
23,
-17,
-4,
17,
23,
-1,
-16,
-16,
25,
-14,
9,
-3,
25,
-4,
-11,
15,
-12,
-16,
12,
10,
22,
-11,
3,
22,
-1,
11,
-8,
4,
-20,
-10,
-3,
-4,
14,
8,
-8,
18,
22,
4,
10,
12,
4,
14,
4,
-14,
-17,
-1,
5,
-11,
-14,
-11,
20,
8,
-15,
15,
22,
-7,
3,
24,
-12,
-6,
-9,
-16,
6,
-1,
22,
-11,
-10,
3,
21,
25,
14,
-5,
-11,
-2,
7,
11,
8,
6,
14,
2,
-12,
-19,
-6,
24,
26,
16,
-13,
-13,
7,
-18,
20,
-12,
0,
-7,
-3,
4,
-18,
16,
-13,
-13,
-7,
18,
-13,
20,
-11,
-5,
-17,
6,
-12,
-17,
-14,
3,
-12,
13,
-4,
-6,
3,
1,
-7,
-15,
-6,
-10,
18,
-6,
6,
-26,
6,
-11,
-5,
13,
8,
-11,
-23,
13,
14,
0,
-17,
0,
19,
9,
2,
9,
-12,
17,
-14,
-16,
-12,
3,
-5,
7,
-5,
-4,
2,
-4,
-9,
12,
-5,
-1,
-22,
-16,
-19,
0,
-4,
-9,
-22,
0,
12,
14,
-2,
19,
-4,
20,
6,
-15,
19,
-3,
20,
18,
10,
-13,
10,
-11,
15,
1,
9,
9,
-22,
-20,
-6,
-16,
20,
8,
-5,
13,
-7,
-12,
10,
-9,
-6,
8,
-18,
15,
-4,
7,
8,
-9,
-9,
3,
-14,
-6,
-1,
-10,
8,
12,
-11,
8,
-13,
-18,
-14,
-7,
5,
-20,
-18,
-21,
-13,
-9,
-1,
17,
-4,
21,
18,
-1,
14,
-15,
19,
20,
-20,
-2,
-5,
11,
12,
0,
-7,
11,
12,
-15,
2,
-9,
12,
-4,
0,
15,
-20,
-1,
-11,
-23,
-16,
20,
-9,
12,
-21,
6,
17,
9,
18,
3,
7,
-8,
-18,
18,
-13,
-14,
-19,
16,
-22,
-5,
-5,
13,
-22,
19,
-13,
5,
-18,
11,
-23,
-21,
-4,
-1,
9,
-24,
18,
-15,
-2,
10,
17,
15,
5,
-15,
4,
-22,
-16,
7,
10,
16,
-14,
9,
9,
19,
-11,
-5,
-19,
-23,
-16,
-23,
-2,
-16,
11,
-15,
-6,
10,
4,
-8,
6,
16,
-6,
3,
-5,
-2,
15,
10,
-9,
-2,
-3,
-17,
-11,
1,
-8,
6,
-15,
-18,
11,
19,
-7,
11,
9,
-5,
-9,
0,
19,
-3,
-21,
-10,
-13,
17,
8,
-17,
-24,
-23,
9,
0,
-18,
-25,
18,
-7,
-10,
1,
-16,
-6,
15,
-3,
12,
16,
15,
12,
-19,
18,
12,
-6,
-15,
24,
14,
14,
-13,
8,
-18,
26,
25,
24,
23,
20,
15,
-14,
-11,
4,
5,
20,
-17,
22,
-8,
8,
-17,
-1,
-8,
-10,
-17,
0,
6,
20,
-15,
15,
9,
3,
-3,
-14,
-6,
-15,
2,
-19,
0,
-5,
-14,
-5,
-8,
-11,
0,
-16,
12,
-3,
-13,
24,
-9,
-18,
2,
23,
21,
-1,
20,
11,
-10,
-18,
23,
4,
2,
-18,
10,
-6,
0,
-12,
-11,
22,
9,
3,
24,
24,
21,
17,
-2,
19,
21,
15,
-1,
21,
4,
25,
-18,
-21,
0,
-18,
-14,
-6,
-9,
15,
-17,
-12,
-15,
-4,
-16,
3,
-8,
9,
10,
16,
27,
19,
-7,
24,
-8,
-2,
11,
23,
-6,
8,
11,
26,
17,
25,
12,
-3,
-23,
3,
-14,
12,
8,
-7,
-7,
-24,
2,
8,
11,
-7,
-21,
1,
19,
-19,
16,
-2,
0,
9,
-22,
16,
9,
-14,
-8,
-10,
10,
-23,
-15,
-11,
-23,
-13,
11,
16,
-23,
14,
-21,
5,
6,
-24,
-14,
-25,
7,
-7,
-13,
-14,
-5,
-1,
-17,
20,
2,
4,
12,
-13,
3,
15,
-2,
-14,
15,
-4,
-7,
13,
-3,
-7,
-12,
-15,
-1,
-3,
13,
-8,
-24,
4,
0,
18,
-7,
-12,
-9,
14,
-18,
-7,
-16,
2,
-23,
-20,
-9,
-25,
-11,
5,
13,
-11,
11,
-23,
15,
-12,
-8,
-18,
-20,
-10,
14,
11,
4,
-19,
-4,
14,
8,
12,
12,
-8,
-1,
11,
-24,
17,
9,
-15,
19,
-5,
-1,
-22,
6,
17,
11,
-16,
-25,
1,
4,
-6,
-24,
16,
13,
6,
5,
7,
2,
2,
-4,
8,
-6,
-1,
-13,
-18,
7,
-17,
16,
13,
-2,
17,
2,
-18,
14,
-5,
-19,
-14,
10,
1,
4,
-9,
-3,
12,
2,
5,
-15,
-4,
-10,
24,
-8,
-5,
-22,
-17,
0,
6,
1,
-8,
22,
6,
1,
-6,
-15,
6,
8,
15,
-10,
13,
1,
0,
1,
22,
2,
-10,
20,
-17,
8,
4,
21,
-22,
-10,
0,
17,
-1,
22,
11,
24,
11,
2,
18,
19,
10,
-14,
-5,
-1,
-8,
20,
1,
5,
-4,
-1,
18,
-4,
22,
4,
17,
21,
15,
-1,
16,
7,
-3,
6,
-15,
-4,
26,
7,
-6,
0,
-4,
11,
6,
1,
13,
0,
-12,
-5,
23,
-5,
-10,
-17,
-2,
0,
24,
19,
13,
25,
5,
-9,
-4,
-6,
17,
-3,
-5,
-6,
15,
-20,
-26,
-9,
7,
-23,
-2,
4,
14,
12,
0,
19,
-6,
-16,
-7,
-20,
16,
0,
8,
7,
3,
-10,
-1,
13,
-6,
2,
12,
0,
0,
16,
-9,
-21,
-13,
-15,
-5,
8,
-15,
10,
0,
-7,
7,
14,
10,
-4,
-12,
14,
8,
-20,
-5,
6,
-20,
-11,
0,
-19,
-2,
8,
5,
-16,
-14,
13,
-3,
-2,
1,
-1,
-1,
-17,
-3,
12,
10,
-5,
9,
16,
4,
-23,
8,
-6,
-4,
12,
-6,
-2,
2,
5,
17,
-7,
-14,
15,
-4,
-23,
15,
-13,
-14,
15,
12,
-12,
4,
-19,
-23,
15,
10,
18,
7,
21,
-20,
-13,
-9,
-24,
20,
13,
-13,
-9,
-11,
-11,
-17,
1,
-1,
-2,
-2,
-25,
10,
0,
5,
-13,
1,
2,
13,
4,
-18,
2,
19,
-11,
4,
-7,
11,
-7,
-24,
-9,
20,
2,
-15,
0,
5,
5,
10,
-10,
-24,
17,
14,
-12,
4,
22,
8,
-7,
10,
10,
7,
5,
-3,
-17,
12,
-15,
1,
-16,
10,
16,
16,
12,
7,
-11,
3,
-2,
-1,
-16,
3,
11,
-20,
-16,
-26,
0,
-10,
10,
18,
-10,
-7,
-25,
13,
-17,
2,
-19,
5,
-15,
-4,
-25,
-10,
-23,
-6,
-24,
-2,
-26,
-16,
16,
1,
-15,
13,
-11,
19,
14,
-7,
13,
17,
12,
4,
11,
6,
-22,
6,
7,
-16,
-16,
-5,
-15,
1,
13,
-18,
-22,
17,
-17,
-3,
-3,
-15,
-12,
17,
1,
16,
-14,
-20,
14,
-14,
17,
-7,
14,
-4,
-13,
16,
5,
-9,
-23,
1,
11,
18,
3,
-20,
-19,
-23,
-23,
18,
-24,
3,
18,
14,
15,
13,
-17,
-16,
12,
-2,
23,
3,
4,
-2,
16,
11,
7,
-12,
22,
14,
-1,
-13,
-9,
5,
-6,
-11,
-19,
-1,
8,
9,
5,
7,
14,
14,
-10,
9,
5,
-18,
2,
1,
10,
3,
20,
7,
-4,
-3,
17,
-22,
8,
-6,
8,
-14,
-5,
-18,
-8,
9,
10,
9,
-7,
-4,
10,
17,
-20,
-3,
-10,
18,
20,
23,
-10,
21,
12,
23,
-6,
25,
-4,
10,
12,
-5,
-14,
0,
3,
18,
7,
24,
-9,
17,
23,
19,
-1,
0,
17,
3,
-19,
-7,
-3,
-6,
21,
12,
-10,
-2,
1,
-2,
-12,
-15,
-17,
-16,
23,
-21,
3,
18,
11,
0,
-5,
6,
21,
-10,
-8,
20,
20,
19,
-16,
-19,
23,
10,
-17,
10,
-17,
13,
25,
22,
-17,
-16,
-17,
15,
-8,
-10,
4,
-6,
10,
24,
-2,
-4,
17,
-9,
8,
-11,
22,
13,
6,
3,
16,
17,
5,
-8,
9,
8,
-12,
20,
18,
10,
-7,
22,
-20,
9,
2,
-18,
11,
17,
-14,
7,
-7,
-15,
22,
4,
-2,
-20,
22,
-12,
10,
2,
1,
-6,
4,
-17,
-9,
1,
23,
-4,
16,
-20,
2,
4,
-18,
-9,
-13,
2,
2,
18,
-6,
0,
1,
19,
20,
-13,
8,
5,
-3,
6,
21,
20,
-14,
-19,
-8,
16,
12,
1,
-4,
-4,
-7,
-16,
-3,
13,
-8,
1,
14,
-18,
18,
-20,
-3,
10,
-19,
-19,
-21,
2,
19,
-11,
23,
-3,
17,
22,
-19,
-13,
18,
-6,
-6,
7,
-20,
2,
-20,
4,
1,
-15,
-13,
24,
0,
4,
20,
7,
16,
-15,
-13,
20,
16,
25,
-1,
15,
-9,
-15,
-9,
0,
-16,
-8,
-7,
0,
9,
2,
20,
-4,
-17,
10,
-5,
18,
-10,
24,
-17,
-1,
13,
-10,
-1,
19,
-10,
2,
0,
-15,
14,
15,
4,
-9,
-17,
0,
-4,
-6,
21,
-21,
-10,
25,
-2,
15,
-18,
-15,
8,
11,
23,
25,
13,
9,
-4,
12,
17,
11,
-9,
16,
-4,
1,
9,
8,
5,
8,
-20,
6,
20,
24,
18,
-13,
-5,
-20,
13,
-17,
25,
-5,
7,
-12,
8,
-4,
-3,
3,
-3,
-11,
6,
-22,
-18,
18,
21,
-9,
-20,
7,
3,
-1,
6,
17,
2,
-17,
17,
-22,
18,
-14,
-11,
-17,
-17,
-4,
-8,
0,
-12,
17,
25,
18,
-10,
20,
-19,
16,
-5,
20,
-22,
14,
-6,
-22,
-11,
15,
3,
-23,
-9,
7,
-10,
2,
12,
-1,
8,
-21,
19,
19,
15,
-9,
-16,
6,
-5,
2,
-8,
9,
-13,
-16,
-22,
-17,
-23,
-17,
-14,
4,
-19,
-13,
3,
17,
-14,
-17,
-1,
-4,
3,
-20,
-25,
8,
-17,
19,
0,
1,
-22,
-18,
-1,
-24,
15,
-11,
-7,
-1,
13,
-19,
11,
-11,
2,
-24,
-5,
17,
-13,
-2,
18,
-18,
-8,
5,
-22,
1,
-13,
-2,
12,
1,
-24,
-20,
-24,
16,
-18,
18,
-11,
-11,
-16,
3,
3,
-15,
-9,
5,
-5,
3,
-17,
9,
-25,
-20,
-5,
-19,
12,
14,
-22,
-11,
-4,
15,
14,
19,
-2,
-10,
-5,
-15,
13,
10,
-13,
14,
-5,
-21,
-21,
17,
-16,
17,
-14,
-8,
-1,
-1,
-14,
-12,
18,
-8,
-5,
-16,
22,
-9,
-4,
22,
-7,
10,
5,
-2,
-19,
22,
10,
6,
3,
-12,
7,
-10,
-4,
8,
-14,
8,
19,
16,
22,
8,
-2,
25,
21,
26,
24,
-16,
16,
2,
-16,
0,
8,
24,
22,
5,
24,
10,
-12,
-18,
19,
22,
-1,
-17,
-15,
-1,
25,
3,
-8,
5,
13,
-18,
24,
-12,
-17,
3,
7,
19,
13,
-5,
5,
10,
4,
21,
-10,
-16,
13,
8,
-6,
-15,
21,
0,
-6,
4,
19,
6,
4,
-10,
20,
-16,
-18,
9,
22,
14,
9,
-19,
9,
23,
25,
-14,
-2,
10,
24,
3,
5,
3,
-3,
-7,
-22,
-5,
3,
24,
10,
10,
12,
15,
2,
8,
-8,
-5,
-9,
6,
9,
-19,
2,
23,
8,
21,
-18,
18,
4,
4,
12,
19,
12,
-21,
7,
-19,
-19,
-12,
16,
-9,
-21,
-8,
-14,
-3,
-16,
-12,
9,
-7,
-5,
-6,
10,
-11,
-1,
7,
4,
-13,
20,
-17,
14,
-16,
-17,
19,
-2,
-8,
0,
8,
4,
16,
-3,
3,
21,
-7,
-19,
13,
6,
-18,
-20,
-21,
-5,
-19,
-14,
2,
15,
-12,
8,
25,
1,
15,
17,
-6,
15,
9,
-17,
-12,
-22,
-7,
-6,
20,
20,
13,
12,
8,
-9,
-7,
8,
16,
-16,
-5,
3,
-10,
-4,
6,
-12,
13,
11,
-18,
17,
-10,
5,
15,
4,
-11,
-2,
-20,
1,
15,
2,
-18,
17,
-7,
-1,
15,
-13,
13,
-13,
-5,
22,
19,
1,
-25,
-7,
20,
21,
-8,
24,
0,
-15,
-6,
-7,
-17,
5,
2,
-8,
3,
12,
-19,
5,
-11,
-24,
-16,
3,
-25,
2,
-19,
-4,
-18,
11,
10,
17,
6,
5,
-19,
7,
3,
-20,
-9,
3,
-13,
-18,
-7,
-14,
-21,
-22,
-23,
-1,
-22,
13,
-3,
3,
-20,
12,
8,
-22,
-16,
-20,
5,
-17,
-16,
5,
17,
-1,
-15,
8,
12,
0,
20,
-8,
-17,
-16,
-7,
-1,
-23,
-9,
-10,
-11,
12,
-9,
10,
10,
10,
15,
8,
-20,
-5,
7,
12,
-15,
16,
-4,
0,
7,
-11,
0,
19,
9,
6,
-15,
15,
11,
-17,
6,
-17,
19,
-20,
16,
0,
5,
-23,
16,
-12,
15,
14,
16,
2,
-3,
1,
5,
7,
-1,
-14,
-8,
-11,
-15,
-3,
10,
-12,
-7,
-23,
3,
10,
10,
19,
8,
-5,
-11,
8,
6,
18,
13,
-1,
3,
-21,
-12,
-3,
12,
15,
-16,
-19,
-5,
5,
-8,
-5,
4,
-10,
-9,
13,
-20,
8,
9,
-16,
-14,
-6,
-9,
-22,
8,
-8,
-3,
-18,
-18,
20,
-1,
10,
-1,
-7,
0,
15,
-2,
5,
-18,
-4,
5,
-23,
-24,
-9,
-6,
-20,
-4,
6,
-13,
10,
3,
11,
7,
-19,
-8,
17,
-15,
17,
-7,
-23,
-12,
-2,
-12,
-2,
20,
12,
18,
-12,
14,
19,
0,
21,
-9,
-19,
2,
-11,
-20,
4,
-24,
-23,
9,
-6,
-22,
-2,
4,
-22,
6,
17,
8,
10,
9,
13,
1,
2,
14,
-6,
-13,
-14,
-4,
-9,
-1,
-4,
12,
17,
-18,
4,
-1,
-20,
1,
0,
-21,
-11,
-2,
-1,
-9,
-1,
7,
-12,
-19,
-22,
-19,
14,
-23,
-8,
-19,
1,
6,
-21,
-3,
6,
7,
2,
13,
-5,
24,
-17,
0,
3,
15,
-7,
-13,
-18,
0,
-7,
0,
2,
-13,
21,
-15,
-9,
-7,
3,
-17,
10,
0,
-6,
-10,
-11,
13,
19,
12,
3,
9,
-13,
9,
24,
-4,
23,
-5,
23,
18,
-14,
8,
-4,
0,
1,
-5,
9,
23,
26,
7,
5,
22,
3,
23,
-16,
22,
-18,
13,
-16,
-9,
11,
8,
26,
17,
22,
9,
7,
-10,
10,
21,
4,
5,
17,
2,
5,
14,
-2,
-2,
6,
-11,
21,
21,
27,
-16,
-15,
-5,
-12,
14,
8,
-11,
-16,
-11,
-3,
2,
10,
14,
5,
4,
12,
-4,
-3,
1,
22,
12,
-14,
-12,
20,
-11,
6,
23,
9,
25,
-3,
16,
-3,
13,
15,
6,
20,
-6,
11,
22,
-2,
-14,
-15,
2,
26,
10,
-1,
9,
6,
-10,
-18,
24,
14,
-11,
-16,
-23,
-23,
17,
-7,
-6,
14,
12,
4,
-18,
-23,
-16,
-25,
-21,
2,
5,
17,
20,
-3,
4,
-14,
3,
6,
16,
-6,
-3,
14,
-18,
14,
10,
-7,
-2,
19,
8,
5,
-20,
5,
-21,
-11,
-12,
-19,
8,
-13,
15,
-9,
-4,
-6,
-10,
-6,
9,
-8,
-21,
-16,
16,
10,
-1,
16,
0,
19,
0,
14,
-20,
12,
4,
6,
14,
-7,
14,
8,
11,
-15,
-16,
9,
-18,
-20,
-19,
-15,
3,
5,
10,
-17,
-17,
17,
-13,
20,
-12,
-11,
-7,
7,
7,
9,
20,
5,
6,
-9,
20,
-1,
-17,
-4,
7,
-9,
-19,
6,
-1,
-17,
-20,
-1,
10,
-22,
8,
-17,
19,
16,
1,
8,
8,
-20,
-11,
-21,
-6,
11,
-21,
12,
-21,
-5,
15,
6,
1,
-2,
7,
17,
-23,
-18,
-24,
19,
16,
15,
0,
17,
-20,
-12,
5,
7,
-7,
16,
6,
-17,
8,
9,
-20,
14,
-10,
-23,
-21,
3,
-3,
12,
18,
15,
-17,
-17,
12,
12,
-23,
-17,
2,
19,
-22,
-12,
-21,
9,
-2,
17,
9,
2,
0,
-2,
11,
18,
8,
-20,
6,
-18,
-20,
-12,
2,
5,
16,
9,
17,
10,
-10,
3,
-22,
3,
-1,
-11,
-6,
-5,
-5,
-21,
-11,
9,
10,
-9,
2,
-23,
3,
-18,
-11,
14,
5,
-10,
-15,
18,
-14,
5,
13,
14,
-23,
3,
13,
-6,
-1,
7,
-5,
-9,
11,
3,
14,
12,
-18,
-2,
-22,
-7,
-23,
10,
19,
17,
19,
16,
8,
-18,
-14,
-19,
-1,
-23,
11,
-8,
10,
-11,
10,
1,
17,
-12,
-6,
21,
7,
3,
20,
-6,
-18,
-9,
9,
-6,
-2,
-6,
12,
-16,
-4,
6,
-22,
9,
-6,
20,
-10,
12,
3,
-10,
13,
-11,
10,
6,
14,
6,
11,
3,
2,
14,
4,
10,
-2,
12,
17,
7,
-4,
0,
20,
11,
-18,
8,
-20,
6,
12,
-14,
-7,
-10,
-1,
10,
-11,
20,
10,
-2,
11,
-20,
-9,
11,
-15,
16,
-12,
-23,
19,
-10,
-8,
-22,
5,
-3,
4,
4,
0,
-11,
-8,
-7,
11,
-10,
-15,
-17,
19,
-23,
-2,
9,
-15,
-10,
-4,
-14,
-20,
-15,
-3,
-16,
-4,
-8,
-13,
12,
1,
-14,
0,
-10,
16,
14,
-15,
1,
9,
-1,
3,
12,
-13,
16,
-6,
2,
14,
18,
4,
13,
-1,
6,
-5,
-8,
9,
11,
-13,
-3,
7,
2,
11,
4,
-24,
14,
-22,
-17,
1,
13,
6,
12,
-3,
-22,
-13,
-18,
-13,
-7,
-26,
6,
-22,
3,
-9,
15,
0,
1,
7,
18,
-15,
-15,
6,
8,
19,
17,
-10,
7,
-11,
-7,
-26,
8,
4,
1,
-26,
-22,
8,
17,
-10,
10,
-24,
12,
-25,
-21,
13,
19,
-22,
16,
16,
8,
13,
-14,
-10,
18,
-1,
12,
12,
-22,
1,
-13,
-16,
-8,
-13,
17,
-19,
-19,
-24,
15,
8,
-17,
2,
-13,
-16,
14,
12,
14,
1,
-23,
7,
-7,
9,
19,
14,
7,
6,
-14,
17,
14,
18,
2,
-18,
-21,
23,
-11,
-8,
-20,
15,
-2,
-23,
13,
17,
-8,
-21,
-19,
11,
17,
-26,
-3,
2,
6,
-10,
-22,
-21,
17,
-10,
-15,
9,
16,
-12,
-19,
0,
-18,
-15,
-22,
8,
14,
13,
-23,
-15,
11,
20,
-24,
19,
-2,
2,
9,
-5,
0,
-11,
-17,
19,
-5,
-23,
-20,
-15,
12,
0,
-11,
19,
-10,
1,
-18,
-9,
-12,
2,
8,
-3,
-3,
0,
-18,
-7,
-19,
21,
-5,
3,
-22,
7,
-19,
-18,
20,
15,
-5,
-18,
-19,
-3,
7,
-1,
-19,
5,
-7,
16,
-1,
-14,
12,
-10,
-11,
-19,
1,
13,
11,
1,
9,
-14,
-21,
-21,
14,
15,
9,
6,
-9,
-6,
-20,
13,
-7,
-3,
-9,
-20,
-21,
14,
18,
-4,
-23,
0,
-5,
-4,
-19,
19,
18,
-2,
10,
-3,
-13,
0,
-11,
10,
16,
-1,
-13,
16,
19,
-21,
-8,
-19,
0,
-13,
15,
-11,
-20,
-21,
-8,
-4,
-7,
-4,
-16,
2,
-14,
-5,
-9,
1,
-4,
13,
3,
5,
-19,
9,
-10,
16,
9,
-15,
-5,
13,
-14,
18,
3,
-11,
11,
-14,
-9,
-3,
-11,
20,
19,
-23,
-20,
0,
-11,
11,
-16,
12,
12,
-2,
19,
-13,
-21,
-3,
13,
19,
-11,
12,
2,
14,
1,
13,
-3,
16,
0,
3,
-3,
12,
-22,
8,
-14,
-14,
18,
-3,
-2,
-16,
16,
1,
-19,
16,
2,
2,
8,
-16,
-20,
0,
-5,
15,
-14,
11,
-11,
-19,
10,
-7,
0,
-12,
-17,
16,
-16,
-24,
16,
-14,
-7,
-9,
12,
16,
19,
-10,
-22,
19,
10,
6,
5,
-13,
-9,
15,
-19,
-22,
-5,
-22,
5,
-15,
-3,
-11,
-1,
19,
-9,
-6,
6,
12,
-17,
10,
-11,
6,
18,
-17,
15,
0,
-24,
15,
16,
3,
-19,
-10,
19,
11,
7,
8,
-22,
16,
4,
12,
16,
11,
-21,
-20,
-7,
-18,
15,
-5,
15,
11,
-8,
-5,
-2,
0,
-4,
5,
-13,
-11,
15,
-22,
-18,
-1,
17,
8,
-11,
-2,
14,
-8,
10,
-3,
8,
-9,
13,
8,
-7,
-2,
-23,
0,
-23,
3,
-15,
2,
-19,
12,
0,
3,
14,
16,
9,
0,
-3,
0,
4,
-17,
10,
-11,
19,
-11,
-12,
5,
-15,
6,
-1,
19,
-25,
-6,
-17,
8,
9,
-3,
-19,
3,
0,
14,
-21,
-1,
-18,
-20,
-18,
15,
-8,
-23,
15,
6,
14,
-21,
-3,
-7,
4,
-12,
-21,
-5,
15,
1,
4,
7,
6,
1,
-22,
16,
-21,
2,
10,
-22,
-2,
-14,
1,
9,
-3,
-5,
13,
9,
-16,
16,
16,
-12,
17,
13,
0,
-8,
18,
-17,
-15,
2,
14,
-8,
26,
7,
13,
-10,
10,
18,
1,
2,
25,
26,
9,
-21,
2,
-3,
19,
20,
-9,
14,
26,
-1,
22,
25,
1,
3,
-13,
-9,
20,
-2,
-5,
-3,
1,
-8,
-15,
-13,
-12,
13,
6,
7,
18,
6,
-4,
26,
12,
-10,
18,
24,
2,
3,
12,
-7,
-16,
23,
23,
0,
15,
-12,
7,
14,
11,
12,
2,
-12,
7,
16,
12,
24,
-12,
25,
-13,
19,
6,
5,
10,
19,
17,
4,
16,
-8,
16,
5,
-2,
21,
-1,
23,
-13,
4,
-13,
-10,
-1,
4,
-4,
-11,
-15,
-3,
-7,
-14,
-4,
-2,
-4,
-14,
24,
21,
15,
27,
-12,
-17,
-11,
8,
-7,
0,
26,
20,
12,
-10,
21,
-9,
7,
-18,
7,
-4,
20,
-15,
-7,
-5,
-10,
-18,
-4,
17,
-14,
10,
-14,
-19,
-21,
23,
-16,
-22,
0,
15,
-13,
16,
7,
3,
12,
13,
9,
12,
15,
11,
-11,
11,
-10,
20,
-15,
-18,
-8,
0,
15,
-14,
-2,
-17,
-7,
10,
21,
15,
0,
-11,
14,
-9,
0,
-1,
-6,
-13,
0,
6,
-5,
-15,
-13,
-21,
1,
23,
-5,
-7,
9,
22,
-15,
-19,
-22,
-7,
21,
20,
-22,
0,
-19,
-14,
-10,
-11,
8,
1,
21,
-1,
-7,
8,
22,
-8,
8,
-14,
21,
4,
16,
14,
5,
21,
7,
-11,
8,
10,
-19,
-16,
13,
11,
1,
12,
-19,
-15,
-24,
12,
8,
-3,
8,
20,
-3,
-17,
-12,
-11,
11,
-18,
17,
18,
-20,
21,
-12,
-4,
-20,
0,
-11,
-14,
9,
15,
5,
-22,
23,
-4,
-13,
-22,
-13,
-7,
-22,
-2,
7,
15,
6,
6,
-8,
15,
19,
7,
8,
-18,
20,
-4,
5,
-11,
-21,
8,
0,
-21,
-1,
0,
12,
21,
7,
-22,
-6,
-8,
17,
-4,
-4,
11,
-24,
8,
7,
-6,
-8,
14,
12,
-15,
-4,
-20,
14,
-14,
-3,
-12,
7,
-20,
5,
1,
14,
11,
-8,
-12,
-20,
-5,
14,
9,
-11,
-13,
14,
-22,
11,
6,
4,
-6,
-21,
17,
-5,
-1,
-20,
16,
-4,
-9,
-19,
-3,
18,
-7,
-3,
22,
-6,
7,
-20,
-14,
-10,
11,
-24,
14,
-2,
-6,
-16,
21,
-21,
-19,
12,
7,
-5,
-20,
-12,
-12,
1,
0,
7,
9,
-9,
7,
10,
-19,
20,
-22,
-20,
11,
-21,
-21,
-6,
-17,
-8,
-5,
12,
11,
8,
-14,
13,
-21,
13,
-3,
-11,
-11,
6,
13,
14,
25,
0,
23,
-3,
-9,
-9,
2,
18,
5,
24,
-8,
-6,
-18,
-6,
0,
12,
5,
-10,
-7,
2,
-15,
26,
13,
-6,
7,
17,
17,
2,
-13,
6,
21,
6,
5,
-18,
22,
6,
-14,
1,
15,
-12,
7,
-16,
-11,
-15,
-7,
10,
-4,
2,
3,
10,
-18,
6,
17,
-3,
-6,
0,
13,
3,
16,
23,
21,
21,
23,
22,
7,
0,
-14,
9,
19,
15,
3,
19,
-15,
-7,
-11,
25,
-18,
25,
-11,
3,
-19,
-11,
-11,
12,
26,
-10,
8,
8,
16,
22,
-14,
3,
-4,
7,
-6,
-9,
-11,
18,
4,
2,
-1,
-6,
18,
10,
-14,
18,
-14,
23,
14,
-19,
3,
12,
-13,
-6,
8,
-11,
13,
18,
-7,
12,
24,
0,
22,
1,
14,
24,
24,
-14,
-5,
2,
-11,
-6,
-14,
-11,
-8,
16,
-12,
5,
20,
19,
14,
-16,
-22,
-5,
9,
15,
-17,
26,
-10,
6,
-3,
-15,
6,
3,
26,
-11,
0,
12,
19,
-17,
16,
-14,
-8,
0,
-8,
-6,
-4,
16,
24,
-13,
20,
-18,
18,
-4,
-15,
19,
5,
9,
17,
18,
7,
14,
15,
12,
-17,
-17,
3,
-9,
25,
9,
19,
0,
16,
-14,
-12,
-3,
-8,
-11,
-22,
14,
12,
10,
-1,
1,
-13,
-8,
16,
17,
10,
17,
-10,
0,
20,
-10,
13,
10,
8,
1,
24,
23,
3,
-8,
-18,
5,
9,
19,
8,
-13,
21,
12,
3,
-19,
-17,
7,
1,
-11,
6,
-16,
-11,
13,
18,
3,
-2,
20,
5,
1,
-24,
22,
-14,
8,
-1,
19,
17,
2,
12,
5,
3,
6,
0,
-18,
-5,
-8,
6,
23,
-4,
-14,
9,
-5,
-9,
22,
2,
-1,
-12,
7,
-3,
-8,
21,
20,
4,
-7,
11,
9,
20,
16,
15,
13,
12,
-10,
-20,
22,
5,
4,
-11,
21,
-3,
7,
-1,
1,
13,
-15,
-14,
-2,
13,
17,
8,
-14,
-16,
3,
-2,
-16,
7,
-18,
13,
-15,
-14,
4,
18,
7,
-16,
-1,
-4,
18,
-10,
9,
20,
12,
-9,
10,
-2,
-14,
6,
14,
-8,
-7,
0,
14,
5,
15,
18,
6,
19,
-8,
18,
-2,
-8,
-15,
9,
-15,
-20,
2,
-2,
16,
19,
18,
-12,
-15,
2,
14,
-6,
-2,
27,
23,
3,
-13,
0,
4,
12,
-1,
24,
-16,
-15,
16,
6,
-4,
-21,
23,
-7,
26,
14,
-2,
0,
2,
8,
26,
4,
-6,
-15,
-6,
-16,
-11,
20,
-4,
15,
-7,
6,
-8,
12,
2,
9,
14,
0,
5,
-2,
-4,
-7,
-4,
21,
-1,
-18,
12,
3,
22,
-2,
17,
-14,
2,
-14,
-1,
-4,
8,
10,
15,
23,
-8,
8,
-7,
1,
-9,
-17,
9,
18,
3,
-16,
-14,
25,
2,
1,
13,
-22,
8,
-11,
26,
13,
-11,
-13,
3,
7,
-1,
9,
-17,
6,
-10,
-17,
-9,
-5,
-15,
5,
2,
1,
-15,
-14,
9,
3,
-6,
-7,
-8,
23,
-2,
-11,
-14,
-19,
25,
-16,
25,
15,
7,
-8,
15,
-8,
-15,
-18,
22,
0,
-19,
9,
9,
11,
-8,
10,
-18,
-8,
21,
24,
21,
12,
22,
21,
-11,
13,
-15,
24,
15,
3,
-7,
7,
-2,
-20,
2,
6,
-5,
0,
-2,
23,
-18,
21,
-8,
-16,
13,
1,
-13,
-9,
-1,
-5,
16,
-13,
14,
-10,
14,
-12,
7,
17,
17,
-10,
23,
-5,
25,
17,
-7,
-17,
7,
20,
12,
16,
-9,
14,
22,
-17,
13,
23,
-19,
-3,
-7,
-1,
4,
-7,
2,
-7,
17,
1,
20,
8,
-8,
-4,
-14,
25,
3,
5,
9,
23,
21,
7,
14,
-5,
21,
-15,
22,
-3,
-1,
2,
-13,
-10,
-10,
-12,
9,
11,
-14,
3,
11,
-8,
8,
7,
-14,
-6,
8,
-5,
16,
17,
-16,
24,
10,
2,
-17,
-12,
21,
0,
-17,
-20,
3,
-10,
5,
24,
16,
0,
4,
0,
15,
-16,
20,
-16,
23,
-13,
-1,
23,
11,
26,
20,
7,
13,
12,
4,
-6,
21,
-16,
18,
10,
-13,
-12,
20,
-15,
22,
21,
-18,
-4,
-14,
18,
-6,
9,
-8,
-5,
-7,
-14,
16,
-8,
-4,
11,
-13,
-12,
3,
-1,
-9,
16,
-16,
-19,
19,
16,
17,
-4,
-18,
6,
19,
-11,
15,
-23,
7,
-8,
17,
-3,
-5,
8,
-14,
4,
23,
-7,
10,
6,
-8,
-18,
-16,
-6,
-16,
-17,
3,
-21,
4,
-20,
9,
21,
-9,
12,
-16,
16,
-19,
-20,
-18,
0,
-15,
-11,
1,
-4,
-8,
18,
3,
2,
-8,
-13,
20,
-21,
14,
-16,
4,
-19,
10,
21,
-14,
8,
10,
-17,
17,
13,
3,
14,
1,
17,
-19,
8,
11,
10,
-9,
8,
-11,
10,
-20,
20,
7,
6,
16,
14,
-7,
9,
4,
-9,
15,
-15,
17,
-2,
-17,
-13,
12,
18,
2,
-12,
-18,
-11,
-7,
15,
-11,
8,
-9,
9,
-13,
-15,
2,
0,
-5,
-21,
1,
-24,
15,
14,
-7,
12,
-9,
-17,
-9,
-5,
-21,
6,
4,
-8,
-19,
16,
13,
15,
-11,
-10,
-3,
20,
15,
21,
-9,
13,
-1,
-5,
5,
5,
-10,
2,
4,
-5,
20,
-4,
-17,
3,
-1,
-1,
-16,
-19,
7,
18,
20,
7,
10,
-21,
21,
16,
-3,
-20,
-14,
-11,
-20,
23,
-16,
14,
-19,
-14,
15,
-21,
11,
-10,
-14,
-19,
-6,
1,
-19,
6,
17,
7,
-10,
3,
18,
-15,
19,
14,
-20,
-7,
3,
-4,
16,
-13,
-20,
-19,
7,
19,
-18,
-3,
-13,
-1,
-3,
15,
23,
8,
4,
-4,
20,
1,
12,
-7,
-20,
1,
8,
8,
-12,
16,
-11,
19,
-10,
-11,
6,
8,
0,
-9,
10,
22,
11,
5,
26,
9,
-8,
-11,
7,
-6,
-15,
-10,
-4,
-14,
-15,
-8,
-13,
13,
11,
22,
-7,
14,
-2,
15,
-6,
23,
5,
10,
11,
0,
-14,
26,
1,
-20,
-3,
21,
-13,
-12,
-10,
15,
8,
15,
10,
2,
15,
18,
20,
-13,
11,
-21,
-8,
-3,
10,
10,
18,
-6,
-5,
26,
5,
9,
-10,
5,
18,
-3,
17,
10,
-17,
23,
-7,
21,
12,
-7,
-5,
9,
18,
5,
-7,
26,
8,
-5,
-3,
-2,
13,
16,
-7,
-1,
-14,
-1,
-2,
-14,
-19,
-3,
7,
2,
-7,
-7,
25,
-22,
-8,
-2,
3,
20,
23,
-2,
-24,
25,
22,
-5,
24,
7,
-10,
1,
27,
18,
-6,
-18,
-19,
11,
23,
-18,
-2,
21,
17,
-9,
15,
7,
23,
-8,
25,
-19,
-6,
-1,
-6,
-13,
-21,
-4,
22,
11,
-6,
0,
1,
0,
27,
24,
-10,
-9,
-6,
18,
-14,
-10,
-10,
18,
1,
19,
-12,
-11,
-11,
-10,
2,
25,
-13,
4,
-14,
-10,
22,
-19,
18,
12,
15,
0,
1,
-19,
-14,
-10,
1,
-11,
-9,
-20,
16,
-15,
6,
13,
7,
7,
19,
-17,
6,
3,
11,
9,
-11,
21,
6,
26,
23,
9,
6,
14,
6,
5,
-9,
18,
5,
19,
-19,
13,
7,
0,
-9,
-21,
1,
-5,
3,
23,
23,
22,
-12,
2,
-7,
-13,
19,
15,
14,
-8,
6,
12,
-19,
-1,
1,
4,
23,
-9,
-6,
1,
-16,
-13,
17,
21,
23,
-16,
14,
24,
-13,
-13,
0,
12,
17,
12,
19,
24,
-6,
16,
-18,
-13,
-17,
2,
2,
-17,
-20,
18,
18,
-3,
5,
-23,
-11,
-3,
0,
7,
11,
-15,
-21,
20,
12,
-9,
-1,
6,
2,
15,
1,
8,
13,
-13,
9,
9,
-16,
-20,
2,
-18,
-23,
-9,
15,
15,
-18,
4,
-11,
0,
-11,
6,
-9,
-4,
-9,
0,
-11,
-8,
-19,
20,
7,
-18,
11,
-19,
-16,
-11,
8,
-8,
20,
-4,
-4,
10,
4,
-9,
-19,
1,
8,
6,
-18,
17,
13,
10,
16,
-15,
-12,
11,
8,
9,
-22,
16,
-7,
-15,
-18,
5,
-22,
-7,
0,
7,
-22,
3,
-6,
0,
1,
-1,
-7,
7,
0,
-3,
17,
-16,
11,
9,
-15,
0,
-14,
2,
11,
-16,
-18,
1,
-9,
3,
-1,
-5,
9,
3,
-6,
1,
-13,
-14,
-20,
4,
-18,
18,
-17,
-1,
-13,
-13,
17,
15,
5,
18,
-21,
16,
-17,
-22,
-1,
-8,
-1,
-3,
-23,
12,
12,
-3,
-19,
-18,
5,
2,
-4,
12,
1,
-11,
-9,
-6,
-20,
-16,
8,
9,
0,
-21,
7,
-2,
-20,
-6,
11,
-6,
-17,
-11,
15,
-3,
-5,
18,
6,
-7,
-10,
-12,
2,
-16,
10,
7,
-10,
5,
4,
-15,
-16,
16,
-7,
13,
17,
2,
-1,
5,
19,
5,
-23,
-24,
-1,
-24,
-22,
4,
-19,
13,
-13,
-19,
-15,
-7,
7,
-4,
-5,
11,
2,
-15,
10,
-13,
-2,
-5,
-13,
-1,
5,
15,
-7,
-23,
4,
-21,
-4,
16,
15,
6,
20,
-9,
16,
11,
-1,
13,
5,
-24,
-18,
-22,
1,
-13,
15,
16,
-2,
3,
0,
-11,
-18,
-7,
4,
1,
-24,
14,
-8,
19,
7,
-6,
-23,
10,
7,
-7,
-14,
14,
-9,
3,
-12,
16,
2,
-15,
13,
16,
14,
17,
-11,
-14,
-17,
13,
13,
0,
-1,
2,
-17,
3,
-21,
-12,
-12,
-2,
-24,
-9,
-2,
-2,
18,
15,
-2,
-3,
-22,
-4,
15,
18,
20,
18,
10,
6,
-19,
1,
8,
-8,
-9,
2,
-18,
-18,
-9,
-16,
-25,
0,
-20,
-9,
-6,
7,
-24,
-2,
-18,
14,
1,
19,
1,
-21,
7,
13,
-20,
3,
7,
3,
18,
20,
-23,
-17,
-6,
-15,
-11,
-11,
-12,
5,
-13,
-10,
-9,
-12,
17,
3,
0,
1,
9,
-8,
2,
-10,
5,
1,
10,
-17,
19,
-14,
-20,
-20,
5,
-19,
-15,
7,
5,
5,
21,
4,
10,
-13,
16,
8,
-3,
-20,
18,
1,
7,
-9,
9,
-24,
-8,
24,
-6,
25,
-7,
-18,
24,
21,
-22,
14,
12,
0,
-13,
-4,
22,
5,
21,
-10,
-6,
22,
2,
-3,
-5,
-2,
7,
22,
-3,
22,
4,
18,
-2,
8,
-8,
10,
6,
-3,
18,
22,
22,
10,
-15,
-15,
15,
7,
-18,
-11,
11,
-4,
18,
-7,
-11,
13,
-13,
-5,
1,
6,
-7,
2,
14,
-1,
-12,
1,
8,
-3,
16,
20,
0,
18,
13,
-10,
9,
-16,
5,
22,
2,
-5,
-7,
-10,
-7,
-7,
6,
22,
5,
4,
-3,
-11,
10,
-11,
24,
1,
-10,
2,
0,
-8,
-13,
21,
-17,
6,
-5,
9,
6,
21,
18,
-17,
-9,
20,
2,
16,
20,
-12,
-15,
2,
4,
3,
-10,
9,
-18,
26,
-4,
2,
15,
12,
20,
-15,
-6,
-12,
15,
-6,
-18,
-23,
-22,
12,
22,
17,
-5,
-4,
-5,
8,
-20,
21,
5,
20,
3,
18,
-6,
-14,
-16,
-20,
15,
-18,
15,
1,
3,
22,
-7,
21,
-6,
-22,
14,
5,
4,
-4,
-1,
-14,
-5,
7,
18,
5,
-4,
12,
4,
-6,
10,
2,
-7,
2,
0,
4,
-23,
21,
-4,
2,
-22,
7,
-13,
-16,
-16,
-2,
5,
4,
0,
-3,
19,
15,
14,
-9,
20,
12,
1,
-17,
-9,
-18,
-9,
0,
-4,
11,
-4,
-19,
-19,
4,
18,
-2,
-2,
22,
-18,
-14,
-5,
-15,
-14,
1,
4,
14,
7,
-2,
-11,
16,
13,
-15,
-23,
-6,
-16,
15,
19,
-2,
-23,
-7,
21,
-19,
-20,
8,
15,
15,
-18,
17,
0,
-19,
-18,
21,
1,
-2,
-22,
8,
22,
-17,
8,
7,
-12,
-2,
6,
-15,
-19,
0,
-15,
-18,
0,
-18,
-13,
-10,
11,
-13,
-16,
-25,
-11,
16,
-22,
-6,
-15,
-12,
-6,
-6,
12,
11,
22,
-10,
5,
24,
23,
-19,
16,
-9,
-19,
6,
-7,
23,
24,
21,
8,
21,
-19,
15,
24,
-16,
-16,
2,
-8,
-14,
13,
11,
11,
-14,
14,
20,
-20,
20,
9,
-5,
8,
-13,
13,
12,
11,
4,
12,
-12,
5,
-4,
8,
1,
-3,
-5,
17,
-10,
-13,
-12,
19,
-1,
5,
12,
-9,
4,
24,
0,
8,
-11,
10,
-7,
24,
-17,
-11,
8,
6,
-19,
25,
1,
-11,
8,
-10,
-20,
4,
12,
2,
1,
15,
14,
-13,
10,
-5,
-9,
23,
8,
-16,
5,
9,
23,
10,
-19,
-9,
9,
-14,
-18,
3,
-20,
-13,
4,
14,
13,
-18,
1,
-15,
-1,
26,
27,
-3,
24,
27,
-6,
9,
-13,
4,
-13,
17,
21,
7,
10,
-4,
12,
16,
-12,
22,
0,
-13,
18,
6,
-11,
13,
-12,
19,
23,
21,
-19,
-8,
6,
-15,
-17,
-19,
1,
-13,
12,
16,
25,
11,
1,
26,
-12,
18,
-3,
21,
-5,
9,
-10,
4,
12,
-16,
-4,
15,
-16,
-1,
9,
7,
17,
21,
21,
19,
-15,
19,
-4,
12,
22,
14,
2,
10,
-14,
1,
-17,
-15,
19,
-6,
-17,
-8,
4,
14,
4,
-16,
16,
-16,
15,
18,
24,
23,
21,
14,
4,
-14,
-13,
-20,
16,
-10,
-15,
16,
0,
13,
-7,
-2,
11,
7,
0,
16,
26,
-1,
17,
-11,
1,
-19,
-7,
-1,
15,
-5,
4,
-3,
-26,
20,
-16,
22,
-11,
24,
-5,
9,
5,
25,
4,
-10,
-11,
-1,
-19,
7,
-5,
15,
-16,
23,
26,
16,
17,
7,
-18,
-12,
18,
-15,
10,
-12,
15,
1,
-9,
3,
-10,
23,
-6,
11,
15,
16,
15,
12,
-11,
-17,
-7,
10,
27,
8,
26,
-18,
-8,
-3,
-3,
6,
-19,
14,
-2,
22,
3,
-14,
20,
-9,
8,
-13,
-11,
2,
-6,
9,
16,
24,
3,
5,
-11,
8,
5,
18,
5,
22,
18,
21,
17,
6,
9,
-3,
8,
-14,
-2,
10,
-9,
0,
17,
-19,
0,
-17,
-9,
-19,
20,
-12,
17,
-12,
-16,
-16,
-21,
-16,
-3,
21,
4,
9,
8,
-26,
-7,
24,
26,
-15,
-17,
17,
-5,
24,
-18,
-8,
-13,
-13,
8,
-11,
12,
12,
13,
9,
-19,
26,
19,
11,
14,
-16,
-3,
11,
-22,
16,
6,
-17,
5,
8,
17,
-16,
-10,
18,
-11,
-4,
10,
8,
-14,
-4,
15,
17,
-25,
-20,
-16,
-1,
4,
9,
-11,
-5,
-20,
-26,
-18,
-19,
14,
-22,
5,
-7,
-10,
7,
11,
18,
-18,
2,
-17,
6,
-11,
-10,
11,
15,
-17,
-24,
-13,
6,
0,
6,
0,
-14,
-13,
-11,
12,
-5,
15,
0,
9,
-23,
-1,
-11,
-13,
1,
-16,
6,
3,
21,
13,
-7,
-4,
19,
-23,
13,
18,
6,
17,
7,
9,
-20,
-2,
3,
-17,
-21,
-9,
-13,
-17,
-13,
2,
15,
16,
6,
18,
-21,
21,
-12,
-4,
4,
-13,
-7,
-22,
-6,
-1,
17,
7,
-14,
-14,
-12,
-22,
4,
-7,
-19,
18,
16,
-22,
14,
-17,
6,
17,
5,
1,
8,
-9,
8,
18,
-18,
16,
-5,
-19,
3,
-22,
15,
-18,
-25,
7,
3,
-13,
17,
16,
-18,
-4,
10,
-11,
-20,
-13,
-18,
-17,
-6,
11,
-7,
-1,
-10,
-20,
-10,
-21,
-7,
-16,
17,
-24,
-9,
10,
-5,
14,
3,
-1,
-24,
-2,
-13,
6,
-11,
5,
12,
-7,
-11,
14,
-16,
9,
-4,
-16,
14,
-11,
13,
-3,
-20,
17,
-1,
12,
1,
-15,
20,
19,
-12,
2,
-5,
3,
13,
-24,
-19,
-14,
-18,
-3,
-15,
-13,
16,
-6,
18,
-11,
2,
3,
4,
-18,
-14,
-8,
-17,
-1,
7,
20,
-7,
16,
14,
-13,
11,
-7,
-16,
-24,
12,
-13,
11,
3,
-21,
1,
4,
-23,
-16,
2,
-15,
12,
-2,
-7,
-1,
-1,
-18,
18,
10,
17,
-13,
-20,
-12,
-20,
-11,
22,
18,
-14,
-8,
-22,
-4,
19,
15,
12,
-4,
-2,
20,
-14,
-14,
11,
-9,
1,
15,
8,
14,
-13,
-11,
2,
21,
21,
-17,
-2,
16,
-22,
-11,
-8,
-10,
6,
-3,
2,
-6,
2,
8,
14,
-21,
22,
-6,
-2,
12,
14,
11,
-9,
-19,
6,
14,
3,
-13,
-2,
-20,
2,
19,
-10,
6,
5,
-1,
6,
2,
6,
1,
-11,
-18,
-18,
-18,
-12,
15,
22,
14,
5,
13,
-6,
16,
2,
20,
-19,
-5,
21,
17,
-22,
-10,
3,
20,
9,
9,
0,
-5,
-18,
7,
-6,
-15,
2,
15,
-1,
18,
1,
14,
-1,
6,
4,
-21,
-9,
-3,
21,
-20,
16,
18,
-6,
13,
-14,
13,
11,
3,
-2,
-25,
19,
10,
21,
-14,
2,
-9,
-2,
-10,
17,
23,
-3,
-5,
3,
17,
1,
9,
-8,
12,
-6,
-13,
4,
2,
18,
6,
-5,
-15,
25,
-2,
18,
-15,
-10,
15,
0,
-8,
19,
8,
9,
-5,
-7,
0,
-13,
-4,
-5,
9,
19,
-12,
5,
-12,
-16,
14,
23,
11,
4,
-15,
13,
7,
-11,
25,
-16,
21,
-14,
-6,
-18,
1,
10,
-1,
-14,
-16,
15,
13,
22,
-8,
-9,
4,
-1,
-11,
12,
-13,
6,
17,
-18,
6,
-4,
15,
-15,
-8,
-10,
-18,
11,
23,
-4,
-8,
-2,
-18,
19,
4,
-14,
-2,
-1,
15,
4,
12,
7,
4,
22,
-7,
-4,
9,
17,
-8,
5,
-13,
9,
9,
11,
-20,
22,
14,
7,
7,
9,
0,
13,
19,
18,
24,
2,
1,
-7,
20,
0,
24,
8,
19,
4,
13,
-11,
-15,
-17,
17,
4,
-11,
13,
-1,
18,
8,
-4,
-7,
12,
1,
-9,
-7,
-18,
2,
-7,
12,
-5,
-19,
22,
-10,
-18,
16,
-23,
-7,
2,
-17,
14,
17,
-5,
-26,
-14,
14,
-5,
14,
15,
9,
0,
15,
-8,
-1,
14,
13,
-6,
15,
14,
-8,
-24,
3,
-7,
-13,
-18,
11,
9,
-1,
-18,
16,
3,
-9,
6,
6,
-4,
10,
-6,
-3,
15,
-14,
-13,
-24,
-13,
-24,
-2,
-22,
-15,
-12,
13,
-16,
0,
-2,
7,
1,
-14,
-23,
6,
13,
-19,
3,
-3,
14,
-18,
-8,
-5,
6,
-1,
-5,
17,
-18,
-10,
14,
7,
-12,
1,
11,
-18,
18,
-23,
-21,
11,
15,
12,
1,
-24,
-11,
3,
16,
-15,
-14,
-26,
12,
-8,
3,
-3,
7,
-22,
-20,
3,
7,
-13,
4,
20,
-5,
-18,
20,
15,
16,
17,
6,
-7,
14,
25,
8,
-19,
5,
-8,
17,
-7,
-7,
-10,
13,
-19,
25,
-5,
25,
22,
10,
12,
-15,
-14,
-1,
-9,
4,
3,
-4,
9,
15,
-18,
4,
21,
-8,
-7,
10,
25,
9,
26,
-8,
-5,
11,
10,
15,
24,
3,
7,
-4,
11,
3,
18,
-8,
-3,
-7,
-5,
8,
-2,
-13,
8,
22,
20,
4,
5,
-5,
9,
0,
-12,
16,
-20,
-11,
-16,
0,
6,
19,
-10,
13,
11,
-16,
-15,
-7,
23,
12,
-3,
14,
11,
5,
18,
16,
4,
3,
-18,
-16,
-22,
12,
-17,
-14,
-2,
-18,
9,
-1,
20,
-1,
-12,
-16,
18,
16,
-8,
23,
14,
-17,
17,
-13,
-8,
10,
-2,
18,
-5,
20,
2,
-11,
12,
16,
9,
3,
-14,
-16,
4,
-17,
-19,
-15,
-20,
18,
-3,
15,
-17,
17,
7,
1,
18,
21,
15,
-19,
-3,
-19,
-17,
12,
21,
9,
-2,
6,
2,
19,
5,
1,
-5,
24,
-4,
2,
21,
-20,
18,
-10,
24,
22,
-4,
-2,
19,
-1,
25,
19,
-21,
-15,
0,
7,
19,
-16,
5,
17,
-10,
6,
2,
-11,
25,
18,
-4,
8,
3,
-5,
17,
-4,
-13,
-15,
16,
-7,
3,
-17,
21,
-11,
-6,
8,
-8,
3,
-22,
-6,
-20,
19,
-9,
-11,
17,
11,
-17,
13,
-20,
-10,
12,
-8,
9,
-9,
17,
18,
0,
22,
-13,
-18,
-10,
18,
-15,
7,
-17,
-15,
4,
-5,
7,
23,
14,
-11,
5,
4,
21,
10,
14,
-15,
21,
22,
-19,
20,
9,
6,
-8,
-3,
-15,
0,
12,
16,
0,
-1,
4,
19,
19,
-14,
-9,
11,
-17,
-9,
17,
-9,
-13,
-14,
14,
-5,
-13,
-7,
16,
-10,
-1,
12,
16,
-9,
8,
9,
14,
-3,
0,
-11,
-17,
17,
16,
12,
-12,
22,
-2,
25,
2,
-21,
-1,
8,
-3,
4,
-9,
-3,
5,
-20,
17,
-14,
22,
-3,
-8,
18,
18,
3,
-5,
15,
5,
17,
7,
24,
-19,
-6,
8,
16,
-14,
-18,
-1,
20,
-21,
24,
1,
-19,
8,
10,
15,
23,
-14,
23,
-16,
21,
-1,
1,
-2,
0,
24,
-10,
0,
3,
9,
1,
9,
14,
20,
0,
1,
17,
-18,
-24,
8,
18,
-16,
-3,
17,
16,
1,
-12,
11,
-6,
4,
21,
0,
-7,
20,
22,
-4,
-2,
-25,
-12,
15,
-3,
-10,
4,
-4,
-4,
2,
13,
-14,
-21,
21,
-11,
-19,
-19,
0,
0,
16,
9,
-6,
-14,
25,
7,
-13,
20,
18,
-16,
22,
23,
-2,
16,
20,
-1,
25,
19,
17,
18,
-6,
5,
1,
26,
15,
-2,
6,
-2,
19,
2,
-7,
9,
0,
-8,
-6,
25,
15,
-1,
-9,
-6,
1,
10,
-18,
18,
19,
-18,
18,
-16,
-9,
14,
-20,
-7,
-17,
9,
25,
10,
-3,
19,
-9,
0,
-4,
-5,
-2,
7,
6,
0,
8,
-19,
10,
-8,
20,
-12,
-13,
18,
-18,
18,
16,
-1,
-21,
-4,
-5,
1,
-4,
19,
-21,
-15,
-11,
20,
12,
24,
22,
-10,
-2,
9,
7,
-10,
11,
-4,
20,
-14,
18,
19,
13,
16,
-17,
-11,
6,
10,
19,
-2,
-20,
-1,
24,
4,
14,
-1,
13,
-23,
18,
-25,
-13,
3,
-14,
18,
3,
16,
-9,
-16,
1,
-5,
6,
-10,
-16,
3,
2,
-13,
17,
19,
18,
9,
11,
17,
0,
3,
-12,
-19,
-16,
-2,
-17,
0,
-10,
19,
-6,
-10,
-5,
-16,
15,
-1,
-8,
-1,
-12,
-22,
7,
7,
-22,
1,
-18,
12,
13,
17,
3,
-7,
-5,
-1,
2,
-15,
-6,
15,
-6,
19,
-4,
-6,
7,
6,
-7,
-2,
-10,
11,
-3,
-16,
-12,
3,
16,
2,
-4,
-11,
0,
6,
-22,
-23,
-24,
15,
-20,
2,
5,
-3,
-2,
3,
14,
17,
-5,
-20,
-1,
-25,
-11,
-7,
4,
-5,
10,
12,
-11,
2,
12,
-22,
-6,
-21,
-5,
17,
13,
-10,
-18,
9,
11,
11,
4,
8,
14,
-20,
8,
-11,
19,
6,
9,
-2,
2,
16,
-20,
14,
7,
6,
26,
9,
9,
9,
-16,
0,
-15,
-9,
15,
17,
26,
8,
-6,
0,
-2,
18,
-9,
10,
-11,
5,
-5,
13,
23,
17,
-14,
8,
-18,
3,
-14,
-2,
-4,
5,
13,
-17,
18,
20,
-18,
-5,
-6,
15,
-10,
-3,
9,
-3,
2,
6,
-14,
0,
-8,
17,
0,
9,
-20,
-7,
15,
-10,
-19,
11,
-1,
7,
-9,
18,
-18,
6,
-3,
25,
-4,
4,
-19,
11,
7,
-1,
1,
16,
-6,
14,
-6,
10,
24,
2,
7,
-18,
-15,
18,
-17,
17,
-8,
-4,
-15,
18,
17,
-13,
3,
-21,
-4,
7,
14,
-7,
2,
-3,
2,
23,
8,
22,
17,
-13,
-23,
16,
5,
-23,
-13,
-9,
8,
-11,
-16,
-18,
-10,
26,
-17,
1,
-22,
12,
-17,
16,
-8,
15,
7,
-22,
-23,
0,
7,
5,
-19,
5,
-21,
-8,
-24,
-16,
-5,
15,
-16,
-9,
-24,
15,
-14,
-13,
8,
-20,
-8,
4,
-17,
9,
4,
-16,
-8,
-6,
-20,
-1,
21,
3,
-12,
10,
-3,
1,
8,
12,
18,
-20,
-9,
-6,
4,
4,
10,
9,
17,
17,
-10,
-7,
17,
5,
11,
-11,
-13,
8,
-22,
7,
-4,
2,
-23,
-7,
10,
-17,
-7,
-11,
-10,
9,
-8,
-4,
-19,
2,
-7,
19,
-9,
-11,
13,
-20,
-13,
2,
5,
-10,
-13,
-5,
-6,
18,
11,
-2,
8,
0,
-22,
3,
20,
6,
15,
-9,
17,
8,
-21,
-11,
-6,
-6,
-16,
-7,
-21,
-17,
6,
-24,
18,
-16,
-18,
14,
8,
-22,
14,
-20,
20,
-8,
-5,
-3,
-17,
-11,
-20,
6,
-12,
-18,
1,
11,
6,
-11,
-22,
13,
15,
-11,
6,
9,
7,
-4,
15,
-9,
-21,
18,
-1,
-16,
-2,
-17,
-1,
-11,
-11,
-8,
5,
6,
-24,
6,
-23,
-24,
14,
-24,
-18,
5,
-26,
2,
-23,
-9,
6,
2,
13,
-2,
6,
1,
-12,
10,
-19,
-17,
13,
2,
5,
-3,
-8,
17,
0,
-1,
12,
-19,
8,
-17,
6,
-2,
1,
-13,
-22,
-20,
-7,
10,
-7,
19,
8,
-9,
-12,
13,
10,
4,
0,
8,
0,
10,
3,
-15,
15,
-6,
-18,
-9,
-24,
-16,
14,
7,
-15,
-3,
13,
1,
-14,
7,
-23,
8,
-7,
16,
13,
19,
15,
-15,
-16,
-21,
5,
15,
22,
-11,
16,
-25,
-7,
13,
14,
12,
-10,
-24,
-11,
-18,
8,
22,
13,
-3,
17,
18,
15,
1,
18,
23,
3,
23,
-1,
-10,
25,
-17,
-17,
19,
1,
-2,
-18,
2,
-1,
12,
18,
-18,
11,
25,
23,
26,
-12,
-2,
-8,
23,
3,
6,
14,
16,
-8,
-8,
7,
-12,
24,
5,
-5,
-19,
-5,
21,
23,
23,
12,
-12,
9,
2,
-12,
20,
-12,
16,
15,
2,
16,
-15,
9,
17,
21,
3,
-9,
-11,
-3,
7,
-2,
5,
4,
22,
14,
5,
-8,
0,
-23,
11,
18,
-4,
4,
23,
-8,
-9,
25,
3,
4,
24,
-15,
17,
17,
21,
-7,
2,
-11,
1,
-19,
6,
6,
-5,
-10,
-8,
25,
-5,
25,
-19,
-1,
11,
17,
-7,
5,
-7,
-8,
-15,
-12,
22,
-5,
-10,
12,
-4,
21,
8,
-1,
5,
1,
20,
-7,
-12,
-23,
19,
-14,
-22,
-5,
19,
0,
-4,
-23,
11,
20,
2,
0,
17,
-8,
-5,
21,
5,
-14,
-6,
-20,
9,
8,
-20,
-10,
21,
-11,
1,
1,
21,
-9,
-15,
1,
18,
-11,
9,
-15,
0,
1,
-5,
-3,
6,
-21,
-8,
6,
-16,
-8,
-16,
-7,
18,
-1,
16,
-2,
15,
0,
-12,
-16,
4,
-18,
-14,
-17,
-22,
1,
0,
10,
14,
-8,
15,
-21,
13,
-17,
-16,
3,
19,
-2,
16,
0,
10,
-21,
-23,
8,
3,
1,
-4,
-18,
2,
7,
1,
21,
-12,
-10,
-22,
-6,
-1,
11,
9,
10,
-19,
11,
20,
-14,
-7,
5,
16,
21,
-8,
20,
-21,
13,
19,
-15,
1,
21,
-6,
-5,
14,
-21,
6,
-11,
14,
0,
-14,
-10,
-19,
-22,
14,
12,
0,
-19,
-14,
17,
1,
-1,
-6,
-16,
18,
17,
-15,
14,
1,
15,
10,
13,
16,
8,
-20,
-15,
17,
-11,
6,
19,
-13,
-13,
21,
18,
3,
15,
-15,
3,
-6,
-1,
-10,
-8,
1,
-13,
7,
9,
-22,
4,
-13,
-15,
6,
-17,
-4,
-4,
-2,
-15,
17,
5,
-7,
4,
23,
8,
-19,
-18,
23,
-8,
-1,
-17,
10,
23,
19,
15,
-19,
-9,
13,
7,
-16,
23,
13,
-9,
1,
3,
-2,
-2,
13,
19,
15,
10,
5,
-21,
-15,
-8,
10,
-20,
-4,
2,
19,
-1,
-10,
18,
-11,
1,
6,
-15,
6,
11,
11,
-1,
-14,
12,
10,
-3,
-18,
9,
-18,
-5,
-4,
22,
14,
7,
14,
-4,
-8,
12,
18,
13,
23,
-1,
12,
10,
10,
-23,
20,
9,
1,
10,
-23,
-16,
-16,
-5,
18,
-11,
-23,
1,
15,
3,
19,
-18,
-2,
-6,
17,
-20,
12,
-24,
-11,
5,
14,
-24,
8,
-16,
1,
-3,
14,
17,
-16,
-3,
14,
-11,
-18,
-19,
0,
-16,
11,
17,
-13,
-19,
10,
6,
9,
-26,
-21,
-6,
8,
7,
-7,
16,
-25,
-2,
7,
-5,
10,
0,
4,
13,
-7,
-8,
-14,
-23,
11,
12,
-8,
-9,
7,
-9,
-10,
-23,
19,
1,
-10,
-18,
11,
-9,
17,
-1,
-12,
-17,
6,
-1,
-8,
-19,
-17,
13,
-12,
2,
-1,
-14,
7,
8,
2,
-20,
17,
-23,
-8,
-15,
0,
-10,
5,
5,
18,
-7,
-18,
11,
-2,
14,
11,
-21,
-5,
-14,
-21,
11,
-21,
-11,
-13,
-16,
-23,
-7,
-26,
9,
14,
-5,
11,
5,
-21,
-3,
-14,
17,
9,
3,
11,
2,
-17,
-11,
9,
25,
-20,
-2,
5,
-3,
0,
13,
-22,
7,
-17,
13,
6,
5,
-23,
-24,
-19,
-3,
20,
-12,
-3,
20,
-15,
7,
-16,
-2,
4,
24,
-8,
3,
-8,
-23,
9,
-12,
8,
18,
20,
-10,
-3,
6,
23,
-12,
20,
-20,
24,
-19,
-25,
-15,
-23,
-2,
13,
-14,
16,
-15,
18,
22,
-5,
20,
-3,
4,
22,
-3,
-19,
-24,
24,
2,
-1,
-4,
-16,
-1,
-26,
3,
19,
32,
-26,
20,
-6,
-27,
-9,
30,
19,
35,
24,
-7,
10,
23,
19,
25,
12,
-5,
24,
16,
18,
-5,
1,
-4,
12,
17,
-7,
29,
13,
18,
-11,
19,
-14,
15,
30,
-9,
-10,
20,
-15,
-20,
-9,
-9,
35,
19,
-2,
-20,
29,
-3,
15,
19,
-3,
22,
-21,
21,
14,
7,
-17,
-17,
-5,
12,
5,
11,
-20,
-19,
-6,
-38,
8,
19,
-20,
0,
25,
28,
-32,
-23,
-28,
19,
-27,
17,
23,
-4,
23,
10,
6,
4,
-14,
2,
2,
-23,
14,
23,
4,
-19,
10,
-10,
27,
-10,
13,
26,
3,
4,
26,
11,
-16,
-32,
7,
10,
-14,
9,
-2,
-32,
12,
7,
-31,
-22,
-32,
-20,
-36,
-1,
-17,
12,
-26,
26,
3,
7,
-32,
-31,
16,
-6,
-11,
-9,
10,
-9,
-19,
7,
-31,
-3,
-5,
6,
18,
-25,
4,
18,
6,
-23,
-6,
0,
23,
8,
14,
-10,
-16,
10,
-37,
-1,
-5,
-11,
-20,
10,
-35,
-34,
13,
-26,
-16,
-21,
-5,
-3,
25,
-30,
30,
-9,
3,
4,
-5,
12,
-24,
24,
11,
10,
4,
13,
20,
11,
-12,
31,
18,
-1,
-22,
27,
32,
6,
-22,
-17,
15,
-4,
6,
26,
-7,
34,
24,
-12,
-15,
10,
9,
-20,
20,
-7,
-10,
27,
8,
-8,
20,
5,
14,
-23,
-26,
0,
33,
30,
12,
-18,
1,
20,
27,
-4,
34,
34,
5,
28,
-20,
-19,
25,
26,
5,
-22,
21,
-20,
22,
-21,
19,
0,
-1,
-18,
1,
-15,
-21,
18,
-20,
-25,
-18,
-16,
-26,
-31,
28,
10,
5,
-1,
25,
16,
7,
-22,
4,
-22,
-9,
21,
-12,
-17,
10,
-22,
1,
14,
26,
-27,
10,
-2,
-15,
-14,
14,
-5,
10,
28,
-2,
21,
-10,
15,
5,
-23,
13,
16,
33,
-14,
-27,
-10,
3,
-13,
22,
10,
28,
-3,
22,
-29,
31,
-23,
-4,
7,
0,
-3,
27,
35,
33,
4,
1,
-20,
-14,
22,
27,
-5,
3,
-13,
-1,
-9,
-12,
-12,
31,
-7,
29,
-10,
-22,
-25,
4,
25,
28,
20,
-18,
34,
11,
32,
0,
20,
-12,
17,
29,
-20,
-23,
-2,
3,
-20,
8,
0,
-3,
26,
20,
-24,
-20,
25,
-3,
27,
-20,
-4,
28,
11,
1,
-18,
2,
-25,
10,
5,
5,
6,
-22,
-4,
-15,
18,
-24,
16,
21,
-4,
4,
23,
-23,
6,
-8,
-30,
-10,
3,
22,
-21,
-32,
3,
1,
-15,
-27,
-11,
18,
9,
21,
-8,
22,
-25,
-35,
-7,
11,
-27,
10,
16,
14,
-33,
-7,
1,
-28,
12,
19,
11,
11,
23,
-10,
3,
-2,
15,
20,
15,
-21,
-28,
-14,
-25,
20,
20,
6,
-13,
-35,
6,
22,
-24,
-3,
19,
-8,
9,
-2,
-20,
12,
-10,
-13,
-16,
-25,
-9,
12,
-11,
32,
23,
-23,
31,
-10,
22,
16,
-25,
-6,
29,
2,
12,
18,
-23,
-26,
23,
1,
-13,
-16,
15,
-5,
28,
17,
-8,
13,
-21,
4,
-4,
13,
13,
34,
25,
22,
17,
-19,
4,
11,
-27,
0,
23,
6,
-18,
4,
23,
3,
-6,
10,
26,
-8,
-21,
9,
-15,
-17,
13,
-32,
-32,
-24,
-33,
0,
24,
5,
15,
-2,
-24,
-33,
6,
12,
-13,
-1,
6,
-25,
-12,
-9,
-8,
24,
-29,
2,
21,
-34,
-17,
-5,
9,
17,
29,
7,
-10,
6,
20,
17,
28,
3,
-27,
-13,
-26,
10,
-3,
22,
-15,
16,
-8,
-25,
10,
0,
-16,
11,
-1,
25,
28,
-26,
17,
3,
-6,
6,
27,
6,
-31,
26,
-3,
-1,
5,
-26,
0,
-5,
21,
-25,
-25,
-27,
-17,
12,
9,
-32,
2,
-2,
-28,
-7,
-29,
-16,
12,
17,
-21,
29,
-14,
7,
27,
6,
-13,
-32,
12,
22,
-26,
-30,
-21,
-24,
18,
-4,
-26,
-5,
18,
-10,
-16,
6,
-14,
-32,
-22,
-28,
-4,
-15,
-2,
20,
-16,
-19,
-13,
4,
9,
-19,
-7,
-26,
19,
35,
-12,
-17,
13,
11,
14,
20,
-13,
19,
36,
-1,
22,
17,
19,
1,
26,
-9,
5,
19,
30,
12,
34,
-24,
-28,
18,
14,
-24,
13,
21,
5,
25,
7,
29,
5,
11,
32,
14,
1,
-25,
8,
-19,
14,
3,
-24,
26,
-9,
22,
-23,
31,
20,
26,
18,
21,
6,
4,
10,
4,
2,
4,
-20,
21,
-15,
15,
-1,
-13,
-20,
27,
-23,
4,
14,
34,
-25,
-5,
-15,
27,
28,
-12,
-20,
20,
-7,
-18,
8,
24,
-20,
-10,
-12,
12,
-9,
-11,
0,
-15,
-14,
-22,
33,
13,
14,
-11,
25,
26,
-23,
9,
17,
-3,
-19,
20,
22,
-18,
26,
12,
-5,
4,
11,
32,
-7,
9,
25,
25,
19,
-10,
-27,
13,
-21,
3,
-16,
3,
22,
-12,
7,
5,
29,
-25,
-10,
6,
-29,
-14,
5,
28,
12,
9,
-17,
-4,
29,
-13,
28,
6,
-1,
-2,
-16,
14,
31,
0,
28,
28,
-20,
11,
-9,
-15,
-8,
33,
-21,
21,
-21,
25,
20,
18,
15,
32,
-11,
7,
8,
-11,
-22,
-18,
2,
7,
27,
20,
27,
-20,
9,
-22,
-18,
-8,
-16,
34,
4,
4,
11,
16,
12,
-20,
22,
-8,
27,
25,
1,
4,
19,
-18,
-34,
5,
-2,
13,
0,
-23,
0,
-1,
-22,
2,
-22,
-13,
24,
2,
15,
11,
12,
9,
-15,
10,
7,
-1,
8,
-7,
-30,
7,
10,
15,
-14,
-2,
8,
-30,
0,
-21,
-1,
-13,
-18,
-21,
-28,
-22,
12,
-33,
-12,
-5,
8,
-10,
21,
-18,
-1,
-19,
-33,
-29,
0,
-34,
-23,
-11,
13,
-12,
8,
29,
16,
-1,
-22,
30,
-5,
11,
-5,
30,
-18,
20,
-19,
12,
-12,
-22,
9,
30,
-17,
-6,
16,
-2,
19,
9,
-9,
-5,
-9,
22,
-25,
24,
-22,
10,
3,
-29,
14,
-15,
34,
9,
18,
-26,
14,
32,
23,
-18,
19,
-25,
-19,
34,
29,
-21,
6,
-5,
-8,
27,
30,
4,
1,
-28,
-11,
-21,
27,
-14,
30,
-1,
21,
-16,
3,
-26,
19,
34,
-17,
-19,
6,
-3,
13,
9,
27,
-8,
-17,
-13,
25,
14,
-17,
-6,
-2,
15,
-24,
-7,
-26,
0,
33,
13,
-17,
8,
-28,
20,
-27,
35,
13,
12,
-17,
25,
-18,
-1,
29,
-20,
-18,
-16,
-15,
34,
-16,
28,
-1,
33,
17,
5,
-23,
-11,
23,
-25,
13,
-4,
29,
1,
-19,
17,
-24,
14,
-11,
0,
2,
-15,
3,
6,
-2,
19,
3,
21,
-6,
-2,
-17,
-8,
4,
-22,
-31,
22,
2,
12,
-32,
-22,
1,
-21,
2,
-11,
-6,
-1,
-21,
2,
5,
6,
8,
-13,
-23,
-12,
28,
-21,
29,
18,
0,
-14,
-5,
-14,
25,
5,
1,
7,
7,
-27,
-7,
17,
28,
5,
-16,
-23,
-27,
-6,
18,
24,
-12,
-9,
0,
22,
-34,
-25,
-14,
13,
-10,
15,
21,
18,
10,
25,
6,
-24,
-8,
19,
-30,
29,
-15,
-20,
-16,
7,
10,
27,
-17,
-34,
3,
-23,
22,
-16,
12,
-16,
-33,
-26,
30,
24,
-33,
6,
1,
-13,
24,
-8,
-20,
13,
1,
-32,
-19,
2,
2,
-15,
28,
-1,
26,
-20,
19,
-29,
-14,
-24,
25,
-10,
13,
-34,
11,
-24,
3,
27,
-34,
29,
-12,
-33,
8,
-18,
-13,
-30,
-24,
29,
-34,
27,
-10,
15,
-4,
8,
4,
-2,
-4,
21,
4,
-3,
-19,
10,
-4,
-8,
11,
24,
-1,
-15,
-5,
-21,
22,
-1,
-33,
-3,
-4,
-15,
29,
-22,
10,
-16,
-14,
-18,
22,
10,
-30,
26,
-8,
-22,
-16,
-19,
23,
-16,
12,
2,
-17,
-28,
-17,
17,
-5,
21,
-34,
-4,
13,
-22,
-20,
26,
-9,
3,
21,
3,
-20,
-34,
-27,
-22,
11,
22,
-24,
-20,
8,
-2,
-10,
-17,
-28,
16,
-4,
25,
15,
13,
26,
-20,
-18,
20,
15,
-26,
19,
-24,
4,
-11,
-8,
15,
-18,
1,
-11,
-7,
4,
22,
11,
-4,
25,
-20,
26,
-31,
12,
-20,
-30,
28,
9,
-33,
-3,
22,
-5,
16,
7,
20,
-20,
3,
25,
26,
-1,
-31,
-4,
-28,
4,
24,
-16,
26,
27,
-18,
17,
0,
-18,
-5,
17,
26,
-25,
17,
-4,
0,
26,
-1,
25,
18,
0,
-13,
-20,
-24,
-10,
-28,
-8,
-26,
-32,
18,
6,
-10,
-16,
24,
4,
-31,
-20,
1,
-32,
-32,
14,
22,
10,
-19,
4,
17,
-4,
-7,
3,
9,
21,
18,
-5,
14,
24,
28,
-21,
9,
19,
24,
26,
23,
28,
-29,
-9,
0,
25,
18,
-19,
-21,
-35,
-14,
-11,
0,
-36,
-29,
3,
1,
-30,
-3,
8,
8,
-30,
-32,
-5,
-8,
21,
-7,
-12,
-2,
-22,
-8,
5,
-8,
-2,
-1,
27,
-33,
19,
16,
-31,
-24,
-11,
-15,
4,
-24,
-16,
21,
-25,
13,
2,
-21,
-22,
20,
12,
9,
-10,
24,
20,
-14,
11,
-23,
23,
-15,
-2,
36,
-20,
-3,
18,
20,
1,
15,
-4,
-17,
17,
7,
0,
-22,
30,
-20,
-25,
-10,
-28,
-22,
35,
-9,
35,
-9,
0,
14,
35,
13,
-7,
23,
27,
-27,
22,
-6,
-5,
30,
5,
-19,
-28,
0,
12,
14,
-2,
-18,
-13,
28,
-25,
-3,
10,
10,
18,
-25,
11,
7,
10,
24,
15,
14,
-14,
32,
-10,
32,
12,
13,
26,
-27,
2,
-11,
-18,
-23,
-19,
-4,
-8,
11,
-9,
11,
-24,
-17,
-6,
25,
18,
-21,
0,
5,
-12,
-25,
21,
1,
4,
-2,
-17,
-25,
-10,
-2,
-18,
6,
-11,
-12,
-27,
-17,
18,
-27,
8,
-11,
-26,
17,
3,
4,
26,
6,
17,
-2,
-17,
-14,
-19,
6,
33,
14,
22,
-21,
20,
-3,
-11,
3,
4,
23,
2,
-6,
29,
-14,
11,
-15,
6,
-22,
23,
-27,
26,
3,
12,
-7,
21,
26,
4,
19,
-14,
-1,
-12,
-9,
8,
7,
-24,
2,
2,
23,
20,
-16,
29,
-9,
13,
-10,
15,
6,
15,
19,
-6,
-28,
-18,
-34,
-15,
-17,
-1,
-13,
24,
22,
22,
19,
-32,
-29,
-32,
-16,
24,
-9,
-1,
0,
-28,
4,
17,
6,
-28,
25,
-10,
-25,
22,
-33,
-32,
19,
5,
-11,
26,
2,
-20,
-13,
16,
-27,
15,
24,
-9,
11,
16,
10,
22,
12,
12,
-30,
19,
20,
24,
4,
-34,
-3,
3,
-19,
7,
-17,
6,
-19,
20,
22,
26,
-8,
10,
-16,
-26,
0,
25,
11,
21,
5,
1,
-11,
19,
26,
-11,
16,
-17,
-23,
-1,
-28,
27,
1,
12,
-16,
21,
-26,
12,
25,
-18,
21,
-4,
5,
-5,
-4,
2,
5,
-7,
28,
-3,
25,
-24,
12,
-12,
23,
-5,
-13,
-3,
1,
-8,
25,
29,
31,
21,
11,
16,
32,
32,
-8,
25,
31,
13,
20,
35,
-9,
24,
30,
12,
14,
18,
28,
4,
8,
27,
20,
-15,
-5,
-2,
-4,
-8,
-22,
13,
-6,
23,
28,
27,
-1,
-10,
8,
1,
-7,
4,
27,
6,
-18,
-15,
26,
-4,
-23,
33,
20,
-22,
-26,
-9,
9,
14,
4,
-27,
19,
-22,
10,
34,
13,
1,
-13,
35,
-16,
30,
-18,
-17,
1,
-5,
27,
7,
-9,
-3,
-27,
12,
-25,
12,
11,
15,
12,
24,
3,
-14,
4,
29,
8,
0,
-8,
20,
27,
9,
18,
30,
-29,
-11,
13,
-7,
29,
13,
-8,
25,
-2,
-23,
15,
-23,
-7,
-22,
-29,
-17,
3,
15,
9,
-33,
23,
-9,
5,
14,
26,
26,
-18,
28,
-7,
-19,
3,
-20,
13,
27,
0,
14,
21,
-7,
8,
-4,
-28,
-31,
10,
-11,
-12,
1,
4,
6,
1,
21,
-13,
-19,
19,
-28,
-6,
18,
-7,
-32,
3,
-26,
19,
-3,
29,
-21,
11,
-22,
-35,
23,
2,
-29,
-11,
27,
24,
26,
8,
-16,
-20,
19,
-12,
-6,
-25,
26,
13,
34,
21,
-11,
-29,
-1,
-1,
1,
-24,
-15,
32,
-20,
-21,
-25,
-18,
35,
21,
-17,
-1,
-21,
11,
-27,
3,
-9,
-27,
36,
21,
27,
8,
25,
-17,
-14,
23,
22,
28,
0,
-25,
32,
5,
-3,
35,
1,
-12,
-12,
-20,
1,
21,
14,
8,
-7,
-15,
-17,
-14,
26,
-5,
13,
-23,
1,
6,
34,
-19,
-17,
-23,
35,
6,
28,
11,
17,
25,
9,
24,
5,
-16,
-16,
29,
3,
-15,
-27,
7,
25,
6,
-22,
35,
-7,
-10,
26,
18,
-1,
4,
1,
11,
-2,
-4,
-23,
34,
-4,
2,
29,
1,
10,
16,
-15,
16,
-1,
24,
11,
21,
3,
22,
-9,
12,
-1,
-26,
8,
-20,
3,
21,
-13,
-32,
21,
-14,
19,
10,
-5,
22,
0,
5,
15,
-3,
-14,
-20,
-13,
-13,
6,
20,
26,
-13,
-19,
1,
-5,
3,
26,
15,
-15,
-8,
-4,
-21,
-2,
-11,
-31,
1,
-31,
26,
-9,
-25,
9,
28,
19,
-9,
12,
17,
18,
13,
-32,
3,
2,
0,
19,
-16,
6,
-28,
21,
29,
-12,
-16,
-12,
-17,
-2,
12,
25,
24,
-33,
-17,
24,
-20,
1,
-37,
-7,
6,
-26,
-10,
2,
-21,
23,
-19,
9,
-9,
-35,
26,
-12,
-9,
-14,
36,
4,
25,
-14,
32,
20,
13,
12,
30,
-12,
26,
-12,
-7,
8,
-10,
-3,
-26,
20,
-37,
-31,
34,
16,
0,
-41,
41,
5,
-7,
18,
-15,
15,
43,
-25,
35,
44,
38,
-25,
36,
45,
13,
24,
-20,
-18,
8,
43,
7,
-30,
3,
27,
21,
-32,
8,
-11,
-34,
20,
10,
44,
-8,
20,
19,
-42,
-29,
-25,
-29,
-23,
-15,
26,
5,
-23,
-28,
18,
10,
-11,
5,
35,
5,
11;
