FFD8
0033
0008
001D
000F
0019
0029
FFDA
002C
0027
FFF7
001F
000B
0024
002C
0013
FFD7
0010
FFF9
0013
FFD0
FFE3
FFE4
FFFF
FFF9
FFD7
FFFF
0000
0007
FFD6
0023
0027
FFD8
000D
FFE1
0008
002F
002F
000F
0026
0005
FFF5
002E
0025
FFE7
FFF5
002B
0007
FFD3
FFE8
FFE7
002F
FFD7
001B
0028
FFEE
0021
0035
FFF6
FFED
0007
FFEA
FFDD
0029
002F
0026
FFEB
0008
001B
FFF3
002C
001C
FFF3
0003
000F
001C
000A
FFF0
001F
0001
0012
FFF6
000F
0036
FFF6
002E
0001
FFEA
000E
0029
FFD6
0033
0022
FFDC
0033
FFDF
0035
0034
0023
FFF2
FFF5
FFF4
FFE8
0005
0008
0023
002F
0000
FFF5
FFF1
FFE6
001A
0005
001B
0010
0007
0004
0002
FFFA
0028
FFDB
FFEC
FFF6
0000
0023
FFD5
0022
FFD4
FFD7
000F
0003
FFE0
002F
0010
FFE3
FFE5
0012
FFDE
FFED
FFE8
FFFE
FFDC
0023
001A
FFEE
001C
0036
000F
0005
0031
001B
FFDC
0008
FFED
001F
FFE8
0024
0017
FFEA
FFE8
0027
000C
FFEC
FFD7
FFE7
002B
FFD7
0003
FFFE
001B
FFD8
000B
FFF4
FFDD
002B
0020
001A
FFCD
FFE0
FFFA
FFEB
FFEC
FFDD
001E
FFD2
FFDF
FFFB
FFDC
0003
FFFE
FFFA
0014
0037
0028
0008
FFDD
FFFB
000D
0014
001F
002C
0021
FFE9
0009
0030
001B
0017
FFD9
0023
001D
FFDD
000D
FFF0
002A
FFF8
FFD8
0006
FFF6
002E
FFF9
FFDC
0006
FFE0
0019
FFE3
0003
FFDB
FFDD
FFCD
0022
0025
FFDB
FFDD
FFDC
002B
FFCE
001D
FFDA
002D
0025
FFDD
FFEF
0009
000C
FFD5
000A
0011
0018
0018
FFDE
FFE0
001D
FFD9
FFD7
0029
001F
002A
000D
0009
FFDE
0019
FFEA
0016
FFED
FFCC
FFD6
0030
FFE6
FFCC
000F
FFE4
0033
FFD2
0010
0005
FFED
FFF8
FFE8
FFFF
002E
FFEA
FFD7
FFF2
FFE4
FFF7
FFD7
FFEC
0034
0031
FFF9
0027
000C
FFFC
0013
0018
0028
001E
0031
0008
0005
0017
FFDB
FFE9
0016
001E
0001
FFDE
0016
FFF6
FFD2
FFDC
0003
0017
FFFC
FFF5
FFF3
0006
000A
FFEB
FFD3
0024
0013
0034
000E
0025
FFE0
002C
FFE2
FFD3
FFEE
0016
0036
FFF8
0030
FFE5
0025
0019
FFE3
FFE3
0022
FFD4
FFDC
0015
0016
FFE0
FFFC
FFD1
FFDF
FFDC
FFDF
FFFE
FFD1
FFE5
000F
FFD3
FFF6
FFEE
FFE1
001F
FFF8
0028
0019
0000
0008
FFC9
FFD4
FFFF
FFD1
FFD5
0014
0005
0004
FFCA
FFC8
0009
0002
0024
FFF5
002B
0026
002C
0022
FFDE
FFE7
0038
001F
FFEF
0007
002C
0005
0020
0018
FFF9
0031
FFCF
0034
002B
0001
FFE2
FFEE
FFF4
FFE3
FFFA
FFE2
000E
FFE9
FFFE
FFCD
0018
0024
FFEB
FFD1
0010
FFFF
FFCF
FFFD
0032
000F
0009
FFDC
FFFA
FFF4
FFFF
FFD9
002E
FFD1
0015
0015
0023
FFEE
002B
0014
000F
0015
002E
0036
0028
0034
0001
0016
FFD5
0030
0026
FFDC
FFD6
FFF4
FFD1
FFE3
FFE7
0025
0028
FFE8
FFFB
0000
FFFB
FFDE
0035
001E
0017
FFF2
000D
FFDE
000A
0029
FFF0
000E
0000
FFDC
0018
001A
FFFB
000F
0026
FFD5
FFE8
FFF0
0007
FFD1
0005
FFE9
FFD9
FFD0
0013
FFF1
0003
0029
0008
FFCD
FFD7
000A
FFDF
001F
FFD3
FFE4
FFE8
0022
FFED
001C
FFD0
0009
FFD5
0028
FFCD
FFE8
FFF5
FFFE
0003
002A
001A
FFF5
001F
001D
FFE7
0022
0022
FFE8
000C
FFCD
FFDD
FFFA
FFE3
0005
FFCB
FFD8
0017
0026
0017
FFD2
FFDA
FFDB
002C
0001
FFE8
0022
0013
FFD4
FFD9
0010
FFEC
0002
FFF6
FFEC
0005
0002
001D
FFE1
FFF1
FFCD
FFD8
002E
FFEB
FFEC
FFDF
FFFC
FFFB
0002
001F
FFF0
FFE1
001E
0009
FFC9
0011
FFD7
0011
FFFC
0022
FFE9
0015
0028
001E
FFEB
FFF9
FFDC
FFF1
0026
FFE2
FFE6
000C
0007
0010
002F
001B
001A
FFDE
FFD1
0009
FFF0
0015
0008
FFF0
FFCF
002C
FFF0
FFD5
FFFE
FFF3
0026
FFFC
FFF2
FFD7
0027
000E
FFD9
0009
FFCC
001C
000A
0016
002F
0002
FFE0
FFE3
0019
FFEF
0016
000B
0012
0002
FFF8
001E
000B
0029
FFCC
FFD3
001C
001F
0027
FFEC
0015
0028
0033
0025
FFFC
FFE3
0031
FFD2
FFEC
0015
FFE1
0036
0031
0034
0012
0007
002C
0026
001D
0018
0020
FFF9
FFD2
0007
FFD7
FFF3
0023
0029
0029
000F
000E
FFF9
0029
0023
FFE5
0030
FFE1
FFFC
FFE5
0001
0023
FFE0
FFCD
FFF1
FFDA
0023
FFFF
000B
0030
FFD0
001C
FFDE
0011
FFFF
FFCC
FFEE
0034
FFCF
0001
FFE7
FFED
0022
FFFF
001C
FFD0
000B
FFF4
001D
0023
FFD3
002F
0025
FFDB
002C
0018
FFD4
001A
001D
0004
FFE3
FFF1
0018
001F
000B
FFF2
FFFB
0023
FFDE
FFF6
FFCD
FFF8
0020
0012
FFCE
0013
0005
0004
0022
FFD6
0008
FFEE
0024
FFF7
0015
FFE6
FFDE
000A
FFEC
FFFF
FFF1
FFF2
0010
FFF4
001C
0027
0032
001C
0016
FFD5
FFD3
FFCC
FFDE
001A
0014
FFF9
0003
FFE8
FFCF
0005
FFF7
FFD4
0000
FFCE
0002
FFE0
FFCE
0019
FFE1
001E
FFE4
0010
0014
FFD4
0010
000D
FFDB
0014
FFEE
FFF5
FFED
0032
FFDC
FFE6
FFE5
001C
FFE7
FFF3
0023
0018
0036
FFED
0031
FFF4
0003
0021
0010
FFD7
001A
0037
001F
000D
FFF3
0022
FFEF
0022
000F
FFE3
FFE1
FFEC
000B
FFF5
002C
0023
001B
FFD6
FFCC
FFCE
FFEE
0010
FFEA
001E
FFE4
0037
000F
0001
FFE6
FFE7
FFCF
000F
002C
0017
000F
0000
FFE6
0029
0013
0032
FFE2
0001
000F
FFE2
001A
002B
FFE9
FFEF
FFD0
FFCC
FFD2
0006
FFDA
0026
FFF8
0003
FFEC
0008
0008
FFFF
FFCB
FFCA
FFEE
0026
002A
FFE0
FFFD
0025
FFF7
FFFA
FFF9
FFE6
FFD6
002D
0015
0036
FFFC
FFF1
FFF5
FFFC
002A
0031
0008
002C
FFD9
FFD6
FFE9
FFDF
FFEC
FFD4
000F
000E
FFF9
FFDA
FFED
FFDA
0016
0006
FFFB
0023
002D
FFFE
FFEA
FFFA
FFF8
FFE9
FFF0
FFCD
0001
0032
0027
0002
001F
FFF6
0007
002F
FFE1
0025
FFCA
FFD4
002F
0028
FFCE
0004
001E
0008
FFF9
FFEB
FFCA
FFEF
FFF9
001D
FFCE
FFE9
0030
FFFC
FFD1
001A
FFCC
FFF3
FFDA
0015
0026
000B
0020
0021
FFE2
0011
0009
FFE1
002C
FFD8
000A
0021
0006
0034
FFD7
FFE0
000A
FFE2
FFFF
0008
001D
FFCF
0002
FFD1
FFCA
001F
FFD1
0012
0021
001B
FFCC
FFF0
0014
FFCF
FFDA
0010
0017
0030
FFDB
0028
FFFA
FFC9
FFEC
FFE7
FFCF
0016
FFFB
FFCC
FFCF
FFEB
FFFA
FFE7
FFD2
FFE3
FFD6
FFDB
FFDC
FFDC
FFED
0026
FFFC
000F
0011
FFEA
FFEF
000D
0022
FFEE
FFF5
FFE5
000A
0010
0010
FFDA
0005
0001
0013
FFD6
FFFD
0029
0029
001A
002A
FFD1
0017
0032
0038
0018
FFEB
0016
FFCF
FFE7
0009
002A
FFF4
000E
0030
002E
0001
FFF1
0027
001B
FFE6
0008
FFFF
FFE5
0022
FFF5
FFF7
0017
0009
FFDF
002A
FFEA
FFD7
0026
FFF2
0030
0003
001A
002E
FFEC
0009
FFF4
FFCD
FFD5
FFCB
FFF7
000D
FFCF
0015
0029
FFCC
0015
000F
000F
0023
FFFB
000F
FFFF
FFDF
FFF4
FFDF
FFFC
0018
0028
002F
001E
002B
FFF8
FFFF
FFF3
0007
FFE7
FFEB
0003
FFE5
0018
0004
0032
FFDE
FFFE
FFEF
FFFE
0022
FFDB
0026
002A
FFF7
002A
FFEC
FFEA
0026
0006
FFED
0030
FFD7
FFE8
0010
0033
002B
001B
0028
0000
0010
0026
0024
FFDF
FFE9
002F
FFED
0021
FFF7
001B
0005
0024
0002
FFEB
000E
FFE6
0035
0020
FFE4
0015
000F
0018
FFEE
FFEF
0013
0022
FFDE
FFE9
0023
0018
FFE9
FFE7
0021
0009
0029
FFD4
FFD7
0001
FFDA
FFCC
FFE2
FFCC
FFFE
FFD2
000C
001A
FFDC
FFF2
001C
0023
FFCB
0026
FFE1
001A
FFF6
FFE4
000E
FFFE
0014
002C
FFFA
FFDD
002C
001C
FFF8
FFF6
000B
FFE9
FFE1
0003
FFF2
0007
FFE8
FFDE
FFC8
0004
0006
FFF8
FFE8
FFFE
0030
FFEE
000D
0029
FFF1
000F
FFFA
0006
FFFE
0025
FFD0
000A
FFCB
000F
FFEE
FFE3
FFF2
FFEC
FFD7
FFF1
001E
0024
FFFB
FFF9
FFF6
002C
0010
FFD8
000A
0001
0018
0006
002D
0005
FFDB
000C
FFF6
FFC7
FFD8
FFFE
FFCE
0029
0019
0003
FFD2
FFEF
0009
0026
0025
000E
FFD2
0008
0024
FFFE
FFFD
0032
001A
FFCB
FFED
0028
FFCE
FFF1
FFCE
0024
0016
FFCC
000D
FFF5
0029
0010
FFEF
0032
001D
FFE2
FFF2
FFDE
FFFA
0028
FFF4
FFF8
FFD5
FFF4
0030
001F
000B
FFED
0036
0004
001D
FFE6
000A
FFCF
0009
0008
FFF3
002A
FFD3
0037
0013
0035
FFFA
0015
FFDA
FFD4
FFE4
0007
0010
0009
0026
FFDB
0020
FFFE
FFEB
002F
FFDA
0026
FFCF
FFFE
0013
0011
002C
FFFA
FFD3
FFE5
002A
FFF2
0025
0024
FFF6
0023
0004
001B
002D
FFF2
FFDB
FFF2
FFF6
0010
FFDB
FFD1
FFF8
0024
0008
FFCF
FFDB
FFEE
FFF1
FFF3
001C
0007
000A
000F
FFED
000E
000B
FFD4
FFF7
FFD2
FFE0
001C
0025
0010
0014
FFE6
0016
002D
002C
0002
0024
FFF9
FFEC
0007
FFD5
0016
0022
002B
0016
FFED
0000
0012
FFD4
FFE5
0013
FFDD
FFF0
002A
FFEB
0028
0018
0018
FFD6
FFD2
000F
FFE3
0031
0018
0032
FFED
0024
FFDC
FFD1
0005
000B
001E
001B
FFD8
002D
0014
0003
FFFC
002D
0027
FFFC
FFDE
0009
002A
FFD5
FFDA
0028
FFF0
FFFB
0019
002C
FFE5
FFD4
0010
FFEA
FFD1
0016
FFED
FFF5
002D
002E
0008
000B
FFCD
0027
FFCF
FFE3
0032
001E
FFD7
0028
0000
0032
002E
FFF9
FFCF
FFFB
0019
002E
002D
FFF7
001E
000B
0022
0028
FFED
001F
0028
000B
0020
FFFC
FFEB
002D
FFDB
FFFE
0000
FFF5
0014
0010
FFE2
000D
FFC9
0026
FFE2
FFCD
FFCA
001D
FFE1
FFE8
FFD5
0009
0019
FFDD
FFFD
0002
FFE3
0027
0032
FFF0
FFFE
FFD3
0009
0017
FFD7
0017
FFE1
FFE6
0032
001E
FFEF
FFDF
002C
001B
FFD1
0020
0029
FFF6
FFF9
FFEB
FFD8
FFD8
0005
0010
0009
002F
0021
FFFA
FFD5
0019
0002
FFF3
0000
0023
001B
FFEF
FFEA
FFE0
001B
FFF5
001D
FFCA
001E
0023
FFF9
0023
002D
0007
002C
002D
0010
001B
000C
FFFC
002C
0003
0016
FFD7
FFFA
FFFE
002E
000B
0006
002A
FFF7
002E
FFD7
0001
FFF3
FFF4
FFE0
FFE0
FFFC
001A
0019
FFD1
0018
0007
FFF9
0010
000E
002C
000B
0028
FFC9
002F
FFE6
FFEE
FFE8
FFFE
0004
0031
FFE1
0016
FFE1
000C
FFFD
0022
0001
002E
000C
FFD4
FFF1
002E
FFD7
0000
FFEE
FFFE
0019
FFEA
0009
0022
FFC9
FFD6
FFFD
0006
FFFD
FFDC
FFF1
FFD7
0020
FFED
FFCF
0018
FFFA
0024
002F
002A
FFE4
FFE8
FFFF
FFEA
0014
0001
0018
FFD9
FFF7
FFF8
000D
FFFE
0000
000B
FFE7
FFE6
002F
FFE6
0010
FFDC
FFFA
FFE1
FFF7
0024
0022
FFEC
002D
0004
000A
0024
FFD0
000B
0019
0020
002A
FFD1
0021
FFD7
FFE0
FFD2
0017
0006
000C
FFD8
0007
FFD1
FFF6
0018
0022
FFC9
FFD2
0027
FFD5
FFF9
0016
000E
FFE4
0016
0022
FFF2
FFE9
FFD9
0023
FFFF
FFF2
000A
FFD0
FFD8
FFCF
FFD4
FFE3
000F
FFD2
FFED
0012
0008
0022
FFD2
0020
FFF7
0013
FFD7
FFE4
FFD9
0011
FFD0
0002
FFE4
FFE5
0019
000F
0015
FFF3
FFF8
001F
FFF6
0018
FFF2
FFE1
FFFA
FFFE
FFFA
FFF1
FFF8
0022
FFDF
0010
0014
0013
FFEF
0005
FFF9
FFF7
FFE6
FFCC
0028
001E
FFCB
0009
FFE3
FFFF
FFE8
0014
0007
001A
002A
002B
FFF7
002E
000B
FFDC
001F
0028
0012
FFEF
FFD5
0021
0023
FFFE
FFCE
0009
FFD7
FFF5
FFE6
FFFB
FFD2
FFDF
FFE4
0008
FFE6
002F
0028
FFD1
FFD9
0011
FFD5
0002
FFF4
0005
0033
FFF2
FFD8
001C
002F
FFF2
FFEC
0002
001D
0026
0001
FFFC
0017
FFDF
002A
0021
000C
FFCD
FFC8
FFEE
FFFA
0023
0002
FFF6
FFF0
001D
FFDF
0018
0004
001C
FFF2
FFDF
0006
001F
0008
FFD8
002F
000C
FFEF
0026
FFCE
0001
FFEE
0003
FFE7
FFEF
0008
FFDB
FFEA
FFDD
0012
FFDC
0004
0026
002C
FFF4
0028
0019
001C
FFDE
001B
FFF1
0014
FFF9
0029
000E
002A
0029
0020
0030
FFF4
0013
FFCF
FFE9
FFCF
FFDC
0024
FFCD
0005
0000
0016
FFE5
FFCC
000C
FFE8
0012
0021
0028
FFDF
FFFB
000E
0005
0016
FFF7
FFCB
0013
001F
0024
0004
FFD6
FFDD
0019
001B
FFCE
FFE6
0001
0028
FFFD
0024
FFF9
000D
0010
FFE9
002A
0003
FFF7
FFD0
FFF1
FFD1
001C
FFFD
0026
FFD3
FFF7
FFE9
0014
002B
FFDD
FFE1
FFCB
FFDD
FFE2
0028
0011
0031
001E
FFF7
0014
0011
0024
FFE0
0020
0006
0002
FFFE
0012
FFFD
001A
001D
FFF8
FFCB
FFCB
0030
0025
0000
FFD6
000B
0027
0030
0012
0001
FFD7
0024
FFFD
FFE7
002B
0037
0039
FFD8
FFE1
0023
FFED
0026
0010
FFEB
FFED
001E
FFDF
0030
0038
FFF1
FFE3
FFEC
FFE3
FFCC
FFDE
FFE5
0021
0002
0004
FFE8
FFE2
FFD6
FFD2
0014
FFEA
FFF4
002F
FFEE
0001
0025
FFCB
FFF9
FFF0
0026
0000
0004
FFD2
0006
0004
FFDB
FFF0
FFDB
FFCB
0019
FFD0
001E
FFD1
FFD3
0018
FFFA
0014
FFD1
0027
000B
0001
0015
FFF9
FFFC
0022
0009
0011
FFDB
FFF7
0027
002C
FFEF
FFE8
0032
FFFC
0014
001B
0034
0024
FFD8
FFF9
FFD4
0007
FFFD
FFFA
FFD3
FFE8
0001
0037
FFF7
FFEC
FFD1
0011
0029
FFFD
0027
FFD0
0002
FFEC
FFD9
0013
0028
FFE9
0019
FFDB
FFDF
FFCE
FFFC
FFD5
FFD8
0034
FFD1
FFCE
0022
0007
001A
FFFD
FFF8
FFE7
FFD9
0027
FFCF
FFEB
0016
0017
001D
FFFD
FFE8
0021
FFCF
0035
FFE3
0029
0022
FFE7
0025
FFDE
002F
002E
0026
FFFE
002B
0018
0022
001F
FFED
FFEA
0025
0010
FFF3
0011
FFD7
FFFE
0020
0033
0027
0021
001F
FFEF
0038
FFFF
0003
0010
FFF9
000C
0024
0022
FFF0
FFD7
FFF4
FFEC
001F
FFF0
FFE1
0016
FFD2
FFD0
0013
FFFD
0010
0023
0025
001D
0018
0006
001B
002B
000F
FFD3
002D
FFF0
FFF6
FFF1
FFF5
0018
FFCF
FFCC
0010
0021
FFD3
FFF5
0023
FFD8
FFF1
0006
FFE5
FFCD
0021
0000
0029
002C
000A
FFEB
0010
FFD0
0021
0027
FFE8
0021
001F
0017
FFD4
0019
0028
FFD7
000F
0025
0026
FFF9
000A
001F
0015
FFF1
FFFB
000C
FFD6
FFEE
0000
FFF8
FFEB
FFE3
000A
FFDC
0016
FFF3
FFEB
0025
0026
0036
0020
0016
FFD3
FFD7
FFED
0025
002D
001A
0004
FFEE
001E
FFDA
0007
002B
FFD7
0024
000B
FFEE
000F
000C
FFF8
0002
FFDD
FFFA
0016
FFDA
0018
FFFC
FFE5
FFEF
0005
0009
FFF5
FFCC
002C
FFD7
FFD1
FFE5
FFF5
FFD3
FFED
0007
FFDA
FFF7
0014
FFDE
FFFB
002F
0028
0004
FFE1
001B
FFF1
FFF0
FFCD
FFFB
FFF2
FFF6
000C
000E
0017
FFF6
FFF5
FFF9
0019
002A
000E
FFFC
FFFF
FFE8
FFDC
FFDD
FFDF
002F
0024
0004
0019
FFE8
0030
FFE4
FFD2
0014
FFFC
000B
FFD6
FFEC
FFCC
0014
FFF7
FFE5
FFF4
002D
FFE1
FFE4
0014
FFDA
0011
FFCE
000C
0024
0008
FFEF
0033
FFE3
FFE3
FFD1
0000
0022
FFDB
FFED
000C
FFEF
FFFD
FFE4
FFD0
FFCC
FFFC
0019
0028
0025
0008
001E
FFEB
0008
000C
FFF3
FFFB
FFD4
FFE5
001E
000C
FFDD
FFF5
FFE6
FFDC
FFE1
001E
FFE4
FFD9
FFD7
0011
FFD3
0011
000A
FFE1
FFFB
FFE3
FFFD
002A
FFE4
FFD5
0017
FFE9
FFDA
000A
FFE4
FFEB
0000
FFE0
FFDF
0011
0009
FFFD
0011
0025
0005
000E
FFF8
002C
FFDF
0019
FFF9
0016
0015
FFE5
FFCA
FFDA
0008
FFD2
0015
FFFA
0029
FFD1
0006
FFD8
FFE3
FFFC
0010
000D
FFDC
001D
FFE1
0028
FFEA
000F
FFD6
FFF0
0002
FFE7
FFD4
0026
FFCD
FFF5
FFF6
0025
FFD6
0030
FFF3
0036
FFFA
0039
FFF2
FFFE
FFF5
001A
0007
002F
FFD8
FFDF
FFEE
FFDB
0009
0038
003A
FFE0
FFDB
FFCD
0020
0019
FFFA
0016
0018
FFE5
0009
FFE8
FFF5
FFFF
0029
001C
FFEF
000B
0020
FFCB
001F
001F
FFCF
0021
FFDF
FFD2
FFDC
FFD7
FFFB
0021
002D
0021
001E
FFDE
001A
FFFD
FFDA
000A
FFEF
FFD0
FFF8
FFD7
0000
FFD3
001C
FFE6
0015
001D
FFEF
FFD8
0020
002A
0002
FFFA
0028
001E
001C
FFE1
0029
0026
000F
FFDB
FFDA
0005
001B
FFE8
0034
0022
FFFE
001D
0017
FFFE
0031
FFE4
FFE3
001F
002E
FFCE
FFEB
FFDA
FFED
0013
FFEC
0022
FFF1
FFFD
FFD2
FFD4
002A
0014
FFDA
0011
0027
FFF7
FFF6
002E
FFD6
0024
0010
0013
FFF3
FFEE
0021
FFED
FFF4
0017
FFD8
0013
0000
001B
002E
FFD9
FFD2
FFFD
000B
FFE4
FFD4
002E
FFCD
000C
000E
FFD2
FFE3
0032
002E
FFDE
000B
002C
FFE1
FFF5
FFF6
FFE1
FFF5
FFE4
FFFD
FFE3
FFFF
0003
0002
0025
002C
FFE8
0013
FFDA
001A
FFC8
FFD6
0021
FFDB
0011
0001
0037
0000
000D
002E
FFF5
0012
0024
0007
FFE6
0035
FFE9
FFE1
FFFB
002A
FFEF
FFE9
FFDA
0019
0011
001E
FFDD
001F
002B
FFF6
0019
0015
FFEC
0007
FFD0
FFCC
FFE2
001E
FFD7
0000
0005
FFD1
001E
0011
0026
FFCC
0012
FFDD
FFE1
FFEB
0022
0006
0019
001A
001F
FFF6
FFF5
FFDB
FFCF
FFEE
FFE9
FFD6
0000
FFE0
0029
0012
FFCE
0007
0013
0010
FFD6
001A
FFD6
0013
0010
0006
FFD2
0022
002F
0036
0011
0013
001E
FFFA
0030
FFF6
FFF5
0028
FFF6
FFF9
FFEF
FFF9
FFEF
FFDC
0037
0028
FFED
0020
FFCD
FFE3
FFDD
0032
FFE7
FFED
FFFC
FFEE
FFD4
0026
FFE7
0008
0015
001A
FFD3
0027
0007
0008
FFFC
001F
FFEF
FFEB
FFF9
FFE9
0019
0004
FFF9
FFDC
0018
0019
FFDA
FFCD
0010
FFFB
FFF9
FFCE
0001
002C
FFD0
002E
001F
FFE2
FFE7
FFE7
FFF6
FFEF
FFD0
FFF8
0015
FFD8
FFE0
FFFE
0015
0006
001E
0003
000F
0008
0012
0035
FFED
FFD9
FFD3
FFEA
FFF1
000F
FFDA
000E
001F
000D
0020
0033
FFE9
002E
002A
FFF6
0022
FFCD
0013
0010
FFE9
0013
000C
FFDC
0000
001E
001A
FFF0
FFEA
0014
0011
FFEF
FFCE
0012
0000
0003
0034
FFF0
FFDB
FFD4
000A
000E
FFEC
FFE3
001E
FFE7
FFD9
FFCD
FFF9
000D
0004
FFCE
0004
FFFD
FFFD
FFE8
FFDB
0024
FFD3
FFEA
002A
001A
FFFD
FFDE
FFD3
0021
000F
001D
FFE1
FFE0
FFDF
FFD9
001F
FFDA
FFDD
0018
0028
FFE8
000E
FFFF
FFFC
FFD5
FFFE
FFD6
FFF3
0020
0010
FFE6
0009
001D
FFED
FFFE
FFCD
FFEF
000A
FFD8
0005
0019
FFFA
FFCF
0009
0003
0033
FFD1
FFE9
FFE8
FFCC
FFD0
0033
FFED
FFDD
0027
001F
FFE8
FFF0
0025
FFE1
002C
FFE6
FFEC
FFCF
FFD0
FFDA
000D
0012
0025
FFEE
001F
001D
0000
0029
0023
FFD0
0000
FFD7
FFFF
FFF3
FFDF
FFFA
0002
FFF1
FFF8
000D
FFD6
002D
FFE5
0033
FFFA
0000
0034
FFDA
0027
FFCE
FFF5
000F
FFCC
FFDB
FFE1
FFE5
0005
0029
FFEB
FFF2
0029
FFE4
FFD8
FFFF
FFD5
0031
FFD4
FFE4
0015
FFFC
FFEB
0030
FFCE
FFCF
FFE8
0020
FFF1
FFDB
0012
0021
0006
0024
0009
0007
002E
002E
0001
0008
0005
0037
FFEE
FFE2
0030
0036
002D
FFDB
FFF5
FFFB
FFFB
FFCF
0009
0032
FFDD
002C
0004
FFD2
FFF1
FFE3
0016
FFCA
0031
FFCE
0007
001D
0006
0026
FFEC
0008
0012
0026
0024
0020
FFF5
FFDD
FFF2
FFDF
FFD3
FFD2
FFF6
002E
0008
FFFA
0002
0000
FFF1
FFEE
000D
0012
0033
0031
0013
FFE5
0022
FFD9
001D
000C
0027
0011
FFF8
000F
FFD3
001A
0017
0015
002D
FFDB
FFF4
0019
0010
0030
0030
001C
FFDE
FFE0
0006
0018
001B
FFF5
0002
FFD9
FFE7
FFF9
FFDC
FFFA
001D
FFFB
000C
FFF2
0021
0037
0001
FFEE
FFF4
0032
002B
001F
0023
0021
0012
002E
0009
0000
FFDE
0006
FFED
FFD1
0022
FFD0
FFDF
0014
FFE0
001C
0021
FFF8
0022
FFEE
0037
FFFD
0036
0019
0011
001A
0035
0026
001A
0027
0016
FFD3
FFE6
0020
FFE8
FFFC
FFF1
FFE1
002B
0035
0000
0014
FFFD
FFF8
FFDD
000D
002E
FFE2
FFFF
0009
FFDB
0021
FFF0
FFE6
FFF0
0023
FFE6
002E
0027
FFC9
0015
0021
001A
0024
000A
002F
FFF8
002D
000F
002E
0025
000A
FFF4
FFCF
0003
0013
001F
0030
FFDE
0034
FFD8
0011
0036
FFE1
001E
0000
0019
FFE9
0016
FFD2
0029
FFDD
0029
FFF5
0017
0034
0027
FFED
FFE1
0017
FFF0
000A
0010
0027
0005
FFDB
0000
FFCD
0027
0031
0004
0022
0008
FFCA
FFFD
FFDE
002C
0024
0030
FFFB
FFE1
0012
0002
FFFC
0018
001A
001E
FFF8
FFF0
0010
000C
FFEF
002D
0010
0007
FFED
FFDB
FFF4
0029
FFE0
FFE3
FFD7
0008
FFD6
0013
0031
0005
001F
FFD8
0033
FFEF
0002
FFD6
FFE8
0020
FFD3
FFE2
0036
FFE3
FFFF
0017
0023
FFEC
FFEC
000B
0013
0021
FFDF
0014
0008
FFDF
FFD4
FFEE
FFF0
FFEE
0022
0000
FFD8
FFD8
FFFC
000D
0027
FFD6
0002
0010
FFCB
FFED
0000
FFD8
0022
FFFB
0004
FFEE
0008
FFF5
0005
FFEE
FFF8
FFEC
FFED
0001
FFF8
FFFE
FFF9
FFF8
0016
0009
FFF8
FFF4
FFE9
0004
FFFC
FFEB
FFEF
FFF2
FFFC
FFE9
FFF2
0010
FFFC
FFFF
FFF9
0001
0009
FFEB
FFF6
FFEC
FFFD
FFEE
FFF0
000C
FFF8
FFFA
0003
0005
000C
FFF2
FFF5
FFED
FFEB
FFF6
FFF2
FFFF
FFF1
000E
0001
FFF9
FFF9
FFE7
FFF0
0004
000B
FFEE
FFFD
FFED
0010
FFFE
000D
FFF3
0004
0000
FFF1
0002
FFEE
0005
0007
0006
FFFB
FFFB
FFFB
FFF1
0010
FFF4
000E
FFF4
000C
000B
0010
FFF8
0010
FFF0
FFEB
FFFF
FFF9
FFF8
0007
000A
FFEE
FFF5
0002
0010
FFFD
FFE9
FFE8
FFF1
FFF6
FFF4
FFFE
FFFC
FFF4
0013
0001
0009
0002
000E
0004
FFEE
FFEE
FFF8
FFF7
0015
FFF9
FFE9
000F
0002
FFF7
FFE7
FFF9
FFF7
000D
0010
0013
FFFA
0017
0002
FFFE
0015
FFF0
000E
000C
FFF2
0016
001A
FFEC
FFF9
FFEF
FFED
000D
0003
000B
000C
FFFA
FFFB
0004
000F
FFF6
0019
000A
0003
FFED
FFEA
0008
0018
FFF0
FFEE
000A
FFEC
FFEC
0003
FFF4
0003
001B
0000
FFF2
FFFC
FFEF
FFFF
FFF8
FFF0
FFF2
0002
0016
FFFB
0014
0012
FFF7
0000
0007
0012
0013
0011
000B
FFF2
0009
0008
0018
FFFC
0003
FFFF
FFF2
0010
FFF0
FFFF
FFFE
0008
FFF8
0012
FFFD
FFFD
FFF0
0004
FFFD
FFF0
0001
FFEF
0004
FFF1
0001
0005
FFFA
FFFF
FFEA
FFF7
0001
FFEA
000B
0016
0013
0004
0019
FFF8
FFF3
0018
FFFC
0013
0008
000B
FFF1
FFF5
0011
FFF1
0002
0008
FFEB
FFFA
FFF9
000C
FFF7
000C
0011
0017
FFEB
0018
FFFF
0007
0018
FFFE
FFF0
0011
0003
0005
FFF0
0001
000D
000C
FFEB
FFFB
0011
FFFD
FFF4
FFE5
FFFE
0000
0006
FFF0
FFF4
FFEC
0008
FFFF
FFEC
0001
FFEA
FFF0
0005
FFFC
0013
0007
FFFF
0006
FFF5
000D
FFEE
FFF8
FFFC
FFED
0003
FFF6
FFEF
000F
FFF3
000E
FFEE
FFFB
FFFD
0007
FFF9
FFF4
0006
0011
000F
FFEB
FFE7
0011
000D
FFE8
FFF5
FFE8
0002
FFF8
0008
FFE8
000B
0007
FFF8
000B
0001
0002
FFFC
FFF3
FFF9
0003
FFEC
0006
000C
0002
0005
FFFC
FFF3
FFF1
FFEF
0002
FFF6
0012
0009
FFF6
FFE8
0003
000B
FFFD
FFF7
000F
FFE9
000F
FFFD
0001
FFF1
FFF1
FFFB
FFF4
FFFE
0008
000E
FFF0
0003
FFF4
FFF3
FFED
FFE6
0008
0009
FFFB
FFF0
FFEA
0009
FFF4
0002
FFF0
0003
FFEC
0002
0007
FFE7
FFF4
0009
0011
000E
0003
FFFB
0019
0009
FFED
000B
FFF3
0016
0018
0003
000D
0010
FFF8
0015
FFF5
0001
000D
FFEF
FFFA
FFF6
0004
0009
0002
FFF3
0001
0018
FFFE
FFF9
FFF7
FFF1
0006
FFEB
FFF5
000E
0018
FFF3
0010
0002
FFFD
0000
0002
000A
000D
0000
000E
0016
000D
0012
FFF4
FFFD
000A
FFF8
FFFC
FFF3
0003
0008
0009
0007
000A
FFF2
FFF0
FFF0
0002
000D
FFF5
0000
FFFA
0002
0000
0009
0002
FFFE
0012
0004
0002
FFF8
0000
000A
0002
0003
0001
FFF2
FFF0
0005
FFF8
0014
000C
000E
FFF1
000B
FFFC
FFF8
0005
FFFD
FFF7
FFF9
FFF4
0007
FFF2
0022
FFF6
0005
0013
FFFE
FFFB
FFFC
0007
FFFC
FFFF
0008
000E
FFFE
0016
FFF0
FFF0
0008
FFF5
000C
0014
FFF6
0015
FFED
0010
FFFA
0014
0000
000F
0007
FFF9
0009
FFFA
FFF5
000D
FFF6
FFE9
0019
FFFE
FFFA
FFF3
FFF3
FFED
FFFA
FFF6
0003
0006
000E
0012
000A
FFFE
FFF1
0014
FFFE
0011
FFF9
0011
0005
0005
FFFA
FFF4
FFF3
0011
0003
0008
000B
000C
0002
FFFC
FFEF
0007
FFF9
0011
000E
FFF6
0005
000A
000E
000C
0000
FFF9
FFF6
0010
000C
FFFC
0006
000F
FFF2
FFFC
0004
0013
0013
FFFF
0003
FFF3
FFF4
0017
0006
0005
FFFB
FFFA
0016
0006
0015
FFF4
FFF3
FFF5
FFF0
001A
0011
0004
FFFF
000F
0016
FFF3
FFF5
0007
FFFB
000F
FFF7
0006
FFEC
FFED
FFF4
000D
FFF0
FFED
FFFE
FFEA
FFFC
0011
FFFA
FFFE
0017
0013
FFFD
0001
FFF6
FFEF
FFF2
0016
0015
FFF4
0010
FFF2
0014
FFF5
FFF1
000C
0004
FFEC
FFF6
FFF1
FFF6
000C
000A
0005
0006
0008
0000
0000
FFFF
000B
0000
FFEB
0012
000B
FFF4
FFF0
FFF5
0005
FFF3
0005
FFFC
0013
FFE8
FFF5
0014
FFEA
FFF2
FFF0
FFE8
FFE9
FFF0
FFFF
FFEE
000D
FFEF
0012
000F
FFED
000E
FFFE
FFF6
0012
FFEC
FFEE
0013
0004
FFF9
FFF0
FFEB
FFEB
0003
0010
FFEB
FFEB
0009
FFEF
0003
FFF0
FFFE
0005
FFF1
FFF1
0010
000D
FFE9
0012
FFF8
0000
000A
FFE8
0009
000B
0007
FFFD
000B
FFF6
000E
FFF2
FFFB
0005
0005
FFEF
FFF5
FFF9
000E
FFFF
000A
FFF1
FFF2
FFEA
FFF8
0007
FFEB
0012
FFF7
FFEB
FFEA
0003
FFF1
FFED
000C
0006
000A
FFFE
FFF3
FFFC
FFE8
FFFA
FFFF
FFF7
FFED
FFF8
FFFE
FFFE
FFF8
FFFC
FFFA
FFE9
FFE6
FFFA
000B
0003
FFF2
0014
FFFB
0000
0011
FFE7
FFFD
FFED
FFEC
FFEC
FFEA
0010
FFF3
FFE9
FFF9
FFF5
FFF1
0011
FFFC
000F
FFF3
000B
0011
FFED
FFED
0013
FFE6
0012
000E
0002
0006
FFF8
FFF5
FFEA
FFF0
FFEC
0013
FFE8
000B
0011
0004
FFEB
FFF8
0010
0012
0012
FFFF
0010
0006
FFE9
0005
FFF8
FFFA
FFF7
0014
FFE8
0002
FFEB
FFEC
FFF0
FFFC
FFFA
0006
FFF7
000D
000E
0003
0001
000C
FFEE
0002
FFF3
FFEB
0006
FFF3
0008
000F
FFFB
FFED
0010
FFF2
0011
FFF4
FFE8
FFFD
FFFA
FFE7
FFF3
FFEC
0007
FFFD
0011
FFF3
0013
000D
0005
FFE7
0012
000E
FFF5
FFF4
FFFA
FFFF
0015
0004
FFF3
0002
0016
FFF4
0002
0008
FFF1
FFFB
FFE9
FFFB
0007
0008
0003
0012
FFF7
0008
0011
0001
000E
000C
FFED
FFF6
FFEB
000C
FFEB
FFFC
FFF6
0003
000A
FFF5
0008
FFEC
0009
FFFF
FFFB
FFEC
FFFC
0004
FFEA
000A
FFEB
FFF4
FFEF
0003
FFFD
FFF0
FFFB
000B
FFFB
FFEB
0012
FFF7
000D
0014
FFFD
0011
FFFA
FFEE
FFF6
0008
FFF6
FFFD
FFFB
000E
0009
FFF0
0001
FFF3
FFF8
FFF9
FFEF
FFF5
FFF6
0000
0005
FFE7
000F
000A
0011
FFF6
0006
0006
FFFA
FFEC
FFFE
FFEE
0007
0000
FFEB
0001
FFF9
FFEA
FFF5
000F
FFF6
0000
0007
FFF8
000E
FFF4
0006
000E
FFF2
0007
0007
0008
FFF8
000D
FFFE
000F
0013
0004
FFFC
FFFA
FFF9
FFF9
FFF5
0012
FFFD
FFF4
FFF8
FFEF
0010
FFEC
0007
0010
FFF2
0008
FFEE
0011
000E
FFF1
FFEB
FFEF
FFEE
FFFD
FFF7
FFE9
0011
0002
000A
FFEC
000C
FFFF
FFE8
000C
0005
FFF8
FFFC
FFF0
0006
FFF7
FFEF
0000
0007
FFED
FFEE
FFF8
FFF5
0002
FFFF
0012
FFF5
FFF7
FFEC
0001
FFE9
FFF2
000E
FFF4
FFE9
000B
000A
000B
FFEE
FFEA
FFFE
FFEF
FFE8
FFE8
FFE7
FFEC
0004
FFF7
0005
0004
FFED
0004
FFEA
0011
000F
0005
FFFD
FFEA
0005
FFEE
0005
0003
FFFE
0001
FFE7
FFF8
FFFE
FFF6
FFEF
0005
FFF5
FFFF
FFE9
000B
FFF2
0000
FFE9
FFF3
FFEC
FFF0
FFF6
FFFE
FFFB
FFFD
0013
FFF9
0015
0010
FFF4
FFFC
FFE9
FFEC
FFF5
0012
000D
FFF1
FFFA
FFFD
FFEB
000B
FFF7
FFEE
FFFF
FFFE
000C
000B
FFF0
000C
0006
000F
0009
000D
0011
FFF6
0003
FFFA
0010
000B
0001
FFEC
0004
0005
000E
0007
FFF1
0001
0008
FFE6
FFF3
000A
000D
FFF2
000C
FFFF
0002
0003
0013
FFFD
0004
FFEF
0005
0006
000A
0011
FFEF
FFF3
0000
0000
0002
0002
FFF6
FFFD
FFEA
0008
0000
0001
000D
FFF6
FFF8
FFF8
FFF6
0008
FFFD
0005
FFF5
000B
0001
FFEC
FFFF
0011
000B
FFFF
0011
FFF6
FFEF
000F
0002
FFF8
FFFA
0013
000D
FFF0
FFFF
0003
000C
0006
FFF6
0015
FFFA
FFFD
FFFF
0001
FFFE
0009
000E
FFF2
0000
000E
0018
0013
000A
0003
0012
0006
0012
0018
0016
000A
FFF8
0009
001A
0013
FFF8
FFFD
FFEC
0001
000B
000D
FFEF
0008
0007
FFF8
0000
FFFB
FFEF
FFEF
0006
0005
0017
FFEA
0016
FFF2
0016
FFF8
0004
FFFD
0011
001A
000A
FFF5
FFF8
FFE9
FFF3
0006
FFF7
0015
FFED
000C
FFEB
0011
FFEB
FFF8
FFF0
0006
FFFD
FFFF
000C
0010
000A
FFFD
FFF5
FFEE
000F
0014
FFFE
0006
0002
FFE9
FFEC
FFF6
FFF2
000D
0004
0011
FFF6
FFFA
FFFF
000F
0001
FFF1
0008
FFF4
FFFE
0006
FFEC
FFF6
FFF9
FFF4
FFF3
0004
FFE8
0011
FFEC
FFEA
FFF7
000D
0007
0008
FFE9
000A
FFFF
0005
FFEA
FFF9
FFE9
FFF0
000B
0005
0012
000D
0002
FFF4
000A
FFED
0014
0010
FFFC
0012
000E
FFF7
000E
FFF3
0014
FFF4
FFF7
0004
FFFC
0000
FFE9
000C
0010
FFF1
0001
FFED
000F
FFF4
FFF2
0006
FFF7
FFFC
FFEE
FFFF
FFFA
0007
0007
FFF5
0007
000E
0009
0011
FFF6
0003
FFFD
FFF9
0006
0004
FFEF
0011
000F
0002
FFEE
0012
FFFC
FFF2
FFEA
FFFC
000C
000F
000E
FFFB
FFFA
FFF3
FFEF
000B
0015
FFF9
0002
FFE9
0000
FFEA
0012
FFF0
000F
FFEE
0003
000B
FFEF
0008
FFEB
0005
FFFD
0008
000C
000B
FFF1
0013
FFF7
FFF2
0010
FFFA
FFF1
0006
0005
0000
0012
000C
0006
FFFD
000F
FFED
0005
FFF9
FFEE
FFE8
FFF5
FFF3
0013
000A
FFFF
0006
FFF9
0007
0003
FFFA
FFFC
FFE7
0005
0008
FFEA
0014
FFEC
0005
0006
FFF7
FFFC
0011
FFFC
FFEA
000A
FFFE
0001
FFF1
000F
000A
FFFB
FFFE
000D
000D
FFF8
FFFF
FFEC
0012
000C
0005
FFEE
FFFB
0005
FFF2
FFF3
FFEC
FFF5
0003
FFEA
FFFD
FFF5
FFFD
000F
FFF6
FFFC
FFEC
FFED
FFEB
FFF6
FFF2
FFFD
000C
FFEF
0011
FFF0
FFEA
FFF5
FFFD
FFED
000C
FFE7
0009
0013
0003
000C
0007
FFEF
FFF1
0008
FFF2
FFF5
FFF0
000C
FFF0
0004
FFFE
FFE7
FFFE
0001
FFF9
0000
000B
0009
0012
0016
FFF6
0004
FFF0
0005
0013
FFE9
000E
0009
0014
000F
FFEB
FFFA
0013
FFF5
FFEA
0012
FFEF
0013
0013
FFEA
0001
FFEB
FFFA
FFF0
FFEB
0012
FFF4
0001
0006
000E
000B
0010
FFED
0012
FFF4
FFF2
0008
FFFB
0015
FFEC
FFEB
FFFD
FFEC
0015
FFFF
000F
FFFF
0010
0007
0004
FFEF
FFFD
FFEC
0005
000E
FFE9
0011
0011
FFF4
0012
FFF2
FFF6
0010
0012
FFEA
FFF7
FFED
FFF9
FFFB
0013
FFEA
FFF7
FFEB
FFFC
0010
0008
0009
FFED
FFEC
0009
0013
FFEF
0012
0015
FFF2
0009
000F
FFFE
FFF6
0002
FFF8
0008
000C
FFEF
0006
FFF9
FFFF
000D
000E
FFEF
000F
000B
0008
0010
FFFD
FFFC
000D
FFED
FFFC
0008
FFF7
0010
001A
0006
0010
FFEF
0010
FFF7
0001
FFF9
0001
000D
FFEF
0001
0009
FFEA
000D
000C
0015
FFEC
FFFE
FFEA
FFF7
FFFE
0010
FFF3
000F
FFF9
0000
FFF3
000B
FFF0
000A
0006
FFED
0006
0010
FFFC
000C
0003
FFFA
0000
FFF5
000B
0010
0016
FFFE
0016
FFF0
000B
0005
FFEB
001C
FFF0
0016
FFF5
FFFD
FFFA
FFFC
0008
FFF7
0007
001A
FFF7
FFF7
FFFF
0010
0012
FFED
FFF3
0012
000B
FFFA
0013
FFEE
000F
0003
0004
FFEA
0019
FFF5
FFEE
0011
0010
0002
FFFC
000D
FFFA
0019
001A
0005
0005
FFF5
FFFC
000F
FFF7
FFEC
FFFD
FFFC
FFFD
0003
0004
FFFD
000F
FFF2
FFF8
FFF3
0018
FFF6
001A
0018
0014
0015
FFFF
FFFE
FFFE
FFF7
FFFE
0002
000C
FFFE
000E
FFFE
0001
FFF7
FFEF
0005
0003
0007
0000
0002
0006
FFF0
FFF3
000C
0012
0010
000F
0014
FFFF
FFFF
0001
000A
FFFA
FFF3
FFF4
000F
FFF7
0003
0004
FFEE
0016
000E
0013
FFEF
FFEE
0014
0004
0008
000A
000F
0007
FFEE
FFE9
0018
FFF8
000B
FFFB
000E
0015
000B
000E
0016
FFF8
0003
0012
FFF2
FFF0
FFF9
FFFB
001C
0005
0018
FFF5
FFFE
FFFF
0009
0017
FFF6
0002
FFF1
0015
001A
FFFE
0001
FFF0
0013
0003
FFFB
FFFF
0015
000B
FFEC
FFF8
FFF4
FFFE
0016
FFFF
000E
FFED
0018
0008
0014
0003
FFF8
0014
001A
0007
0006
FFFD
000D
0010
0002
FFF3
FFF4
FFF1
FFFC
0002
FFF5
000D
FFFD
0015
000A
0019
0002
0011
0004
FFFF
FFF9
0019
0004
0009
FFFA
FFF6
0000
000D
001B
0014
0009
0005
FFFD
FFF5
0012
0016
000E
001A
FFF3
FFEE
0002
FFEC
000F
0006
000A
000A
0007
FFF1
FFFD
FFF5
0008
FFEB
FFEF
000A
0009
0006
000B
0019
000B
FFFC
0003
000D
0010
FFF2
FFFB
0016
001B
FFF7
0002
FFF2
0016
000E
0011
0015
FFF4
FFF3
FFFE
FFF1
000E
0000
FFF3
0000
000D
FFFA
FFFA
FFF2
FFED
FFF4
FFF4
000D
FFFE
FFFF
FFE9
FFF0
FFFC
0011
FFE7
FFE9
FFEE
000E
FFFD
FFF3
000E
000D
0006
FFF5
0012
000A
000D
FFF9
0002
FFF6
FFF6
0011
FFEF
0009
0002
0012
FFE9
FFEE
0004
FFF3
000C
0013
FFEF
0007
FFF8
0008
FFEC
000B
000E
000D
FFF5
0009
FFFF
0007
000D
FFEC
0005
FFF7
FFF5
FFE6
FFF9
FFEF
0010
0008
000E
FFF1
FFEA
FFF4
FFFD
0007
FFEC
000F
FFEB
0003
0002
000F
FFEA
FFEA
FFEB
FFF0
FFF7
FFF3
000F
FFFD
FFF7
000C
FFFC
FFFB
0012
FFF5
0007
FFF1
FFE9
0001
FFF2
0014
0006
FFFD
FFF6
FFFB
0000
000F
FFF6
0013
000B
FFED
0008
000D
FFFF
0003
0009
0013
0012
FFFF
0007
0005
FFEF
0012
0014
0006
FFF1
FFFD
FFFD
0005
000E
FFEF
0007
000F
0012
FFE7
000D
000C
FFF9
FFF9
000C
0000
001C
FFF1
0005
0001
000D
0001
FFF0
FFF8
FFFC
0012
000B
FFF4
0004
FFF2
0003
FFF9
FFFE
FFF0
FFF4
0011
0001
0018
0011
0000
0004
0015
FFEA
FFF7
000E
0013
0019
FFF0
0009
FFFD
0006
000D
FFF1
FFF5
001A
001A
001A
FFF2
FFF5
FFF0
0009
0016
000D
0006
0018
FFF9
000F
0017
FFF5
FFF6
0015
0010
0002
FFF4
000D
FFF5
0013
0013
FFFB
0015
0010
0009
FFFD
FFEE
0017
0008
0008
0011
0001
FFF9
0005
0001
FFFC
0007
0022
FFEE
0018
000C
FFED
FFF2
FFF0
FFF7
0001
FFFA
000A
0011
FFFD
FFF6
FFFE
FFF5
001D
0003
0001
FFFE
000E
0014
0002
0003
0005
0005
0017
FFFC
FFF9
FFFF
FFF9
0003
0019
0006
0003
FFFD
0017
0012
000E
0008
0003
000D
FFF6
001D
FFED
0008
0001
FFEE
FFFB
0012
FFFE
0012
FFF2
FFFE
0001
FFF5
FFF1
FFF7
0014
0013
0001
0001
FFFC
000F
FFF9
0008
0010
FFEA
0005
FFFA
000E
FFF3
0011
FFFA
FFF2
0011
000F
FFE9
0005
FFFB
0006
0009
FFEF
0013
FFF8
FFFF
FFFA
FFFA
FFFF
FFF6
FFF1
0015
0000
0012
0012
000F
FFEB
000A
0007
FFF7
000A
FFF1
0007
FFF3
FFF4
FFF9
FFEB
FFFD
0002
FFEF
FFFC
0012
FFF4
0009
0013
FFFC
FFFA
FFF7
0011
FFF5
FFEC
0015
0012
0000
FFFA
0008
0006
FFE9
FFF6
FFF7
FFEF
FFFA
FFF7
FFFB
0010
000F
FFF5
FFEB
FFF9
FFF5
FFF0
FFEB
FFF6
0007
FFF1
FFF1
000C
FFFA
0003
0010
0011
FFE9
0012
FFFF
0015
0013
FFF2
0000
FFEC
0008
FFFD
0009
FFEA
FFF3
FFEB
FFEB
0008
FFFC
FFF6
FFF5
FFEB
0009
000E
0005
0012
000D
FFED
0012
FFF1
000C
0007
000F
FFF7
000F
FFF8
000D
0004
FFFE
0008
000B
0008
0004
0003
0007
FFF4
0004
FFF9
FFED
FFFD
FFFF
FFF1
0010
0005
FFF9
FFFB
FFED
0010
FFF0
0010
0004
000B
FFFA
000D
000C
FFF3
000E
FFED
001A
0013
0019
0000
0019
0017
0012
FFF0
0012
0004
FFFB
0016
FFF3
000D
FFF7
000C
0012
FFEE
000D
FFEC
FFF9
FFF1
0001
0004
0001
0006
001A
FFF0
FFF8
0013
0010
0014
000E
FFF8
FFFE
0005
0003
0018
0010
0013
FFF1
FFEF
FFFA
FFEF
000C
0014
FFF0
FFFF
0008
0017
000F
FFF3
FFF3
0006
FFFC
FFF8
001B
0003
0012
000E
FFFC
0002
0008
FFEF
0017
000E
FFF3
0000
0012
0009
FFF7
FFFC
FFF2
FFFB
FFED
0016
0002
FFF2
000E
000A
001B
0001
FFF7
0008
000F
FFFE
FFF4
FFEC
FFF9
000E
0007
FFEC
FFEE
FFEA
000C
FFF4
FFEE
FFEC
0013
0007
FFF1
FFEF
FFE9
FFFF
FFEE
FFEF
0008
0014
FFEE
FFF1
0010
0013
0005
FFF0
FFEB
0006
FFFD
FFEE
FFEE
0010
0008
FFF6
FFEB
000F
0003
FFEC
FFFC
0006
FFE8
FFF0
FFF1
0006
FFE9
FFFD
0000
0011
FFFE
000F
0004
FFEF
FFF5
FFF5
FFF9
000D
0015
0011
000F
FFFB
0006
FFE8
0008
0014
0003
000E
0013
FFF1
FFEF
0003
0009
FFE8
0000
0001
FFFC
0005
000B
000A
FFE9
0010
0007
FFF9
FFEB
FFEA
000D
000F
FFFF
FFEB
FFFB
000C
000F
FFFB
FFEB
0001
0002
FFF3
FFFB
FFF3
FFEF
0005
FFE7
0013
FFF9
FFEE
0010
0002
FFEC
FFFE
FFFE
FFF2
FFEA
0009
FFEF
FFED
0016
FFFA
FFEA
FFF1
000F
FFFB
0013
FFFF
FFE8
FFFC
0005
000A
FFFA
000A
FFF8
0004
0010
0011
FFF9
000B
FFF8
0012
FFF7
FFF4
0006
0019
FFFD
0015
0009
0003
FFF9
FFFE
000C
FFF5
FFF7
0012
0011
FFF4
000C
FFF1
0000
0013
0019
000F
000E
0012
FFF2
0004
0004
0014
FFFB
FFF6
FFFF
0017
0008
000B
FFEF
0002
0018
FFF3
FFFD
FFF7
FFFD
FFFB
0001
0001
FFF2
FFF4
0000
0013
FFF0
0015
0009
0018
0004
FFFE
000D
FFEC
FFF8
FFF3
FFFD
FFFF
0007
FFEF
0008
FFFD
000D
FFFB
0019
0006
000C
FFF3
FFFC
000A
0011
FFF7
FFF8
0008
FFF6
FFFF
FFF4
0011
FFF6
0002
0009
FFF9
FFFA
FFEE
000F
001E
FFEF
FFF5
0017
0002
000E
000E
0012
FFFA
0010
FFF8
FFFE
FFEC
0017
0006
000E
FFF2
FFEF
FFF6
000C
0001
0012
FFFF
0013
000F
0017
000E
FFFE
0005
0013
0015
0012
0019
FFF2
FFFE
FFF4
0003
0013
FFEE
FFEE
0005
0000
FFF4
FFF2
000B
0011
FFFF
0018
FFFD
FFEE
FFEC
000A
000B
000D
0017
0002
000C
FFF4
FFF8
FFF2
0003
FFFB
FFED
0007
FFFD
FFEC
FFEE
FFEE
FFFC
FFF9
0017
FFFF
FFFE
FFFD
000D
0001
FFFC
000B
0003
000B
FFFA
000B
0001
FFEF
0013
FFF8
000F
0014
FFEF
FFF3
0014
FFF9
FFF0
0008
FFF5
000E
FFFC
FFF0
000E
FFF2
FFF4
FFF6
FFFF
000D
0015
FFF0
0017
FFF3
000C
0005
0006
0012
001A
FFEA
0013
0010
0001
0008
0002
000F
FFF7
FFF4
000C
FFF5
0007
FFFD
FFF7
0010
0015
000A
000A
0011
0007
FFFB
0007
FFF0
FFFC
FFF1
FFF3
0004
0016
FFF0
0004
FFF0
0016
000E
FFF0
FFF8
0019
0005
0004
0016
0012
000D
000A
FFF4
FFF4
000F
0010
0000
FFEC
0014
0000
FFEE
FFF5
0000
0004
000B
0006
FFFF
FFEC
0008
0001
FFFA
FFFC
FFEB
FFF6
0014
FFF7
0010
0006
FFF1
FFFF
FFFB
0012
0010
0014
FFEB
FFE7
000C
FFF3
FFEE
FFFB
000C
0011
0000
0010
000F
0005
0015
FFEF
0015
0004
0002
0005
0016
0011
000D
FFF8
0002
0015
0015
FFF9
FFF0
0011
FFFF
000D
0002
0004
FFEE
FFFB
FFFD
FFF1
FFF6
FFFD
0012
FFFC
FFED
FFFB
0006
FFF3
0017
FFEE
0015
FFEC
FFFF
0013
FFF9
0004
FFF4
0004
0015
0004
0013
0007
FFEA
0016
0000
FFFB
FFE9
0007
FFF6
FFF6
FFF5
FFEB
000B
0021
0007
0002
FFF9
FFF7
FFF1
FFED
0010
FFEB
0012
001E
0008
0006
FFF7
FFE6
0013
FFF6
000A
FFEF
FFF4
0000
FFEC
FFF3
FFEB
FFFF
0018
FFEF
FFEE
0016
FFF9
FFF5
0013
0009
0013
FFF3
FFF8
0019
0000
FFFF
FFFF
000F
0012
0008
0003
0012
0010
000D
FFF4
FFFC
0010
FFED
0013
FFF2
FFFD
0013
0004
FFF2
FFF8
0006
FFFF
000E
0012
0009
FFF1
0011
FFEC
FFF4
0000
0019
FFF0
FFF1
0017
0005
0000
0016
FFF6
FFFB
0006
FFF6
FFF4
000B
000F
FFF2
0011
000A
0014
0015
FFFF
000F
FFEF
000F
FFF2
0016
000B
FFFA
0001
0014
FFEB
000D
FFF5
FFEF
0008
FFFB
0009
FFF6
0001
FFF5
0001
FFF8
0015
0000
0001
0006
FFF8
0001
0002
FFEC
FFF3
0015
0008
0016
0013
FFF0
FFF4
FFED
FFFA
FFF9
FFEB
0018
0004
FFF0
FFEE
FFFF
FFEE
0013
0014
0009
FFF4
0004
000E
0009
FFFA
0012
FFFA
FFFB
000D
FFFA
FFFB
000D
0013
FFFE
0006
0017
000B
000A
001B
FFEA
000C
FFF2
FFF7
0008
FFEC
0009
0000
FFF2
0002
FFF2
FFF3
000E
FFF0
000A
FFF9
FFF1
000B
FFE9
0000
FFFB
FFF6
000F
0007
0012
FFF5
000C
FFFC
FFF6
0010
FFEA
FFF3
FFF9
0008
FFF2
0007
FFE7
0004
0001
FFEB
000E
0003
FFF3
FFF5
000C
FFFA
FFF9
000E
0009
000D
0012
FFE9
0003
000D
FFFF
FFF7
FFF1
FFF2
000E
0009
0012
000C
FFFD
0010
0000
FFE7
FFFD
0000
0007
0005
FFF4
FFF7
FFED
000E
FFFA
FFF6
FFE6
0003
000B
FFEB
000D
FFF6
0008
0012
FFEC
FFF6
0010
FFFA
0003
0003
0009
FFEA
000A
0015
FFF4
0014
0008
0011
FFE8
000D
000D
0007
FFF2
FFFA
000B
0003
FFF2
0009
0004
0002
FFFA
0010
000F
FFFD
FFEE
0015
0007
0004
FFF3
0015
000A
FFE7
0013
0001
FFF8
0004
FFEF
0002
FFFB
FFF7
FFFC
0011
000E
FFFF
FFFA
0000
0010
FFF9
0001
FFEC
FFF1
0012
0010
001A
0001
000E
FFF1
FFF3
0000
FFFC
000C
000A
FFF4
0004
FFF1
FFFA
0010
FFF1
FFF3
FFF2
0004
0004
FFFE
FFFB
000A
0003
FFFE
0007
0001
0003
001A
FFFE
0005
FFF0
0004
FFF6
FFFF
0004
0012
FFF2
FFF2
0009
000A
FFF8
FFF3
FFFA
001D
0005
000A
000D
FFF3
000E
0005
000E
FFFC
0002
FFF1
FFF9
FFFC
0001
FFF1
FFEC
FFFD
0004
0005
000E
0016
FFEE
FFFA
FFFA
FFF5
FFF0
000B
000F
0014
0015
0006
FFFE
000B
0004
000A
FFFA
FFF3
0003
0011
FFEE
0009
FFEB
0014
000A
0001
001C
FFFB
FFFE
000C
000A
FFF7
0000
FFEE
0019
0013
FFF8
FFF2
0003
0009
0019
0017
FFF5
0014
001B
FFFB
0003
0008
FFF5
0000
FFEB
000D
FFEF
0000
FFED
FFFD
FFEF
FFFD
FFFA
0005
FFEF
FFF6
FFF3
0000
0001
0009
0000
0014
0012
0008
FFF9
FFEF
FFED
0016
000A
FFF7
0000
0018
0019
FFF0
0014
0006
0006
000D
FFF6
0018
FFF1
FFF4
0014
FFFD
FFFB
FFFC
FFEA
0002
FFF1
FFF4
0019
0011
000B
0010
FFEF
FFFF
000D
000F
000A
0000
FFF0
FFEC
FFF5
FFEF
0002
000E
0008
FFF9
FFFD
FFFE
000B
0006
FFF7
0015
FFFB
000B
FFFB
FFFD
0008
FFF3
FFF8
0005
0005
FFF3
FFF9
0017
000E
000A
FFFE
001B
000B
0006
0015
000F
FFF7
0002
FFFF
FFFB
0001
0018
FFFB
0004
0004
FFF8
FFFE
FFF7
000C
0011
0013
FFF6
FFEB
FFED
0001
0002
0003
FFF7
0005
0000
0009
FFFE
FFEC
FFFD
000B
0004
FFF5
FFF0
000A
0001
000F
000D
0001
0015
FFF0
000A
FFF0
FFED
FFFB
001A
FFFF
FFF8
0012
000F
FFF0
FFFB
0011
FFF7
0012
FFED
FFFE
FFF3
000E
0018
0017
FFEE
0002
0017
0011
0007
0015
0007
0016
FFEF
FFF9
0002
0005
000A
FFFE
000B
0004
FFF5
FFF6
0004
FFF9
FFFA
FFF6
FFFA
FFF8
FFFF
0007
FFFD
0013
0001
FFF5
FFFB
0007
000E
0007
0006
FFFD
FFFE
0008
0002
FFF2
0015
0007
000E
0004
FFED
FFF0
0012
000F
FFF0
0008
0005
0004
FFFA
FFF6
FFF6
0009
FFFB
FFF2
0001
FFEE
FFF4
0016
FFFE
FFEE
FFF5
0009
000A
0009
0000
0012
FFFA
FFED
000F
000A
000E
000F
FFFA
000B
0014
0015
000F
0014
FFF1
000F
0003
FFFD
FFFB
0013
0013
FFF4
0009
0012
FFF1
FFFC
0000
FFF9
FFF5
0008
000A
0005
0014
FFFF
FFF5
FFFA
FFFA
000E
0012
0001
0003
0013
FFFA
0014
FFEF
0016
FFF7
0018
FFF8
FFF5
FFFF
FFF4
FFF6
FFF7
FFF6
FFF8
0015
0019
FFF7
FFF0
FFF0
FFEE
FFFC
0003
000B
FFF4
0013
0000
FFFB
FFFF
FFEF
0005
0007
0017
0015
FFF5
0003
FFEF
0003
0007
FFFB
FFF5
0013
0006
FFFF
0006
0013
FFF2
0000
0009
000E
0010
0005
000C
0008
FFF2
FFF2
FFEC
FFF9
0008
FFF4
000D
0016
0014
0012
000B
001B
FFFD
0001
0012
0002
FFE8
FFED
FFEE
000A
FFFC
FFF5
0008
000D
0016
0015
0002
FFE9
0015
FFFD
FFF2
FFEE
0013
0005
FFF4
0017
FFFD
FFF0
0015
0011
FFFF
FFFB
0014
FFF3
FFF3
0007
FFF2
0002
000B
0003
FFF5
0007
0001
FFF1
000A
0000
0004
FFF5
0010
FFFE
FFFD
FFF1
0004
0010
FFFB
FFED
0015
FFF7
FFF9
0002
0002
0001
FFF4
0019
0006
FFED
0015
0000
0015
FFEF
FFEF
0000
FFF9
FFEF
0003
001A
0018
FFFA
0017
FFFC
FFFE
000A
000A
FFEB
0007
FFFE
0001
FFF8
FFEC
FFF3
FFF1
000B
0010
FFF0
0007
000C
FFF2
FFFC
FFFF
FFF7
FFFF
FFF5
0004
FFFF
FFEC
0017
FFF4
0018
FFF3
FFF4
FFFE
FFFB
000E
0014
000B
000E
0017
0001
0015
FFFB
FFFB
0003
0009
000E
0013
0000
FFF6
FFEE
FFF3
FFFE
FFF5
FFF9
FFEE
FFEE
FFED
0002
FFF9
FFF1
000F
0002
000F
FFF4
0018
0013
FFF8
FFF2
FFF5
FFFB
FFF4
FFFD
000C
FFEA
FFFE
0010
FFFE
FFEE
FFFD
000F
FFF8
0011
000D
000D
0016
0016
FFFF
FFE9
0009
000B
FFEF
FFF7
FFF0
0006
FFEF
001B
000E
FFED
0019
FFF4
000E
FFF0
FFFA
0002
0001
FFF5
0004
0010
000D
FFFD
0016
0005
0000
0011
FFF1
FFFA
0018
FFF6
0008
FFFE
0003
0009
0007
FFF8
FFED
FFF4
FFEE
0014
FFFF
0019
FFFF
FFF1
FFFC
0008
FFF8
FFEC
FFED
FFF8
0009
000C
0004
FFF1
0015
0002
FFFE
0005
0018
001A
0007
FFEB
0001
FFF8
0010
FFF1
0000
FFF7
FFF2
FFEF
FFED
000D
FFF5
0016
0016
0014
000E
0005
0009
FFFF
FFFD
FFF6
FFFD
FFEC
FFF1
FFF2
FFEB
0000
FFFA
0017
000F
FFF2
0019
0005
FFFF
FFF3
0013
0006
0001
FFF5
0012
FFF1
000E
001A
001A
0002
0001
0014
0009
FFF7
000C
FFFF
0014
0010
FFF0
000C
FFF4
0015
0011
FFF7
FFF7
FFF2
FFEB
0018
000B
0005
0001
FFE9
FFFA
FFF6
FFEA
0008
0007
000A
0002
000C
FFFE
0016
0013
FFF5
0013
FFF4
000F
FFFA
0014
FFF5
FFF3
0007
0005
0018
0006
FFED
0006
FFEE
000D
0008
000E
FFEF
FFF8
FFED
000E
FFEE
FFEA
FFF6
FFF0
FFF7
FFF5
0011
0002
0005
FFF7
000E
FFF7
0005
FFFA
0012
0011
0005
FFF3
FFF1
000B
000B
0008
0010
0009
FFF8
FFF9
0006
0008
FFF2
0000
FFFC
FFEC
FFEB
FFF2
FFFD
FFF7
FFFD
000B
FFEE
0002
FFE8
FFEF
0005
0012
0008
FFED
000D
000E
0012
FFF6
FFE9
FFF8
000C
0009
000D
0012
0006
FFF1
000B
0007
FFEC
0001
FFF7
FFE7
FFED
0010
FFED
FFEF
000A
0013
FFEB
0004
0013
000C
0011
FFF2
0004
0009
0013
FFEB
FFFB
FFFF
FFEF
FFF1
FFFA
0012
000C
FFFF
0011
FFF6
0005
0000
FFFB
FFF7
FFFC
000C
FFFF
0006
FFFA
FFF0
0014
0004
FFE9
FFF0
FFFA
0003
0002
0007
FFFA
FFE8
FFFF
FFF7
0011
0013
FFEE
FFF2
FFF9
FFF3
FFFE
FFF4
0002
0012
000D
FFEC
0012
000B
FFF3
0010
0009
0012
0003
0010
FFED
0011
0002
000C
000F
000B
000D
FFFD
FFF7
FFF4
FFF4
0004
000A
0003
000C
FFF1
FFEF
FFFE
FFEA
FFED
FFFD
FFFD
FFFD
FFF6
0005
FFFB
0008
0003
FFF3
0002
FFF8
FFFC
FFEC
0002
FFEF
FFF1
0005
FFE9
0013
FFFD
0002
0004
0009
000F
000B
0006
0009
FFF7
0008
FFEF
0000
FFF6
FFED
0010
0012
FFFC
0013
FFF9
0003
FFFB
FFE8
0001
FFF2
0000
0005
0007
000A
0014
0006
0018
000C
FFFC
0004
0006
FFED
000E
FFF3
FFFB
0002
000B
0009
000E
0015
0003
FFF1
0008
0010
FFF4
001E
0004
FFFB
0006
FFFA
FFF7
FFEB
FFF3
FFEF
000D
000F
FFE8
FFF3
0002
FFEF
FFFC
0003
FFFE
FFF8
FFFD
0012
FFF5
0002
FFEB
0007
000C
FFF7
FFF4
FFF8
FFF9
0010
FFEB
0000
000A
FFE8
FFFB
FFE9
0014
000A
000B
FFEE
0011
FFF9
FFF5
0010
FFFC
FFEF
FFED
0010
000A
0011
0004
0001
FFEE
FFF3
FFFA
FFF6
FFF5
FFEE
0006
FFFB
FFF9
FFED
FFE8
FFEF
FFEB
000B
FFF6
FFF8
FFFB
0002
0011
FFFC
0003
FFF2
FFF7
FFFC
FFF8
FFEA
FFFF
FFF8
0012
FFFD
0006
0001
0009
000D
0008
0003
000F
0001
FFF7
FFEF
FFFC
000F
000E
FFF4
FFF4
FFEA
0009
FFEE
FFF9
0011
0009
FFFB
FFFE
FFF0
FFEC
FFE9
FFF6
FFFF
FFFC
FFFF
0011
0001
FFF5
FFF9
FFF4
FFF9
0010
FFF0
0007
0007
0013
FFEE
000C
0005
0014
0011
0010
FFF1
FFE9
FFEC
FFFF
FFEA
FFEB
FFF3
000F
0008
FFF9
0009
0012
0011
0000
FFF7
0006
FFE9
FFF2
0004
FFFB
FFF9
FFF9
FFEE
0009
FFF9
FFF3
0016
0014
000B
FFEF
000A
000C
FFFE
FFEF
0005
0012
FFFC
0000
0011
FFF4
0007
FFF3
FFF6
FFEE
FFFF
0003
FFF6
0014
000C
0001
001B
0008
0013
000B
FFF0
0017
0003
0016
000A
FFF4
FFEE
FFF7
0009
0005
FFF9
000F
FFF7
000D
0017
000A
FFFB
FFFF
0014
0014
FFFE
FFF2
FFEC
0002
FFF5
0008
001B
0016
0002
FFF5
0011
FFF4
FFF6
FFFD
0001
FFF6
0002
0004
000C
0015
0003
0016
0005
000E
FFF3
FFF4
FFFD
FFF0
FFFA
FFFF
FFF2
0001
FFEC
0010
FFF0
0009
0018
0009
0008
FFED
FFFB
0010
0017
0000
FFF9
000C
0012
0011
0003
FFF2
FFF6
FFF6
000D
FFF8
0015
0004
FFED
FFFE
FFF3
0013
000A
FFF7
FFF2
FFEC
0009
FFFB
000D
0008
0019
0015
FFF7
FFF9
000A
0015
FFEC
000B
000F
001B
0004
000C
0012
0010
0004
0012
FFFE
0006
FFF3
FFEE
0017
0012
0003
000F
FFF9
0017
0009
FFF5
FFF4
FFF5
001A
0017
0008
000E
FFFF
0005
0007
000C
0005
000E
000F
0008
000D
0009
0002
000C
000F
FFEF
FFF2
FFF1
0009
0006
FFFC
0008
0010
000B
0000
0010
FFEE
0010
FFF0
000E
0008
FFF5
FFED
FFF4
FFF2
0014
FFFD
0018
FFFA
0002
FFF8
0008
000E
000C
000B
FFFA
FFFD
0016
FFFC
000A
FFED
0015
FFF1
0004
0004
000A
FFF9
FFED
0010
000A
0013
0016
0008
0001
FFFB
0005
FFF1
FFF2
000E
0013
FFEF
FFFE
0007
FFEB
FFF7
FFF9
0015
FFEE
0005
0007
000D
0000
0014
0015
FFFC
0009
FFF5
0006
000E
0007
FFF9
0009
0012
0019
FFF9
FFED
0000
000D
FFFA
FFF7
0006
FFED
000A
FFF7
FFFE
FFF1
000E
FFF8
FFF9
0012
FFF8
0016
FFF4
000C
FFFA
FFF9
0009
FFFD
FFEE
FFF7
000A
FFED
000F
0019
0000
000C
001A
FFF3
FFEF
FFF4
0002
FFFF
0003
FFF6
000E
FFEF
0003
0004
0018
FFFE
FFEB
FFFA
FFFE
0017
FFED
0014
FFF1
000B
0007
FFEC
000E
000A
FFEE
000E
0003
0011
0019
FFF6
FFF2
0019
FFFB
FFEE
0011
001A
FFEE
0006
FFEC
FFF6
000E
FFF9
000D
0012
000C
FFFC
FFF6
0007
0017
FFFE
FFEF
0008
FFF2
000A
0018
FFF5
0000
0001
FFFF
FFFD
0010
FFFE
0011
FFF6
0019
FFFB
FFF5
000D
FFFD
FFEF
000E
000A
0009
000F
0011
0012
0001
FFF1
0001
0014
FFF9
0005
FFFC
0003
0016
000F
FFFB
0017
0012
FFED
0002
000F
FFEC
FFFA
FFEC
000F
FFF5
FFF2
FFFB
0009
FFED
0003
0002
FFEE
000B
FFF3
000D
FFFB
0007
000A
FFF7
0005
0017
0005
0016
FFF2
FFF2
0003
FFF0
0000
000D
0011
0003
0014
0003
FFFF
FFFB
FFF4
0012
FFF7
FFF7
0011
0014
0005
0003
000B
000C
0017
000A
FFF7
000B
FFF6
0004
0006
0010
FFFD
FFEF
0005
FFFC
FFFE
FFF8
FFF5
FFF7
000F
FFFE
0000
0017
FFEE
0011
000B
0001
FFEB
000B
FFFF
0003
FFF1
0005
0007
0000
000F
FFEF
0017
0012
FFF1
FFFD
0008
0010
0006
FFFE
FFF9
FFF7
FFF9
FFED
000B
FFF7
0001
0002
FFF7
0013
FFEE
000F
0001
0002
000C
0016
000F
000A
0001
FFF8
000E
000D
0006
FFEF
FFF3
000D
FFEB
FFEE
0011
000D
FFF8
FFEB
0011
0010
FFED
FFEB
FFF1
0003
000D
000E
0004
0009
FFEE
0011
FFEA
000A
FFF3
000D
0002
FFF0
0009
FFFC
0001
FFF2
000F
0017
FFF9
FFF2
0008
0018
0017
FFFF
FFF8
0017
FFEC
FFF4
0003
0019
FFFE
0018
FFF1
FFFE
0011
0012
0000
0011
0019
000C
FFF2
0006
FFF2
FFF1
FFF9
FFFE
FFFE
0004
FFFB
FFF0
000B
0005
0008
0016
FFEF
000A
FFED
0008
0008
0019
FFEA
0014
0010
000C
0007
FFF9
0017
0006
FFF7
0012
FFFC
0019
0006
0010
0017
FFFE
000A
0011
0016
0003
0010
0019
FFF5
0005
FFFB
0018
0011
FFF4
0002
FFF0
0015
FFF8
0008
000B
000F
0013
FFF7
001B
FFF9
FFFB
0004
FFFE
0011
FFF7
FFFF
0018
FFFE
0002
0000
0018
FFF9
0014
FFF6
FFF1
000E
000E
0001
0009
FFF7
000C
0003
FFEC
FFFD
0006
000D
0016
0016
FFEC
FFF1
0015
0001
FFF3
000D
FFFF
0002
0018
0011
0016
000A
FFF0
0005
0012
000D
001A
0015
000B
000E
FFFC
000B
FFF5
FFEC
0000
0008
000F
FFF0
000A
FFF9
0009
0002
FFF0
FFFD
FFF4
FFEB
000D
FFEE
FFFF
0013
FFEE
0001
FFED
0009
FFF6
0006
FFEB
FFF2
FFF7
FFEB
0018
0002
0005
FFFF
FFF8
0016
000D
0007
0000
FFEB
0000
0001
0005
0000
FFF9
FFFC
000F
0003
0001
FFF8
FFFD
FFEC
FFFF
0012
FFF6
FFF4
0006
FFF3
FFFD
0010
000B
FFEB
FFF1
000D
0008
0016
0017
0008
FFF5
FFF1
0009
0001
FFFD
0000
0003
FFED
FFEE
FFFD
FFF8
0014
FFF2
000A
FFFD
0002
FFF2
000C
FFF3
FFF9
0004
0002
0010
FFEC
FFED
FFFC
000A
FFFD
0017
FFEF
FFF3
FFFF
FFE9
0007
FFF2
0008
0000
0016
FFFB
0004
0002
000E
FFEE
FFFA
0001
0006
0006
FFFD
000A
FFFE
0000
FFF1
FFFE
0014
FFEB
0018
FFFB
0013
FFEB
FFF3
FFFE
000D
000E
FFFC
FFF0
FFF3
0000
000F
FFFD
0010
0016
FFF9
001B
000E
FFEB
FFF0
FFF8
0003
FFF9
0010
000F
FFF9
0013
FFFA
000D
FFEE
0009
000D
000E
0001
0010
000F
0004
000B
0013
0003
0005
000B
0002
000C
FFF5
0016
0005
0015
0000
000E
FFEF
0000
001A
0011
FFFB
FFFC
FFFB
0012
000D
FFF8
0004
0009
FFFC
FFFE
0015
0003
0003
0017
FFFC
0007
000E
FFFE
0008
FFEF
FFF8
0010
0004
FFF4
0013
FFFB
0003
0009
FFFC
0017
0010
0003
FFF5
0019
0008
0009
0001
FFF4
FFF5
FFF5
0013
0006
000E
000B
0012
000D
FFF8
FFFD
FFFF
FFEF
000C
000C
000A
FFFC
0007
FFF5
0003
0013
0008
0019
0002
FFF3
0017
FFF6
0001
0006
0011
FFF9
FFFB
0002
0007
0007
0016
FFEE
000D
0014
FFFF
000A
0005
FFE8
0003
0010
FFEA
000B
FFE8
FFEA
FFF4
0004
0010
FFEB
FFFD
FFE9
0013
FFFB
0001
0006
FFF0
FFE8
0013
FFFB
0013
FFF2
FFF2
FFE6
FFF9
0000
FFED
0010
FFEB
FFFF
0001
FFEF
FFF7
0006
0010
FFFF
FFFE
0000
0000
000D
0005
0003
0001
0010
FFEE
FFFE
FFEA
FFE8
FFEC
0005
FFFE
FFFC
FFF8
FFF0
0003
FFF8
000C
000D
FFF2
0014
FFE6
0003
FFFC
0006
0012
FFE8
FFFC
0000
FFEB
FFEC
FFF7
FFEB
FFF2
FFF7
FFF0
FFF8
FFE7
FFF7
FFFA
FFEE
FFEE
0014
0000
FFFE
FFEC
FFF2
FFF2
FFEB
FFFD
0012
FFFC
0010
000A
0001
FFED
0012
FFF2
0006
FFFE
0002
FFEC
0008
FFE8
0007
FFFF
FFF6
FFF0
FFED
FFE8
FFFB
0011
0012
FFFF
0004
FFFE
000C
0009
0011
0000
000C
FFEA
FFF8
FFEE
000E
000C
FFEF
FFFC
FFF6
0002
000C
0011
0008
0016
0010
0005
FFEF
0007
0013
000F
FFEE
FFFC
FFF2
FFF7
0010
FFF6
0008
FFEF
FFED
0007
FFF4
FFFA
FFEF
0001
0007
FFFC
0002
FFF2
0013
FFED
000B
0000
000F
0006
000C
0019
0013
0009
FFF8
0014
0000
0001
0008
FFFD
0012
FFF8
FFF5
FFFE
FFF4
0016
0008
0007
0015
000B
0014
0007
0001
FFFB
0009
FFFD
0016
0001
0013
FFFB
FFF8
FFF9
0015
000B
FFEF
0015
0006
0007
FFF7
0006
FFEF
FFF8
FFF7
000F
000A
FFFC
0001
0009
FFF5
0008
FFF6
0011
FFEC
0012
FFEE
FFF7
000F
0002
000B
FFFE
FFED
0008
FFF6
001C
0003
FFFC
FFEE
000B
0014
0010
0004
FFFA
FFFF
001A
0015
0009
0018
FFF3
0017
FFF1
FFEE
001D
FFFD
FFF1
000E
FFF2
0016
0010
FFF5
0019
0017
0006
FFFA
FFEC
FFEB
0008
000C
0004
FFF8
FFF2
0010
FFF2
0004
000B
0000
0015
000E
0013
0007
FFF7
0012
000A
0013
FFF2
FFF2
0013
FFFB
FFF3
FFF8
FFEF
FFF4
000C
FFF8
0011
FFEC
000D
0014
FFFE
FFF3
0004
0017
0001
0013
FFF7
FFFE
FFF7
0004
FFF3
FFF5
FFF2
0007
FFEE
000A
FFF8
FFFD
000F
FFF7
0009
0003
FFFB
0000
0004
FFF5
0005
0019
0016
FFFA
FFEF
0013
0003
0018
0005
FFF7
0002
FFEB
FFF8
0008
0015
000D
001A
000A
FFEF
FFFC
0011
0000
001F
0000
FFF4
FFFC
0000
FFFE
FFFC
FFF9
0001
FFFB
0002
0012
0000
FFF2
0009
000F
0001
FFFE
0002
0006
FFF5
FFF1
000B
0005
FFFA
FFEF
FFFD
0016
0001
FFF6
000D
FFEA
0014
FFF5
001D
FFEB
FFFF
0004
FFF8
0009
FFFD
FFFE
FFEE
000A
0003
FFF0
0007
000E
0016
FFF7
001A
FFF9
000E
FFED
000E
000E
FFF3
FFFE
FFF5
000B
FFF1
FFF4
0002
0001
FFFA
0019
FFF6
FFF3
FFF4
FFFE
0011
FFFC
0011
0019
FFF9
0002
FFFE
0001
0010
000A
0002
000E
0018
000C
FFEF
0004
000B
0006
0014
000A
FFFF
FFF5
000A
0004
000F
FFF3
000E
0009
0010
FFFE
FFF5
0011
0016
FFFE
FFFB
0000
FFFC
FFF2
0016
000B
FFFD
0003
FFFB
FFF1
FFF5
0005
0002
FFEB
FFF0
0013
000F
000C
FFF5
0003
FFFD
0001
000B
0005
0003
FFF9
0004
0016
0002
0006
0007
0016
0016
0013
FFFF
FFEC
0003
000B
000F
FFF4
0001
FFF2
0013
FFF2
0007
FFF3
FFF5
FFFD
FFF7
FFF6
0015
FFED
0015
0015
FFF4
FFF9
FFF5
0008
000D
FFFD
0018
0015
0013
FFF7
FFF1
001B
FFFA
001A
FFE9
000C
FFEE
FFEB
0009
FFE6
0005
0003
0002
FFFE
FFEB
FFFF
FFF5
0008
000E
0004
FFF8
FFF4
0010
FFF0
FFEF
FFF1
FFF7
FFF6
0010
FFFF
FFF3
0000
FFEB
0014
0006
FFEE
000F
FFE8
0000
000F
FFF3
FFF1
0005
FFEC
FFEE
0001
0010
FFFE
FFF7
FFEF
FFFE
FFF6
FFF6
FFF3
FFFB
FFF5
000D
0011
FFEA
FFF3
FFF5
FFF9
0007
0000
0006
FFF9
FFFA
FFE8
0012
0006
000C
FFFB
0006
FFFF
0005
FFFF
FFEA
FFED
FFF8
FFFF
FFEA
000E
FFEB
000D
0011
FFFF
FFF7
FFF4
FFFC
FFEA
0004
FFF6
0010
000E
FFF2
000C
0004
0004
FFFF
0012
000B
FFEB
FFFE
0001
001D
000F
FFF0
FFF2
0010
FFFE
000C
FFE9
0013
FFFA
FFF2
FFF7
0012
FFEF
0009
FFEE
000B
FFE6
FFF6
FFED
0013
FFF1
FFF6
0009
0002
FFF2
0013
0004
000A
FFF4
0010
0017
FFFD
0006
FFFB
0004
0014
0019
FFEF
FFFF
0008
FFF1
0001
0017
0015
FFEC
000F
0011
FFEC
0017
FFFC
0019
0005
0005
FFEE
FFFA
000A
FFFE
FFF9
0011
FFEE
FFFE
0000
FFEC
FFF6
FFF4
0009
0014
0003
FFEA
0014
000C
FFFB
FFF3
0004
0008
FFFB
0004
FFF6
FFF1
0018
0004
FFFC
000C
FFF1
0014
FFF0
000C
FFF4
000D
FFFE
FFF5
0002
FFF3
FFFA
0006
0013
FFF8
0002
FFFD
FFFD
0013
FFF2
0016
FFF1
0008
FFF0
0006
FFF7
0000
FFFA
FFFD
FFFB
FFF9
0015
0014
FFEC
FFF6
001C
0004
FFFE
FFEF
FFFF
FFF3
FFF3
FFF6
FFFA
FFFB
0000
000D
0004
000B
0003
0007
000F
001C
0001
FFF7
0011
0010
FFF3
000E
FFF9
0016
0002
FFF9
0011
FFEC
FFF1
FFFB
0001
0003
FFFF
001C
FFF9
0004
000D
0008
0008
FFEB
0009
0008
0013
0008
0001
000C
000C
FFEA
FFFF
0003
000A
FFFE
FFF6
0013
000C
FFFA
000D
0014
0000
0009
FFEE
FFF6
FFF5
FFF3
0012
0005
FFF4
FFF8
FFF7
FFF6
FFF6
FFE9
FFEF
0007
FFF4
FFFD
0014
0016
000B
0012
FFEC
0017
FFFD
0013
FFF2
FFF5
0008
000F
FFF2
FFFA
0001
FFFC
FFFA
000B
0008
FFF1
0010
0001
0004
FFFC
FFF5
FFF8
0003
0011
0012
0004
FFF5
0015
FFF7
FFF3
FFFD
0010
FFF7
FFF7
FFF8
FFF3
000F
0017
000F
0017
0006
0003
FFF6
FFFE
000E
FFF1
0008
FFFB
FFF0
FFF4
0007
FFFC
FFF8
0005
FFFA
FFFF
0025
001A
FFEF
0018
FFFB
FFFA
FFF1
FFFB
0004
FFF0
FFF3
FFFF
0009
0018
FFE4
0012
FFF8
0006
0005
000A
0010
FFF9
0006
0000
0007
FFF1
FFF6
FFF8
FFFD
FFF2
0014
0019
000B
FFF9
FFEF
0014
0014
FFEE
000E
FFEE
0005
000E
FFF2
FFF5
FFF2
FFFD
0008
FFFB
FFF5
FFF9
0001
FFF0
0006
FFFE
0015
000B
0011
FFF3
FFFF
FFF2
FFF2
0003
001B
0019
0000
FFEB
0000
FFFA
000C
000C
0009
0019
FFF3
FFEE
000D
0008
0001
FFF5
FFF7
0005
FFED
FFFC
0017
000A
0009
FFFE
FFFE
FFEE
FFF0
0012
0007
0010
000D
FFFD
0000
FFFA
000B
000A
000C
0004
FFFE
0011
0017
0008
FFED
000E
FFFE
FFFD
FFFF
0015
000F
FFFD
0007
0016
0013
0008
FFF3
0013
FFF4
0000
FFF9
FFF4
000E
FFF0
0017
FFF8
000D
0000
0012
FFFD
0010
FFFE
FFFA
FFF4
FFF8
FFFB
0013
FFF2
FFFB
0010
FFEF
0011
0000
FFEF
0008
0009
0006
0004
0002
FFFB
FFF4
FFFA
0006
000E
FFFA
000C
FFF4
0004
0001
FFF7
0008
FFF8
0013
0014
FFF5
0015
0000
000F
FFEF
FFFE
FFEC
FFF3
000A
FFEB
000D
0012
FFFD
FFFF
0015
FFF8
FFF1
FFF7
0006
0012
FFEF
0009
000A
0002
FFFA
0010
0019
0006
0013
FFF3
FFF0
FFED
0013
FFF5
0004
FFF8
0014
FFF7
0010
0011
FFFB
FFFF
0014
0004
0002
0004
000E
001A
FFEF
0005
FFF4
000B
000F
FFFA
000F
FFF0
FFFF
FFFE
0006
0010
0004
FFF3
0000
FFF2
0008
000A
FFF8
000A
FFF0
FFEE
FFFA
0008
0019
0007
0009
FFFE
001E
0007
0007
000A
FFED
0001
0014
000A
FFF0
FFF7
0014
0003
0004
000D
FFF3
0000
0016
0008
0000
000F
FFF9
0014
FFEF
001A
0009
FFF0
FFFE
FFEF
0012
000E
0007
0010
000C
FFF1
000C
FFEF
FFFA
000E
0014
0008
0002
0002
000C
000E
000C
0007
0015
FFF5
FFFD
0016
000F
0012
0010
000B
0003
FFF3
FFFE
0018
FFF3
0002
0010
0015
FFEF
0009
FFFE
0012
FFF0
FFFE
0002
FFFB
0007
FFFF
0012
0006
0002
0016
FFF7
0018
0001
0014
FFF3
FFFD
0000
FFFA
FFF8
FFF7
0012
FFF7
FFED
FFF0
0006
FFF0
FFFF
0009
0003
FFF5
FFF8
0005
FFF6
000E
0007
0011
FFF5
0010
0005
FFED
0010
FFFC
FFFD
0008
FFF7
FFFE
0017
FFF7
0008
FFF6
FFF7
FFEB
000A
FFFF
0010
0000
FFF2
0013
0000
FFF4
000B
0010
0016
0014
0015
000A
FFF1
FFEB
0006
0002
FFF3
0014
000B
0002
FFF7
FFEB
FFF2
0008
001E
FFFE
FFFF
FFFD
0008
0000
0017
000E
FFF9
FFF9
0000
FFF4
FFF0
FFFC
FFF4
0000
000C
FFFF
001A
0015
FFF1
FFF8
FFFB
FFF9
000E
0000
0006
FFF6
0000
0014
000D
0011
FFFB
0012
0004
FFF7
0013
0011
000E
FFF2
0007
FFFA
0000
000B
0017
0004
FFF8
0000
0006
0012
FFED
FFF2
FFF3
FFF4
FFFE
FFF5
0015
001B
FFF5
0000
0006
0005
0003
0003
000C
0003
000D
0018
FFF6
FFF7
000B
000D
0001
FFF9
FFF5
000B
FFF7
0013
0007
FFF8
0012
0015
0007
000E
FFEF
000A
0003
FFFA
000A
FFFA
001A
0016
0015
000B
000E
FFF7
0007
000F
FFFB
FFFC
FFF5
0008
FFF9
0003
0011
001A
000D
000D
FFF2
000F
FFFD
FFF8
0016
FFF2
FFED
FFF1
FFF1
000E
000A
000E
FFF6
FFF1
FFF2
0011
FFFE
FFFA
0007
0015
0001
0014
FFED
0019
0016
0003
0006
FFF6
FFEF
FFF2
0004
FFF8
FFEF
0014
0016
FFF1
FFFC
0007
FFFB
0017
FFF3
FFED
FFF7
FFF8
FFFC
0004
FFF6
0010
FFFD
0002
FFF2
FFFD
0000
FFEA
FFFF
000C
0009
0002
0000
FFFC
0011
000F
FFF2
FFED
0002
FFF3
FFE9
FFEA
000A
0002
000A
FFF8
FFF0
0007
FFEA
000B
FFFA
FFFC
FFF9
0010
FFEF
FFF4
0001
FFE7
0007
0000
FFF1
FFF5
0008
FFEA
000F
FFF9
000D
000D
0002
000D
0002
FFFB
FFF1
FFFB
000D
FFEC
000D
FFED
000C
FFE6
FFF1
000A
0012
0013
0011
0003
0003
FFFB
FFF0
FFEC
FFFA
FFEA
0009
FFF0
FFFE
FFFE
FFF9
FFF5
0011
FFF0
0004
0003
FFF0
0000
FFEB
0006
0004
0000
FFFC
FFE9
0009
0002
0000
FFE9
000F
FFFA
FFF8
FFEF
FFEA
000F
FFF0
FFF9
FFF3
FFF0
0009
FFE9
0003
FFF8
000C
0002
FFF2
FFE8
0003
0010
FFF3
0001
FFF7
FFF3
0002
0012
FFEA
0015
FFF5
0001
FFF1
FFE7
FFE9
000F
FFE6
FFF7
FFFF
FFED
0007
FFE7
000B
0015
FFFB
FFE8
FFFB
0006
FFF2
0008
000C
FFF7
0005
000C
FFE8
0001
000C
FFFC
FFF1
FFF0
FFFD
FFFC
FFF6
0004
FFEF
FFF8
FFFD
0009
0010
000D
FFFF
000A
FFFE
FFE7
0005
000A
FFFB
000F
FFF9
FFFF
000E
FFEA
000D
000B
000F
0002
FFF5
FFE8
0013
FFFA
FFEF
0001
FFFE
0006
FFEB
FFE8
FFFD
0007
0000
FFEA
0003
000A
FFE9
000B
000E
000E
000F
0007
FFF2
FFEA
0008
0008
FFF0
FFEC
0011
0011
FFE7
FFF8
0011
FFF1
FFF1
FFEA
FFEB
FFF8
0011
FFF6
0000
000B
FFFF
FFF9
0002
0007
0010
0004
0009
FFF8
FFFD
0005
FFF3
FFE7
0008
FFFB
FFF8
FFF8
FFEA
FFEC
FFEB
000D
FFF0
FFF8
FFF3
FFE8
FFE7
000C
0003
FFF2
FFE7
000D
0012
FFEE
FFF2
FFF2
FFF1
0002
FFEE
FFEE
0006
FFFB
FFF9
0010
FFFE
0000
0016
0009
000B
FFFB
0011
FFED
0018
0015
0002
FFFA
0017
FFF6
000E
0009
0007
FFFF
FFFE
FFF9
000F
FFF4
0004
FFF9
FFF1
FFF7
FFEF
0016
FFF0
FFFF
000E
0012
0009
FFEE
0006
FFF6
FFFD
FFFA
FFF5
0008
FFEE
0008
FFF4
000B
FFF1
0005
0011
000A
000D
0017
0003
FFF9
FFFA
001A
0011
FFFF
0011
FFF1
FFEE
FFF3
0015
FFEF
FFF9
FFF0
FFEF
0003
FFF9
FFF9
FFFF
0002
0013
0002
000B
0009
FFFE
0016
FFFF
000D
0014
0000
0008
0006
FFFE
0015
FFEE
FFFA
0011
FFFD
000A
FFEB
0001
FFFA
000B
FFF0
0006
FFFD
000F
FFF4
FFF8
FFFA
FFEE
000B
FFEF
0007
FFFF
0007
0004
FFF7
000B
FFF8
FFF6
0003
0003
FFF3
FFF1
000C
0002
0019
FFF0
0005
0002
FFF7
FFFC
FFF8
0004
FFF4
FFFC
0013
000E
0003
001A
000C
FFF4
0013
0009
0016
FFFE
000D
FFF5
FFF7
FFEF
FFFC
FFF8
0019
FFFE
FFF9
000A
FFFB
000D
000E
0008
0014
FFF9
001B
0007
FFFB
FFEC
FFEF
FFF4
FFF0
FFF0
0000
0000
0015
FFF8
0012
0014
FFEE
0011
FFF8
FFF9
FFF5
000C
FFF4
FFEF
FFF7
FFF8
0013
0014
0002
0009
0019
000B
0019
FFFB
0001
FFFB
FFF0
0001
FFFA
0019
000B
FFFA
FFFB
0006
000D
0008
0010
0001
0004
0012
0000
FFF8
0002
0001
FFF5
0010
FFEE
FFFA
FFFD
0001
FFED
0002
0001
0013
FFFF
0000
0016
0011
FFEB
000B
0004
0016
FFF7
001A
0018
0015
0000
000E
FFF2
000D
FFFA
0007
0009
0020
0002
0005
FFEE
FFF8
FFF6
0006
FFFA
FFFA
0001
FFFB
FFF3
0004
FFF9
FFF0
0008
FFF2
001D
FFF6
000C
FFF0
FFFA
000C
FFF5
0014
0000
FFF7
FFF8
0010
FFFE
0002
0008
FFF5
FFF9
FFF1
000F
0000
FFF5
000D
0009
FFF9
FFF6
FFF3
FFFB
FFEC
000D
0000
000F
FFFE
FFEF
FFFF
FFE9
0013
FFE8
0009
FFEB
0002
0012
FFFB
0004
FFEA
FFEA
FFE8
FFEE
FFE9
FFFB
0007
FFEA
0005
FFE7
0011
FFEC
FFF4
0008
0001
0010
0012
FFF4
0008
FFF1
FFEB
FFFA
FFFF
0013
000E
0014
0002
FFEF
0016
000C
0003
0006
0014
FFEA
000A
FFF8
0001
0012
FFF8
0001
000C
000D
FFEF
FFED
0014
FFEF
FFE9
0005
FFFC
0007
000D
FFEA
FFFE
0011
FFF6
FFF4
FFF7
FFF6
0009
FFF6
0006
000A
000D
FFEC
FFFB
0009
0011
FFEA
FFF6
FFF9
FFF3
FFF2
000A
FFEF
0000
FFF4
0012
000C
FFF5
0001
FFF7
FFE9
FFE8
0011
0002
FFFC
0005
0001
0007
FFFB
0008
0014
0008
FFF6
FFF5
000E
0003
FFF7
FFF6
000F
000E
000D
000F
000F
0004
FFFF
0016
FFFC
0012
000D
0009
FFED
000B
FFFA
0011
FFF2
FFF5
000E
0007
FFF6
0011
FFF7
0005
0003
000F
FFFD
FFFE
0009
0016
000B
FFFE
000B
0004
000E
FFF5
000E
0006
FFEC
000A
FFF6
FFFE
000F
FFF9
0008
FFEE
0008
0003
FFEF
0010
FFEF
FFEE
0017
0000
001D
FFED
FFF0
FFEB
FFEF
0003
0008
FFF8
0016
FFFC
FFF2
FFF1
0010
000A
FFF8
FFF3
0015
001D
000E
0011
FFFA
FFEC
FFF6
0018
000D
0015
FFEE
0009
000A
000A
FFEC
000B
FFF0
FFF8
FFEF
0011
0007
000D
0007
0002
000D
0014
FFF5
0009
FFF0
FFF1
FFEC
0007
FFF9
0010
000C
0008
FFEA
FFF7
FFF7
FFFE
FFF1
FFEB
0017
FFEF
FFF8
FFFA
0009
FFFF
FFF0
FFFE
0010
0001
FFF5
FFFA
000E
0006
0002
000B
000B
FFEA
000D
FFFD
0009
FFEF
FFFF
FFEA
000A
000A
FFEE
0009
FFEB
0002
FFFB
FFF7
FFEF
0003
FFFB
000B
FFF8
FFEB
FFFB
FFF4
0004
FFE9
0005
FFF5
0007
FFFE
FFF8
0003
FFF5
FFF7
000D
FFF8
FFE9
FFFB
FFF5
0007
0012
FFF0
FFFA
FFF7
FFEA
FFF9
FFEE
FFFA
FFFC
0001
0011
000F
0009
FFF9
000A
FFF5
FFFC
0015
FFFD
FFFD
0001
000D
000E
0001
0002
FFE9
FFE7
000A
0010
000A
FFEB
0003
000B
000C
FFEA
FFE8
000E
FFF7
000D
FFF1
0005
FFEF
0010
FFF6
FFF0
FFF7
FFFD
FFF8
0003
FFFB
FFE8
FFEE
000E
FFFE
FFE8
FFFD
FFF5
FFF0
FFEA
0003
0011
FFEB
FFFE
0008
FFED
0010
0007
0000
FFF3
0003
FFF0
FFF5
0009
0011
0007
0010
FFFD
000D
FFF1
0002
000B
FFF3
FFFC
FFF4
0012
FFFF
0014
FFF9
FFF4
0000
FFF0
FFE6
FFF4
FFF2
FFF7
0005
FFE7
000A
0008
0008
FFED
FFF8
000D
0008
000D
0004
0003
FFFF
FFF1
FFF3
000A
FFE6
0004
0009
FFEE
0012
0001
FFE6
FFF4
FFEA
FFEE
000D
FFF4
0005
FFF7
0011
0000
000D
0011
FFE9
FFE8
000F
FFEA
FFF9
0002
000D
0007
0004
FFEE
FFF8
0000
000B
FFEB
000A
0001
0014
0010
FFF4
FFF7
FFF2
FFF5
000A
FFFA
FFE8
FFE7
000D
FFE7
0001
0007
0009
FFF0
000A
FFFD
FFF6
FFF2
FFFC
FFE6
FFEA
FFF0
0012
0009
0001
FFFE
0002
FFFA
FFF2
000C
0003
000F
0010
0008
FFFE
FFFB
0001
FFF6
FFF7
FFFA
000B
FFE7
0000
0009
FFEA
0004
FFFC
0010
FFF5
FFEA
0007
FFF4
FFF1
FFF4
000B
FFEB
FFE9
FFF8
0010
FFFB
0005
FFF8
FFF2
0014
000D
000C
FFED
FFEE
FFFF
0010
FFF3
FFF8
FFEB
FFF1
0012
FFEA
0011
FFF2
FFFD
FFF2
0004
FFEA
FFF0
0010
FFF6
FFF8
0013
0003
0010
FFFA
FFF2
FFF2
0011
FFF3
FFEF
FFFE
FFF8
000F
0001
0007
0006
FFF1
FFEC
FFF9
000B
FFF3
FFFA
FFF5
FFF5
0014
FFED
0008
FFEB
0009
0008
FFF7
0005
0015
0001
FFF6
0010
000E
FFF8
FFFF
FFEC
000F
0009
0007
FFEB
0005
000C
FFF8
0007
FFF1
0003
FFFC
FFFA
000E
0004
0010
FFF6
0004
FFEE
0009
0015
000A
000A
000D
FFF8
FFEE
0002
FFF3
FFF4
000C
FFF2
FFF5
0018
FFF4
FFEF
FFF2
FFFD
FFF3
FFE8
0012
0000
FFF0
FFF4
FFEC
0003
0009
FFF4
0005
FFEC
FFF4
FFF5
0000
0004
000D
0015
FFF9
0002
0015
FFF2
0005
000D
000D
0004
0011
000B
0002
000B
0000
000C
0006
0012
000F
0019
FFF9
FFF1
0014
0010
000B
000D
FFEE
0006
FFFF
FFF3
0003
FFF5
FFF0
0001
FFF1
FFEF
0012
FFFF
FFFF
FFF4
0006
0009
FFF1
0012
000A
FFF6
0016
FFF0
FFF3
0001
FFFB
FFF6
0004
FFF9
0016
0009
FFF6
0006
000A
FFFB
FFF7
000A
FFF5
FFFA
000D
FFF4
000D
0007
FFFD
0009
FFFC
0003
FFF1
FFFE
0003
FFFD
000C
0009
0004
000A
000C
FFF9
0017
FFF2
0004
FFF7
FFFF
FFFD
0007
FFF3
0011
FFF9
0005
0016
000A
000B
0007
001A
0018
0013
0016
FFFD
0010
FFF6
0012
0008
FFF7
0018
001A
000E
0009
0007
0010
0000
0002
FFFC
FFFA
0014
0015
FFEA
000E
0000
FFF4
FFF1
0003
FFF8
000E
FFF8
0018
0002
FFFC
000E
0014
FFF8
0010
FFEF
0003
000A
FFF2
000C
FFE8
FFEC
000E
000A
000E
000B
0008
FFF8
FFE9
0017
0003
000B
0003
FFFB
FFF2
FFEC
FFF7
FFF4
FFED
000D
0004
FFFD
FFE8
0015
FFF5
FFF9
FFFA
FFF3
FFF9
0004
0013
0002
0002
0012
FFEF
000E
0002
0007
0004
FFF2
FFF2
FFE8
FFE9
0012
0008
FFEF
0010
FFF2
FFF8
000C
FFFD
FFF2
000F
FFEC
0013
FFF5
FFE8
0004
0013
0002
000F
0002
FFF3
FFF1
FFF8
000D
FFF3
0007
000E
FFFF
000F
0005
0010
FFFE
FFF4
FFF5
0006
0003
000A
FFFB
FFF9
0011
0001
000D
FFEF
FFF7
FFFF
0013
0015
FFF4
000B
0007
FFF2
0005
000A
000D
FFEC
0008
FFEB
FFFE
FFEC
FFF8
FFEA
FFFE
FFF9
FFF4
FFFB
0012
FFFE
FFE9
FFF8
0004
000C
FFE9
0012
0011
000B
0011
0012
000A
0006
FFED
0004
000C
FFF6
FFF2
FFEE
0008
FFFF
FFF9
0004
0004
FFF7
FFF3
0015
FFF0
0001
0002
FFF8
0006
000E
0003
FFF4
FFED
0005
0000
000E
000A
FFF3
000F
0006
000C
FFFE
FFF3
FFED
FFF4
0001
0010
FFFF
0004
0002
FFE8
FFF9
0010
FFEE
FFFF
FFF8
FFF9
0002
FFFC
FFF4
FFEA
FFEA
FFFD
0004
FFF2
0009
FFF0
FFEA
FFFC
000D
FFF7
0014
FFF7
FFF5
FFF3
FFF2
FFFF
FFF0
000E
FFFB
FFF2
000B
000F
FFF9
FFF3
0014
000B
FFF2
0006
FFEA
FFED
0009
0012
FFEA
FFF1
0010
000D
FFF9
FFF2
000C
FFF4
FFF1
FFE9
0013
0013
FFF0
FFF5
FFEC
0010
000E
FFE7
FFF0
FFF8
000B
FFEE
0010
FFF3
FFF9
000F
FFF4
FFFE
FFF8
FFFE
FFF1
0007
0001
FFFF
FFF7
0000
000D
FFF7
0003
0002
FFED
FFFA
FFF8
000F
0000
0000
FFF5
000C
0018
0011
FFEF
FFF0
0012
0005
0014
000E
FFF2
0004
000B
0003
0016
0014
FFEC
000E
FFFA
FFF3
FFFD
0012
0006
0013
FFF3
0006
FFFB
FFF3
0002
0008
0001
FFF3
FFFC
000D
FFFE
0016
0003
0001
FFF9
FFF8
FFEC
0015
FFF6
FFFD
0014
000A
FFF9
FFEF
FFFA
FFF4
000E
0000
FFF0
000E
0000
0016
0006
FFF3
FFFC
0005
FFF2
FFED
0017
000E
FFF4
0005
FFF9
0006
FFE8
FFF2
001B
0010
001B
0015
FFEB
0010
000B
0012
FFFE
000A
000B
FFF3
0014
FFED
000B
FFF5
FFE0
FFE7
0000
0008
FFDC
FFF0
FFF9
FFEE
FFF6
FFDF
001B
000B
0010
0009
FFE2
FFF9
FFEB
0018
FFE0
000A
FFE0
FFEE
FFEC
0004
001C
000A
0005
FFDF
FFF3
000A
FFDF
001A
FFF8
0007
001B
000F
0004
0009
FFE2
FFE7
FFE5
FFF8
FFE6
0000
0002
FFE9
FFF6
FFE4
FFDF
FFFB
FFFB
FFDE
FFF5
001B
FFDF
FFEC
0004
0018
FFF4
FFE8
FFFA
FFDF
0009
000F
FFFD
0006
001A
FFFE
FFE6
FFEF
0017
FFF0
FFF0
FFF5
FFE0
FFFC
0006
000F
0016
FFE9
0000
FFFE
FFEA
000B
FFF7
FFE7
FFFE
FFEA
FFEC
FFF1
001E
FFE0
FFE1
FFE8
0019
FFE1
FFFB
FFF0
FFE7
FFE3
0000
0016
FFE4
FFF1
0014
FFED
000E
0002
FFDC
FFE1
FFDF
000E
FFDE
0019
FFFF
FFF5
FFF1
0017
FFF4
FFFD
0003
FFEF
FFE4
FFDE
000C
FFF2
FFE0
0005
0015
0016
0016
FFFC
FFE9
0014
FFFA
0013
FFDD
FFE9
0010
FFE0
FFF3
FFE2
FFEC
0019
0018
FFE2
FFE7
0019
0010
FFF2
FFFF
0016
0010
FFF9
0018
FFF5
FFEB
0002
FFF8
0002
FFDE
FFED
FFF5
FFEE
FFF8
0014
FFF1
FFFA
FFFE
FFED
FFED
0022
0001
FFEA
FFE8
000C
0013
FFFE
FFF3
FFF5
FFFA
FFF6
FFFB
0012
001B
000E
FFFB
0017
0007
0011
FFF9
001D
0009
FFFF
000F
FFF5
FFEB
FFE7
0001
0016
FFFC
FFFF
FFE8
FFF0
0007
FFF5
0019
0001
0005
FFE2
0002
FFE8
FFF8
FFEC
0014
FFFA
001D
FFFC
001F
0010
0020
0006
FFF7
001F
FFFA
FFED
000C
000B
0002
FFE4
FFE9
FFEF
0011
FFE9
0000
FFFB
0010
FFF2
0006
0019
000F
FFF1
FFE5
FFED
FFF7
0004
0012
0001
0017
0019
FFEF
0016
FFE3
0007
FFE7
FFF4
FFF6
000F
0011
0020
FFF7
FFFD
0020
0000
0019
FFE4
0021
0014
000C
0015
FFEC
0011
FFF2
FFEC
FFEE
FFF1
FFFB
FFE8
FFFF
000F
0008
0010
FFF0
001C
001D
FFFB
001B
FFFE
FFF2
FFFD
0003
FFF8
0008
FFEE
FFEF
000C
000E
FFE8
FFE7
FFE5
FFEB
FFF2
0013
FFEA
000D
0012
0019
0009
000F
001F
FFFF
FFF8
0010
FFFF
FFE5
FFF5
FFF1
FFEB
FFF3
001E
0018
0022
0006
FFFE
0012
000C
FFE9
000A
FFED
001C
FFEB
FFF7
000C
FFFE
001E
0011
FFF0
0022
FFEB
0022
FFF7
FFFE
000B
0023
000D
001B
0000
0021
FFFA
001D
000E
001A
FFF1
0023
FFFB
FFE5
0018
0023
FFFB
FFE8
FFE5
FFF6
FFFA
FFEC
0006
001F
FFF6
0011
FFF8
FFFC
FFF2
0018
FFE7
FFE6
FFFB
000B
0009
0017
FFF0
FFEF
000A
FFF8
000D
0017
0009
0004
0004
FFEF
FFEE
001B
FFEE
0019
0016
0000
000D
FFFE
000C
FFE2
0006
0001
0001
0018
FFF0
FFEC
0004
000E
FFFF
001E
001C
FFEC
0013
0006
0010
000E
FFE9
000E
0004
FFF3
0004
FFFB
FFFB
FFF6
001F
FFF5
0011
FFEC
FFE7
FFFB
FFEB
0020
FFED
000E
000C
FFE4
FFF4
FFEF
FFF2
FFF0
0006
FFF7
0003
0001
FFEA
0004
001B
FFF1
000C
000C
FFF8
0019
0020
FFF3
0002
0022
0005
0022
FFF8
0006
000F
0023
FFF8
FFFA
FFF1
001F
FFFA
001B
0010
001C
FFF7
0023
001C
000B
FFF4
0001
0026
0017
000C
0021
001A
000F
FFE8
0019
0013
FFF7
000C
0016
FFF5
0014
0010
0009
FFEA
FFF7
FFE8
0000
FFDD
000D
0005
FFE5
FFF7
FFE6
FFE7
FFEF
0011
0002
0000
FFF6
FFE9
0013
FFFF
FFEE
FFEC
0004
0004
001C
0008
0014
0010
FFF6
000F
000B
FFDE
0007
0009
000E
0005
FFFC
0003
FFFD
FFED
FFEC
FFEF
FFF1
0009
0012
001B
FFE0
FFF0
FFDB
FFEB
FFF8
FFF6
0009
0016
FFE8
000D
000B
FFE5
FFE2
FFE8
0007
FFFF
FFF9
FFF9
FFFB
0017
FFF3
FFF2
000A
0003
FFE2
0002
0002
0002
0015
FFEC
FFF1
0015
000B
0006
000E
0008
FFF0
FFEB
FFE2
0016
0007
000B
000B
0009
000B
FFE6
0004
0017
000E
000B
0010
FFFE
0018
0006
FFE8
000F
FFF1
FFE0
FFEF
FFDC
FFDC
FFE2
FFF6
FFE8
FFDD
FFF7
FFF6
0001
FFDD
0011
FFE6
FFFD
FFEC
FFEF
FFFC
FFF9
0008
0008
FFEB
FFFE
FFE0
0000
FFF8
FFF3
0022
001F
0003
0014
000A
0013
0022
000F
FFF7
0002
001E
0011
001E
000F
FFE7
0009
FFF3
FFE7
001F
FFF1
0014
FFED
0016
0017
0023
FFF4
FFE4
0021
FFF6
001E
001C
FFF0
001A
0015
FFE9
FFE9
FFFD
0018
001F
FFFD
FFFD
FFF8
0004
0018
FFE6
FFEF
0021
0002
FFF4
0020
FFFB
FFF8
FFFF
001C
FFFA
0010
0001
000A
FFFE
001F
000B
0017
0016
FFEA
0020
FFE6
FFFB
0014
0006
FFFA
000B
FFEF
FFEE
FFFF
FFF7
000A
001B
FFEA
FFFB
001B
FFEE
FFEC
FFFE
FFE4
001C
FFF0
0012
001F
FFEF
FFFA
001E
001B
FFE8
001E
FFFB
FFF5
001D
000B
FFE7
FFED
FFF7
FFFA
FFE7
0011
FFEC
FFF8
0023
FFF5
FFFC
FFF2
001F
FFEC
0009
0015
FFEF
FFED
0017
001C
000C
FFE4
FFF0
0023
001B
FFF5
FFEC
FFEB
FFFA
001D
FFE3
FFDE
0001
FFFF
FFE5
0004
0019
0011
FFF8
000C
001B
0007
FFF9
001A
FFDC
0004
FFEC
0004
0009
0019
FFE6
0018
FFDE
001A
FFE2
FFEE
0019
FFDC
FFE7
FFDD
000A
FFFF
000E
0004
0010
FFEF
0011
FFDF
000F
0013
0002
0016
000A
0002
0015
FFF4
FFDD
000A
0019
FFDC
FFDD
FFE1
FFFA
0014
FFE2
0015
0016
0018
FFEE
0009
FFE3
FFEE
000A
0001
0021
0018
FFEE
000D
FFEC
FFF4
FFEF
FFEA
FFE6
0022
0005
FFF8
000B
0019
001C
0010
001A
FFED
0009
FFF3
001E
0020
FFE8
000D
001B
0011
0012
0012
FFEB
0015
FFE6
FFEB
0022
FFFA
000D
000C
FFEB
FFFC
0022
0014
0005
FFE8
0011
FFFD
FFF6
FFE6
0022
001E
001B
FFF8
FFFE
001A
FFE9
001B
001C
001C
FFEA
000E
FFFE
FFE6
0009
0013
FFF1
FFF0
0006
FFF1
FFE5
FFF5
001A
0015
000E
000B
FFE8
0008
0004
FFF6
0010
0008
001B
001D
0004
FFE5
0002
0017
FFFE
FFF1
0019
FFDE
0009
FFFD
0009
0011
FFE7
000E
FFED
001D
0009
001D
FFFF
FFE7
0006
FFE4
FFF4
FFF7
FFEC
FFFA
0004
FFE8
FFE0
FFFC
000C
FFEB
FFF8
FFF5
FFE5
FFF3
0004
FFFB
FFF0
FFDE
FFEF
FFFD
0016
001D
FFE7
FFE6
0005
FFEA
FFEB
000A
001D
0022
FFF6
0015
0023
FFF8
0011
0012
001A
000F
0006
0003
0014
0017
FFF4
0013
0020
000E
FFE7
FFEB
0017
001E
FFFB
0013
0015
0007
0010
0018
001C
0016
FFFE
FFEF
0013
0014
FFFA
0014
0023
FFF1
000B
000E
FFEE
FFFD
0019
000C
000F
0021
FFF1
FFFB
FFE7
FFE2
FFEE
0021
FFFB
FFF3
FFFA
FFEA
FFF9
0007
FFF2
0001
FFFF
FFFC
FFF4
FFF4
FFF5
FFF9
0021
0017
001F
0017
FFE7
0015
FFE8
000B
FFFB
FFF3
FFEE
001B
000F
0015
0004
FFF2
FFF3
FFFA
FFFC
0021
FFF2
FFE9
0005
0006
FFF1
FFEF
FFEE
0017
0014
FFF3
0011
0000
0012
0002
FFE7
001B
0001
FFF9
001A
0004
0017
001B
0010
001E
FFF4
001B
0000
0006
0002
FFEA
FFF7
0011
0019
0022
FFFE
FFFC
000A
000F
0022
FFF8
FFFB
0004
FFF6
FFFA
001C
000E
FFF9
001E
FFE7
0019
000A
FFFA
0001
0020
FFFB
FFFF
001B
000A
0003
000D
FFFC
001C
FFFC
FFF7
0018
FFE5
0009
0007
FFE9
0005
FFFD
000A
FFE6
FFF2
FFED
001B
0013
FFEF
FFE5
FFED
FFEC
001F
0008
FFFA
0015
001F
FFF4
000D
FFF0
FFFD
FFF4
FFF7
0003
FFEF
FFF6
0021
0014
FFE8
0004
0002
FFF8
0021
FFFE
0008
000F
0015
0018
001E
001C
FFFC
FFFB
001D
001E
FFF7
0000
0019
FFE7
FFFA
0008
0016
FFEA
FFF3
FFF7
FFFF
FFF7
FFF1
FFF2
FFEA
FFEE
000D
0019
FFF2
FFF5
0014
FFF5
0020
001B
FFFF
000D
FFFE
0016
FFF7
FFE7
FFE7
000A
001A
001E
0002
FFFD
FFF1
0000
FFEC
000D
FFFA
0007
0004
FFF1
0023
001A
000D
000B
FFF9
FFEC
000C
0015
FFF0
FFF1
0002
FFF1
FFF7
0003
0021
0017
FFE5
0004
0001
FFF6
FFF4
000D
FFEF
0015
000B
FFE7
FFE5
FFFD
FFE4
001E
FFFC
0018
FFF1
001E
0001
0010
001C
FFFA
0016
FFFF
0008
001D
FFF1
FFF6
000D
001F
0008
000E
001D
FFF8
0021
FFF6
0002
000F
0012
0019
001A
FFE9
0010
000E
0022
000C
0010
FFEA
FFED
000D
FFF5
0014
FFFB
0006
FFEF
0006
0019
FFEF
0008
0004
001E
FFED
FFFE
0005
FFE9
0001
FFF9
001E
FFEC
FFFB
FFF7
0009
001B
0023
0018
FFF8
FFEC
001C
FFF7
FFFB
0007
0002
0014
FFEA
FFE8
0013
0013
0008
000A
0022
FFF9
FFF0
0000
0021
0003
000E
000B
0007
FFF1
000B
FFF0
FFF3
001C
001E
0004
000B
FFEB
FFF6
000B
FFF4
0003
FFE5
000E
0004
001C
FFF1
FFF1
FFEA
FFF4
0007
0018
000D
001A
0015
FFF7
0009
FFF1
FFFD
0008
0013
000D
000D
0014
FFE9
FFEA
0010
FFE5
FFE7
FFEE
FFE3
FFF4
0020
000E
001E
0014
0014
001A
0005
FFF1
0009
FFE1
FFF6
FFF1
FFF2
FFF9
000C
FFEA
000E
0016
0011
0013
000C
000E
000B
FFEA
0004
0005
001A
0022
0005
0001
0010
FFE3
000B
FFF3
FFFC
FFEA
FFFA
FFFE
FFFD
0017
0002
FFED
FFF1
FFE7
000E
0012
FFE6
001A
FFFA
000A
FFF8
FFF5
FFE8
0014
FFF8
FFEC
FFEB
001C
FFF0
FFF9
0012
0021
FFEF
FFE8
FFF5
000C
0016
000B
FFF6
0011
001B
FFE8
0014
001B
0013
001F
0003
FFEE
0008
0008
0014
0018
FFF1
FFF5
FFEF
000E
0001
000B
0001
FFFF
0003
FFF4
FFF8
FFF6
000E
FFE4
FFEE
FFE6
0003
FFF2
001F
0009
FFFF
FFEA
FFE9
FFFD
0007
FFFC
FFF5
FFED
FFF3
FFEF
000D
0007
0003
FFF3
0000
0012
FFE8
001D
FFF8
001A
0016
000A
FFF5
0024
000F
FFE5
FFF8
FFEE
0016
FFF4
FFF5
0017
FFF0
000D
FFE1
FFFD
FFFB
0013
0013
FFF8
0011
FFF1
000E
0010
FFED
FFE5
FFEA
FFF1
FFE9
000D
001A
FFFF
FFE4
0005
0007
0021
0015
0002
000C
000E
0012
FFF1
0014
0013
FFE9
001E
0001
FFE4
0016
FFF7
FFF6
FFF5
0016
0003
0009
0002
FFFA
0001
0016
0017
000D
0015
FFF6
0021
000F
FFF4
FFF0
FFF5
001B
FFFB
0021
0009
0019
0002
FFF7
FFEE
FFF2
001A
FFF8
FFFE
FFE9
0004
0018
0002
0002
FFEA
0021
0007
FFF3
0020
001B
FFF4
FFEF
FFEF
FFFF
FFFD
FFF1
FFFC
0012
0025
0022
FFF1
0012
FFE8
FFF0
FFF0
0012
FFE6
0006
FFFB
0018
0000
000D
0014
FFEC
FFF5
FFE7
FFE9
0004
0016
0011
0018
FFE6
FFEA
FFE7
FFEC
FFDF
0008
0007
0001
FFE2
FFFE
FFE6
0008
FFF4
001B
0003
FFE2
0014
FFE7
FFFD
0001
000A
0019
0013
0016
0004
FFE7
FFE3
0012
FFF0
FFDB
FFFD
0006
000B
FFE1
0001
FFF9
FFE1
FFF6
FFEA
0007
FFE2
FFEC
000E
FFDC
0012
FFE8
0005
FFEB
000F
FFF3
FFF5
FFEE
0007
000A
FFF6
FFE9
FFE7
0010
0018
FFFE
001C
0000
0011
FFF6
FFED
0019
0012
FFEA
FFE0
FFE0
FFE6
FFE6
0007
0001
FFEE
FFEE
FFDC
0007
FFFC
0010
0019
FFFC
FFE5
0001
0006
FFFE
001B
0016
FFE3
000E
0018
FFF7
0002
0002
FFE5
0002
000A
FFE7
FFE6
0008
FFE8
0012
FFDE
FFFD
FFE2
000B
FFFD
FFFD
FFF7
0003
FFFF
0005
FFE7
FFFF
0016
FFDE
FFF2
FFF5
0014
FFEA
0004
000F
FFE8
FFFF
FFEB
001E
FFF3
0021
FFF8
000D
FFFD
0006
0014
0000
FFFE
FFE5
001B
FFF6
0012
001F
FFFD
0000
0005
0007
FFF5
001B
FFFF
000F
0020
000A
000E
0016
000E
0004
001F
0018
001C
FFF6
FFFE
000B
FFF5
FFFC
FFEB
0020
0015
0011
FFE4
000F
FFF1
0022
001C
001F
000A
FFEB
0015
001C
0006
FFFA
000D
001A
001D
FFEB
0003
FFEB
001D
001F
0010
FFF4
FFE5
0006
0000
001B
000C
FFE5
0010
0006
FFDF
FFF6
FFF8
000E
FFE3
FFE8
FFFA
FFE9
FFFC
001C
0005
FFF1
001B
FFF8
FFF3
FFEC
FFE9
FFE5
FFDD
0008
000E
FFF5
FFFC
001B
0003
0015
FFF0
0016
0001
FFEF
FFEB
000B
FFEB
0011
0001
0008
0005
0017
0013
001B
FFE2
0012
0019
0009
FFE2
0002
FFFB
FFE3
001D
FFEA
0010
001C
001B
0010
FFEE
FFFA
FFE7
0011
0006
FFF8
FFE7
FFF6
000A
0008
0018
FFF4
000F
001E
FFE4
FFFB
FFF8
FFEA
0000
000E
FFE2
FFFA
FFF9
FFF8
FFE8
FFF3
001F
0007
FFFB
0009
FFE9
001A
FFF1
0008
001E
0008
FFF1
FFFE
0000
FFEF
0003
0010
FFEC
FFE0
001F
000A
FFED
0024
FFEA
FFEB
000E
FFEC
0007
FFEA
0016
0003
001E
0019
0010
FFFE
FFE8
0001
FFFA
000A
000F
FFF9
FFDE
FFE3
0011
FFFB
FFE3
000E
001C
0000
FFEE
0018
FFEE
FFF6
FFE7
FFF0
0019
0010
FFE5
FFF5
0008
FFEE
FFE5
000B
FFE9
FFF0
FFE8
FFE4
FFEF
0015
FFDF
FFE2
FFFD
001E
FFF8
FFEA
0011
FFDD
0005
0010
0010
0015
000B
FFF2
FFE9
FFDE
000D
FFE4
FFE1
0005
000B
0001
0004
0006
FFFE
FFDE
000A
FFE8
001C
0015
000B
000A
0012
0017
0010
0004
001B
FFFD
0014
001B
FFFB
0010
0011
0017
FFEF
FFE0
FFE0
0004
0018
FFE1
0007
FFE5
0015
0004
FFDA
FFDB
FFEA
FFE7
0010
FFFA
0014
FFEE
0018
0004
FFF7
FFEA
FFE9
001C
FFF0
000D
0005
0008
FFDA
0019
FFEB
0006
0003
FFF6
0002
0019
0004
FFF9
0004
0007
FFE3
0003
0009
FFDE
0012
0013
FFE9
FFE1
FFFD
0004
0019
FFDC
FFE9
FFF6
0015
0018
FFF0
FFE5
000A
0021
001E
0011
0006
0016
0005
0006
001A
0003
0009
001A
FFFC
0001
0014
FFEB
000C
FFE5
FFF9
FFFE
0023
FFE1
000C
FFF7
0018
FFE7
0004
FFF3
FFF6
0003
0004
0000
0006
0023
FFEB
0028
FFDE
FFDA
FFF0
0014
0004
002E
0026
000E
0005
0014
FFE2
000B
0031
FFE5
0011
FFFC
FFE4
FFE5
001C
000F
0012
FFF2
FFEB
FFDD
0015
FFDB
0002
FFEE
000D
000F
0009
001C
0016
FFFF
0005
0017
FFFA
FFF3
000D
FFE9
FFFE
0015
0022
002D
0019
0020
002A
FFFC
0018
0026
0015
FFD6
0000
FFEC
0025
FFF6
0014
000B
