FFF0
FFCC
FFF9
FFDB
001C
0007
FFDF
FFF8
FFF4
FFF7
FFE7
000D
0007
FFF0
0003
FFE4
FFFC
FFFB
FFF9
FFCC
0034
FFED
0002
0001
001F
0015
0019
FFDE
FFFF
FFEF
0021
0032
001A
0023
FFDA
FFDE
0027
FFF9
0014
001E
0007
FFD4
FFE4
002A
FFDC
FFFC
0025
0011
FFD4
FFE7
0000
FFFE
0002
FFFF
0018
001D
FFCF
FFF1
FFFA
0011
FFED
0024
FFD7
FFDA
FFFC
000F
0031
FFD2
FFFB
FFCC
FFF2
0034
0027
FFD8
000B
FFEC
0009
0000
FFED
0034
001C
FFED
FFFF
FFED
001F
FFD1
FFFA
FFEF
FFFE
0035
FFCF
0031
001B
0007
FFEB
FFF2
0009
000E
0026
0024
002B
0008
0003
0009
001E
002A
0024
FFD8
0005
FFF8
0018
FFD2
0036
FFF9
0002
0024
FFE2
0011
FFD0
0013
001F
FFDE
0039
FFFA
0020
0025
0036
FFF8
FFE4
FFE0
FFDF
0032
0013
0017
000F
0022
0025
FFFB
FFCA
FFDA
0029
FFFB
000E
FFFB
003B
0027
FFD1
001E
FFD1
0014
FFFA
000E
0027
001A
FFEA
FFFD
FFDD
FFEE
000B
FFFB
0025
000F
FFDA
FFCA
002E
000D
FFDB
FFFD
0000
FFFC
FFDC
002D
001D
000C
0002
0001
0014
002C
FFD6
0012
FFE5
FFEA
0002
0021
FFF1
FFFF
FFF4
FFD3
0011
FFD5
0001
FFE8
FFFC
0000
0020
FFE6
000F
0022
FFF7
FFF9
0020
FFDF
FFF4
FFD8
000F
FFD6
0005
0019
001A
FFD3
0008
0021
FFE9
FFD0
FFFD
0015
0024
0031
FFF6
0033
0009
002F
000B
FFE1
001F
002B
FFF8
0028
0011
FFFB
000D
000F
FFF5
FFEE
0006
FFE4
FFFF
FFC8
000D
000E
FFE0
FFE0
0009
0004
FFE4
0011
002A
FFD0
FFCE
FFE8
000D
0004
FFC8
0028
0004
000C
0012
FFED
FFEA
0001
0023
FFDE
0006
FFF3
003A
FFDA
0013
000B
001F
0011
002A
000D
FFE7
FFE5
FFD5
002D
002B
0010
0009
0027
FFFD
0016
FFE3
0013
0006
0001
FFFE
FFFC
FFD3
FFE4
0008
001C
FFE6
FFD6
FFF7
FFE1
FFE3
FFE9
002D
0007
0008
0021
0015
001E
002D
0014
FFDD
0014
FFD3
001D
FFFF
001B
0004
FFC7
0002
FFFB
FFE9
FFFE
0007
0026
FFCE
0004
0024
0027
FFEB
FFE7
FFC6
002C
FFF6
0005
FFCF
001A
0009
FFED
0001
FFDE
FFFB
0031
001E
0014
0018
0029
FFE4
FFD4
FFF2
0024
FFFA
0007
0022
000C
FFFC
0011
FFDE
0031
FFFA
FFE3
FFDD
0008
FFD4
FFD6
FFF6
FFE6
FFCD
001B
000D
FFD0
0021
0033
FFDF
FFF2
FFD6
FFF6
FFEB
0018
0025
001B
FFE4
0029
FFD0
0012
000C
0004
0032
0016
FFFB
0003
FFFE
0005
0037
002B
0001
0010
0006
0025
FFD3
000E
FFDB
FFEE
FFF2
FFF4
0024
FFED
FFD8
FFD2
0023
0003
0031
001A
FFDC
0002
001D
FFF0
FFF1
FFD7
0025
0021
0029
001A
FFF9
FFD3
FFCE
0012
FFDB
0005
002D
0001
FFCC
0007
FFDF
000B
FFDE
0021
0000
FFF3
FFD5
002F
0023
0007
FFF0
FFE6
0028
002C
FFF7
0010
0012
FFD4
FFD7
FFD3
0003
FFCE
001F
0022
FFD6
0031
0028
001F
FFBE
FFD4
0005
0021
FFD4
FFD2
0000
000D
FFF7
0036
FFF9
FFDB
0032
0008
FFE2
0013
000E
FFF4
0022
FFF1
0019
0019
0030
FFE5
FFBA
FFCD
002C
FFE7
001F
FFE7
0026
FFE0
0008
001F
0019
FFF4
FFD9
0012
0038
0025
FFF6
0013
0024
003C
0005
FFF8
0018
FFF0
FFE4
0011
FFE3
000C
FFD4
FFDA
002D
0011
002A
FFF1
0017
FFFC
001C
0018
FFEB
FFF1
FFF2
FFFA
0024
FFF0
0012
FFEF
0013
FFD7
001B
0034
002A
FFD5
000E
0000
0030
0009
FFDA
0004
FFF6
FFED
FFE7
0024
0004
FFD4
001D
000C
FFE1
0008
FFE5
FFF5
000A
0015
FFD8
FFD1
0014
FFDC
0002
FFDE
FFD4
0018
FFE7
002D
FFF9
FFE7
FFFC
FFF1
FFF3
FFF5
FFDA
0012
000C
0001
FFEB
FFDE
0021
FFDA
000F
000D
0035
0028
0012
0006
0000
FFDB
0010
0004
002D
0004
000D
001A
FFF8
000A
FFF6
0014
FFDD
FFCF
0006
0001
001D
FFFD
000E
001F
FFF8
0002
0022
FFE6
FFEF
FFEA
FFCF
0026
FFF3
001B
000E
0012
FFF3
FFF5
FFEB
0016
0021
FFE3
FFFD
0005
FFE7
FFE4
0036
001E
FFE4
001D
FFD6
FFE8
FFFB
FFFA
0026
001B
0001
FFCD
FFE0
000B
0020
002F
FFFC
FFE1
0008
FFFA
0007
0028
FFEE
000A
FFD5
FFFB
0005
FFCF
0017
0029
0014
FFD3
0002
0028
001F
FFD7
FFD1
FFEB
FFF7
FFFE
0009
0027
0029
FFF9
FFE8
FFF1
FFED
0032
FFE6
FFF1
000E
001E
FFCF
0028
0011
000C
FFE6
0020
000D
001F
0021
FFDD
FFCC
FFF6
FFF6
FFE1
0006
FFCC
0002
FFEC
FFD8
001B
0033
000A
0001
0025
0019
001D
0006
FFF4
FFCA
FFCC
0017
000C
001F
0004
FFF5
000D
001F
FFFB
FFE7
FFF7
0000
0005
FFE3
FFF3
0030
002B
0002
FFDF
0007
0029
FFDA
001D
FFCB
FFE5
0012
FFCD
0014
FFD1
FFFB
0029
002F
FFEC
0026
FFE5
FFE7
0001
FFF5
0019
FFF0
FFE7
FFED
FFDE
0031
FFDE
FFDC
FFF2
002F
FFE3
FFDD
000C
0024
FFE4
FFD2
FFCF
FFDE
002D
FFF9
FFE8
FFE1
0000
001E
FFE4
FFD8
FFFA
0006
0027
FFF6
0019
FFD6
0027
0016
FFEA
FFF2
002E
FFF5
FFF5
0000
0003
FFF9
0009
0025
0019
0004
FFD1
FFFB
000F
0005
FFF6
0023
002F
000C
FFE7
FFED
002C
000B
FFD2
FFE0
0033
FFFF
0027
FFD2
000A
FFE9
FFFD
FFD6
0014
FFD5
0016
FFF9
000A
FFF4
FFD9
0024
FFDC
FFD8
FFCE
FFFE
FFDB
000C
FFE4
FFEF
FFDD
FFF1
FFDD
0001
FFDB
FFD8
FFE8
FFF0
FFFB
FFCD
FFE1
000F
000F
FFE5
002E
000C
FFEA
FFDF
FFFD
0008
FFDC
001B
0022
0010
001C
FFE8
FFD7
FFF1
FFF2
0034
FFD0
FFD8
0025
FFD2
0002
FFED
FFD0
FFFA
002D
FFD6
002F
FFED
000E
FFCE
FFD1
FFEB
FFF8
FFDD
0010
002C
FFF8
001A
FFD6
FFD5
0032
FFE0
001F
0016
FFF5
FFE8
FFFD
0018
FFD9
0005
0018
001B
0023
FFFD
000E
FFCF
0018
FFF7
0024
002D
FFD2
0018
0006
FFEC
000A
FFD9
FFCF
001A
0003
001C
FFCD
0024
0015
FFFA
0013
FFE5
FFF2
0006
FFE5
000F
0026
FFE7
FFFD
FFCA
000B
0016
001A
001B
001B
000D
0010
FFEC
0018
0002
FFE6
002F
FFFB
0001
0026
000D
0030
FFF3
FFF0
000E
FFF7
FFCF
0019
FFE7
0006
0027
002F
0019
0031
FFC4
FFEA
FFE5
FFD6
000C
000F
FFCD
FFE2
001A
000F
FFFB
FFE5
FFE0
0024
FFCC
FFDF
000C
FFF9
0020
FFD7
0023
002B
FFED
FFFB
FFF2
FFE6
000C
FFEE
FFE9
FFDE
FFE3
0011
FFD3
0025
FFF4
0009
0021
FFCF
FFE6
FFE0
0005
FFFF
FFDA
0019
0019
FFF8
0027
0002
0028
FFEB
001B
0016
FFE2
FFF4
0017
000B
0027
0018
FFE8
FFD2
001F
FFEF
001C
002C
001B
002E
0015
002A
0016
FFDD
002D
000E
FFEC
0003
0012
FFFF
0022
0014
FFD7
FFFC
FFCF
001A
0003
0014
FFE4
FFD7
002A
001A
FFDE
0018
000D
FFD3
FFF9
0034
002F
FFD4
FFF4
FFD4
0011
FFEF
FFF8
0010
FFD1
FFEF
FFE8
FFE5
FFFE
FFD2
FFD1
FFD4
FFEA
FFD9
FFFE
FFEC
FFDA
001D
FFDC
FFCF
FFF2
0000
0016
0026
0006
FFEE
FFDE
001A
FFF6
0032
002B
FFCE
0007
FFFF
FFCC
FFE1
FFFB
FFE9
0027
0027
FFF1
FFDF
000F
FFE0
0010
0028
000E
0020
FFCE
001E
FFE5
FFDC
0013
FFE7
0001
001F
FFEB
0015
002C
FFEC
FFCD
FFFC
FFF4
FFDF
0023
FFFF
0013
001D
FFF3
0024
FFFC
0029
0020
0011
FFF8
0014
FFFD
FFD7
0004
FFDA
0015
FFDA
0025
0022
FFDF
FFE6
001A
0016
0011
FFD5
0001
FFF9
FFD4
FFDA
FFCE
002F
001D
0033
0033
001D
0032
0001
FFEF
001B
000A
FFF3
000F
FFD1
0028
0022
FFE7
002F
FFE3
0025
002D
FFD0
FFFC
002D
FFD5
FFE7
FFFD
000B
FFD1
001D
0023
FFF2
FFCB
FFF6
0018
FFD6
FFF4
FFF5
FFE4
FFF8
FFCD
0020
FFED
0015
FFF9
FFF3
0016
FFD8
002F
0025
FFC2
001F
FFF4
001D
0019
0039
001B
0026
FFD4
0004
0006
0007
FFD4
0027
001E
FFD2
FFE9
001C
0032
FFEB
FFF9
FFF1
000F
001B
0022
0027
000D
0032
000E
FFF0
FFED
FFFB
000C
0008
001B
FFDE
0025
0033
000E
001A
FFEE
FFEF
FFE6
0001
FFE1
002A
FFE5
FFF0
0025
0004
FFE4
FFDF
002B
0016
0012
FFD1
FFEC
FFDD
000F
002A
FFD3
FFFD
0034
FFE3
002E
FFE6
FFD6
001B
0000
001F
0012
0018
0024
FFEC
FFDF
0012
0025
FFF1
0007
0023
0025
FFFB
FFF4
FFF8
FFFB
000C
FFEA
FFFF
FFE5
001C
0014
001C
0003
FFDA
FFE8
FFFA
FFF7
0020
FFDB
0006
FFF1
0029
0028
0032
FFF5
FFFC
FFE7
FFE4
000A
FFD6
FFEB
FFFE
FFCD
0003
002A
FFEB
FFDC
0037
002B
0010
FFC4
0029
FFF1
0022
FFDB
FFE8
FFD9
FFEA
0017
FFEF
FFDC
FFF3
FFD7
FFD6
FFCC
000A
0022
FFF6
FFCE
FFF2
FFE0
FFCC
FFF7
000D
FFF0
0018
0007
000E
0031
FFFE
FFD9
FFCD
002E
FFD7
002E
0019
FFCD
0005
FFF0
0016
FFF3
FFF0
FFF7
FFEF
FFDC
000B
FFEB
FFF7
001A
0013
FFFE
FFDA
003E
FFF8
0004
0007
000F
0023
0017
001C
FFEA
0023
0018
FFDF
FFF0
001E
FFF6
FFE8
001B
0020
001B
FFFC
0014
FFD8
FFF8
002A
FFF4
0004
000C
FFD9
FFD3
FFF1
0014
FFCF
FFD2
0010
FFE9
FFD8
000E
FFFB
0023
FFE1
FFCF
FFCF
000B
FFDA
FFFE
FFEE
FFFD
002A
FFE1
000F
0019
FFE6
FFED
001F
001E
001C
FFD7
FFE4
0009
0006
000F
002A
0006
FFF8
FFE0
0002
0033
000F
0021
FFF1
000E
FFE6
FFCA
002C
FFFB
0007
FFCC
FFF3
0013
FFD2
000A
FFFD
0004
0024
FFED
0000
002F
FFF5
FFEA
FFDE
FFE3
FFFC
FFEB
0014
0003
FFDE
0029
0005
000A
0025
0022
000A
0024
FFE7
FFE0
0011
0028
FFEB
FFF9
0020
FFF7
001C
FFD9
FFEB
0003
000D
FFE7
0031
0029
001B
000D
0023
002F
FFE8
001E
001B
000A
FFCE
FFED
FFCD
FFEA
002D
0030
FFE5
0004
0005
FFD7
002E
FFF1
0020
FFEF
FFF9
0027
FFCF
FFE4
001F
0023
0033
FFE6
FFE3
FFD6
002C
0024
0004
FFE3
002B
000E
FFEC
FFDA
001C
FFFC
0034
FFD1
FFDC
001F
FFF5
002F
FFE0
0023
0000
0018
002A
FFCF
FFFE
FFE5
0012
FFDC
0009
FFF8
FFE5
FFE8
FFFF
0011
FFDF
FFEF
FFE2
0008
FFF1
0028
0008
FFF4
001A
0013
FFDC
0010
0009
FFE3
FFDC
002E
0004
FFE3
0038
001E
FFDC
FFE3
0038
FFE4
FFD6
0011
003C
001A
FFF5
FFD7
003E
FFE9
002B
0006
FFF7
0028
0002
FFD2
FFCF
002A
0000
FFCD
0012
FFD6
001E
FFFA
FFF5
FFDD
001F
FFF5
FFF0
0003
FFE3
FFCC
0000
FFD8
0011
0016
0014
FFFC
FFE2
0012
0024
0017
FFE5
002D
FFE6
0004
0006
FFD1
FFFB
FFCC
0020
000C
0023
002C
FFE2
0005
FFD2
0018
0021
0030
FFD3
0022
000A
FFCC
FFDD
0013
FFE9
FFE3
0000
FFD9
0013
FFF0
0029
0008
0025
002C
0007
0008
002D
FFDC
0028
002C
0017
000E
0016
0024
FFD0
FFE9
FFE8
001A
FFE7
FFDB
FFEE
0013
FFD3
FFED
0020
0022
000E
FFFA
0021
FFD5
0027
000D
FFD0
FFE1
FFF4
0035
0039
001A
0002
FFDC
0007
0000
FFEE
0027
FFEF
0020
0004
FFDB
FFDF
001D
0019
FFF3
FFFC
FFEA
0009
FFEE
002A
0027
FFDA
FFEF
000E
FFEE
FFF2
0028
000C
0036
000D
0016
002E
FFFE
FFDC
FFDD
0026
001E
0027
0001
FFEB
FFE2
FFCF
001B
000B
FFE6
FFD2
FFDA
001B
FFD5
FFF7
000E
0000
0010
0002
0008
FFFB
FFDA
FFE8
0002
0026
FFD3
FFE2
001C
0034
0005
FFEA
FFF3
FFD9
0026
FFD9
FFEE
003B
FFE1
001B
0028
0025
FFF4
0007
000A
FFD3
FFF3
000D
0030
0030
FFDC
FFD7
FFF2
FFD5
0025
001B
FFC5
FFD9
001D
FFE1
FFD6
002D
FFE1
FFF5
0024
002E
0033
FFDD
0014
0025
FFF2
002B
002B
FFF1
0019
0025
FFEF
FFD7
FFF6
FFE2
001D
FFDA
FFF0
FFD7
FFF0
FFCE
FFEE
0003
FFE0
FFF8
0008
FFD4
FFF5
000C
FFDE
000D
0030
0007
002C
000A
FFCC
001A
001D
FFF6
0034
FFE2
FFF5
000E
FFF8
001E
FFD3
FFD5
002C
000B
0010
002A
001E
002C
0033
000E
FFEC
002F
FFF7
0025
000B
FFDD
FFE0
0028
001C
0030
0004
FFD6
FFD9
0039
0020
0028
0012
0025
0022
0024
FFF2
FFE2
FFEF
0023
0013
FFFB
FFFF
FFD6
0013
FFD9
0007
FFD9
FFEF
0005
001E
FFD4
000B
0022
002A
001E
FFDA
002F
FFD6
001C
001D
FFEC
FFF7
000A
0014
001F
001A
002D
FFD0
0019
0026
0029
0012
0003
001E
FFCF
0004
FFD4
002B
001B
001D
0020
FFD5
000D
001E
FFF3
FFE9
0003
001A
001D
0023
0022
002D
000B
0018
FFCE
FFF2
FFFE
FFD7
0031
FFE4
FFD3
FFE5
000F
001B
FFD0
0028
0002
FFDE
FFE0
FFE2
001F
000D
0012
0005
FFDD
0001
FFFE
FFF7
FFED
0022
FFEB
0023
002B
FFC3
0000
FFD4
FFDD
0011
0014
FFF2
FFFA
0012
001D
0031
FFD7
0027
000B
FFE4
0015
FFFD
002C
0002
0041
002A
FFE3
FFFB
FFFB
FFE1
001D
0013
0006
FFCF
0004
0004
0018
FFEB
FFFC
FFF9
000C
0034
FFEC
FFD3
FFE5
0007
FFD3
FFCE
FFCD
0004
FFED
001F
FFCF
FFEE
000A
FFED
0020
0032
FFFC
FFF7
001A
0004
FFD8
002D
FFCD
0020
FFD3
FFFE
FFF7
001D
FFE8
0019
0013
FFF4
000B
0017
FFD2
FFF4
0003
000C
FFE5
0016
FFD7
001E
000C
001B
0027
0022
FFCF
FFD4
FFEF
FFD9
001F
FFF7
FFF5
0019
0030
002C
002B
FFCF
0005
001C
FFEC
FFE5
0020
000D
FFD1
0004
FFD1
0014
001D
002A
002E
000C
FFE7
0007
FFFF
0009
002B
FFE7
FFE9
001A
FFD8
FFE0
FFD2
0033
FFD7
002F
0024
002E
0012
000F
FFDA
0003
0010
FFCD
FFF3
FFE6
0026
0033
0029
FFDF
FFD2
FFDF
0018
FFFD
FFDD
FFDA
FFF8
FFFF
FFF2
0001
0010
0008
0017
0019
0029
0016
FFE2
FFF3
FFF9
0006
FFE5
FFF0
0014
FFD8
0003
003C
0005
002C
FFE1
0010
FFE7
0015
FFE0
FFF9
FFDE
FFDF
FFF4
000A
FFD4
0028
000A
FFFB
0013
FFE5
0027
FFED
000C
FFDE
0025
000B
FFDB
FFEB
0030
002E
FFD6
0018
FFF8
0001
FFFD
0005
0008
002B
002F
FFF8
FFFF
FFCE
000A
FFFC
FFF3
0008
002E
FFD8
001B
FFF3
0022
000F
0008
FFE0
000F
000B
FFF0
000D
FFE0
0034
0006
FFDC
FFEF
0025
FFFF
000D
0012
FFF6
0011
FFD5
002B
003A
FFCE
0008
002F
FFC2
FFFF
001F
FFDD
0013
0036
FFF2
FFD6
FFFB
FFD5
FFDB
0019
0002
FFD1
002B
FFC5
FFFC
FFE0
FFF9
FFEF
0013
FFEC
000A
0043
FFC2
FFFE
001C
FFFD
002B
003E
0029
FFDF
FFE5
0019
0004
FFFA
001A
002D
FFFA
FFF1
FFF5
FFDE
FFF9
FFF1
FFDC
0010
0018
FFEB
FFD3
FFE0
000E
FFF4
FFFC
0033
0014
0031
0031
FFEE
FFE2
FFF8
0002
0022
FFF5
FFDC
0033
002C
FFE9
FFE1
FFED
0032
FFF5
FFE9
FFE8
FFDD
FFF6
FFFD
FFF2
0025
FFE9
FFDE
0003
001A
0022
0009
0007
FFF9
FFF9
0002
FFF1
0032
FFD4
FFD6
FFD2
FFD2
FFF8
0002
001E
0001
FFF6
0025
001B
000A
FFCF
FFFD
0029
FFF1
0033
0012
002E
000E
0024
0019
FFF6
FFF3
FFD1
0018
FFF5
FFE8
FFC8
FFD5
FFEC
002B
FFE8
FFFC
000B
FFE8
0036
FFF7
FFD1
000D
0003
FFF4
000C
0010
0019
0032
000B
001A
001B
FFE0
0030
0037
0004
FFCE
0008
0023
FFF5
0032
003B
FFFD
0011
FFDF
0035
0027
002E
FFDF
001F
FFE9
0019
FFE9
FFFD
0022
FFE2
FFD0
003D
0009
0011
FFFB
FFEB
0022
000B
0006
FFF0
FFF7
001E
FFFA
000E
000B
FFF2
0005
FFDB
FFF1
002C
0018
0028
002B
FFEB
FFF4
0010
FFED
FFD7
0030
FFBF
FFDE
FFE4
FFEB
FFF2
FFDA
0006
0003
0022
002C
FFD7
000A
FFC8
001E
FFE4
FFCA
0024
002D
FFE3
FFEC
0007
FFCF
0024
FFFA
0013
FFFA
0026
FFEB
0032
FFD4
0024
002C
002B
000B
FFCD
0020
0009
FFE0
0023
0011
FFE5
000E
002C
0019
002A
FFCE
0019
FFDE
FFC7
FFDA
FFE2
FFF2
0032
FFD4
FFE3
FFEF
000E
000D
001D
FFF0
FFE0
0017
002D
FFFD
0019
FFD6
FFE0
002C
0039
0019
0031
0019
FFF9
FFD6
0026
FFE1
FFF8
FFD8
000F
0035
0020
000D
FFD6
0016
0010
002F
0016
FFDE
FFE7
000D
0033
FFFE
0034
FFD2
0001
FFD1
FFF4
001F
FFDF
FFEC
FFD4
0004
0009
FFDE
FFEB
0014
0006
FFCC
001F
0031
FFE9
0026
FFD8
FFEC
FFE7
FFF7
0002
FFEB
FFFD
0018
FFCC
FFE6
FFDB
FFE1
FFF2
003A
FFDF
0002
001B
FFF3
002A
000A
001C
FFF2
FFF3
FFDC
0021
FFFF
0009
FFDE
FFF3
FFDC
FFE0
FFFD
FFDA
FFD2
FFE3
0033
FFDB
0026
FFDC
FFDE
FFE5
FFF6
FFEC
000C
0019
FFD2
FFFB
0014
0015
0000
FFC8
000A
001F
0028
0001
FFDF
0012
0007
FFD3
FFF9
0016
0034
FFEF
0018
0000
0032
0010
000F
002A
FFD3
0016
FFFF
FFF1
FFE8
FFFF
001F
FFFE
000D
0016
FFE1
FFDC
FFD2
0027
0024
000E
FFEE
0003
FFE6
FFD2
001F
FFFD
FFE0
001C
FFCE
FFF3
0036
002E
FFF2
002E
FFCF
FFE7
000E
0014
FFFB
0024
0004
0022
FFFC
002F
0024
FFEA
001C
FFE2
0032
FFF5
FFFD
FFD3
000C
0005
FFFD
002F
0031
FFF2
001C
0018
FFE0
0018
FFE1
000F
0007
FFD5
FFF2
FFDC
FFEB
FFE1
FFED
000C
0014
FFED
001D
FFED
0039
FFEF
0001
0032
FFEC
0001
001B
FFC5
0016
FFFE
0029
0018
001B
001A
FFFC
FFFF
FFD2
FFF6
FFF5
FFEE
0026
0018
003A
002C
0002
FFE3
FFD7
001E
0001
FFEA
0024
FFE0
FFD8
001F
0033
0026
0018
FFF7
0018
FFFB
FFF5
0013
FFD8
0006
0002
FFE8
0004
0027
FFEA
FFF7
FFFC
FFD0
FFE6
0028
FFEF
FFF6
FFF1
000E
FFE6
FFCF
0002
0018
0014
FFDA
FFD3
000E
FFD4
FFCF
0021
0036
FFFF
FFD7
0026
FFEE
000E
0012
0002
002F
FFEB
FFDD
002D
0016
0018
002C
0024
FFFD
FFEF
FFD3
000C
0003
FFD2
FFEE
FFDD
0000
FFF1
FFDD
0027
001A
FFF6
000E
0030
0033
000B
FFDA
FFDF
0008
FFE8
0030
FFFD
FFF7
0011
002F
FFE1
FFDF
FFF8
FFCD
FFEB
0023
FFD2
0015
FFCC
FFDC
001A
FFD2
FFDE
FFD7
0001
FFD5
0012
0032
FFF0
0025
0007
FFDC
0005
0022
FFF4
0017
0019
0027
FFE5
002C
002A
FFEC
0014
0022
FFCC
FFE1
FFCD
0008
FFF1
0035
0029
0026
000D
FFDC
002F
0005
FFF0
003A
FFEC
FFE6
0024
FFDF
0028
0016
FFE4
0010
001F
FFD2
FFEA
0002
000B
002D
0016
FFDF
FFEB
001E
FFD2
FFF0
0018
0028
000A
FFE3
0013
FFDB
0011
FFD3
0014
FFE3
FFE9
FFCE
FFE7
FFCD
0014
FFD4
001E
FFDF
FFF8
FFD2
002B
001E
001D
0023
FFFD
0028
0032
0027
0010
0010
FFF9
0025
0003
FFDD
FFDE
0022
FFF0
FFD5
000A
FFE1
0015
FFE8
FFD9
FFFD
FFF8
FFF7
001F
FFFD
002B
0005
FFFA
0006
FFF3
FFCD
0021
FFF4
002C
0002
FFD2
002A
FFE8
0004
0027
FFE2
0015
0011
FFEE
000F
FFD3
0008
0032
003A
FFF8
000E
000A
0039
FFEB
0014
FFF6
FFD6
FFFC
0028
000D
000C
FFDF
0015
001E
0026
0035
001B
0007
FFE6
FFF0
FFF5
FFE5
FFCB
FFE3
0010
002D
000F
0018
FFDC
0032
0022
FFE7
0013
FFCE
0005
FFCE
FFE0
FFED
FFE3
FFED
FFEC
FFE4
FFD6
FFFE
FFD9
000E
0017
002A
FFF6
FFD6
0014
0022
0020
0031
FFEC
FFF6
FFF7
0010
001B
FFFA
FFEB
0026
FFF6
002A
0019
FFF1
FFD7
0000
FFF5
FFD3
FFE6
0034
0030
FFDE
0018
FFF6
0005
0032
FFE0
0026
FFCC
FFE7
FFEE
FFDB
000B
FFFB
FFF5
FFEE
FFEC
000F
FFE9
FFF8
0033
FFD4
0031
0014
FFE5
FFD1
FFE8
FFF8
FFD3
0000
FFEB
002B
0010
FFD9
000C
FFE9
0008
0008
000A
0032
0005
0037
FFCF
0034
0014
0049
002C
FFEC
FFE2
FFEF
0021
000A
0025
001A
002D
0002
FFFD
0028
0012
FFE0
0014
000D
FFE3
FFF6
FFE8
FFE3
FFE2
0034
0004
FFEC
FFC9
FFE9
FFF3
000D
FFEB
FFE7
0027
FFD7
FFE5
FFD3
001F
FFF2
FFFC
FFCD
0012
FFD0
FFFF
FFF5
FFEC
FFCB
000E
0006
0031
002C
FFE4
002D
FFF0
000C
FFEC
FFF2
FFDD
FFE7
FFD3
001F
FFDE
002D
FFD2
0005
FFF5
FFDC
FFDF
0023
FFFF
FFF2
0008
FFE9
FFEB
0023
FFE3
0009
0013
002D
FFE0
0024
FFDA
000D
FFDF
FFDE
FFFC
0011
0036
0026
FFE9
FFF0
0017
FFEE
FFD6
FFE1
FFFA
FFD8
002A
000F
FFD9
001F
FFFC
FFE8
001A
FFE0
0025
0004
FFCC
FFF7
0026
FFD9
FFDE
000A
FFCD
FFD2
FFFD
FFE0
0010
FFEC
FFE3
FFED
FFDE
FFEA
FFDF
0033
0017
FFD6
FFD7
0011
FFD5
000C
0021
0023
001E
FFE3
FFD0
FFD2
000F
0024
FFFA
000F
000A
FFFC
002E
FFF7
0006
0029
FFEF
0030
0006
0000
FFE0
001B
FFFA
002D
FFF8
000B
FFC8
FFF1
FFF0
FFE7
FFE6
000C
002D
FFF0
0012
FFE8
001D
0029
0001
0003
0025
FFE8
0031
001A
000A
FFE0
002A
FFCD
0015
0027
000D
FFFA
0013
0027
FFDB
FFEB
FFEA
FFE4
FFE6
FFF3
FFE5
0019
0006
FFDA
000C
FFED
000D
FFDF
FFEE
000F
FFD8
FFD1
FFDC
0020
002D
0018
0011
0010
000F
FFEB
FFF2
FFFB
FFEC
FFF5
FFF7
FFF7
FFFF
000F
0015
000D
0014
0007
FFFF
0016
FFF4
000F
FFFC
FFE8
FFF4
FFF0
FFEA
0013
0012
0011
000A
0016
0007
0012
FFFB
FFF3
FFED
0002
FFFC
000D
FFFD
0003
FFEE
0004
0013
FFFE
0004
FFF5
0009
0000
FFED
0017
FFF8
FFFF
FFF2
FFF8
FFEF
FFF7
000F
FFF3
000F
FFF3
FFEE
0006
0014
0000
FFFA
FFFC
0003
0004
FFF3
FFF8
FFF8
0000
FFF5
FFFC
000C
FFFB
FFFA
000E
FFF0
0005
FFEB
0006
0001
FFEA
0000
FFEA
0003
0002
0007
FFFA
FFF0
FFF7
0006
000D
0010
FFED
FFF7
0012
0014
000D
0007
FFE9
FFF0
0002
FFF8
FFEB
0014
FFFB
FFFB
0012
FFE8
0001
FFE5
FFF3
0009
FFEE
0011
0002
0006
FFE5
0005
0013
000D
0014
FFFF
FFEF
FFE6
000B
0012
0013
FFF9
0008
0007
0013
000C
FFEF
FFFE
FFFB
0004
FFFC
FFEF
000A
FFF3
0003
FFEC
FFF6
FFF9
FFF6
FFE5
FFEF
FFFE
FFF5
FFFF
0012
FFFB
FFF0
000E
FFF6
000F
0013
000E
001D
0008
FFF2
FFF6
FFFD
0007
FFFB
FFEE
FFEB
0012
FFFB
0004
0012
0014
0000
FFF2
002C
0017
FFF1
0017
FFF1
0001
FFF2
FFFA
FFFF
FFF2
000D
0019
0000
001A
0014
FFEF
000E
FFEE
0003
000E
0012
FFF8
0010
FFFF
0013
FFFF
FFED
0018
FFF8
FFFB
FFFC
FFF4
0000
0015
FFFF
0011
0013
FFF6
FFF9
000C
FFF3
0010
FFFB
000A
FFF7
0015
FFFA
0007
FFF1
000F
FFFA
0000
000F
0004
FFEF
0003
FFF8
0015
FFFA
FFF5
0002
000E
FFFC
FFF4
FFF0
0002
001B
000F
FFFB
FFF8
0003
0006
000B
000E
0012
FFF2
001B
001C
0003
FFFA
0000
FFEF
FFFE
000D
FFFF
FFFE
FFFD
FFF6
FFF9
FFF6
000B
FFEC
FFE9
FFF6
FFEE
000B
0013
FFED
000E
FFF2
FFEE
FFFF
FFF8
FFF9
FFEE
FFFF
000C
000A
0009
000F
000E
FFF1
FFF8
0007
FFFD
FFFD
0008
FFEA
FFFC
FFFD
0006
FFFD
0006
FFF6
FFEC
FFFA
FFE8
0004
0006
0004
0000
000D
FFFB
0007
FFED
FFF6
0011
0000
0010
FFEA
FFF9
FFFA
FFFC
0005
0005
FFEB
FFF5
FFF0
FFEA
FFF7
FFFD
FFFE
0010
0005
FFFD
FFE7
0011
FFF0
FFFC
FFE9
000D
0003
FFF7
0002
FFFC
FFF6
0006
000B
FFF0
000C
0012
0001
0015
FFF3
FFEE
FFF8
FFFF
FFED
000B
FFF2
FFED
FFE7
FFFF
0003
FFE6
FFF0
FFE7
FFFD
FFFE
FFF4
0014
FFF8
FFF6
0007
0010
FFFF
0007
FFF8
0007
FFEE
FFF3
FFF1
0000
FFFB
FFFA
FFFA
000B
0007
000F
FFFD
FFEF
0006
0011
0003
000D
FFF4
FFF6
FFF3
000A
0013
FFF3
FFFE
0008
FFEF
000C
FFEB
FFF3
FFE9
FFF1
FFF5
0001
000D
0003
FFF0
0004
0008
FFF9
FFEA
0014
0003
FFEA
FFEA
FFF1
0013
0003
000D
FFE7
0015
FFEC
FFFB
FFF2
FFEE
FFE7
0000
FFE9
0013
FFF5
FFF0
FFEC
0012
000F
FFED
FFFD
000E
FFE7
FFED
0007
FFFE
FFF8
0012
FFE7
FFEC
FFE3
000B
FFF8
FFEE
FFFE
0002
FFFB
FFF9
FFF2
0002
FFF5
FFF9
FFEA
0004
FFFF
FFFD
FFEF
0014
0010
0001
FFFE
FFF1
000C
FFE9
FFEE
0013
0002
000E
0010
0011
0009
FFFC
0010
0009
0014
FFED
FFFE
FFED
FFEE
FFF7
0008
FFEC
FFE7
FFFE
0004
0002
0002
FFEC
000D
0010
0013
0013
0007
0002
FFFD
FFF2
FFFB
FFEA
FFEA
FFE8
FFFF
FFF6
FFE8
FFF8
0008
FFFE
FFFB
0009
0006
000A
0000
FFF6
0000
FFF2
FFEF
0005
FFFB
0014
FFF6
0015
0003
FFFA
FFFC
FFE0
000D
000E
0014
0010
FFF6
0019
0001
FFF1
0008
0004
0002
FFEF
FFF7
0003
FFF0
FFE8
FFFF
000D
001C
0007
000E
000C
FFF8
0012
0010
0003
000F
0014
002C
0013
FFEB
0001
FFF2
001C
0014
FFFC
0002
0017
FFF6
0008
FFEE
0004
FFF4
0005
0017
0011
FFF8
FFF5
000C
0017
0003
FFFA
001E
0015
FFFC
FFF3
0016
FFF4
0017
FFE7
FFE7
FFFC
FFF6
FFF7
0013
FFF4
0009
0005
0017
FFFE
0024
001C
0004
0014
FFF2
FFFF
0006
000D
0004
000C
000D
0002
FFF1
0017
FFFB
0002
FFF6
0009
FFE3
FFDF
0012
FFFA
FFF5
FFF1
0004
0001
0000
0003
FFF3
FFF3
FFF1
FFF9
0010
FFDE
000E
FFF8
FFF9
0017
0007
FFEB
FFFC
0006
FFF0
FFFE
0001
0013
0001
FFEE
FFFA
FFEF
000E
0008
FFF7
FFF7
0003
FFF1
FFF5
FFE4
0006
001C
0008
0009
0013
0003
FFFF
0006
0002
0021
FFED
FFF2
FFFF
000A
0009
FFF6
0009
FFF5
FFF6
FFF7
FFFE
000E
FFFB
FFF7
0001
FFF5
000D
0000
0008
0008
FFFA
0003
0009
0004
0013
FFEC
0014
FFFF
FFF3
FFF5
FFF5
0001
0003
0009
000A
FFEE
001B
0017
0018
FFF8
FFED
0006
0000
0010
FFEA
0013
0016
0008
FFF9
0007
FFEF
FFED
FFFC
FFE9
FFFB
0013
0009
0010
FFF7
001B
0013
0009
0022
FFE8
FFF9
FFF3
FFF5
000A
0011
0004
0010
0014
0004
000D
0018
000D
FFF2
0008
FFE5
0002
FFEC
FFF9
0006
000D
001B
0017
FFF4
0008
FFF8
0020
FFEE
FFF6
FFF8
0003
0003
0011
FFFA
0009
0010
FFEA
FFEC
FFF0
0005
000F
0001
FFF4
FFF4
0010
FFF2
001A
0002
FFFF
FFED
FFF9
FFF6
0017
FFFF
FFD4
FFF1
0005
FFF3
FFF0
0018
0014
0009
0016
0004
0016
FFF2
FFF8
0012
FFFE
FFEA
000E
0012
0000
0016
FFF1
FFEC
000D
0013
0013
0005
FFFB
FFEB
0008
000E
FFF3
0012
FFFD
FFF0
0010
000C
0000
000D
0002
0007
FFFF
0008
FFF6
0003
FFEC
0008
FFF5
0002
000A
FFF9
0010
000D
0001
0010
FFFB
FFE5
FFF8
FFF5
FFF0
000A
FFEC
FFEB
FFF2
FFFF
0009
FFFF
0011
FFF6
0014
0017
000E
0018
0023
FFFF
0004
0017
0009
000F
0011
FFF0
0018
0017
0018
000C
FFF6
0003
0005
000A
FFF3
FFD6
FFF5
000E
FFDB
FFEB
FFED
FFF9
0000
000A
0011
FFEE
0019
FFEE
0012
FFF1
FFFE
FFFF
0008
FFFC
FFEE
000C
0002
FFE8
FFF8
000D
FFFB
0006
FFEF
FFF4
0001
FFEA
FFFD
0007
FFF6
0000
FFEC
FFF6
FFE6
FFF7
0008
0003
0005
FFF3
FFEB
FFFE
0008
0000
000B
FFE8
000E
0004
0009
000F
FFFA
0005
FFE6
FFF9
0004
0003
FFF6
0002
FFED
FFEF
0002
FFF9
FFF4
000B
000E
000D
0005
FFE8
0010
000C
FFFC
FFF6
FFF2
FFF8
0012
0004
0002
0011
FFF9
FFEA
000B
FFFE
000B
FFEA
FFF2
FFF1
0006
0006
0005
FFED
0012
0004
0005
FFF7
FFF1
0006
FFE6
0000
FFF9
FFF8
0001
FFF4
FFE5
0002
0011
000B
0011
FFE7
0003
000E
0001
FFFA
FFF6
FFF5
000A
FFF0
0003
FFF0
FFF3
000A
0003
FFED
FFF5
000F
FFF9
FFE6
FFF6
0007
FFFC
FFEA
FFF3
0002
FFF0
0009
FFF1
FFF2
FFF0
000B
FFFE
0007
FFE2
FFE9
FFF4
FFF0
FFEE
000A
FFF2
0017
0012
0017
000F
0010
000F
0004
FFEF
FFF4
000E
0012
0000
FFFD
FFF8
FFF1
FFF2
FFE7
FFE1
FFF0
000A
0015
0006
0018
FFEC
0009
0002
FFF7
0010
0000
0007
0006
FFFC
FFF0
FFF5
0007
0015
FFF4
0006
0014
000D
0009
FFEA
0017
FFFD
000C
0010
0026
FFF1
FFEF
0011
FFF1
FFF9
0006
0007
0016
0002
0014
FFEF
0013
000A
000B
0008
0000
001A
0003
0012
FFFA
FFF0
FFF3
0001
0016
FFEE
FFF5
FFEF
0016
FFEE
0011
0007
FFEC
0005
FFF1
FFF3
0012
000D
FFF0
0002
0009
000B
0006
000F
FFEE
0002
FFFB
000B
FFF2
0014
FFED
FFF6
0011
0014
FFF2
FFF8
0015
000D
0007
FFF4
0006
000C
FFFA
FFDB
000E
FFF4
FFFA
FFFC
000B
FFF8
0000
000D
000C
0004
000B
FFF3
0017
0020
0000
0008
0004
0005
0011
0004
0004
FFF5
0005
0015
FFF7
000A
0014
0007
0007
000F
FFF5
FFFD
FFFB
FFF8
000D
FFDC
0001
0008
000B
0013
0002
FFF4
000D
0013
0015
0027
FFEE
FFEE
0016
0008
FFED
0002
0010
FFF5
0005
0006
FFFD
FFF5
FFF4
0004
001C
0001
0002
0016
000B
000A
0016
0010
000D
0004
000E
000A
000E
FFF3
0005
FFEE
FFF7
FFEF
000D
0014
0010
0001
FFF8
FFFD
FFF3
001B
FFFC
FFEA
0011
FFF0
FFEB
FFF6
0008
0015
FFF3
0011
FFF9
000B
FFFF
FFEE
0002
0002
FFEC
0016
FFEF
0021
0018
FFF9
0013
000D
0006
000F
0000
0020
FFED
0018
FFEE
0003
0007
FFF7
0009
FFF9
FFEB
000B
0001
0000
000E
FFE4
FFFA
FFF3
0003
0003
0001
0014
FFF2
000E
0006
FFF8
FFF3
FFE4
FFFB
001E
FFFD
FFF7
FFFB
0016
0012
0001
000E
FFEC
0010
FFFE
000A
FFEE
0004
FFF9
000B
0008
0002
FFEC
FFFC
FFE8
0013
000E
FFEF
001E
0009
0013
FFE8
FFFF
FFEA
FFFE
0003
FFEA
FFFB
FFFD
000E
0012
000C
0016
0010
000C
0005
FFF2
0012
0008
0015
0003
FFFC
FFF1
FFF9
FFEB
0003
FFE7
0003
FFF5
FFEB
0004
FFFF
0016
FFED
FFFB
FFFF
FFF7
FFED
FFF8
FFFE
FFFB
0024
0007
0001
FFEC
FFF6
FFEA
0006
0007
0008
0007
0000
FFEA
0005
FFFF
0011
FFFC
0000
0001
FFF3
0012
FFF8
FFED
FFE8
FFE7
FFF3
FFF2
000C
0006
FFF0
0005
FFF9
FFFC
FFFA
0014
FFEE
0001
0005
000B
FFF2
FFF3
FFEC
0013
000B
FFEC
FFFB
FFED
0005
FFEC
FFFD
FFF7
FFFF
FFF8
FFE9
FFFD
0006
0009
000D
0000
FFFA
0003
FFF3
FFF8
0002
000C
0002
0002
0005
FFF7
FFE8
000E
0000
000E
FFF2
FFE2
0006
FFF0
0005
FFFC
000B
FFF4
FFEA
0003
FFE2
000B
000B
001F
000F
0007
FFEB
FFF5
FFF7
000C
FFFD
0005
0004
FFF3
FFE1
000E
0012
FFF1
FFF8
FFED
FFF4
0001
FFFD
0010
FFF1
FFF7
0005
FFFE
FFEF
FFEF
0008
FFEA
FFE6
FFE3
FFF1
0000
0014
0006
FFF5
FFFC
FFED
0007
0010
FFEB
FFFB
FFEA
0009
FFF9
FFFA
FFF2
FFEE
0014
FFF3
FFEC
FFEB
0001
000E
000C
000F
000A
FFEC
000C
FFE5
FFEE
000F
FFF7
FFF9
FFE8
0011
FFED
0004
FFF6
0005
0000
0003
0000
0004
000B
0014
FFF5
0007
FFF0
FFED
FFF4
FFEB
0006
FFF1
FFF0
0007
0004
FFE8
FFF4
0008
FFE3
0002
0009
0004
0011
0007
FFEB
0009
000F
0001
FFF0
FFF0
FFEE
FFFD
FFF0
000A
000A
FFFA
0003
FFFF
000A
0003
0012
0011
0009
FFFE
FFEE
FFEF
FFEF
FFFE
001C
000F
000A
FFFA
FFF9
FFF0
FFCF
FFF5
0019
FFF2
FFF5
FFF1
FFFB
FFEF
FFEB
0005
0013
FFF8
FFFD
0000
FFEB
FFF4
FFF5
FFF2
FFF6
0010
0009
0006
0013
FFFA
0002
FFF3
FFF7
FFF6
FFF8
0017
000C
FFF1
000C
FFEE
0019
FFEB
0007
000D
0011
0012
0003
FFF9
0017
000B
FFEC
0002
0014
FFF4
FFF2
FFF4
0004
0016
FFEF
FFF5
FFFE
FFF9
FFFF
0014
0015
FFFF
FFF8
FFE4
FFFC
0005
FFFB
FFEC
FFF7
FFF1
FFF4
0007
000F
000F
0014
000C
FFFD
0007
000E
FFF9
0005
FFFC
000E
FFEE
FFF8
0009
FFF4
0004
FFF6
0005
0018
0003
FFF5
FFFE
FFFF
0004
FFEA
0019
FFFC
0010
0015
0000
FFF8
FFEA
FFF0
FFEF
FFDB
FFF9
0010
FFFD
FFFD
FFF6
FFEC
000A
0009
0009
000B
FFF6
000A
0002
FFF8
FFF7
FFF0
0009
FFFB
0002
0006
FFE8
FFEB
FFFC
FFFA
0009
FFFD
FFEA
0006
0009
000C
FFEB
0007
FFEF
FFEF
FFEA
FFFC
FFF6
000C
0005
FFF9
FFF2
FFF3
000D
FFED
FFFF
0001
FFF1
0004
FFF9
FFF0
0012
FFFE
FFE9
FFFB
0002
000D
FFFA
0006
0002
FFEC
FFFD
FFF8
FFFB
FFFD
FFF8
FFEE
FFFA
FFF8
FFF9
FFF8
FFF9
FFEB
0002
FFF5
FFEB
000B
0007
FFEC
FFEE
FFEE
FFEF
FFF0
FFEE
0011
0019
FFEF
0007
FFF6
000A
0006
FFFA
FFFD
FFEA
000B
FFEA
0003
FFF4
FFF9
0011
FFEA
000F
0004
FFF7
FFEB
FFF2
0012
000F
FFFE
000B
FFFC
FFE7
FFFD
FFED
0000
0012
FFE7
FFF7
FFFA
000F
0010
0014
FFFF
FFE8
0000
0003
0008
FFF9
FFEE
FFFC
FFFF
FFFD
0011
FFF5
0016
FFE8
000A
FFEC
FFFA
FFFF
FFEE
FFE7
0000
FFE9
0005
FFF2
FFFD
0011
FFFA
0006
FFF9
FFF9
FFF3
000D
FFF7
0002
0007
FFF5
FFF3
0003
FFF8
FFEB
FFF5
0014
FFF7
FFFB
FFEB
000D
FFED
FFEA
0003
FFE7
FFF1
000C
FFF7
0005
0011
0010
FFE7
000C
FFEF
FFFC
0002
FFEA
000C
000A
0006
FFF4
FFF8
FFFD
FFF3
FFFD
0011
0006
0000
FFF9
000D
0010
FFFD
FFF7
0006
FFF4
FFEF
FFF0
FFF0
FFF8
0008
0004
FFE9
000B
FFE7
FFF3
000C
FFED
0013
FFEE
FFEF
0009
FFED
0004
0007
FFE7
000F
FFF5
000A
FFF9
FFEB
FFE8
000C
FFF9
0006
FFFC
FFEA
0000
0006
0007
FFEE
0013
FFF7
0003
FFF7
FFEB
FFEB
0014
FFFF
0013
FFF2
000D
000A
FFEB
FFFE
0000
FFF6
FFF2
0006
FFFB
FFFB
0012
FFE8
FFF7
0013
FFE7
FFF1
0004
0001
FFF5
FFFF
FFFD
0006
000E
FFEC
FFF2
000C
0005
0012
0003
FFEB
0004
FFE9
0012
0019
0000
0014
FFF0
0010
000F
000B
FFF6
0000
0008
000A
0006
0011
0002
FFFA
000F
FFF9
000D
000E
FFE8
0002
FFF3
FFFF
0010
000D
000A
0009
000C
000F
0006
0001
0001
FFFA
FFFA
FFF8
FFE9
FFF1
0013
FFFA
FFEB
000E
FFF8
000E
0007
FFE7
0005
FFEB
FFFA
FFF2
FFEC
000A
0004
FFEB
0004
FFEB
0002
FFF4
FFF9
FFFE
0008
0008
FFFA
FFEA
FFF1
FFF6
000B
FFFA
FFEE
FFF0
FFF3
000A
000E
FFEF
0002
0012
FFF6
0013
FFEC
0008
000F
FFF5
000E
0013
0003
FFF4
FFEC
FFF3
000E
0003
FFF8
0003
0012
FFF5
0005
000B
0007
000C
0009
FFE7
0007
0017
000A
0014
FFE9
0014
0014
FFFC
FFF6
FFF1
0016
000A
0007
0012
0004
FFF0
0010
0005
0008
0010
FFF5
000B
0000
0001
FFF6
0014
FFF7
FFEC
FFE5
FFD8
0004
FFFA
FFFD
0011
0007
FFF7
FFF3
0008
0006
0004
FFF2
0004
0013
0002
0016
0009
0010
0001
000F
FFFF
0010
0002
FFFA
FFF1
001D
0005
FFE7
FFF8
0031
000B
FFF5
0004
FFF3
0009
FFFF
FFFE
000B
0005
000D
0006
000A
0017
FFEC
0000
FFF9
000F
0001
0004
0015
FFF0
0007
0002
0004
FFF9
FFFF
FFF8
FFF5
000D
FFF6
FFFF
FFF2
FFEE
0016
0009
000E
FFF8
FFE7
000B
0005
001F
0025
0012
FFFE
0004
0000
000E
FFFF
0012
000E
0004
FFF5
FFF3
000E
000E
FFF2
0001
0007
FFFE
FFDA
FFF9
FFEB
FFF1
FFF5
FFFF
FFFF
0001
000C
FFFE
000F
0019
0012
FFF7
0011
FFEB
000D
0011
FFEB
0002
0016
FFF9
FFF6
0010
FFEF
0005
0005
000D
FFF9
FFF0
FFF1
0009
0011
FFFC
FFE8
000C
0002
0008
FFEE
FFE3
FFED
FFFC
000B
FFFB
001C
FFF7
FFF3
FFF6
0007
001B
FFF8
FFEE
0008
FFF1
FFEA
FFF8
001E
001D
FFF7
FFF9
0017
0003
FFF1
FFF6
FFF9
0008
0000
FFFF
003C
0001
0006
FFF2
0013
0002
FFFA
0011
000D
000F
FFE8
000D
FFFF
FFF5
FFFE
FFFF
FFFD
FFF4
000B
0000
0012
000A
FFF6
FFF7
0006
0017
FFF3
FFF5
0008
FFFF
000F
FFE5
FFDA
FFEA
000F
0006
0009
001D
FFE0
0006
FFF0
000F
002B
FFFB
001B
FFE7
FFFC
FFF9
FFFB
FFFC
0012
0000
0002
FFFF
0012
0001
FFF3
0021
FFFF
001C
FFE7
FFDF
FFFE
FFD7
FFE4
FFF4
001F
0013
FFF4
000E
FFEA
000D
FFE5
0021
0014
FFFB
FFF3
0015
FFF8
FFF7
000B
0005
FFF2
0014
FFED
FFE8
0004
0018
000F
FFF6
FFF7
FFED
FFEA
0010
FFFD
0009
FFFF
0016
0001
0008
FFF6
FFFA
FFF0
0014
0007
0005
FFFF
FFFF
0012
FFFE
000A
FFEB
FFF3
0012
FFEB
FFEA
FFFB
0014
FFF0
FFFF
0005
FFFF
FFF1
0004
000B
FFF3
FFEF
FFF2
002D
FFFB
FFEA
FFF4
FFF8
0015
FFEC
FFF4
FFFA
FFF1
000C
0011
FFEB
0000
FFF1
0022
0004
0013
0002
FFEE
0014
0001
000C
FFF8
FFF5
FFF5
FFF5
FFEE
FFF1
000E
FFF3
FFEE
FFFD
0005
FFED
0007
0003
000F
000D
000E
0013
0009
0028
FFFE
FFF0
FFEE
0000
0002
FFE9
0003
FFFE
0008
0016
0002
FFFF
FFF2
0008
0000
FFFA
FFF0
FFED
FFF3
FFEF
FFE8
000F
000B
0004
FFEF
000B
0006
FFFA
FFF9
0014
FFFC
FFEC
FFE3
FFF0
0012
0000
FFF8
FFEE
0014
000C
0019
0011
FFFE
0003
FFF9
FFF3
0006
0007
FFF8
FFF0
FFF8
0007
0014
0003
FFF8
FFFD
FFE6
000D
001A
FFF2
FFF3
0007
0014
FFF7
FFF3
001E
000F
FFF8
0007
0004
FFFC
FFFC
FFF7
0002
001B
0007
FFFA
0010
0014
0000
FFF5
0008
0007
FFE7
0001
000D
FFF8
FFEE
000E
FFF3
FFFF
FFEF
FFF5
0000
000B
FFF5
FFFC
0011
FFF3
000B
0002
000C
FFF6
0000
000D
0005
000B
0011
FFEE
001C
FFFC
FFE7
000A
FFFA
FFF6
FFF2
FFF8
FFE1
0001
0019
000F
FFEE
FFF7
FFEC
FFF7
FFFB
0008
0015
0021
FFE9
0000
0008
FFF4
FFF5
0021
FFFC
FFF5
000F
FFF9
0007
0012
FFEF
0009
FFE7
FFF0
FFF8
FFEC
FFFC
FFE8
FFE5
0004
FFFD
FFEF
FFFF
FFF3
FFF4
000D
000D
0001
FFEE
0004
001E
0007
0016
FFF5
FFF7
FFF2
FFF0
0008
0012
FFEA
FFFF
0006
FFF2
FFFC
FFE7
0007
FFF1
FFFA
FFE7
FFF8
FFFE
FFF1
0005
FFF7
0006
FFF8
FFF8
000E
FFF9
FFEC
FFE7
FFEA
FFFA
FFFB
FFF1
FFF6
000B
FFFA
FFF6
0005
0002
0012
000A
FFFD
0007
000A
0006
FFF7
000D
0003
FFF1
0006
0000
FFFB
FFF6
FFF3
0007
FFF4
0006
0012
FFFD
0010
0009
0012
FFF9
0006
FFE8
0010
FFFC
0003
0010
0006
0006
FFE6
FFF8
0015
FFF7
FFEA
000E
000A
FFF9
FFEE
0001
000E
FFEC
FFF3
000C
0007
0010
0007
FFF7
000E
FFE8
FFFA
FFFF
FFE4
FFF6
FFF3
FFEF
FFFB
FFF2
FFE4
FFF7
0012
FFF6
0000
0001
FFE8
000C
000C
000F
FFF2
FFEC
FFE5
FFED
FFEC
FFE7
0013
0008
FFE9
FFEF
FFEB
FFEC
FFF5
0005
FFED
0002
000B
FFFA
FFF6
FFFF
0013
FFFF
0013
0010
FFF8
FFF6
FFFF
FFF8
001E
000F
0003
FFF9
000D
0009
FFF0
FFF5
000A
000B
0013
0009
FFF5
0011
0007
0014
000E
FFF2
FFF5
FFF0
0005
FFFC
000D
0014
0000
001C
0003
FFF0
0007
000D
0000
FFF3
000B
FFEF
0001
FFEF
FFFD
000D
FFF2
FFFF
0014
0006
FFF2
0005
0010
001A
0001
0002
FFFF
0016
FFEF
FFFA
FFF0
000A
000E
FFEC
0004
FFF0
0015
000D
FFF0
0015
000C
FFF3
000D
000F
FFFA
FFEC
FFF2
0002
FFF4
FFF1
0005
0002
0013
FFF2
0010
FFEC
FFED
FFF3
000C
0007
0014
001E
FFF7
FFEA
0001
FFFA
0002
FFFE
002C
0007
000B
FFFD
FFF3
000A
0014
FFFA
FFF2
0010
0017
0000
001B
0013
FFE7
000D
FFF4
FFF4
0019
000B
000A
FFFB
000B
0011
FFFC
000A
FFFE
0013
0022
001D
FFF1
0015
000F
FFF9
0001
001A
0017
0016
0001
0019
FFF2
0010
000A
FFF4
FFF3
0007
FFEE
FFFF
0002
FFF6
FFE6
0013
0016
0009
FFFF
0015
0013
0008
FFFD
001A
0002
FFFA
0010
FFFC
0011
FFFF
FFE6
FFF3
FFFC
FFFA
FFF1
0012
0018
0012
FFEB
000E
FFF2
FFE1
0001
0002
FFFE
0002
FFFD
0014
FFFE
0014
0008
000D
0004
FFF3
000E
FFFB
FFF3
0007
FFFF
001E
FFE9
FFF9
FFF8
FFED
0015
0015
FFF0
000F
FFFD
FFED
FFFE
0010
0015
FFFD
FFF3
FFDD
FFFE
0009
000D
0007
FFFE
FFED
FFFD
FFF2
FFF4
0003
FFFE
000E
FFF8
FFFB
FFFE
FFFB
FFFD
FFED
FFFA
000C
FFFC
000A
FFFB
FFED
0013
FFEE
000D
FFED
FFEE
FFF4
FFE4
FFFC
000A
0008
FFF1
FFEB
FFEE
FFFB
001B
FFFA
FFFC
000B
FFE6
0017
000D
FFE4
FFFC
000D
FFF5
000B
FFFD
001D
000D
0016
FFFF
0001
FFFF
0001
FFEE
0011
FFFD
0008
0012
0013
FFFB
FFDF
FFD6
000C
0027
0012
FFFD
FFED
0009
000F
0010
0004
0005
0003
0004
FFE9
000C
FFEA
FFFC
000F
0012
0001
FFFD
FFF2
FFF1
FFEB
FFF4
FFFA
FFFD
FFF6
0011
0024
FFF2
FFFB
FFEF
0018
0010
0011
0001
FFF6
FFEA
000B
FFF7
000F
0018
0012
FFF0
FFFD
FFF0
001A
FFFB
FFFE
0010
0008
0007
001B
FFFE
FFEA
FFF4
001A
000B
FFF8
FFF5
FFF2
0011
000F
0003
0011
0003
FFEB
0014
FFFF
000E
0020
0019
0016
FFEA
000A
000A
FFFF
0011
0007
0014
0018
0003
0003
FFF5
FFEF
FFF8
FFE6
0000
FFDC
FFF7
FFFF
FFEC
FFF4
FFFE
0005
0005
FFE6
0000
FFEA
0018
FFED
001F
0012
FFE4
FFF7
FFFB
0001
FFEB
FFF1
0014
FFED
0000
0019
0016
0004
0010
0011
FFFC
0007
000A
FFF7
0008
FFFF
000D
FFF8
0016
FFF2
FFFB
0004
001E
FFF8
FFEF
FFEF
FFF1
FFFB
0014
FFF4
FFFC
FFF4
000E
0006
0010
0002
0006
0005
0004
0007
FFEE
FFFC
0018
FFEE
FFFE
FFF2
FFF9
FFF3
FFFB
0004
FFFC
FFF7
0006
0010
0005
0015
FFFD
FFFD
FFF9
0012
FFF1
0014
0003
FFEF
FFED
FFF7
FFFC
0003
0006
0004
000E
000B
0003
001C
0017
FFF4
0003
001C
FFF2
FFF5
0004
FFF7
FFF4
0012
000D
0017
0017
FFEC
FFF7
0012
FFF7
0010
0021
FFF3
FFEE
FFFC
0016
FFFE
0013
FFFC
000D
0003
0002
FFEC
0010
FFF6
FFF5
000E
0017
FFDB
FFEF
FFF2
FFF3
FFF2
0014
000F
0010
000E
0000
0004
FFF5
0016
001A
FFFF
FFF7
000F
000E
FFFD
0014
000D
FFFD
0013
FFF1
FFF8
FFF4
000E
FFF1
0004
FFFB
FFEA
0002
0000
FFED
0001
0009
FFE9
000C
000B
0010
FFF9
000F
FFF7
000D
0003
FFEA
FFEA
0000
FFE8
000A
FFFF
0004
0014
0008
FFF9
0013
FFFF
000A
FFEB
0005
FFFD
0000
000C
FFF7
FFF3
FFF5
FFFF
FFF9
000F
FFF1
0005
FFF9
FFF1
FFF8
FFEB
0007
0004
0007
FFED
FFED
FFEE
FFE7
0009
FFEC
0015
FFF3
FFF0
000C
000D
0004
FFE8
0011
FFED
FFF5
FFFF
FFEA
0011
FFEC
FFFE
000A
0016
0016
0011
FFEA
FFF8
FFF2
FFFE
FFEF
FFED
0010
0000
0019
FFF2
FFF0
FFF6
FFF4
FFF3
000C
0007
FFEB
0003
0009
FFFB
FFFC
0000
FFFA
0006
0010
FFF6
0002
FFFA
FFFF
FFF5
000B
0004
FFF4
FFFA
0008
0000
0013
FFEC
FFFC
FFF2
0011
FFFC
0000
FFF1
FFF8
000F
0013
0003
FFF0
0017
FFF9
FFED
0005
001B
FFF7
0007
0004
0003
FFF1
0010
FFF0
0009
000C
FFFF
0022
FFFB
0016
FFE9
000F
0014
0014
0005
FFFF
0014
0012
000A
FFEF
FFF2
FFF6
FFFA
0004
FFF6
FFF2
001C
0004
FFF9
0011
FFF3
FFF0
0012
FFFD
000E
000D
002E
FFF7
0013
000A
0012
0002
FFFF
FFFD
FFFF
000E
0016
0005
FFFB
FFF5
FFEF
FFFB
000D
0002
FFF1
000A
FFEF
FFF0
0011
FFF1
FFF1
FFF1
0005
0018
FFF4
000F
FFFB
0009
0007
0004
FFEF
FFFE
0000
0005
FFF8
FFF7
FFEE
000B
0024
FFFD
0023
FFEB
FFFA
0009
0009
FFED
0003
FFF7
FFFD
FFFA
FFED
FFF9
FFFC
001A
FFFF
0016
FFFD
0007
000D
0003
0009
0008
000D
0004
FFF0
000B
0010
0004
000C
FFFC
000E
FFEE
FFF6
FFEC
FFF2
FFF3
FFF6
FFF3
0009
001A
000D
FFF7
FFEC
FFF8
FFF8
FFEB
0017
FFFD
FFF6
0010
0007
FFFD
FFFB
FFF9
FFE4
FFED
000F
0022
0000
0015
FFF3
0008
000D
000D
0000
0012
0005
FFF4
FFF7
FFFC
0012
FFFD
0016
FFF0
0003
0001
FFFE
FFF7
FFFC
000A
000F
0017
FFE7
0008
000F
FFFC
0009
FFFA
0017
0011
FFF3
0006
FFFE
0018
FFE9
000B
0011
0005
FFF0
FFFD
000D
FFFB
0012
000F
FFFA
FFFE
FFFD
FFFC
001D
0001
FFDE
0012
FFF9
0016
0006
FFFE
FFFF
0007
0010
FFF3
0004
0013
000F
FFEA
FFE9
FFFE
0000
0023
FFFB
FFEA
0018
FFF9
001B
FFFB
FFF1
FFFA
FFFF
000F
FFF5
FFF6
FFEF
0017
FFF4
0014
FFF4
0003
0002
FFE5
FFE5
FFFD
0011
0007
000D
FFFF
FFED
001B
0002
FFF3
FFFA
FFE2
0016
FFF3
0004
FFF7
0008
FFF1
000F
FFF9
0007
0008
FFFB
FFFA
FFF6
FFF4
0008
0015
FFF2
0016
0012
0003
FFF8
0008
0000
000F
FFF5
FFFA
FFFA
FFED
001A
000C
0014
FFFA
0006
000B
FFFC
0014
0006
0014
FFEE
000E
0001
FFFB
000B
0001
0006
000B
0014
FFF0
FFF9
0015
0006
FFEF
0029
0011
FFFE
FFF7
0011
0012
000F
FFF1
000D
0005
0017
0001
0017
0016
0002
000F
FFF9
0016
0018
0003
0016
0009
0000
0013
FFFA
FFEC
FFF1
FFF0
FFF9
0014
0005
FFEF
0007
FFFB
FFFD
FFF2
0005
0005
000A
0017
000F
0005
0011
0009
FFE7
0011
FFF6
FFF3
0005
0008
001A
FFF3
0004
FFFD
0001
0019
001B
0011
FFF4
FFFB
000D
000C
FFEB
000D
FFFB
FFF9
0008
0011
000E
0019
0006
000B
0000
0005
FFFA
000F
0018
0020
0016
FFEA
FFEE
0002
FFF4
FFE6
0004
FFE6
0009
FFEE
FFF7
0009
0012
000A
0003
0000
FFFC
FFFB
FFF5
0010
FFE7
FFF3
FFF3
FFE4
FFF7
0005
FFF6
FFFC
000D
FFF1
0003
FFF1
0005
FFEE
FFE8
FFFF
0010
FFEB
FFE8
000B
FFFD
FFF1
0000
000A
FFFD
0010
FFEE
0005
FFEA
000B
000F
0005
FFE9
FFF1
0002
FFF2
000E
FFFC
0008
FFFE
000C
000B
FFF0
0002
000C
FFF3
FFE0
FFF5
FFFE
FFF3
0001
0012
FFFD
0003
FFF2
FFEB
0010
0002
0004
0006
FFFD
0005
FFE9
FFF4
FFFB
0007
FFFD
0003
FFF5
FFFA
FFF8
FFF5
FFF9
FFE6
0011
0012
0009
FFEC
FFFE
FFF0
FFEC
FFF9
FFEC
0002
0016
0005
0001
FFF4
FFEC
000D
000E
0010
0010
FFF4
0012
0004
FFF5
0004
FFE9
FFF8
FFEB
FFFD
000B
0009
FFEC
FFF3
000E
FFEA
FFEF
0011
000F
0006
FFFA
FFF1
FFF5
0000
FFF0
FFF9
FFF2
0011
000F
0011
000C
0011
0013
000F
FFFF
FFF2
0010
FFCE
0009
0022
0013
0013
000D
000F
000B
0002
0005
000A
FFFF
FFFC
0012
FFEA
0016
FFF5
0002
FFFD
0012
0009
0000
0019
000B
FFEF
0015
FFEC
FFFB
0001
001D
000B
000F
0006
0011
0018
0006
000D
FFFF
0010
FFED
0002
0005
0013
0001
FFEC
000E
FFED
0013
FFFF
FFF4
0007
000E
000D
FFF9
FFF8
FFFE
FFFB
0018
FFF0
FFF1
000C
FFF5
0009
FFF9
000B
0017
0010
FFE7
000B
0018
FFFE
FFFB
0003
0010
FFF9
000F
0009
FFF3
0002
0001
FFF9
FFFF
FFEE
000B
0000
0006
0006
0007
FFFD
FFE4
FFFF
FFFB
FFE7
FFF6
000F
FFFC
0003
FFFD
FFFD
000C
FFFB
000F
0017
000F
FFE8
FFF9
000D
0003
0000
FFED
FFFC
FFEE
0013
0012
FFFB
0009
FFF5
0016
FFF3
0006
FFF3
0006
FFFE
FFE6
0015
FFFE
000A
FFEB
FFD8
0003
0023
0007
0015
0009
0016
0013
0015
0020
0029
FFF9
FFF1
0017
FFF1
FFF5
FFFF
FFF1
FFFC
FFFC
000B
FFEE
FFFB
FFF1
0013
FFF6
0008
FFF8
0005
0032
0004
0010
0010
000B
0004
0009
FFEE
FFFB
000B
000A
0012
FFF4
FFF4
0007
FFFF
000B
FFFB
0017
FFF4
FFFF
0009
000A
FFFE
0000
000E
FFF5
0011
0006
FFF9
0004
000E
FFEB
0005
0011
FFE8
0018
000D
FFFF
0011
0004
0002
0015
000D
0006
0004
FFEE
000D
FFFF
FFFB
FFFF
0012
0003
000D
FFF6
0012
0016
FFF6
FFE6
FFF6
FFDF
FFEB
0002
FFDC
FFFC
FFEC
000B
0008
0007
0015
FFF2
0019
0005
000E
0013
FFDF
000B
000F
FFEB
0003
FFF9
0014
FFFA
FFF4
FFFE
0013
000E
FFF8
FFEE
0002
0013
FFFD
FFF3
FFFD
FFF6
FFED
FFF4
0003
FFEE
FFEA
FFED
FFFB
000F
000A
FFF0
0007
FFE9
FFF8
0003
000F
FFFA
0008
0004
FFEE
FFF6
FFE6
0008
0000
0012
FFF9
000C
FFF1
0015
FFF2
0019
000A
FFFC
0011
0031
0003
0014
FFEE
FFFC
0007
0012
000F
000B
000B
0006
FFF7
0001
0013
0010
0014
000C
FFF8
0005
FFF7
FFF7
000C
0003
FFF3
FFF9
0004
FFFD
FFF7
0017
FFF3
0016
000E
FFE5
FFEC
0014
0010
0003
0001
000E
FFFA
0007
0019
001C
FFFC
0001
000A
0015
0007
0014
FFFB
000B
0017
FFFC
0008
0015
FFF1
FFEF
000C
FFF4
001A
FFFB
FFE5
FFFA
FFF4
0003
0003
FFFF
FFFA
FFF0
FFFB
FFEA
FFF8
0002
FFF9
FFF4
FFE1
FFF4
0016
FFED
000E
0019
FFFE
FFF6
0013
0000
001C
0007
FFF7
000C
FFF1
FFF3
FFF7
000F
0003
0007
0000
000B
FFF8
FFFB
FFD5
FFF3
0001
FFEB
FFFA
FFF4
0016
000F
FFF9
FFFC
001D
FFFC
000B
0018
0014
000D
FFDD
FFF9
000B
000A
0005
FFEB
0015
FFFD
0015
0016
0005
FFFD
001D
0012
FFFF
FFFC
FFF5
FFF5
FFFF
000E
FFFA
000E
FFEF
FFFE
FFEE
0005
0014
0016
0000
001F
FFFF
0008
0013
FFFB
0009
FFFB
0016
0005
0007
0000
FFEE
FFF1
FFFF
0002
FFF2
FFFD
0000
0005
0006
FFF8
000F
FFDC
000B
FFF8
0007
0020
0013
FFFD
FFF0
FFEF
0001
0016
0002
FFFF
0020
0003
0017
FFFC
001B
0000
0005
FFEA
0017
FFE9
FFDF
000C
FFFC
0001
FFF3
001B
FFFD
FFF3
001A
FFF5
000F
FFE6
FFF5
000F
FFE8
001C
001B
0006
0004
FFF5
FFF3
FFF4
FFF1
001E
0004
0022
0008
0019
0001
0008
FFFF
FFED
FFF6
FFF7
FFF5
000F
FFF8
FFE1
FFD9
000F
000C
0000
FFFD
0015
0017
FFF8
FFEC
0024
0012
FFF4
0011
FFE6
0013
000A
FFFB
0000
0020
0007
FFF1
FFFA
FFF0
000D
FFFE
FFF1
FFEF
FFF2
0003
0015
000C
0006
FFEF
0013
0003
0007
0005
0017
FFF6
FFEA
FFFE
0002
000A
0005
FFF5
FFFA
FFEF
FFF4
0009
FFFA
FFF9
000C
FFF0
0017
0005
FFE2
0008
000E
FFF4
000E
FFE6
FFE7
0000
FFED
FFFD
FFFA
0014
FFF3
FFFA
0010
0018
0020
000B
001C
FFF7
000C
0005
000C
FFF4
0012
FFFB
0015
0009
FFEC
FFF5
FFF7
0009
0007
0007
FFE3
FFEE
FFF4
FFDC
FFFF
FFFB
FFF5
0013
FFFE
FFFC
FFE6
0006
FFE4
0001
FFF7
FFDE
000B
0010
000D
0016
0004
FFF4
FFF1
0012
FFE8
FFFF
0011
FFF9
000E
0007
FFFD
FFEC
FFED
FFF1
FFFA
FFFD
FFFD
FFF2
FFF5
0009
0001
FFF7
0007
0009
0013
FFFE
FFE6
000D
0005
000E
000A
0010
FFFC
FFEE
FFEA
0006
FFE7
FFED
FFFD
0001
FFF3
000F
0004
FFFA
000B
000D
FFF5
FFF1
000E
0009
0003
FFE9
FFFC
FFF3
0013
FFEA
FFEF
000F
FFF8
FFFE
FFF0
000E
0002
0008
FFEE
FFF0
FFF3
FFF5
FFFC
000A
0009
FFF2
0000
FFFB
FFF8
FFF1
FFE6
FFFC
FFF3
FFF3
FFEE
FFFF
000A
FFF7
FFFA
FFE8
FFFB
FFF0
FFF6
0008
000E
FFF7
000D
FFEC
000B
FFE6
FFFE
FFEC
0002
FFF4
FFF9
0011
FFF1
FFE7
FFF5
FFFF
FFF8
0013
FFFB
FFF8
FFF3
0000
000D
0013
FFF9
FFEF
FFFE
0000
0003
FFEF
FFF5
FFE7
FFF0
FFF0
FFEC
FFFC
FFF5
0010
FFF3
0010
0007
FFF4
000B
FFEE
FFE6
0010
FFF2
FFFA
0011
FFF3
000C
0004
0001
FFE9
000D
0008
FFF5
001E
FFF9
FFEF
FFF4
0002
0009
0005
FFE9
FFEA
0009
000A
000A
FFF4
000D
0003
0009
000A
0001
0007
0004
000A
000B
FFED
0015
FFFA
0013
0011
0008
FFFA
0021
0001
000D
FFF7
FFF6
FFE7
000A
FFF1
0011
FFEF
0006
FFF3
FFF3
FFF8
FFE5
FFF6
001D
0006
FFF9
0002
0008
0011
FFEA
FFFC
FFF2
0011
000B
FFFD
000D
0001
0011
FFEE
FFFC
FFF2
FFFA
FFE8
FFFE
000A
0001
FFFB
0002
000A
FFF5
000A
FFFC
FFFD
0004
FFEE
0006
0036
0011
FFE6
FFEA
0012
FFFD
FFF8
0009
0000
FFE3
FFE9
0018
0012
FFEA
001A
FFED
FFF7
000E
FFF7
FFE3
000C
FFE7
FFE9
FFFA
0009
0014
0015
0009
0001
0002
FFEF
FFFD
000B
FFED
FFF3
0006
FFE8
000E
FFEB
FFEF
FFF0
FFED
FFEF
FFF5
FFEC
FFED
000C
FFF2
0005
0002
FFF6
FFFE
FFFD
000E
FFF4
0008
FFE9
FFFE
FFF2
0006
FFFC
0012
0001
000A
0000
FFFD
FFE8
000F
0012
FFF9
FFF7
000F
0007
0009
0013
0003
FFF4
0001
000C
FFE7
FFF9
000A
FFED
0007
FFF7
0000
000B
FFF8
0000
FFF2
0012
0001
FFEE
FFFA
0002
FFEA
0002
FFED
FFEC
FFE9
0002
0011
0011
FFE8
000F
FFFE
FFF8
FFE9
FFF6
0010
FFFA
FFF1
FFF1
0013
FFE9
FFED
FFFC
000F
000D
0010
FFE9
0012
FFF9
FFF8
0012
000B
FFEC
000F
0004
0003
FFED
000D
FFEE
0015
0005
000D
FFFA
FFF6
FFE6
000E
FFF8
000B
000F
FFF8
FFFC
0011
FFEA
FFFE
FFF0
0013
0007
FFFD
FFF7
0008
FFE9
0012
FFFA
000A
0007
0008
FFF2
FFFB
0010
FFED
FFF4
000B
FFFB
0012
0004
0014
FFFB
FFF9
FFFE
FFE7
FFF4
0014
0010
FFFC
FFEE
FFEB
000B
000E
FFF8
0018
0006
0004
0008
FFFA
000F
FFEA
0004
000F
FFEC
FFEE
FFF2
000F
FFF6
000A
0003
000C
FFFA
FFF9
0009
001D
0005
000A
001A
002D
0003
FFF8
0016
FFFB
0015
000B
0011
FFEB
0011
FFEA
000F
FFFC
0019
000F
0003
000B
0005
FFED
000A
0000
FFF7
0005
0000
0008
FFFE
FFE1
FFFB
000A
FFF4
0015
FFFF
FFDF
0000
0015
FFED
0016
FFF1
FFFD
0016
FFFB
FFFE
001B
001B
0001
FFFD
FFF1
0014
0006
000E
000E
000B
0013
000F
0010
001B
FFF7
000C
0001
0004
FFE2
FFF6
000E
FFEF
FFEF
FFFA
FFF4
000F
FFF6
0007
FFEC
FFF8
FFF1
FFF2
0009
0004
FFFD
FFF8
000A
000E
0014
000E
FFED
0014
0001
0001
FFEC
000D
FFF3
000F
0006
000A
FFEF
0010
FFFE
0009
0019
000B
FFF6
FFDD
000E
001A
FFED
FFFC
FFFE
0001
FFF7
FFFD
FFFD
0011
0008
0014
0009
FFFF
FFF2
0010
0005
FFFC
FFF1
FFF3
FFF6
0015
FFEE
FFF5
0017
FFF5
0002
001A
0006
000C
FFF5
FFF9
0019
FFFA
0001
0012
0003
FFED
FFEC
FFF9
FFFD
FFF9
0013
FFE9
0004
FFEF
0005
FFFB
FFF3
0012
000C
0015
0017
000D
FFDF
FFF9
0007
FFFB
0007
FFFE
0001
0009
FFF2
FFF0
0006
000B
FFE8
0014
FFFD
001F
0001
0012
000F
FFF5
0019
FFF0
001A
0008
0013
FFF5
FFFF
0009
0005
000E
FFF3
0015
FFE9
0001
FFF6
FFE5
000A
FFE9
0009
FFF9
0011
FFFD
FFF3
FFFB
FFFF
0011
000E
FFFC
0002
FFE7
000B
0007
0006
0007
0002
FFFD
FFF9
0012
FFE8
0015
FFEF
000C
0006
FFFE
FFF2
0001
FFEE
0001
0002
FFEC
FFF5
0002
000B
FFE6
FFE7
FFF5
FFF3
FFF0
FFFA
FFF1
0019
FFF6
001A
000F
0006
FFF6
0002
FFEA
FFF0
FFFA
0008
000A
FFFD
000A
FFFB
0016
0003
0007
FFEC
0012
FFF0
000E
FFFC
FFEC
0001
FFF9
0010
FFF2
FFFA
FFFD
FFEC
FFE9
FFEE
FFE9
FFFC
0012
FFF5
0001
000D
FFFC
FFEC
FFF8
FFF0
FFEA
0006
FFED
0012
0004
FFF0
FFFC
FFFA
FFFC
FFEC
FFF6
FFF8
000A
FFF8
0011
0013
0014
FFFA
FFF5
FFF0
FFED
FFFA
0009
FFE8
0009
0012
000A
0008
FFF2
0004
0000
FFF0
FFEC
0012
FFFF
FFF5
0002
FFFF
FFF1
FFF8
0009
000D
FFE0
FFF4
FFED
FFF1
0014
FFFB
0000
FFEE
FFF9
0005
0002
FFF2
FFE4
FFF2
FFEB
0000
FFFF
000A
0001
FFF6
0011
FFEB
0006
0007
FFEF
FFF1
0011
FFFE
000E
000A
0009
000C
000E
0006
FFFF
000A
000E
0005
FFE9
0009
000B
FFF2
0004
0012
FFEC
0003
FFFC
0016
FFF7
0003
0006
FFFE
FFFE
0000
0003
000B
0000
FFF4
FFEC
FFF7
000F
FFF1
FFF3
0011
0006
000B
FFF0
FFF7
FFF4
FFEA
000A
0009
0001
FFE8
FFEA
FFF6
000B
0010
FFFD
FFEE
FFFB
FFF1
FFE7
000F
FFFA
0002
FFE6
0001
FFF0
000E
FFFE
FFF8
FFEC
0008
FFF2
FFF4
0003
FFE5
0006
000D
FFFC
FFEF
0009
0004
FFF3
FFEC
FFE9
FFF9
FFF7
FFE7
FFE8
000D
0008
000C
FFFA
0009
0005
0005
FFFE
000F
FFF7
FFF7
FFEA
FFFA
FFF0
0008
FFE7
0002
000F
0013
0007
FFE8
0004
FFE6
0007
000B
FFF1
0009
FFED
FFEB
0011
FFE6
FFF8
000C
FFEF
0002
0010
000C
0019
0002
001C
0009
FFF1
0007
FFF3
000E
FFF4
000E
FFFB
0008
0004
FFFD
0001
0001
FFE6
FFF3
0017
FFEE
0018
FFFD
0003
0016
FFF4
FFF3
0016
FFFD
FFFB
0017
000D
FFEF
FFF4
FFF4
0003
000D
0016
FFF1
0006
FFF1
FFED
FFFA
FFFA
FFFD
FFEF
FFFD
0003
0003
FFFA
0018
0009
0010
0006
0019
FFF3
0009
0009
0005
0012
0015
FFF4
000D
FFFE
000D
FFFA
000F
0017
0016
FFF0
0001
000A
FFEF
FFF8
000F
FFF4
0017
0011
FFFD
FFF0
000B
FFFE
FFF0
FFF9
0005
0000
0013
FFFE
0004
0021
FFF1
FFE9
0009
0008
0015
001E
0003
000C
000C
0018
FFFF
FFF8
0019
FFFA
FFFE
000A
FFF1
FFE6
0014
FFF8
FFE6
FFEE
FFF9
0014
0011
0009
FFFA
000B
0004
FFF3
0011
FFF1
0014
0005
0008
FFFC
0010
0004
0000
0008
FFFC
001D
001C
FFF0
0001
0007
000A
0007
0004
0008
0005
000C
FFFF
000F
FFF4
FFDC
0001
0024
FFFC
0000
FFFB
0016
0000
FFF4
001C
000E
0002
0000
0018
0006
000E
000C
0011
FFF9
0011
0010
FFF2
0005
0007
FFED
000A
FFED
FFE1
000E
0002
0014
0015
FFF6
FFFA
FFFF
FFEF
FFEE
0003
000E
0013
FFF3
FFFD
0009
000D
FFFC
FFFA
FFF6
FFF2
FFF3
0010
0011
0017
FFED
FFF4
0007
FFF9
0000
FFF9
0011
FFFD
FFFB
FFF9
FFF4
0012
FFF0
000B
FFFB
0001
000C
FFF7
0003
FFFF
0025
002B
FFE9
0013
0001
0016
000A
000B
FFFE
FFFE
001A
0005
0015
0001
FFFC
FFF6
000E
FFDB
FFE6
FFF0
FFE9
0006
FFFD
FFF7
0008
0003
FFF9
FFFB
FFFE
0008
001B
FFEC
FFFB
0017
0011
0009
0006
FFFA
FFED
000B
FFEB
0000
FFEF
FFE7
000B
0013
0004
FFFC
FFEE
0006
0004
FFFC
FFE8
FFF5
FFEC
0010
FFED
FFEA
FFE1
FFF9
0006
FFF3
0009
FFF3
0013
000F
FFF9
0000
FFF2
FFFA
FFF3
000F
FFF6
0002
FFE8
0007
FFFD
FFF1
000E
FFFB
0007
FFF4
0013
FFFF
FFEA
FFF7
0006
FFFE
FFFD
FFFB
FFE7
0015
0008
0002
000A
FFF1
FFEB
FFF2
0010
FFF1
FFEB
FFDD
FFFA
0000
0003
FFE9
0013
0008
0000
FFEB
FFF1
FFFA
FFF7
FFF9
0013
FFEA
FFF6
FFE7
FFFF
FFEB
FFF7
0010
000B
FFF2
0013
FFF6
0012
0002
FFEA
FFFD
000F
000E
FFEF
FFED
FFF6
000B
0008
FFEC
0005
0010
0001
FFFC
FFFF
FFFB
FFF7
FFFA
FFFB
FFF5
FFFE
0000
FFF7
FFFD
0011
FFEA
FFF5
FFEB
0012
0013
FFF3
FFEB
FFF9
0012
0013
0004
FFFC
0010
FFEC
FFF2
0003
FFFF
000A
0018
0014
FFF4
0003
0011
FFF7
0001
FFF3
FFE8
FFFA
FFF6
0005
FFF0
FFD6
0003
0006
FFFB
FFEF
0009
FFF2
0003
FFEC
0007
0007
FFF2
0004
FFFE
FFFC
FFEC
FFED
0014
0005
0017
000C
000F
0011
FFEF
0007
FFFD
0009
FFEF
000A
0026
0000
0003
0002
FFF3
0004
0015
0011
001A
000E
FFF6
FFF9
FFF4
FFF2
0006
000D
FFFA
0007
000C
FFEE
0000
0000
FFF3
000F
FFFF
0009
0005
0013
0013
FFFD
000B
FFF5
FFE5
0009
FFFF
0010
0013
FFF6
0008
000F
0008
FFFB
FFFF
000D
0019
FFF0
0011
FFFA
000F
FFFB
000B
0012
FFF0
0013
FFEA
0020
FFF2
FFFA
FFFD
0014
FFDD
FFFC
0014
FFED
FFF8
000D
001D
0015
0002
0009
000D
000E
0005
FFFD
0001
FFE1
000A
FFF6
FFFB
000A
0003
0014
FFFF
000F
0002
FFFD
000C
FFF8
FFF8
FFFE
FFFB
FFEF
0004
FFF0
FFF1
000F
0010
0008
FFE5
0002
FFF9
FFF5
0013
FFFF
FFFE
0006
FFF5
000B
FFFB
0003
FFEF
FFF6
FFFD
FFEF
FFF0
FFF8
FFFF
0006
FFE8
000C
FFF6
FFEC
FFFC
FFFF
FFEF
FFFD
FFE9
FFFE
FFEC
FFFA
FFF4
FFF4
FFE4
0007
0009
000D
FFFE
FFF8
0009
0011
FFEC
FFF7
0005
FFE6
FFF2
FFED
0000
FFF3
0000
0001
000D
FFFE
0009
FFFC
0012
FFE8
000B
FFF6
0004
000C
0003
0016
0011
000E
FFFA
000B
FFF2
FFE5
0004
000C
0006
0001
0004
FFE5
FFF6
0002
0008
FFE5
FFEB
000C
FFFA
FFF3
FFF9
0002
FFE9
FFE6
FFF5
FFF6
0009
0001
0005
000B
FFEC
FFF7
FFF3
0000
FFFA
FFED
000A
FFEB
0010
FFEE
FFEF
FFFC
0004
FFFB
FFE8
0002
000B
000D
FFFA
FFF7
FFF6
0004
0021
0003
001E
FFE2
0017
FFEF
FFF5
0016
0004
001B
FFF2
0007
FFFB
FFE5
FFFF
0022
FFFA
0004
0008
0004
FFFA
FFF3
0012
002A
000C
FFE9
FFFE
FFF0
FFFF
FFF5
0018
0009
0013
0006
FFF6
0002
0009
FFF0
0018
0012
FFE1
000B
002C
000F
000C
0010
000A
0021
000D
0008
FFFA
000A
0000
0009
FFF8
0002
FFF3
0004
0001
000B
000D
000B
FFF1
000C
0003
FFFF
000D
FFF2
FFF3
0008
0022
FFFD
0005
0001
FFDE
FFEC
000C
FFE4
0024
0016
FFDB
FFF9
FFF8
FFFE
0004
0011
0025
FFE8
000C
0000
0020
FFF3
FFF7
0008
000E
FFF6
FFF0
FFF5
FFFB
FFFC
FFF3
000E
FFDD
FFD4
FFFB
FFF4
FFFE
FFFE
0006
FFF9
FFE4
0013
FFF4
002A
FFE9
000D
FFEC
FFEE
0017
0000
0001
FFEF
FFEF
000B
FFEF
000E
FFFE
FFF5
FFF2
FFE8
FFFA
0002
FFF8
FFE6
0009
0002
0008
FFFD
FFF5
FFE7
0007
FFFD
FFF6
0019
000B
FFFA
FFF3
FFF8
FFEE
FFFA
FFF6
0005
FFF0
0005
0013
FFFE
FFEE
FFFE
FFF6
0012
0004
FFF8
FFE7
0012
FFEA
FFF3
FFF8
0010
0003
FFED
FFED
FFFC
0011
000D
0006
000F
0017
0014
0008
FFF2
FFFB
FFFD
FFFB
FFF8
000B
FFEC
000E
FFFF
FFF4
FFEC
FFF9
FFF6
FFF7
0001
0011
0008
FFEF
0001
FFEF
FFF8
FFEF
0000
0018
0006
FFEA
FFF6
0004
FFFA
0007
0000
0005
FFFC
FFFF
FFFD
FFFB
FFEF
0002
000F
FFEC
0002
FFFD
FFF7
0008
FFFD
FFFB
000E
000B
FFFB
0009
FFE5
FFF7
0007
FFF7
0011
FFF8
FFFF
0008
000E
FFFE
FFEE
FFEE
FFE6
0003
FFE9
FFF6
FFFC
0006
FFE6
0010
0013
FFF6
0006
FFFB
FFFE
FFF2
0003
0007
FFF1
FFFD
000D
FFEB
0003
FFF5
FFFD
FFFD
000B
0008
FFF1
0007
FFF3
FFF0
000F
0010
FFF2
0000
FFEF
0007
000F
FFFA
FFF9
FFFE
0000
FFFF
FFF6
000B
FFFF
FFF7
000D
FFEC
0002
FFE8
0012
0002
0009
FFF9
0003
FFED
FFE7
FFFD
0004
0004
FFE6
FFFF
FFF9
0004
FFF1
FFEE
FFF7
000B
0012
000B
FFEA
000B
000E
FFED
FFFE
0003
FFFC
0011
FFF1
000C
FFF0
0007
FFF4
FFED
FFF3
FFE7
0006
FFEC
FFFC
FFF2
0015
0001
FFFA
FFEA
FFF4
000B
FFEA
FFFB
FFF3
FFF4
000B
000B
000D
000B
0001
FFFB
0000
000D
FFFF
000A
FFF6
FFED
FFEF
FFE8
FFFD
FFEA
0006
FFF2
0007
FFEE
000B
FFF2
FFF5
FFF1
0000
FFF1
FFF6
FFEF
0007
0001
FFF8
0003
FFFB
FFFF
0007
FFE6
0008
0012
0014
0006
0014
FFF3
FFF0
FFEB
FFED
000D
FFFC
FFF5
0009
FFE9
0002
FFE9
FFF4
000F
000F
000B
000A
FFE8
FFEA
0009
FFED
FFF0
FFE9
0010
FFFB
000A
FFEB
0013
FFEB
0009
0005
000A
FFFC
000F
0000
0005
0012
FFFA
0003
0002
FFF0
FFF8
FFFC
FFF9
FFF2
0012
0003
0001
000C
FFF0
0009
0008
FFFD
000E
FFEA
FFF2
FFFB
FFFD
FFEB
0009
FFFB
0018
0000
000D
0003
FFEE
FFF1
FFEA
FFF6
FFF8
FFFE
000C
0001
FFF6
FFF7
FFF8
0008
0010
000E
FFEB
FFEE
0004
FFEA
FFE9
FFE7
FFF5
FFED
0006
000F
0014
FFEE
000B
FFFF
FFEC
0009
0007
000C
FFF3
000D
0013
FFFA
000E
FFF9
000E
0012
0011
FFED
0010
0019
0009
0008
FFE9
FFF3
000E
FFF5
0010
0003
FFEA
FFF6
FFFB
0010
FFF7
FFF4
FFF4
000C
FFFC
FFF6
000E
FFFC
FFF0
FFF0
FFF4
0003
FFF3
FFF1
0010
0010
FFF9
0009
000A
FFF6
FFFB
FFF6
0016
0021
FFFA
0000
FFF6
0000
FFE7
0011
FFF8
0011
FFEE
0005
FFEE
FFEC
0020
FFEF
FFEF
001F
0000
0007
FFE9
FFFE
0012
0010
0009
0013
FFF0
0004
0017
0002
FFF8
000E
FFF8
FFF0
FFFC
0000
0005
FFF6
FFED
0015
0017
FFFD
0013
0012
0004
FFFF
FFF9
0007
0006
0013
FFF0
FFEA
FFF9
0005
FFEC
0001
001B
0004
0003
FFEC
0006
0011
002E
000E
FFF8
000C
FFF2
FFF4
FFFB
FFF8
FFFB
000B
0007
FFE6
FFE6
0014
0002
FFED
FFF1
0022
FFEB
000F
FFF4
FFF9
FFFA
0002
0013
0010
001C
FFF8
0032
FFFA
FFFD
0013
0013
FFF7
FFFA
000C
FFFB
000B
0006
0008
0005
FFFA
FFEB
002F
FFE8
0004
0013
0016
0010
0002
0002
0007
FFF2
0002
FFED
0016
FFFD
FFF3
0013
0003
0008
FFFA
0002
0014
FFF1
FFF7
000F
FFDA
FFF6
000C
FFFE
FFFD
FFFF
FFF2
0010
FFF0
000F
001D
0000
FFF5
0013
FFF4
000B
000D
0011
FFFB
0011
FFF2
0000
FFFB
FFFA
FFFE
0001
FFF1
0001
FFFC
000F
0014
FFF3
000B
0019
FFFD
0013
0000
FFEE
000C
000F
0003
FFF6
000E
0014
FFF0
FFFE
FFF9
FFFA
0012
FFFE
000E
FFFE
0000
FFF9
0006
0005
FFF6
FFF0
0004
0003
0008
FFDC
0007
0011
000B
0017
0008
FFE8
FFF4
FFF9
001F
0017
000F
FFF8
FFEA
0013
0004
0008
000E
FFFF
0007
0018
000B
0005
FFF9
000A
FFFA
FFED
0004
FFF0
FFE5
FFF4
FFDC
FFE3
0002
0018
000C
FFEE
0001
0001
0004
FFFC
0003
FFED
FFED
000D
0012
FFFC
0014
0001
FFFD
0013
000A
FFF7
FFF4
FFF4
FFF2
0009
0008
FFFF
0002
FFF8
FFED
0001
000F
FFEC
0003
0003
FFFB
FFFD
0009
0016
0009
0002
FFF3
FFED
000C
FFFE
FFFB
FFFD
0015
FFEF
FFFA
000A
FFF2
0014
0012
0015
0005
FFFC
0015
FFFD
FFEF
FFE8
0006
0004
FFFE
0008
FFF3
0013
FFFF
FFF4
FFEF
0007
0012
0007
0009
FFF0
0003
FFEE
0004
FFFB
FFF6
0017
0002
000F
000A
0003
FFF8
FFF2
FFFE
000B
FFFF
FFE8
0000
FFF8
0013
0007
FFF2
FFE6
0012
FFED
FFF6
FFEB
FFF5
0008
FFF8
0005
FFED
FFE6
0011
000A
0009
0002
FFEF
0008
FFF5
FFF2
000B
000E
000B
0010
FFFC
FFF8
FFEA
FFED
FFF9
FFEF
000B
0002
FFF2
FFF4
0003
0004
0006
0009
FFEA
FFF6
FFFD
FFF5
FFEB
FFFB
FFEA
FFE9
FFE8
0005
FFFF
FFFB
000B
000E
001A
0009
0002
FFFB
0006
0012
FFFA
0014
001A
0000
0004
FFFF
0010
0017
0018
FFE9
0002
FFF1
000B
FFFE
0013
001B
0004
000F
FFEB
000C
0021
0000
FFF2
FFFB
0010
0007
000C
0003
0010
0010
FFF6
0001
FFF8
FFEB
0003
0001
FFFA
FFFF
0012
0021
FFEC
FFFB
000F
FFFA
0019
0005
FFFA
FFFF
FFF0
0002
000E
0014
0013
FFEC
0012
FFF4
FFF2
FFF3
FFFC
0011
0008
0004
FFFE
0014
FFF6
FFF4
0014
FFF1
FFF7
000B
0006
FFE8
0000
000A
0014
FFF2
FFEE
000E
0008
000B
0000
0021
0004
FFEA
FFFC
FFFA
0013
0015
000D
FFEE
FFF3
0018
0004
FFFA
FFFC
0006
0011
0009
FFF6
FFEC
FFE7
0007
FFE9
FFFA
000C
0010
FFFD
FFE9
FFF5
000C
FFF2
FFEF
0018
FFEF
FFFD
FFFC
0019
FFF7
0017
FFF3
0010
FFEE
0015
0002
0017
0010
0019
0010
0000
FFFA
FFF9
FFF4
0006
FFF2
FFFD
0008
0011
0009
FFD7
FFFA
0008
0010
0006
0003
000F
0006
FFF8
000C
FFFD
0016
000E
FFF4
000D
FFEA
0000
0005
0001
0002
FFF7
0010
000C
0002
FFEA
FFF6
0007
FFEE
FFFA
0015
000E
000F
0000
FFFA
000F
0003
FFEC
FFF8
FFF1
0002
0002
0013
000E
0001
000F
0019
FFF1
0001
0004
FFF9
FFF2
0001
FFF1
FFF9
FFF7
FFF1
000A
FFFF
FFFE
0010
0005
FFE0
FFEB
0004
FFF0
FFEE
0002
FFEB
FFFB
0004
0008
0014
0016
0014
0007
0006
000B
0011
FFFC
0006
0009
FFEC
0016
FFF0
0002
0003
FFF5
0002
0008
FFEE
FFE8
0009
FFEA
0001
0016
0016
0004
FFEE
001A
FFF4
FFFE
0002
FFFC
0014
FFDC
FFFA
FFFE
FFED
0012
000D
FFFD
0006
FFF6
FFEE
0003
000C
FFFF
001B
0008
FFFA
001A
0008
FFFB
FFF3
FFF4
0006
0007
FFF5
FFEA
0003
FFFF
0009
001B
FFF1
FFFE
000F
0006
FFF8
0005
FFED
FFEE
001B
0003
000E
FFF1
0000
0000
0005
0014
000B
0000
0010
000F
0019
FFF2
FFE6
001B
000F
000E
FFF9
FFED
0006
000A
000F
0016
FFF2
FFFF
FFF6
0005
0000
FFF7
FFFC
0011
0002
0011
001B
FFFA
000F
0004
000F
FFFD
0013
000D
FFFC
0013
0003
0008
000B
FFFD
FFEA
FFF6
0013
0014
FFFE
0001
FFFB
FFF1
FFEE
0003
0018
0000
FFFC
0006
0012
FFEF
001E
0003
FFEF
000D
FFF1
FFFC
0010
0013
0007
0008
000E
000F
FFE2
000D
FFEF
FFE4
FFFB
FFEA
0021
0003
FFEC
0010
FFF1
FFFA
FFF1
0014
0001
FFE2
0010
0003
0005
0015
FFF3
0005
FFE8
000E
0006
FFFE
000B
000B
0012
FFEF
000D
FFFC
0003
FFFE
FFF8
FFEA
FFFA
FFF2
FFF6
0009
FFFC
FFEF
FFF9
FFE7
0008
0001
000F
0002
0009
0005
FFF5
FFEC
0006
FFFD
0011
0004
FFEE
0009
0008
FFEA
0000
FFE9
0005
0015
FFE7
0000
FFE8
0003
000F
FFE9
FFF3
FFED
FFF4
FFEF
0009
0011
FFF4
FFF4
FFF7
0013
FFE7
000B
0000
FFF8
FFF3
FFF5
FFF6
0010
FFF0
0012
0006
FFF2
0002
FFF4
0008
FFF2
0008
FFF9
FFF1
FFF2
FFE6
FFED
0005
0002
FFFB
FFEB
FFFF
FFF5
0011
0009
FFF8
FFF0
FFF7
FFE8
FFF7
FFE7
FFFC
FFEC
FFEA
000E
FFE9
0004
0016
FFF0
FFF2
0000
FFEA
FFF6
0000
0004
FFFE
FFFA
0008
0007
0006
0008
000F
FFF2
000C
FFEE
FFFF
0003
0009
000A
0010
FFF4
0002
000A
FFEB
FFFF
0000
FFFA
FFEA
0005
FFF1
FFF3
0008
000A
0008
FFFA
0002
FFF6
FFF6
0009
FFF3
FFF5
FFE9
0004
000C
0003
FFEC
0007
0013
FFF6
0009
0012
000F
0013
FFF2
0007
FFF7
0013
0007
FFF4
0005
FFF8
FFF1
0007
FFF8
FFE8
FFF4
FFFB
FFEA
FFFA
0003
000C
FFFF
0008
FFE8
000A
FFF2
FFF8
FFF7
FFFA
FFEA
FFFD
0008
FFFE
0007
FFEF
0006
0001
0006
0002
0011
FFEB
FFF4
0002
000D
000E
FFEE
FFE7
FFEB
000F
FFF2
0011
FFEE
0009
FFFD
0013
FFEB
0011
0003
FFEB
FFFE
FFF4
000A
000F
000F
FFEC
FFF4
0009
000D
FFE9
FFF0
0003
FFF3
0013
FFEF
0007
0016
000C
FFF4
FFF6
0009
0009
0006
000D
0011
FFFB
FFE7
000D
FFF8
FFE8
FFF6
FFEE
FFFC
FFF0
0006
FFFB
0014
FFFA
0004
0012
FFFB
0010
FFFF
FFFE
FFFD
0016
0012
FFF7
000F
000A
FFF6
000E
0017
FFFA
0015
FFEF
FFF2
000F
FFF2
FFFD
0001
FFF4
FFF3
FFF9
0010
0006
FFEF
FFFA
FFFC
0011
FFFD
FFFA
FFF7
FFF2
0024
FFF8
FFEA
000B
FFF2
0004
FFFD
FFF6
0005
FFF1
FFF4
000A
0015
0002
000F
0018
0029
FFF4
FFFA
0004
FFFB
FFFD
FFFB
FFF6
0006
0009
0010
000E
FFF5
000A
FFEC
000E
000F
FFF2
0016
0008
0003
0017
FFF0
FFE9
0017
0010
0010
0012
FFF3
000B
0015
FFED
FFE7
FFFD
001A
0014
FFF9
FFFB
FFEC
0014
FFF0
0006
0019
001F
0009
FFF3
FFFA
FFFD
0002
0018
FFF9
0002
000E
000B
FFEB
0016
FFF4
FFFA
0007
000C
000A
FFF6
FFEB
0001
FFF2
FFFA
0011
FFEE
FFF6
FFF5
0015
FFFA
0011
0010
0017
FFF6
0003
0000
0014
FFF6
000D
FFEB
0001
0014
FFFA
FFFF
FFEB
000A
FFF6
FFFA
FFF3
000E
FFF7
0015
FFFF
000D
FFFE
000F
FFFA
FFE8
FFF5
0017
FFF2
FFF2
0000
0017
FFF9
FFFA
0015
002E
FFFD
0007
FFFB
FFEB
0015
0003
FFF1
0016
000A
000A
FFF9
FFFD
FFEC
FFF2
001D
FFEE
FFEB
FFF5
001B
FFEA
000C
000D
000A
000C
FFEA
0000
0014
0006
FFFD
FFFC
FFF2
000B
0015
FFFE
FFFC
FFED
000A
0019
FFFE
FFF2
000D
FFEF
0006
0011
FFF8
FFFD
000E
0006
FFFC
000A
FFE3
0003
0008
000A
0011
000F
FFEB
FFFD
000E
001A
0023
FFFA
0003
FFF8
FFFB
0005
FFFF
0003
FFF1
001A
FFFA
FFFE
FFFB
0016
FFFF
FFF2
FFF1
000F
FFF3
FFE7
0014
FFE0
FFEF
0017
0012
000D
FFEA
001D
FFED
0000
0000
0003
000B
FFFE
000F
000B
000C
0008
0017
0005
0011
0002
0013
0005
0012
0004
FFF5
0010
000D
0000
0013
001A
FFFB
0016
0007
0005
FFF8
FFCD
000F
0001
000C
0011
FFF6
0007
FFF4
FFFA
FFF2
FFFC
FFF0
FFF5
001F
0008
0007
FFF7
FFF2
FFF3
FFFD
FFF5
0004
FFFD
0001
FFEB
0002
0011
FFFA
FFFD
0015
0001
0011
0006
000D
0002
FFEC
FFFD
FFF6
0015
FFFB
0001
000C
000C
0005
0016
FFF3
FFF3
0010
FFF9
FFFA
FFF4
0008
FFEE
0018
0005
FFE8
FFEE
FFFD
FFF1
0002
000B
FFE1
FFFA
0002
000F
000D
000B
0003
FFEB
FFEE
0010
0011
FFFE
FFFB
FFF8
0007
FFF3
0018
0002
0009
0010
0017
FFFD
FFEB
FFFA
001A
0011
0010
FFF3
FFE5
FFE2
FFEE
FFD8
FFE2
0005
0007
000B
FFFA
000D
FFEF
FFFE
FFE9
0003
0009
0004
0019
000B
0014
000A
0000
FFFA
000E
0004
0001
FFEE
FFFE
001B
FFED
0007
0011
FFF8
FFF0
0006
0012
FFE9
FFF1
0011
FFFD
0010
000E
0005
FFED
000D
0012
0013
000E
000D
FFFB
FFF1
FFEE
FFF7
0019
FFEA
0015
0019
000E
FFEF
FFE6
FFF6
000E
0001
0012
0010
0012
0009
0009
000B
001E
000E
0000
0010
FFF1
0001
FFFB
FFEA
FFFE
FFF3
0018
000B
0015
FFF1
FFE7
001A
000D
0008
000E
0015
0018
FFFF
0010
0012
FFF8
FFFA
001E
FFFE
FFF3
FFE9
FFF7
FFEC
0019
0003
0011
0007
FFF7
0012
FFE3
FFFC
FFFB
001B
002F
FFF5
FFEB
FFFF
FFED
FFEE
0012
000F
FFF7
FFF4
000A
0010
FFEE
001C
FFF2
0004
0005
FFFF
001C
000E
0014
0010
001A
0013
FFF8
FFEC
001C
0016
000E
FFF0
000D
0001
FFFA
FFED
FFF7
0017
0003
FFFF
FFF8
000E
0011
0019
0013
0008
000D
000E
0019
FFFE
FFFC
000B
FFEA
0012
0007
0000
0013
FFF4
FFEB
FFCD
000D
0016
0005
000C
FFF8
FFF4
FFF8
0005
FFF5
000E
FFFB
FFF0
FFF1
0000
FFF4
0007
FFF1
0012
FFFD
FFFE
FFE9
0017
0012
FFF8
000D
FFF4
FFF8
0018
0019
0014
FFE8
FFF9
000B
0013
FFFC
0014
FFF9
FFFB
000C
000A
0002
FFFA
0009
000C
000F
FFE9
FFF6
0017
FFF1
0002
FFF0
FFFA
0002
FFEA
0000
0006
0003
FFFE
0008
000F
FFFE
0003
0007
FFF8
0001
000F
FFEB
0010
FFFA
001C
0024
0013
0002
0003
0017
FFF5
000D
001B
0010
FFFC
0009
FFFF
FFF4
001E
FFF9
0017
FFF5
0019
FFEA
0003
0001
FFFE
FFEA
FFF1
0012
0011
FFEA
FFF8
FFE4
0019
000A
001B
FFFA
FFFA
001F
0004
000A
0001
FFFF
000C
FFEE
FFFF
0007
FFFE
0009
000C
FFFB
FFF1
000D
0019
0005
0005
FFE9
FFEF
001F
0005
000C
000C
0009
0009
0008
0000
000C
FFFC
0010
FFF5
FFEE
0004
0013
FFF9
FFF6
0017
0004
0001
0010
000B
001A
0009
FFF6
0008
FFF1
FFF1
0009
000F
0005
0003
000A
FFF6
FFFB
000D
FFEE
0009
000C
FFFF
000D
FFED
001C
FFFF
0018
0015
FFF5
FFEB
FFE4
0006
FFEE
0003
000C
0003
000D
FFED
FFDB
000E
FFF9
0010
000A
FFF6
FFF0
0002
0000
FFE4
0003
FFEF
FFEC
FFDD
0012
000C
000A
FFEA
FFF0
0007
FFFA
FFDC
000D
FFF0
0006
0005
FFDF
FFF9
FFFF
FFEF
FFE9
FFF7
FFFB
FFEB
FFEE
0004
FFE9
FFE2
FFDC
001B
FFF4
000C
0010
FFF8
FFE2
FFF0
000A
FFF4
FFDF
FFE6
FFE4
0018
FFF9
0011
0009
FFFA
FFFC
0010
FFED
FFEF
FFE8
FFE9
FFF9
FFEB
FFF8
FFEA
FFEC
0001
0011
FFFF
001A
001B
FFF5
FFF5
0004
FFE7
FFDD
000B
FFED
000C
FFE3
FFE3
0014
000E
FFF8
000A
000B
0019
001E
0011
FFF0
FFFF
001C
001E
FFEE
FFF2
FFF4
FFFB
FFE7
FFFF
001E
001C
FFF1
0013
001D
FFE2
0005
001B
0023
FFE0
FFEA
0015
0002
0012
FFF4
001C
000F
FFF7
000E
FFE4
FFF2
0005
FFF0
FFE7
FFED
FFF2
FFF9
FFEE
FFE4
000B
0010
0000
0013
FFE2
001A
FFF0
0003
001D
FFF4
0008
FFE3
0016
FFE9
FFF2
FFE5
000D
FFFB
FFE4
0015
0019
FFE3
FFF0
FFEB
FFEF
0010
FFE5
000A
000E
000D
0000
FFDE
0009
FFE6
001A
FFDE
000E
FFF3
0010
FFFD
FFEB
FFF4
0000
FFDF
FFF8
0001
0000
FFF3
FFEA
0011
FFF2
FFFC
0017
0014
0008
FFEA
FFE6
FFEE
001F
0004
FFF5
0014
001C
0017
FFF7
0007
0015
0012
FFF1
FFEC
001A
0001
FFED
001B
FFE6
0018
0005
FFF6
FFEB
FFF0
000A
0021
001A
000D
001F
0005
FFFF
0025
0029
FFF6
FFFB
FFEC
001F
0005
FFE3
FFE5
001C
FFEE
001F
000B
000C
FFFF
FFED
FFF2
FFFB
FFE6
FFF5
0006
0012
0021
0011
FFF6
FFFF
FFF0
FFFA
0014
0016
FFFC
FFEC
0012
0005
FFED
0001
0013
0007
FFED
0006
001D
0008
FFFD
000C
FFEC
FFFB
FFFA
0002
002C
000F
0013
FFE8
0002
FFEB
000D
0007
FFF4
0009
000E
0004
FFE6
FFF1
0002
0011
FFFB
0000
0015
FFEC
0015
001E
001A
001A
FFE7
0014
FFFC
FFF4
000F
FFF0
FFF7
000A
FFF0
FFF8
0003
FFF3
000B
001C
0013
001E
0012
FFFD
0011
FFF4
0010
FFE9
FFF0
FFEE
FFE8
FFDE
FFF2
0013
0014
0000
000D
000F
FFDE
FFEF
FFE1
FFF4
FFEA
0007
FFF1
FFE5
FFD3
000D
FFFE
000E
0009
0009
FFF0
FFFC
000E
FFF0
000B
FFF1
000B
0005
FFE9
0009
FFF1
0013
0012
FFF0
FFDF
FFEA
FFEA
0005
0011
FFF0
FFEF
FFFF
0007
0014
FFF2
0012
0013
0003
001D
FFE6
FFE7
FFF4
0019
FFE4
0013
0003
FFFC
FFF5
FFF3
FFE1
001A
0003
FFFE
FFE8
000A
FFF0
FFF4
FFEA
FFE5
0000
FFE8
0015
0009
FFF0
0001
FFEE
0012
FFFF
FFF3
0013
0014
001C
0004
0002
FFDF
FFDF
0003
FFDF
000E
FFEA
FFF2
0003
0009
FFF2
0009
0011
0010
FFE3
0015
0013
FFE3
0006
FFDF
FFE0
FFFE
0007
FFE5
FFEF
FFE8
FFFD
FFEA
0016
FFFF
000E
FFFA
0005
000F
FFFA
0018
FFDE
FFF5
0013
FFEF
FFFB
0017
0011
001B
000F
FFE5
FFEA
0006
FFFA
FFFD
FFED
000F
0009
0008
0015
FFEE
0015
000B
0006
FFFE
0024
FFFE
0020
000C
FFEF
0003
001C
001F
001F
FFF8
FFF6
FFFB
001C
0020
0009
FFF4
FFEA
FFEE
0021
FFE9
0022
000E
FFE1
FFF1
FFE9
0008
000E
FFE3
FFF3
FFE9
FFF2
0019
FFFE
000A
FFFB
0009
0013
001C
000C
001E
FFF9
FFE5
0011
FFF0
0002
FFF6
0004
FFFD
FFE9
0015
000B
FFEF
000D
0004
0005
FFF2
FFE9
0015
001D
0011
FFFB
0014
000B
0000
0012
0016
000E
001E
0005
002B
FFF0
000C
000B
FFE1
FFE7
001B
FFF7
FFEE
000B
000C
001B
FFED
0019
FFE6
001C
000B
FFEE
000C
FFE1
FFF7
FFE4
FFF5
FFE8
FFEF
FFEB
FFE7
0022
0009
FFF6
0015
FFF9
FFEB
000E
FFE9
FFF5
001C
0014
001F
0000
FFF0
0026
FFF0
0016
000A
000B
0015
0023
0011
0003
0021
FFFE
001B
0020
0006
FFEE
002E
0018
FFF3
001E
000C
FFEE
FFFD
0000
000F
0000
0013
000D
0022
0007
FFED
0023
FFF1
0018
0020
0017
0005
0008
FFE8
FFF9
0011
001F
0021
FFEA
000F
0012
0002
0006
0011
FFCF
001B
0020
FFED
0006
0026
0006
FFF5
FFF7
001A
000B
000E
0028
FFEF
0009
000C
0009
0015
0016
FFE1
0014
0005
FFED
FFEC
FFF8
FFEF
FFFB
FFF6
FFE9
0017
FFEB
FFFA
FFEA
0006
FFEC
FFE3
FFDE
0019
0016
FFF5
0011
FFFB
0015
0018
000D
FFFA
000B
0011
FFFC
0001
0014
FFF1
FFEA
0007
FFF2
0002
FFE7
0000
001C
FFF5
FFE7
001C
FFFB
FFF3
FFF5
FFF9
0008
FFF2
0018
0008
FFE7
0001
0012
FFFD
FFE9
0002
FFFD
FFE4
FFF6
001A
0003
000E
000C
0010
FFF7
FFEF
FFFE
FFFD
001A
0009
000A
FFF3
0012
0023
0008
0026
000C
000D
0004
0006
FFE8
001A
0007
FFED
0015
0018
000E
FFE8
FFF7
000C
FFE4
FFFB
0004
0010
FFF6
0016
FFF6
FFFD
000B
FFF8
FFF5
FFE9
000F
0002
FFEC
FFFC
FFE6
0004
0001
FFFD
000F
0035
001D
0018
FFE6
0011
FFF6
000A
FFFB
001C
0007
0021
0023
0005
FFE9
FFFB
0014
FFFB
0019
000F
000F
0018
FFF3
0004
000D
FFDE
FFE2
FFE4
FFF5
FFDE
0009
FFE4
FFF4
FFFB
FFFC
FFFD
FFDE
000A
0010
0017
FFE3
FFE5
0013
0000
000A
FFFE
FFEB
FFF7
FFFB
FFDF
0000
FFE8
0004
FFE9
FFFC
FFE3
0009
000A
FFE3
0013
FFEF
FFE8
FFF4
FFF3
FFF4
FFE7
FFFB
FFE8
000E
000F
000C
FFF0
FFE7
FFF5
001A
0017
0004
FFE2
FFE5
FFE1
0000
000E
0006
000C
0016
FFFB
FFE0
FFF3
0003
0018
FFE8
FFDE
0004
0002
0003
FFEE
FFF6
FFE3
FFFA
001F
FFE1
0018
FFF3
0008
FFE9
001B
FFED
0001
FFE5
0011
0008
FFE1
000D
001A
000C
FFE9
FFF7
FFEC
FFE9
0007
FFED
FFEC
FFE7
0019
0009
FFFD
FFE9
FFE5
001A
FFE8
FFF0
0018
FFE2
FFDF
000D
0011
0016
FFEA
FFEF
000B
0004
FFF9
0008
0010
000D
FFF4
0019
0016
0022
0003
001D
001F
0002
0003
FFEE
FFF7
FFEA
FFF5
0011
0007
000D
0008
0007
000D
0014
FFFB
000F
FFE8
000D
001A
0001
FFE5
0002
0012
001F
001A
0002
000D
FFFA
FFFC
0020
0003
FFF1
000B
0008
0020
001A
FFF7
FFE7
001B
000F
0006
FFF8
FFE3
0014
FFEE
FFFF
001D
FFE9
000D
0002
0004
000C
0013
0009
0024
FFE9
FFED
0019
FFFE
001B
0011
FFE7
FFF8
FFFE
FFDE
0016
FFF8
FFF7
FFF5
FFF0
FFFD
FFFD
FFEB
FFED
FFFA
0012
FFF6
FFF6
001E
FFF0
FFFE
0003
FFFE
FFFF
0016
FFFF
FFF0
001B
FFEA
FFFD
FFFA
FFF9
FFFC
0003
FFFB
000B
0018
FFF8
0025
0004
0011
FFFE
002E
0023
001A
FFEA
FFCE
FFF7
000D
FFF8
0004
FFF1
FFEE
000C
FFFB
FFFB
0014
FFE6
FFEE
001A
FFFA
0024
FFFC
FFFB
001B
001B
0002
0006
FFF6
FFF8
0000
0015
000A
FFFD
0026
0027
003A
0036
0016
FFEC
0018
FFF2
0019
FFDC
001F
0029
0004
001A
FFE9
FFEF
0018
FFF5
FFF5
0014
0008
FFEA
FFF5
FFEE
FFD6
0006
0009
FFF2
FFE0
FFFC
FFEF
001E
FFEE
0021
FFEF
0025
FFF7
0006
FFE9
0005
FFC6
001D
0003
FFF4
0020
0026
FFED
001D
FFDB
0011
001A
0006
001E
FFF5
0004
001A
000E
0020
0019
0000
000B
0019
001A
0004
000A
001D
001C
0013
0010
0009
0023
FFF2
FFE1
FFFE
001E
FFF0
FFF4
0016
FFE9
FFEE
0009
0015
FFEE
FFFD
FFEB
0006
FFEA
000F
FFEB
0008
0001
FFF4
FFDF
FFF0
000D
FFF1
0000
FFF5
FFF2
000E
FFFD
0019
FFF6
FFFB
FFFB
0001
0012
FFFB
FFEB
0001
FFE8
FFFA
FFF9
0007
000C
FFEA
0010
FFFA
FFEE
FFE9
001B
FFF7
FFEB
001A
FFFB
FFEC
0003
0012
000B
0002
0007
FFE0
FFEF
FFF7
FFDC
FFFC
0015
FFE6
0001
FFF4
0019
FFFA
001A
FFFE
FFE1
FFF1
001A
FFE1
FFFE
000A
FFFD
FFF4
FFF9
000F
FFEE
FFF4
FFF0
FFF8
0011
FFF3
0014
FFE5
FFFF
0004
FFEB
FFE9
FFE1
0002
FFDE
FFF3
001C
001D
FFDD
0008
000C
0011
0009
0005
000A
0005
FFF0
000C
0002
FFEA
FFFB
0003
000C
FFFD
000C
FFF6
000B
FFF8
FFFC
0000
0001
001E
0016
FFF8
000E
FFEB
FFFB
FFEB
000A
FFE3
FFEC
001E
0008
001D
FFF8
FFFC
FFED
FFEF
FFF9
0005
FFF3
FFED
0002
001E
FFF3
0007
FFF1
0012
000D
001B
FFEB
FFE9
0017
FFEE
0025
FFEA
0009
001C
000A
0007
FFF5
0015
000A
001C
0019
0003
FFED
000C
0005
FFF1
FFE7
000D
0011
001E
001A
FFFA
0013
0002
0022
0018
FFF6
FFF7
000C
FFFE
002F
0000
0022
0009
0005
0014
0020
0021
000A
FFE8
000C
FFE4
FFE6
FFFB
0021
0022
001D
0026
FFF7
000D
FFF1
FFEB
001E
001F
FFF3
0016
0002
FFE8
001A
FFFA
0015
FFF7
FFEF
000C
FFFA
001E
0006
FFF7
0018
001C
FFEC
FFF2
FFEC
0012
0016
FFEA
0011
001A
FFF5
000D
FFF8
0021
FFF7
0006
0003
0020
0000
000D
0016
0021
0010
FFF8
FFFA
001B
FFF9
001E
FFF9
0002
FFEA
000A
FFE9
0015
000E
001B
0021
FFFF
FFF8
000F
000A
FFF7
0020
FFF3
FFE4
0020
FFF5
0008
FFFA
FFE3
FFFB
FFF7
001B
0019
FFE5
000B
FFFC
0009
FFF6
0004
FFD6
0001
0027
FFF7
001C
0002
FFF2
001E
000E
001F
0020
001D
FFFB
FFDF
0008
FFF3
FFF5
FFF1
FFE1
0012
0014
FFF9
FFF9
000F
0001
FFEF
FFEE
000C
000F
FFF9
FFE4
FFFA
FFE6
FFFE
FFE8
FFFD
FFF6
FFE9
FFF8
FFE4
0003
FFDF
0009
FFFE
0014
FFF6
000E
FFDF
FFE3
0018
FFDF
0011
0009
FFFD
FFDE
FFE8
0005
FFE5
0006
FFEC
FFFB
FFF8
FFED
FFF9
0006
FFE9
001A
0010
FFFC
FFF8
0019
000B
0004
FFF2
FFEB
FFDF
0015
FFDC
FFE8
0008
0005
FFE5
FFE0
0011
0015
0008
0001
FFEE
FFE9
FFE6
FFF8
0000
0014
0018
FFF8
FFE9
0006
0003
0001
FFDD
FFE4
000A
FFE7
FFFC
0010
FFF4
FFE2
FFDF
001A
0002
FFEF
FFED
FFF5
0006
001D
0019
0009
000A
FFE5
0011
FFFA
FFEA
0004
FFFB
FFE7
FFF4
0013
FFDE
FFE3
000D
FFEC
FFF7
FFE7
FFEC
0012
0009
FFF7
FFF4
FFE3
FFFF
FFEA
FFFE
000E
FFFE
0006
000F
001A
FFFB
000C
0006
0014
FFF1
FFE5
FFE8
0011
001D
FFF0
FFFF
0015
FFFA
0013
0016
0010
FFEE
000F
0020
FFF5
001D
000E
0021
0003
0022
FFE8
001C
FFFF
FFF2
0021
FFFC
FFF3
0005
FFF6
FFF3
FFEA
FFEF
FFE6
0000
FFED
0007
FFF3
FFEA
FFE4
FFE5
0002
001C
0023
0020
001F
FFE8
FFE4
FFE7
001C
FFFD
FFF4
000E
0022
FFF4
0004
FFF6
0020
FFFF
FFE3
0023
0000
000F
FFF7
000B
FFF6
0012
000A
000E
0020
FFEC
FFF7
FFF4
0012
FFE5
000E
0004
0011
000E
FFFB
0001
0008
001A
000F
FFF8
000F
FFF2
FFF8
FFEE
FFF5
001D
0018
0019
0023
FFFA
FFE5
0016
0007
FFE7
FFFF
FFE9
FFF9
FFEB
FFF0
001D
0019
0001
FFEB
FFF8
FFEE
0014
FFEB
FFFD
000D
0002
FFFE
0011
FFF4
0015
FFEE
FFF0
FFF7
0018
0011
FFE6
FFF7
0016
FFE4
FFE7
0001
FFE1
FFDC
0015
FFEF
0000
0013
FFF0
FFFF
FFF8
FFFD
FFEF
0002
FFF3
0013
FFEB
0017
0013
FFE7
FFF9
000E
0006
0014
FFEA
0012
0011
FFFD
FFF2
000B
FFF3
000D
0019
FFF7
000A
0001
000C
001C
FFE3
001A
FFEA
0001
000A
FFE9
FFE8
0015
000E
FFE6
0000
FFF1
000E
0009
000A
FFF4
FFF3
0005
0014
FFF2
FFE6
FFDB
FFE6
FFFF
0009
000F
000A
FFE1
0000
FFEE
FFE8
001B
FFFB
0008
000F
FFF7
FFDF
002E
0000
0003
FFEC
FFE7
FFF6
FFE2
0023
000F
FFFA
FFF1
FFFC
FFD7
0002
0014
FFE0
FFFE
FFE9
FFF1
0016
001A
0007
FFE1
0011
FFF2
0002
FFCC
FFE8
000E
FFF5
0002
0005
FFE5
0012
FFE0
FFF2
001E
001A
0015
FFF1
0000
001D
FFF8
FFEF
0010
0007
000D
001D
FFF8
FFF3
FFEF
0012
001A
0008
FFEB
FFFF
FFE8
0000
000E
FFF0
0014
FFE7
FFEA
FFFF
FFEF
0017
0000
0005
0009
FFEB
000E
000D
0010
001F
0008
0005
FFE9
0010
FFE4
0011
FFF9
001B
001D
FFEF
FFF5
0023
0011
FFE3
000C
000C
001D
FFF6
0007
0011
FFFB
000D
FFF7
FFFB
0018
001A
FFF4
FFF5
001E
0006
FFE4
0005
0020
FFDE
FFFE
FFF0
000C
0004
FFFA
0006
FFFA
001B
000D
0016
FFFF
000F
FFEA
0017
FFF1
0015
FFDB
000A
FFE4
FFFD
0006
0004
FFEE
FFE8
0011
FFFE
FFF6
FFDF
0012
FFDD
FFEA
FFDB
0008
FFE5
FFE6
FFF3
001C
000B
0005
0008
000B
FFF7
FFDF
0018
FFEC
FFEC
FFFB
0016
FFEE
FFFD
FFE7
0014
FFE8
FFE6
0003
0015
0010
FFFB
000D
FFE9
FFF7
FFE0
000D
0001
0001
FFED
FFFB
0009
0017
0002
FFEB
FFF7
FFEA
FFFE
0005
0000
FFEB
0023
FFE9
000D
FFF1
0017
0016
001B
FFF0
FFEF
FFEC
FFE3
FFF6
FFF5
FFE6
FFF0
FFF1
001A
FFF7
FFF4
FFFA
FFF6
0019
0002
0016
FFF2
FFE3
0017
0009
FFEF
0018
FFFE
0012
000E
0007
0018
FFE5
000C
000F
0011
FFE3
FFE1
FFF3
0000
FFF4
001C
001E
0009
FFFA
0007
FFF7
FFE4
FFDF
FFE7
FFF7
0017
FFDD
0018
FFEB
FFE9
FFF2
0000
FFEA
000A
FFEF
0011
0008
FFDF
FFE1
0000
FFEC
FFF3
FFF9
0005
000E
FFE3
000F
FFE9
FFEA
FFEB
0001
FFFE
FFF6
000D
FFE5
FFFE
0010
0000
0007
000C
FFF6
0017
FFED
000D
0015
001C
0002
000E
FFEC
FFF4
0009
FFF7
FFE4
FFDD
0012
FFDF
FFE5
FFEA
0009
0017
FFFF
0011
0015
FFEF
0013
FFFE
0012
FFE5
0015
001D
FFF1
FFF6
FFE8
0023
FFFA
FFF1
0009
FFE5
FFEA
0025
000D
FFFC
0007
FFEF
0011
0019
FFE9
0002
FFEC
0025
0027
FFDF
FFF5
000C
0007
FFFC
0000
0006
0005
FFF7
000E
0020
FFF0
FFF1
000E
0001
001A
0004
FFE7
FFF5
FFE2
0020
0026
0024
FFF3
FFEE
FFF0
0032
000C
FFE2
001A
FFF6
FFEF
FFEA
FFCF
0011
FFD9
FFEA
FFE4
0022
FFDA
0003
FFF9
0017
0017
FFF6
FFDB
0019
0019
0009
FFFD
0020
FFD8
0008
002F
003E
001E
001D
FFFA
002B
0020
0001
FFF2
FFEA
001F
001F
FFDA
FFC7
001B
FFFA
001C
0007
FFE7
