002B
002C
FFF3
002E
FFF1
0006
FFE2
0019
0029
FFD4
0027
0004
0020
0001
0013
FFF2
0029
0005
FFE5
000A
FFE3
FFF8
FFE5
001C
FFD4
FFE7
FFF1
FFE2
0006
FFCE
0031
FFD6
002A
000A
FFF0
0021
0009
002A
0006
FFEF
000D
FFF3
0018
002D
001A
FFE6
001D
0009
0027
FFEA
FFD4
FFF2
FFDC
002E
0011
0016
0011
FFFF
0028
FFDB
0003
FFDC
000F
FFED
001A
FFF9
0033
FFEA
FFE1
FFE3
0033
0016
0030
FFD3
FFCA
FFD5
FFDB
0013
0010
0029
FFE3
FFDA
0019
FFE9
001D
FFF1
001C
FFD5
FFE4
000E
0009
FFF0
001D
0021
FFD7
FFE4
0030
FFEE
FFED
FFCD
FFE2
000D
FFF9
FFDA
0001
FFDC
FFD4
FFE3
FFD2
FFDF
0034
000A
0010
FFCF
FFDE
FFEF
0008
FFD2
FFE9
FFE1
FFF6
FFE7
FFFC
FFE3
FFE6
FFED
FFFC
FFE5
003A
0004
003C
001F
FFE2
0032
0000
FFFA
FFCF
FFD6
0021
0001
001D
FFDA
0029
FFDB
FFFE
0011
0020
002E
0032
FFD9
000E
FFEA
FFFB
FFD9
002F
FFD9
001B
0011
000F
FFE2
0036
000E
0006
FFC9
0012
FFFD
FFE9
0028
000C
FFE3
FFE6
FFFE
001D
FFF3
FFE2
FFEE
FFD9
0013
0028
FFCF
000C
001B
0009
FFED
001B
001B
0014
FFF7
FFF2
0006
FFF7
FFF0
0027
002F
FFFA
FFF0
FFFA
FFF5
0004
0005
FFC8
FFE4
0023
000C
FFF5
FFD8
FFD8
FFC9
FFF1
000C
002C
0028
FFC9
FFF0
FFF1
0027
0028
000E
002A
FFF6
FFE1
0022
FFE0
FFEB
FFC5
001A
001E
000D
FFD8
FFCA
FFD3
0026
0035
0033
0017
0005
000D
FFE8
FFEB
FFDB
0018
FFE8
FFF6
FFE2
FFF6
FFDA
FFDD
0010
FFEF
001F
FFED
FFD8
FFF5
FFE5
FFEE
FFCC
001F
FFDB
001E
0017
0023
FFD7
0025
FFE6
0027
0042
0007
000C
FFFE
FFDD
0020
FFD3
0027
002D
0037
FFF9
FFDA
0011
0021
FFD1
0005
FFEB
0007
FFF3
FFED
0003
FFDC
0031
004B
000B
0004
FFE7
FFC8
FFC1
0007
FFD7
FFD5
FFF3
FFE7
FFE9
FFFD
FFF1
FFEA
FFE3
FFEC
0029
000F
0011
FFE4
000A
002E
0019
FFE4
0022
003C
0015
0028
0037
FFFA
000C
FFDD
FFF6
0028
001C
FFE1
FFD8
FFDE
FFCF
FFE5
FFF8
0032
001E
FFD4
FFE1
001E
FFE6
0003
0021
FFEF
0001
0001
FFF9
FFEA
FFD6
FFDA
FFE8
0036
FFEA
FFE0
000F
0011
001F
0030
0023
FFD0
0004
001E
FFFE
FFE3
0034
FFF2
FFE7
FFD5
0005
001A
000D
000B
FFD9
FFCF
0001
002F
001D
FFE1
FFF8
FFD8
FFE5
000E
001E
002B
FFCD
001F
FFDB
0013
002C
FFFD
002C
FFD0
FFE9
001B
FFF1
FFF2
FFE7
0021
0016
000D
FFDF
FFD3
0003
000C
FFE5
FFEE
0020
0001
FFFF
FFF0
FFCD
FFCF
FFE7
FFF1
001A
FFF9
FFF2
0037
0016
0028
FFE9
FFEE
0016
FFDF
FFE0
0000
FFEF
FFDB
0021
0034
000E
FFFD
FFD1
FFED
0011
001A
0000
FFF6
0025
FFDC
0024
FFED
0001
FFF4
0004
FFEE
0023
FFFB
0025
002E
FFE2
FFD6
0026
0031
FFD9
FFFF
FFD6
FFD2
000F
000F
000F
FFFD
003A
0010
FFE8
0003
0011
0016
FFDE
0016
FFE7
FFD6
FFE4
0033
002D
002F
001E
0031
FFFE
FFE7
001A
FFE1
FFE3
FFF1
000C
0015
FFE6
FFDC
0001
FFDC
FFD8
0016
FFF1
002A
002D
000A
000C
0006
FFFB
FFF6
FFFB
000E
002B
FFEC
FFE4
FFEE
FFE1
0003
0022
001E
000F
FFD2
FFDF
FFF1
FFF5
0004
FFD0
0010
FFD8
FFDF
FFD5
002E
FFCE
0027
FFFE
FFF1
001E
FFF3
001E
0024
FFCD
0013
000C
000B
0007
000D
FFE5
FFF7
002E
001F
FFFA
FFCB
FFFE
FFD7
0025
FFDB
FFF7
FFEF
0003
0031
0002
001B
0023
0022
FFEB
FFF0
0014
0001
0027
0001
FFE8
0020
0012
0021
003D
002D
003A
000B
FFDC
FFE4
FFE8
FFDA
FFEE
FFDE
FFDB
FFE8
FFC9
FFE4
0019
002E
FFF7
FFFA
0025
FFEE
FFEE
0027
FFD8
000C
0033
000E
0013
FFE6
0004
0007
0011
0018
0031
FFE1
0008
FFDF
FFCF
FFFC
FFDC
0027
0006
FFE6
001E
FFD2
FFF0
FFFA
FFD8
FFE3
FFFC
002C
0036
0025
FFE4
FFE1
0030
0015
0004
000A
FFDB
FFF2
0032
FFF2
FFFF
FFD4
FFE1
FFFF
FFE0
FFFA
0015
FFCD
0010
FFDD
FFE6
0014
002A
FFF2
FFEB
FFD1
FFE5
FFD2
FFF4
000B
FFCF
002E
0021
FFCD
FFE7
0011
FFF5
0003
FFF0
0030
FFE8
0030
0007
000E
002B
FFFA
FFE4
FFF9
002C
FFDA
000D
FFCD
001C
001B
0007
001A
FFFD
0019
FFD8
FFF9
0017
0032
0018
FFD6
0024
FFEF
FFEF
FFCB
FFF2
001F
0001
FFDB
0009
FFE8
0029
FFCB
FFE8
FFCB
FFE6
0010
002B
0000
002D
0003
0017
0037
0033
FFE6
002F
001D
FFE4
FFE3
FFCF
0008
FFD1
0011
000C
FFCE
0009
FFF7
0013
0026
FFCA
0038
0026
000D
FFD1
FFE7
FFEA
FFF3
001E
0013
0028
FFEB
000F
0010
FFD1
FFCA
FFE1
0020
FFCB
FFCE
0019
0018
0026
FFD9
FFD8
001A
0026
0019
0001
000C
002F
FFDC
FFE6
0022
FFDA
FFE1
0024
000E
000F
FFE8
FFFD
002E
FFDF
FFFE
0017
FFDA
0031
FFE4
FFF1
FFF1
FFDB
FFCB
001B
000C
FFCF
FFE5
003A
0019
0019
FFE4
FFEB
FFFA
FFF8
FFDD
0005
0005
FFF9
0007
FFEB
000D
0013
FFEA
FFCF
001D
000C
FFE3
0034
FFE9
001E
0020
FFD8
0025
FFD2
FFE5
FFF8
FFDD
0033
FFF5
0014
FFD0
001D
FFEE
FFD7
0006
0017
0031
FFE1
FFE8
0009
000A
0015
001C
FFF3
0019
0023
FFEF
0022
0016
002A
FFDF
FFE3
FFED
FFFF
001C
FFDF
0017
FFEA
001C
FFFA
FFCF
FFE0
FFD6
0016
FFDA
FFF8
0007
FFE1
0008
FFC7
FFD6
FFCD
FFED
FFEA
0005
FFF5
0017
002E
0011
FFEA
FFCD
0011
FFE4
0018
001D
0011
002A
0029
0006
FFD4
0028
FFE0
FFF0
0033
002F
0015
0008
FFD8
FFFE
0035
0010
0006
FFF7
FFEF
0020
0004
0022
FFF7
001E
001A
000D
0020
001D
0032
0029
FFF4
FFDA
000F
0004
FFF6
FFFB
0006
0029
0013
FFF0
FFED
FFF5
FFEE
0031
001D
0030
0001
0010
0016
FFCB
0001
FFFA
FFE6
FFD8
002E
003B
0026
003D
FFF3
FFFE
0019
FFFB
FFF8
FFD8
0010
FFE2
0003
0034
FFF1
FFF0
0021
FFFB
0002
0039
FFF1
FFDA
FFEB
FFF6
FFEC
0006
0028
0009
FFE0
FFC1
FFD6
FFD0
FFD5
FFBA
FFF5
FFC5
FFC5
FFC5
0007
FFD5
FFE2
003F
000A
003F
FFF0
FFEE
0006
0022
000D
FFCE
FFF8
FFD2
FFF1
FFEF
002C
0010
FFF7
0009
FFF2
0015
0015
000F
FFED
002E
FFFA
FFE3
001E
0028
0034
0012
FFED
0016
0024
FFF0
000D
FFD7
FFF8
FFFE
FFDD
FFE4
FFFF
FFE1
FFC0
0017
FFD5
FFED
FFFB
FFF5
FFC9
002F
FFD5
000D
0025
FFC5
FFF5
FFF0
FFF9
FFEA
FFF2
000E
FFD6
FFE0
0001
0007
001D
FFDB
0011
001E
001D
FFCF
FFEC
FFD3
FFDF
001D
FFF8
0016
FFE1
0008
FFE0
001A
FFE9
0001
FFDE
0009
0038
001D
FFE6
0001
FFF9
FFD5
0027
FFFE
0009
FFE8
FFE5
0006
0010
0017
FFEA
003E
FFFD
FFDD
FFEB
0034
0003
0000
FFF0
FFF8
FFD9
FFDA
0022
002F
0034
FFDC
001D
FFE0
0020
0026
0028
0025
0020
0007
001C
FFE1
000B
FFE8
FFFF
FFD3
FFF0
FFE2
FFEC
FFDC
FFCE
0000
001F
002C
001B
FFE1
FFC8
000F
0019
FFCE
000E
0027
FFFE
FFDE
0028
0013
001C
FFD5
001A
FFD7
002E
FFEC
0021
000C
000F
FFF9
0016
FFEA
FFCE
FFEB
0028
FFF1
000F
FFEB
0026
001E
0011
FFE7
FFD6
FFFF
FFDD
0027
FFCA
0015
0033
001A
0012
FFCE
0032
FFF7
FFCF
0034
FFEB
FFFC
0030
FFDC
FFDB
0008
FFF9
000C
FFD4
0002
FFE9
FFE6
FFD0
001C
000A
FFD4
0029
001A
0012
FFE8
000D
0036
0027
FFD9
0031
0005
0019
0028
002C
FFD6
002D
FFDB
0002
FFE4
FFF8
0000
FFF5
FFF3
0003
0032
001D
001B
0012
0026
FFFB
0002
0008
FFD0
FFD3
0004
FFE9
FFFC
FFF1
0006
001F
FFEC
0027
0027
FFD5
FFD5
FFD3
FFE1
FFE9
FFFA
FFF1
FFEE
FFF6
FFF3
0038
FFF1
FFDE
0018
FFFF
002A
0022
0031
FFDA
0022
002C
FFE6
0030
002E
0004
001D
FFEC
FFCF
000E
0010
FFE0
0021
FFDA
0032
0037
0012
FFE2
001C
000A
000F
0012
0028
FFE9
FFF4
000D
0005
0029
FFEB
0001
0008
FFEE
0020
0006
FFCF
FFF9
FFE4
0001
FFF6
FFC8
FFF2
FFF7
FFED
002C
FFF0
001D
0009
FFD0
0008
0027
FFDA
FFDA
002F
0026
FFDE
001E
FFF3
FFCA
0000
000D
FFF5
0017
FFD8
0028
0030
0020
000C
0014
FFDC
FFF5
FFFD
FFE4
FFDB
0024
0024
FFD1
0015
0018
0037
001F
002D
FFF1
0026
002C
FFD7
FFDD
0011
0022
FFEB
000A
0004
0011
FFE7
0020
0025
FFDE
0002
0001
0012
0032
0017
FFF9
002B
FFE7
FFEE
0006
FFD8
0005
FFDA
0003
0002
0005
FFD1
FFCC
0015
002A
FFCF
0010
FFD7
0000
002E
0025
FFD7
001D
0019
FFFD
0030
FFE8
FFF1
FFE3
0005
000B
FFF7
FFDA
FFE5
0012
FFD6
FFFE
0008
FFF5
001E
000F
0031
0007
FFEB
0031
0014
FFFE
FFD5
0011
FFED
002B
0026
FFD9
FFE9
FFE1
0037
0035
000A
0035
FFF1
FFCF
0012
0011
0031
FFFD
0025
001D
0022
FFC8
0027
FFCF
0037
0000
FFD3
000B
FFEF
FFD1
FFEB
0004
0026
FFEE
001D
0004
0000
0008
FFDC
FFD2
FFED
FFCD
FFE6
0000
FFDB
FFE8
FFF5
FFF8
FFE1
0000
FFF6
000D
0000
FFE4
FFEC
FFFD
FFE6
0009
0000
0017
000F
0029
FFFF
FFDA
0017
FFDC
FFF8
FFEE
FFEB
FFEB
002E
001B
0014
0033
FFD3
0006
001C
0022
FFD6
0013
FFF2
0009
FFFC
FFD6
FFCC
FFD9
0010
000F
FFC9
FFE2
FFF6
FFC9
0014
0026
0000
FFD2
0018
0011
0039
FFF4
FFD0
0018
0001
FFF8
FFE6
FFE1
0026
FFF3
0021
002A
0002
0007
FFF8
0020
FFCD
0010
FFF3
0013
FFFB
FFE8
FFF6
0018
FFD7
FFDA
FFF0
FFE9
0010
001F
FFEC
0025
FFE1
FFDC
FFE4
FFD9
FFD9
FFD1
FFD2
000F
0022
0033
002F
0000
000D
FFE4
0008
FFC9
000D
0009
0018
0014
FFE3
0024
0024
002B
000D
0025
0025
0019
0028
FFF5
0021
000A
001D
0031
0009
FFEA
FFF8
000C
0011
FFF4
0028
001C
FFDB
FFFC
FFFB
FFE0
000D
FFF3
FFE7
FFEF
FFEC
002F
0010
002F
000A
0007
0010
0003
FFD1
FFDB
FFED
FFFB
0017
0012
002E
0012
FFE4
FFD9
FFD8
FFE2
0020
002A
0038
FFF7
0002
FFF5
0002
0012
FFFF
0003
0006
0014
FFEF
FFE0
000C
FFFA
FFF6
001B
0009
0007
FFE5
0003
FFD8
0012
000B
0029
000B
000A
0013
002C
FFEB
0022
000F
FFDF
0014
FFE2
FFF1
FFE8
FFDD
002A
FFDA
001F
FFD5
FFF7
0000
0026
FFEE
0010
0012
0026
0008
0017
FFE2
FFDC
002E
FFD8
FFF5
FFF7
0030
FFF2
FFD5
FFEF
0017
0011
0033
FFF7
0018
FFC8
000F
0016
001E
FFE4
FFF2
000D
FFDB
FFD6
FFCE
0003
0020
000D
0003
0012
FFDF
0006
FFF3
FFE6
002D
FFD8
0008
FFD2
FFFE
FFE9
0011
FFE3
0021
FFD6
0022
FFDB
001E
FFEB
0001
FFF7
0022
0011
FFD2
0004
FFDB
0026
0008
FFF2
FFE4
0011
FFE3
0019
001C
001D
000B
FFD1
0025
FFEE
FFFE
0007
0031
0031
0010
0020
FFD5
0005
FFD7
0016
FFDF
FFF1
0028
0036
FFE4
FFE6
0013
001C
0002
FFF0
FFDD
001B
0035
FFEF
001F
001F
002D
FFFC
0003
0027
0020
0032
FFF0
0013
0022
FFDB
0008
FFF2
001F
FFE6
0009
0020
FFCA
FFC5
FFE4
0020
0021
FFDB
0005
FFDF
FFE3
0028
0014
FFED
0003
0005
0007
FFE9
FFDC
001E
0002
0011
FFE8
0015
0021
001B
000B
002F
FFFB
0006
002C
002C
FFF3
0036
0018
FFFC
002E
FFE5
0021
0032
FFDB
FFE0
FFCB
FFF5
FFD0
FFEE
000F
0025
0024
001E
001C
FFE6
FFDF
0006
0032
0007
FFF7
FFD8
FFE2
FFD4
0026
FFF3
FFCE
0002
0000
FFF5
000F
0018
FFCB
FFD4
FFF9
FFCB
FFCC
002A
FFF8
FFE2
FFEA
FFD3
0024
FFF0
FFE6
FFDB
0021
FFFA
FFFB
FFF3
FFE7
0009
0028
FFE1
0002
FFD7
FFE6
002C
FFFF
0031
FFFA
FFE4
FFE5
002E
FFD5
001C
000D
000F
002A
FFFD
0028
FFDB
FFF0
0027
000F
FFF8
FFF3
FFDE
001D
FFFC
FFFC
000A
0024
FFE3
FFF8
0026
0020
FFED
FFCD
0011
001E
0011
001D
FFD0
0015
FFDB
001A
0024
000E
0028
FFDC
FFD0
FFCC
0020
0011
FFD9
0019
002F
FFC6
0022
000B
0009
0031
002D
0013
0026
001C
000A
FFD0
0004
FFD2
0006
FFFF
FFF6
FFD3
FFD8
001F
0013
0017
FFED
FFF5
FFF2
0026
FFE3
0028
002C
FFC7
FFFF
FFF6
FFF8
0021
0003
0036
FFE6
001F
FFD9
FFEB
0008
002E
001F
FFD9
0009
FFE4
0005
FFD7
FFF3
002D
FFD7
FFD6
0008
0006
FFF8
002E
FFE2
FFE0
FFD8
FFF6
FFF2
001F
FFFB
000F
FFE8
0028
002A
FFCF
FFF0
FFD1
0013
FFD0
FFE4
0034
FFCD
0026
0001
0027
FFE2
0020
0004
0011
002F
FFD7
FFDD
0038
FFE5
FFDE
0000
FFF2
FFFB
FFDF
0015
FFD5
0006
0020
000B
0012
000E
FFFD
FFF9
FFE9
FFE8
FFE5
0034
FFFF
0019
002A
0001
FFE8
FFE0
FFF0
0016
FFD7
FFFC
0016
002C
0011
000C
0025
0019
0019
FFF4
FFD1
FFF0
FFF7
0005
FFFC
0014
003F
0003
FFE3
FFF5
FFF4
0028
FFE5
0000
FFFB
FFE5
001B
FFEE
0002
FFE0
FFFF
000C
0017
FFFA
0020
FFFB
FFE3
FFE6
FFFD
FFDC
0035
FFF0
FFF2
000C
0014
0001
0029
FFE7
0018
0004
FFDA
FFF0
0011
000D
0029
0026
FFEC
FFF0
FFF5
FFD8
FFF1
FFDF
0016
0026
000C
FFE1
FFDE
FFF0
0013
0005
000C
0034
001A
000D
FFF7
001A
0014
FFD1
FFE1
0002
001B
001E
FFD9
FFC5
FFFC
FFFA
000E
FFF0
0030
000B
002C
FFE1
0019
000A
FFE8
001C
FFCE
002B
0005
0006
0018
0004
0016
0021
FFDF
0026
FFFB
FFF2
0007
002A
FFE4
FFDE
0027
FFED
0016
FFFD
0012
002B
FFE8
FFE9
001C
0005
FFFC
FFD4
002D
FFFF
FFF7
FFEB
FFFB
001D
0003
002D
FFFA
FFFB
001F
0001
FFFD
0018
002E
0011
0027
0024
0010
0013
0011
0005
002C
0030
0012
FFFC
002E
FFD6
002D
001E
0024
FFFB
FFD5
0026
FFEA
000F
001B
FFCD
0001
FFEB
0023
FFDC
001D
001E
0019
002F
0004
FFCC
0021
0000
FFFC
FFC9
FFF2
FFE4
002F
001E
001F
001E
FFDA
FFE3
FFFC
FFF8
0033
001A
0030
0002
FFD5
FFF4
0028
0022
0012
FFF3
FFD1
FFE6
001D
FFEC
0027
0015
FFF6
0029
FFE5
0004
FFF0
FFDD
000B
0012
FFE8
0022
FFD2
FFCE
FFE0
FFEE
FFFA
FFF6
0018
FFD2
0007
0000
000D
0033
0023
FFE4
FFD7
FFF2
FFE3
0012
0001
0029
0008
FFEE
FFFC
000A
FFF9
002C
FFDB
001F
FFE5
FFDA
FFFE
0023
002F
0017
0007
0009
FFE2
FFFC
0007
003D
0030
FFDD
0002
FFE2
0000
FFDE
0014
FFE0
0038
002B
FFDF
FFD2
0005
FFF4
0012
FFDF
0018
FFD5
FFE7
FFE7
0021
0004
FFD8
FFDE
FFE8
FFCA
0006
0013
0005
FFF8
000C
FFE1
FFEA
0008
0037
FFF8
0021
FFF2
FFF9
FFD5
0031
0039
0004
0026
0038
0023
0012
FFC4
FFCC
FFE0
0015
FFDA
FFD8
FFE7
FFD0
0000
0008
FFE1
0022
FFEC
FFF1
0028
002D
FFFA
FFDA
FFE6
0007
001F
001A
FFE9
FFCF
FFD2
FFEF
0001
FFE9
FFD7
FFF6
FFCA
FFCD
FFCC
FFEA
0026
000D
FFF3
0004
000E
FFF9
FFCF
FFD9
FFD6
FFF8
FFCA
FFE9
FFE4
0023
0023
001C
FFFC
FFE9
0007
FFDC
FFEA
FFF6
FFF4
FFCE
0015
002B
FFE3
000E
FFFA
FFFE
0003
002D
0007
FFDF
FFED
001A
0010
0001
FFF9
FFEC
FFED
FFE4
0009
0017
002F
FFFA
0008
0026
001A
0009
0012
0004
FFD4
0002
FFF5
002F
002F
000A
002E
FFEC
0031
0030
FFFB
FFD2
FFF0
FFF2
0001
FFC8
0005
FFEA
FFF7
FFEC
FFFD
FFDA
FFEF
0010
002D
003B
FFE3
0021
FFED
FFE2
0008
FFDD
FFD9
FFE6
FFED
0031
0025
FFF3
FFD0
FFD3
FFDC
FFE5
001A
000C
FFE6
001E
FFD9
FFCF
0005
FFDC
0008
0025
FFE0
FFD4
000C
FFCC
0029
FFE4
0010
FFCC
FFD6
FFFE
000A
0036
0038
0008
0003
0011
FFFC
0009
FFD5
FFDB
002A
FFE7
002E
000B
0011
0034
FFE7
0004
0012
000F
FFC6
0014
FFF2
000D
0023
FFFE
0001
FFFE
002D
001E
0009
FFE0
FFE2
0028
0024
001C
FFD5
0026
FFF8
0023
002A
0008
FFEA
0027
FFD9
001B
FFCC
FFED
FFCE
FFE9
0017
FFDB
FFD3
0025
001B
FFFE
FFDA
FFF1
FFED
001F
FFED
FFEF
FFD9
FFE5
001A
0022
0007
FFEE
0031
0008
FFEB
FFEC
FFF7
0023
001C
002D
0004
0030
FFEF
FFEC
FFF0
FFD2
FFE0
FFD3
FFFF
0002
FFF4
FFDE
0031
FFF7
001E
002A
FFDD
FFF7
0020
0034
FFFD
002D
FFDE
FFE4
0030
FFFF
0037
0007
FFED
0034
002F
0006
FFE1
FFFE
FFE7
0026
0002
0012
0024
0010
FFD9
0029
0021
FFE0
0027
000D
FFF3
FFD7
FFF3
FFC8
0019
0021
FFEC
002B
FFE7
0003
FFD6
FFF8
000F
0011
FFF8
FFE3
0020
0021
0005
FFE1
0007
FFFB
002B
000C
0008
0007
001F
0002
002F
001E
FFDA
0002
FFD5
FFD9
000B
000C
FFFC
0032
FFE4
FFEE
FFFA
0002
FFF8
002C
FFE8
FFE3
0004
0032
0016
0024
0011
0032
0024
0029
FFFC
FFD7
FFE9
0013
0026
FFEC
002C
0008
0000
000B
FFFC
0032
FFFE
001D
FFD7
FFE7
0005
0031
001F
000F
FFD1
0005
FFE1
FFD6
000A
FFE2
0032
FFE6
0013
0020
FFD9
001C
FFFA
0021
0036
FFE7
FFE5
0027
0009
FFFA
0024
FFE3
FFFA
0020
0012
FFDB
000B
FFD5
FFE1
001F
FFEF
FFE2
0000
0009
FFDC
FFD9
FFCA
000A
FFDB
0000
FFF1
FFDA
FFEC
FFD8
FFE4
001A
FFEA
FFE5
0035
000F
FFF1
0004
002B
FFD9
FFE8
FFDD
FFFF
0001
FFDA
0027
FFDB
0048
FFE9
000F
0016
FFE5
0035
FFE1
0012
FFE1
0014
0031
0033
0008
FFE7
0033
0003
0022
FFE3
FFE6
FFD3
002E
0006
FFD8
0002
FFEF
0004
000C
FFDC
0004
FFDC
0007
FFCF
0010
003B
0036
0017
002A
0035
0010
0012
0007
002E
002D
FFE7
FFFD
FFE5
0011
FFCC
0019
FFF5
0015
000D
FFE2
001B
0015
FFD5
003C
0034
0027
0000
0017
FFE8
FFF1
001B
0019
0016
FFCF
002C
FFEB
002E
002B
0013
003B
0022
0021
FFEC
002D
000F
001F
FFF4
0026
002E
FFD8
002B
FFDD
FFDC
FFD4
000F
FFD9
FFEC
FFE6
000E
FFCD
FFE8
0000
0005
FFE8
0013
FFDE
FFD4
FFF9
FFE4
0021
FFDC
0006
001F
FFDB
0030
FFEF
FFF7
FFE5
FFF0
FFEF
FFD4
0014
0002
0035
0025
002E
0010
0025
0037
0029
FFD1
FFF3
FFD3
0005
FFEF
0029
0004
FFFC
FFD6
FFD3
0004
FFE2
FFE4
0020
FFE0
FFE4
0023
0010
FFDE
000B
0016
FFCD
0006
0007
FFF9
002D
FFD8
0018
FFE0
FFD9
0029
FFEC
0006
001F
FFD7
FFD6
0014
002F
FFFC
0026
0013
000F
FFDF
0031
0017
000D
0028
FFCD
0007
FFE4
FFFB
0011
0017
0011
FFDD
FFE4
0005
FFFB
FFD8
0037
000A
FFDE
0019
0019
FFE8
001C
FFE1
0013
0032
0027
001E
FFF7
0007
000F
000D
FFF6
0008
FFEB
FFE2
FFD0
FFD5
FFDF
0032
000A
FFD1
FFE5
000C
FFF0
FFF1
FFEC
FFF3
0006
0003
0022
0021
002B
FFFE
FFE9
0000
FFDD
0015
0004
FFF8
FFDA
001E
0021
0033
FFF0
0011
0003
FFDF
FFDF
001B
FFE1
0025
0011
0011
002B
001D
0019
0017
FFE6
FFE6
FFF6
001B
0023
0024
FFEC
FFF6
FFD8
001B
FFD8
FFE5
0026
0007
FFE4
FFD6
FFD5
0023
FFC9
0026
0027
FFFF
FFF9
0021
000D
002B
0023
FFD8
0039
002F
FFEB
0026
FFEF
FFE8
0006
FFFE
FFF6
FFE1
001F
0036
FFF7
FFE0
0000
FFD6
FFEA
FFF9
002C
FFE5
FFFC
FFF4
FFDE
FFFB
0006
FFFF
002C
0019
0023
0016
0006
001C
FFDF
001A
0018
FFE9
FFFE
FFD8
FFD2
FFFF
0011
FFF8
0014
FFD5
FFE0
0023
FFD0
000B
0035
0030
0018
FFD3
0007
FFED
FFEF
0025
FFEC
FFD8
FFD3
001F
0001
0032
0009
FFCF
0016
0031
002B
001E
FFDC
FFE5
0023
FFE6
0012
FFFE
0015
0006
FFD9
FFEC
002D
0005
001A
FFE4
0028
FFF3
FFEC
0008
FFEB
FFE8
FFFD
FFFE
FFE5
0012
FFC9
0021
0031
000A
FFFA
FFD6
001D
002F
0030
0007
0014
0034
0009
FFE8
FFCF
0017
0014
002E
FFE5
0016
FFF4
FFF6
001F
FFCD
0023
001A
FFE2
001B
FFF0
0003
FFF7
FFCB
FFFB
001A
FFFA
FFE6
0004
0015
FFF0
FFE2
FFE6
0003
0015
002E
FFFE
0018
0024
FFED
FFE9
0020
0022
0011
FFDB
001E
FFD5
001B
FFFF
000D
FFC8
FFEB
0017
0029
FFED
0028
FFF6
FFE1
FFF1
0016
FFF2
0026
FFE3
FFF4
FFCB
0026
FFF4
FFD7
FFFD
FFFD
0010
FFFB
001E
FFF0
FFF2
FFF1
000C
002A
FFFB
0028
002F
FFE0
FFF8
FFE8
0017
FFF8
0011
0002
FFDE
FFDB
FFD2
FFE1
0009
0007
0023
FFD2
0005
FFCF
0002
0015
FFCE
0032
FFF2
003A
FFFB
001D
0031
FFF0
FFF5
0015
FFDB
001F
FFDF
0030
FFE4
FFEA
001E
FFE9
002E
002A
0028
FFD4
FFFE
FFED
0010
FFD9
0011
FFFD
FFE9
FFD2
0018
FFF8
0024
000A
0011
FFF8
FFFD
FFE9
FFD3
0022
FFDF
0020
FFE8
002D
002E
FFE4
002D
0002
FFEC
0003
000B
0011
FFEA
000B
000E
0016
000A
FFF2
0009
0021
FFF3
FFFD
000C
000D
000D
000F
FFF2
FFF7
FFF4
0006
0002
FFED
FFFA
FFE8
FFEB
0010
FFF1
0006
FFF5
FFF9
FFFB
000D
FFFA
000E
0009
0009
FFEF
FFF3
FFE9
FFF8
FFFB
0001
0010
0006
FFEB
FFF2
000D
0000
0003
FFF0
FFFA
0002
FFEB
000C
0004
FFEF
FFF5
FFF7
0001
FFF5
0012
FFE7
FFF1
FFF4
0002
0000
FFFA
000C
FFEC
0006
FFF0
FFF9
FFE7
FFE8
FFEB
0006
FFF5
0007
FFEE
FFF5
FFFE
0014
FFF5
000A
0002
0008
000B
0005
FFFB
FFF5
FFFF
0009
0003
000B
FFEE
000D
FFFA
FFEC
FFF1
FFEA
0001
FFEB
FFF5
FFFB
FFEF
FFFB
FFF9
0003
000E
FFEF
0009
FFFC
FFEF
FFF6
0002
0001
FFFA
FFF0
000B
FFFF
FFE6
0003
FFF7
FFF5
FFEF
FFEA
0014
FFE9
0012
FFED
FFFB
FFF4
FFF1
0008
000A
FFEE
FFF2
000A
FFFA
0002
0009
FFF5
FFF1
0005
FFF5
FFEE
FFF2
FFF3
0014
0001
0006
0000
FFF1
000D
FFFA
FFF7
0010
FFF3
0002
FFEA
0009
0006
FFEB
000A
FFFF
FFF2
0010
0007
0008
FFF5
FFF1
FFF1
0006
0006
FFF0
0013
000A
FFF5
0009
FFF4
0004
0011
FFE9
FFF2
FFFD
0001
FFEB
FFEF
FFFB
FFFA
0002
0000
0002
FFFF
0003
FFFC
0005
000D
FFF2
FFF2
0007
FFEC
000C
0008
0001
FFF3
FFFE
FFEB
FFE9
0012
FFE9
FFEA
FFF5
FFFE
0002
FFF2
FFFB
FFF8
0010
0011
0008
0000
000E
FFEE
0007
FFF0
000F
FFE9
0006
FFEA
000A
0001
0011
FFEC
000C
FFEE
FFF2
0006
FFFA
FFEC
FFEA
FFFA
0003
0011
000E
FFFE
FFF2
FFE9
0012
FFF0
FFF9
FFEB
FFEE
0002
0001
0000
000A
FFFF
FFFC
FFF2
0012
0011
001C
FFFD
FFEB
000E
000F
001B
0018
000A
FFF3
0007
0017
0010
FFF5
0003
FFEE
0001
0019
FFF6
000E
FFF1
0018
0011
000F
0009
0006
FFF8
FFF7
FFF3
0015
FFFA
0010
0010
0005
001D
FFEE
000D
FFEC
0001
FFEF
000E
FFF2
0007
0010
FFF1
0013
0015
FFED
0005
FFF2
0019
0013
FFF0
FFFB
FFF1
FFF7
0001
0000
001E
FFF5
FFF5
FFEE
FFF1
0022
000A
0000
0002
FFF3
FFFA
0015
0010
001C
0007
FFF2
FFF9
001D
0004
000B
0004
0018
0011
FFFF
FFEF
0010
FFF6
FFED
000D
001A
FFFA
FFF3
FFED
FFEF
FFFE
FFF8
000B
FFF8
FFEF
0017
0011
0015
0016
FFF5
FFFA
FFF2
0020
0014
0017
FFF4
FFF4
001C
FFF0
FFF6
000B
FFEC
FFFE
000E
002A
0006
FFFD
0012
001A
FFEC
FFFC
FFED
FFF4
0008
000A
0006
FFEB
FFF7
0006
FFFB
FFF7
FFF2
0011
FFEB
FFEB
000E
FFEF
000A
FFF0
FFFA
FFF2
0010
000B
FFFD
FFFD
FFF7
FFF1
FFF4
0004
FFF9
000E
0000
FFFD
FFEF
0006
FFE8
0002
0002
0003
000D
0004
FFFA
FFED
FFE8
0008
0009
FFEF
0003
FFF6
0010
FFF5
0010
000D
0009
000D
0006
0004
FFED
FFF8
FFFB
0008
FFF5
0007
000C
0006
0008
FFFA
000B
FFF5
000F
FFFC
FFFC
FFE9
0012
FFFA
000E
FFEE
FFEA
FFF9
FFEC
0001
FFFD
FFF5
000B
000B
FFE9
FFEA
000A
FFEF
FFFF
FFF7
0002
FFF0
FFFC
FFF8
FFF3
FFF5
0002
000C
FFFD
FFFC
0010
000F
FFF9
FFEA
0002
0003
FFEB
FFE8
0002
0011
FFE9
FFF2
FFF5
FFEC
FFEF
000F
000E
FFEC
0000
FFEA
0006
FFEE
FFF1
FFF2
0000
000C
FFFC
0002
0017
FFFD
0002
FFF4
0004
000E
0014
FFFD
0014
000F
000A
001F
0002
0010
FFF0
001B
001B
FFF3
FFF1
FFFB
FFF5
000A
000C
FFFD
0010
0003
FFFD
FFF2
0007
FFED
0004
0005
FFF7
0009
0006
000F
0018
0011
FFEF
001B
FFF0
000E
FFF0
FFF2
0007
000E
FFFC
FFEC
0006
000D
0016
0003
000C
FFEE
0005
FFF6
FFF2
0012
0007
0013
FFF2
0015
001D
000F
0015
FFF4
FFFB
0005
0013
FFFA
0012
FFFF
FFF8
0006
FFF3
FFEB
0012
000B
0007
0001
FFF3
0003
0018
FFF0
0009
0014
0014
FFF3
0001
FFF2
0002
FFF0
FFF2
FFF1
0014
000F
0012
000C
FFFA
FFF6
FFF3
0006
000E
0006
FFF3
0001
FFF7
FFFF
0000
0010
FFF0
0017
FFF9
0007
0012
000B
0012
000E
0011
0008
0012
0006
FFFB
0017
000A
0001
FFF4
0006
0015
FFFB
0005
0003
FFEF
FFFC
0004
000C
000D
001A
0015
001C
FFF1
0006
0001
FFF9
000C
000B
0004
000C
000F
001B
0003
0002
0000
0006
FFF6
0004
FFED
FFF3
FFF3
0014
FFF7
0001
0005
0015
0014
0016
0016
0016
0003
001D
0014
FFFF
FFF1
000A
0015
FFF7
0001
FFF4
000E
0007
0008
FFFB
FFDC
FFFC
FFF0
FFFD
001E
FFF3
0002
FFEF
FFFC
FFF9
FFFC
FFFA
0003
000C
0019
000E
0004
0005
0014
FFF5
0019
FFE9
0003
000B
FFF5
0009
0017
0024
0019
FFFB
FFF8
0001
FFFF
FFF8
0008
001A
FFE9
0013
0011
000D
0009
FFF8
000D
FFF6
FFF9
0018
0014
FFEF
0019
0007
000B
0015
0002
FFFC
0012
0010
0000
FFFB
001A
000B
FFFF
0000
0004
FFF5
0006
FFF2
0004
0010
0000
0026
000C
000D
FFF8
0000
000A
0009
FFF9
FFF0
FFF4
000E
0018
001D
0009
0017
0020
0013
0008
0008
FFF6
000D
000D
FFF3
FFFE
FFF2
FFF4
0013
0016
FFFB
0007
FFFC
0007
0001
FFF2
FFF9
0019
0005
FFF7
0003
FFEB
0001
001F
0026
0003
000B
FFFC
0013
FFF2
FFF7
000F
0006
000D
FFEE
0013
FFFE
0007
0013
FFE9
0009
FFE0
0016
0008
0004
FFFF
000E
FFF3
000A
001B
FFFB
FFFD
000B
0004
FFFE
001D
0002
0009
0014
0000
000E
0016
0009
0009
0016
FFF1
0009
0009
0020
FFF0
0009
FFF5
000E
000C
FFEF
000A
0009
FFFF
0017
0016
0004
000B
FFEB
0013
FFF9
0010
000D
0001
000D
FFF8
0009
000D
FFF8
000C
FFEE
FFF8
0016
0011
FFEF
000B
0002
001B
FFEA
FFFE
FFF5
FFF2
FFFF
FFEE
0021
0000
0017
FFF6
0003
FFEE
000B
0010
000C
FFF8
0007
FFEB
000A
FFFB
FFEC
FFE6
0005
0000
FFFD
FFEF
0010
FFF7
0007
FFFB
000E
0005
0008
0001
FFF9
0016
FFF6
FFF2
0002
FFF8
FFEA
FFFD
FFF9
FFF0
FFF0
FFF4
FFF2
FFFD
0014
FFFF
FFF3
FFEC
FFFB
0002
FFEB
000A
FFE7
0010
0004
FFFA
FFF6
0007
000D
FFEE
FFF5
000B
FFF9
FFE7
FFF5
0000
FFF7
FFEE
FFF0
0002
000D
0012
0008
0003
FFEB
000C
000D
0011
FFF6
000E
FFE9
FFFB
FFF2
FFE8
FFEF
FFED
FFFF
FFF7
0005
FFFA
0013
0000
0010
000E
FFE7
FFED
0008
0025
FFE7
FFF6
FFF3
0025
0013
000B
000C
FFFA
000C
FFF2
0003
FFF7
FFE7
FFF0
0002
FFFA
FFEA
FFFA
0002
FFEE
0006
FFEA
FFFC
FFE9
FFEC
FFFE
0011
0015
0003
0012
FFEF
0008
0023
FFE8
FFEE
0005
FFFE
FFF9
FFEA
0016
0000
0000
FFE2
001D
FFF1
0017
0017
FFFF
001A
000C
0009
0012
FFEF
000E
0004
0003
0016
000A
FFEB
0018
FFFF
0019
FFF8
0016
0009
0001
000F
FFFC
FFF3
0010
0011
0002
0015
0004
FFF6
0003
0039
FFF3
0037
FFEA
0009
FFF2
0009
0012
0009
FFFC
FFEE
FFFB
FFF5
001A
FFF5
0005
0013
FFF5
FFF3
FFFC
FFFC
0026
0004
FFFB
001A
0011
0019
FFFE
0018
0003
FFFA
0010
FFF8
0004
0017
FFEB
FFF3
001C
FFFE
0017
0009
FFF2
0016
0004
0010
0010
FFF4
FFFF
0006
FFFD
000D
FFFA
FFFD
FFE8
0018
0017
FFEF
0008
0000
001A
000D
FFF6
001C
FFFE
FFF7
0010
001A
000B
FFEA
FFFD
001A
FFF9
000B
FFF6
FFF9
FFF8
0005
000F
0013
0013
0003
000C
0011
FFF1
0023
FFFC
0028
FFFC
0008
FFFC
0007
0000
FFEE
0009
000A
FFF1
FFF1
FFED
FFF2
FFFA
FFFE
FFFC
FFF8
000B
FFFE
FFF2
FFF6
FFF0
FFF4
FFE7
0000
FFEB
0005
000C
FFEC
FFF4
FFEB
0003
0001
FFF1
000C
0006
FFE8
FFFC
FFF3
FFF9
0009
FFFC
FFEF
000D
FFE9
FFF8
0005
0011
0013
FFF7
0008
FFE9
FFF9
FFF6
0003
FFEE
0001
0009
000F
FFF9
0011
FFEB
FFF6
0005
0003
0007
FFEE
000B
FFE6
FFED
FFFB
FFEA
FFE7
FFE8
000F
0002
FFF6
FFFC
FFE9
FFE8
FFED
FFE7
000B
FFF5
FFF6
FFE9
0001
FFF9
FFED
000B
0010
FFED
0009
0002
FFFC
0007
FFF8
0015
000E
FFEE
FFF2
FFE6
0004
FFEC
FFE9
FFEE
FFE6
FFEA
0011
0009
0011
FFF2
FFF3
FFF6
FFFD
FFED
0000
FFEE
0004
0011
0001
000D
FFED
FFFD
FFEF
FFFA
FFF5
FFF0
FFE7
FFF4
0000
0004
FFE9
0018
000E
FFF2
FFFD
0016
FFEB
FFFE
0027
FFFE
0012
000D
0012
0011
FFFD
FFFD
FFF3
0005
0014
FFF1
0000
0015
0001
FFFC
FFFA
FFF7
0006
FFEF
0010
FFF9
FFFC
0004
0010
FFF7
FFEE
FFF2
FFF1
0002
003E
FFEC
0020
FFEE
FFFE
0000
FFF6
0001
0008
0000
000D
000A
0019
0004
0016
000D
000C
FFFE
FFF7
FFF1
000D
001F
001B
FFFE
0002
001A
000D
001A
FFFC
FFF9
FFFF
0016
FFF4
FFFE
001C
000B
0010
0005
FFF0
000B
FFF9
FFED
0011
000B
000B
0019
000C
000C
FFFA
0014
FFF2
001C
FFF9
FFFE
FFFE
0019
FFED
FFFD
FFFA
FFF7
FFF7
0001
0009
0013
FFFB
001E
FFF8
FFFA
FFFF
0000
000C
0019
001D
FFF4
FFFD
FFFF
FFEB
000C
0012
000F
0003
FFFE
FFFA
0003
0029
FFFE
001A
FFF6
FFFD
0000
FFE8
000A
FFEB
FFF7
0015
0017
FFFE
FFED
FFEF
FFFA
0005
001A
FFEC
0013
0004
FFF7
0017
000C
0003
FFEE
FFF7
0005
0027
000B
FFEE
FFEA
000D
0013
000E
FFF1
000E
FFF5
000C
000A
FFEA
0004
000B
FFFC
0021
000C
0006
0000
FFF4
FFF5
0003
FFFA
0012
0012
FFFF
FFEC
0009
0011
FFFA
FFF3
FFF8
FFF7
FFEE
000B
0009
FFE7
FFF5
FFF3
0010
000A
000C
0000
0006
0016
0002
FFFF
0009
FFF5
FFFE
FFEF
FFFD
0001
FFF0
000C
001D
FFEB
0005
FFF7
FFFA
0013
0002
0005
FFF9
0013
FFF2
000C
FFFE
FFFD
FFFE
001F
0006
000C
0000
0005
002B
FFF6
0006
000F
0005
FFED
0008
FFE6
FFF7
0008
0014
FFF9
0012
0016
0010
FFE9
FFF8
0007
0010
FFFF
0004
000C
FFF3
FFF0
0023
FFFE
0012
FFE9
FFF8
0015
FFF7
0009
FFEA
0016
FFEB
0005
FFF1
FFFF
FFFF
FFE7
0004
0005
001A
FFFE
0010
FFFE
000B
001B
FFF3
FFF9
0010
FFFC
FFFC
0006
FFEF
0002
FFF7
0006
0000
FFF3
FFF5
0006
000B
FFEC
FFEE
FFEB
000A
001C
000D
FFFE
0026
FFF4
0009
0013
0014
0006
FFFC
FFF4
FFFA
0003
0000
0010
FFEB
FFFF
FFF6
FFEF
001A
FFFF
FFFC
0001
FFED
FFE7
000E
FFFA
0017
FFFC
000E
0011
FFFE
0010
001A
FFFA
0017
FFEB
000F
FFFF
FFFA
0021
0005
000E
FFF7
FFF7
0023
FFF3
0013
0017
0010
FFF9
FFFE
FFF6
FFF4
FFEC
FFF0
0018
000C
FFF5
FFFC
0018
FFFB
0012
001A
FFF9
FFE3
001A
FFF6
0016
FFF0
0007
000A
FFF9
001C
FFF1
FFF9
FFFE
0011
000F
0008
000C
0014
FFFA
FFFA
FFFF
0018
0000
0019
0009
0006
0010
0001
000C
FFF9
FFEC
000D
0007
0013
0006
FFFD
FFEE
FFE6
0002
000E
FFFC
FFF6
0009
FFF2
0005
FFEB
FFE9
FFF0
FFF9
0004
0008
FFEF
FFFB
0004
FFF8
FFFD
000C
FFF7
0009
0010
0005
FFF9
FFEF
FFEE
FFF6
0003
000A
FFFE
0012
FFF4
0002
FFF2
0004
0013
0005
0000
FFF5
FFEB
FFEE
FFEA
000E
FFF4
FFFD
FFE9
FFF9
0011
0002
FFFA
0009
000E
000F
FFEB
FFFF
FFEB
FFF0
000F
FFEA
FFF2
0008
0013
FFE8
FFEF
FFF4
000F
000A
000B
000D
FFF8
000E
FFFD
FFFF
FFF7
0007
0007
FFFB
0011
FFF6
0003
0016
000A
FFF7
FFF6
0002
0000
FFFF
000D
0005
FFF0
FFEB
0013
FFFA
FFF4
FFED
0013
0008
FFEF
FFEA
0012
0007
FFFA
FFEB
000E
FFEE
0009
FFE8
FFE9
FFEA
0012
0012
FFDF
000E
FFEF
FFE8
0008
0007
0010
FFFC
0018
FFED
001E
FFF3
0001
0009
FFEA
000E
FFE4
0007
FFF4
000B
0013
FFF5
FFE3
000F
FFEF
0000
000F
FFF9
000A
000A
0001
0006
FFFE
0014
000D
FFF5
0000
000B
000F
0004
0009
FFF8
FFFD
FFE8
FFED
0011
FFE3
FFED
000B
FFE8
000B
FFE8
FFF4
FFF2
0013
FFF7
000F
0002
0013
0013
000D
0027
FFF4
FFFB
0004
0007
FFF3
FFF5
FFE9
FFF0
FFF9
FFF9
FFF5
FFF5
000A
FFE7
0011
FFF8
FFFE
0006
FFFA
000C
FFFD
FFF9
FFE8
0007
0006
FFFF
FFEC
000C
000C
000C
FFF9
FFFF
FFEE
FFEA
FFFA
0012
FFEF
FFEC
000A
000C
FFF1
000A
FFFF
0010
0006
FFF4
001C
FFEE
FFF1
000D
FFF9
FFF2
FFFF
FFFE
000D
000D
0005
0001
0006
FFFC
0002
FFFC
000C
000D
FFFA
0005
FFE3
0002
000A
FFEC
FFFF
FFF8
FFE7
FFE7
FFFC
0010
FFEE
0004
000D
FFED
0006
0002
FFE0
FFFD
FFE8
0011
0008
0008
000E
000E
0013
0006
FFED
0012
0003
FFF3
FFF5
0015
0002
000E
FFFF
0012
FFED
0002
0003
FFFD
0011
0002
FFFE
0006
FFFD
FFFC
FFEC
0000
FFF2
000A
0011
FFE8
FFF3
0013
FFF4
0011
0013
FFF7
FFEB
0007
0008
0011
0000
000B
FFEA
0000
0002
000B
FFF1
FFFB
FFEE
FFEE
0007
0003
0006
FFFC
FFFD
FFFC
0009
FFED
0002
000A
000A
FFF2
000E
FFF0
0009
000F
FFFE
0004
FFE7
FFF4
FFF4
FFE8
FFF8
0004
FFFB
0014
FFE9
FFFC
0014
0013
FFF7
FFE9
FFF5
000E
FFFF
0013
FFED
FFEF
0008
0005
FFEE
0012
FFF4
FFEC
0003
FFF1
FFF2
FFF0
0006
0007
000D
FFF0
FFF8
0015
FFF1
FFF5
FFF2
FFE9
FFED
0011
0001
0006
0002
000A
0009
0010
0001
0016
000F
FFFC
0013
FFF1
FFFF
001F
FFF1
FFF5
FFE9
FFED
000C
000D
FFF5
0001
FFED
0003
000F
0007
FFEF
000F
FFF2
FFF9
FFEF
000C
0005
FFF4
000F
0013
0006
FFF0
0000
001F
0032
FFF3
001F
FFF1
0004
0019
FFFF
FFEC
0007
000D
000E
FFF2
FFFF
FFFC
FFFC
FFFC
FFF5
FFF5
000D
FFFA
0012
FFF5
0004
0003
FFFA
FFFE
0008
000B
FFF7
FFF6
FFE5
0000
000B
0011
FFEA
FFF5
0008
FFF4
000D
0005
FFEE
FFFE
FFF1
000F
FFEB
001B
FFFC
000E
FFF3
FFEB
0006
0018
FFFE
FFDC
FFF1
0001
0006
0000
0010
0017
FFFA
000F
001E
0004
FFE4
FFF3
000D
000E
0010
0006
FFFC
FFEA
FFF6
0002
0002
0013
FFF0
0015
0010
FFF3
FFF5
FFFA
0004
0013
0010
0011
001C
0011
FFEE
FFEE
FFFC
FFFD
0002
0013
0012
FFF7
FFF6
FFFF
0000
000A
0003
0004
0004
000E
000A
FFFD
FFED
000C
FFFB
FFED
FFF9
000E
FFF2
FFFA
0004
0010
FFFA
FFED
FFF3
FFF6
0001
FFEE
0011
0003
FFED
0009
FFFE
0012
FFFC
FFFD
FFE7
FFED
FFFD
0011
FFEF
0002
FFF0
FFEB
FFF6
FFEE
FFEA
FFF6
FFFA
000A
0008
0000
FFF8
FFFB
FFEB
000D
0012
FFE8
FFE7
FFE8
FFF8
FFFD
FFEE
000D
FFFE
FFF1
FFE7
000F
0013
FFFF
FFF2
000B
000B
FFFA
0012
FFEC
FFFA
0010
FFE8
FFF6
FFF3
FFF4
0011
000B
FFE8
FFEB
FFFD
FFF6
FFF1
FFE9
0011
000A
0007
FFF8
FFE7
FFFC
0005
FFF7
000E
0002
FFFC
0006
0009
FFEC
0004
FFEA
FFF7
FFF6
000E
FFE7
0008
FFE8
0007
0002
FFF4
0007
0013
000B
FFE2
FFF7
0011
0000
0000
FFFF
FFF3
0012
0002
0011
0011
FFFA
0004
FFF9
002C
0011
0028
0009
0011
0022
0008
0008
FFF5
FFE8
FFFA
FFFD
0014
0002
000B
0009
FFE9
FFF4
FFF6
0001
000D
0017
0006
FFEC
0014
0013
FFF6
FFFF
0017
000F
0029
FFFF
000A
0008
001F
0013
FFEC
0011
FFFC
FFF2
0001
FFFB
FFF0
FFE9
FFF4
0003
000B
0019
0004
0016
FFEB
FFE9
0006
FFEE
0013
0000
0009
0014
0009
0013
000D
0009
0013
0000
0001
0005
FFEA
FFF3
0013
FFF1
0010
0010
FFFD
FFFF
0020
001D
FFF9
0012
FFEE
0007
0009
0010
FFF4
FFF7
0018
0023
FFF8
000E
FFFD
FFFA
0027
0007
001D
000B
FFF2
0000
0013
FFEE
0006
0010
0005
FFFD
0026
FFEC
0010
0010
FFFA
FFFA
FFF9
0017
FFF6
0007
FFE9
0004
002E
0005
0003
FFFF
0012
0010
FFF9
FFF4
000F
FFF8
0001
0001
0000
FFF6
0000
0000
FFF6
0007
0019
0011
0013
FFFC
0009
FFF4
0012
0009
0014
0000
001B
0011
0012
FFFF
FFF1
FFF1
FFF0
0003
FFF1
FFFC
000E
0018
FFFC
0012
0000
0009
0022
FFF6
001F
0000
FFFC
0011
FFF9
FFF2
0008
0002
FFF6
FFF2
FFFD
FFF2
000E
FFFB
000E
FFFB
0007
FFFE
FFF7
000B
FFF1
FFF6
0017
0001
001F
0011
0000
FFEE
0010
000C
001B
FFEF
000B
FFF0
FFFD
FFF2
FFED
000A
001A
0000
0002
001A
0012
FFF7
0014
0013
0016
0016
0017
0003
0007
FFEB
0001
001E
FFEE
000E
FFF3
0004
FFF8
FFFA
0009
FFF8
0013
FFFE
0012
FFFF
FFEF
0016
FFFF
FFFA
000C
0005
000B
FFFE
FFF9
0012
000C
0018
0005
FFFA
FFFF
FFFF
000A
FFFF
0006
000B
000C
000F
FFEA
0011
FFFA
FFEA
000F
FFF2
FFF6
0010
0015
0016
FFF4
002C
000D
0016
FFF8
0001
0005
0013
FFF3
FFE9
FFF2
0003
FFE6
FFFF
FFFD
0004
FFEF
000F
FFEF
FFFB
0002
FFEF
0005
FFF5
FFF4
000E
FFF8
000B
0018
0008
003C
0016
FFF5
FFE7
FFEF
0004
0009
0009
0007
0014
FFED
FFEE
FFF8
0013
FFEC
0004
0002
000E
0015
001A
0013
0002
FFF4
0009
0017
FFFF
FFF9
FFFC
FFFF
000A
FFE6
0012
FFFC
FFEF
FFFE
FFEF
FFE9
0009
FFFE
FFF7
000B
FFFD
001A
FFED
FFFC
FFFD
FFEF
0012
FFF4
0017
0018
FFF8
0011
FFF3
FFFE
FFEE
FFF2
0005
0018
FFF7
FFF9
FFF1
0008
FFED
FFEC
FFF9
0017
0003
FFF8
000D
0020
000D
FFFD
FFFC
000F
000C
000E
000F
FFF8
0013
0004
0015
0025
0011
0012
0011
FFF3
0001
FFF7
FFF5
000D
0002
FFF0
0000
FFEC
000E
0031
000A
0021
0014
0012
FFFF
FFEE
000F
FFF9
FFFA
0012
0013
FFF2
0010
FFED
000E
0007
0004
FFF5
FFF1
0017
0000
FFF3
0016
FFFC
0000
0004
0015
FFF9
000E
0018
FFF1
000B
0000
000F
FFF6
000B
0010
FFFD
0001
000A
FFF1
0015
FFFB
0002
000B
0003
FFEF
FFF6
FFE9
FFEF
FFFD
FFF5
FFFA
FFFC
0016
001C
0017
FFFA
FFF0
0003
0006
001C
FFEE
001F
FFF1
FFEA
0008
FFF5
0009
0010
000C
000D
000A
0006
FFF7
001C
FFF7
FFEF
0018
FFFE
001B
FFF9
0009
FFED
001D
0012
FFFD
000F
0005
FFEA
0008
FFF9
0006
FFE8
FFFC
FFFE
FFF8
FFEB
FFFC
FFF2
FFEE
FFF1
FFFB
0000
0019
FFF0
FFF8
FFE9
001C
FFFF
FFFA
0010
FFF6
0008
001E
001E
FFF2
FFFE
0000
0005
FFF3
000A
0000
FFE9
0004
FFEA
FFFF
FFE7
FFF7
0014
FFE9
FFF8
FFFE
FFF1
0001
000A
0000
FFE8
FFFE
FFF2
0004
FFED
FFF0
FFFC
000D
FFF7
FFFC
FFFB
FFEC
FFFC
FFFD
0001
0008
0004
000A
FFF9
FFF6
0013
000F
000B
0010
0009
0011
0011
FFEB
FFEB
FFF2
000F
0012
FFFF
FFED
FFF3
0003
0013
FFFF
FFEF
0014
0011
FFF4
FFF1
000A
FFED
0010
FFFB
FFFD
FFF2
FFEA
0002
FFF8
FFF0
000F
0002
FFF8
FFE8
FFF1
FFF6
0007
FFE9
000B
0012
0005
FFEA
0000
FFF5
0005
FFFC
0009
FFFB
0008
0006
FFE8
0001
001E
0010
FFFF
FFFC
0007
FFE9
FFF6
0012
0000
FFFC
FFEC
FFEF
0001
FFEC
FFF7
FFF3
0004
0003
FFE8
0005
FFFC
FFF5
000E
FFEF
FFE9
0000
FFF4
FFF4
FFEA
0004
0010
FFE9
FFEE
FFF9
FFF0
0004
000A
0011
FFEA
0009
000A
0003
0003
0021
FFED
002B
0011
0026
000F
0000
0002
FFFD
FFF6
0015
000F
0009
FFFC
FFEC
0008
0009
FFEE
0012
0000
0009
0012
000A
FFF8
0009
000B
000C
FFF6
0000
0009
0017
FFF1
001F
0016
FFEE
FFFA
FFF8
FFED
0015
FFEE
FFF3
FFF4
FFFE
FFF1
FFF0
0016
0007
000A
0013
0003
0003
FFFD
0005
FFEB
0004
FFFA
0016
FFF3
FFF5
FFF3
FFF1
0004
FFE7
0012
0009
FFE7
FFEC
0003
0006
0020
FFFF
000C
FFF8
0000
0010
FFED
0004
0007
0010
FFED
FFFA
0022
0007
FFFF
FFF1
001F
FFEC
FFF6
000B
FFFE
FFF8
FFEB
0016
FFFF
0006
0006
FFF0
FFFA
000C
FFF6
FFF7
000B
0008
FFFE
FFF4
0007
0002
FFF4
FFED
000D
FFFA
000C
0003
FFF9
001E
FFF7
001D
0014
FFFD
FFF9
000E
0015
000C
0000
FFFF
0007
FFF7
FFFE
0023
0008
001F
000B
0015
000E
FFFB
0011
0007
FFFF
FFFB
FFF9
FFED
0006
0020
0006
0001
FFF8
FFF8
FFF8
0009
0002
FFF6
0005
FFFC
0005
000F
FFF8
0016
0000
0040
0006
0018
FFFB
FFFD
FFF2
FFE9
000F
0016
0009
FFFB
0009
0001
FFEC
FFEE
0008
FFF6
FFF4
FFF6
000A
FFF6
FFF5
0013
0013
0019
0015
000D
0014
001A
000A
0005
000F
000C
0010
0015
FFF1
FFF0
FFFC
FFF8
0017
FFF9
FFE9
FFF2
000D
0016
FFFE
0008
FFFD
FFF5
FFF8
FFF7
FFF7
FFEB
FFF2
0009
0023
FFFF
000D
0007
FFF0
FFF8
FFF8
FFF1
0005
0003
FFF2
FFFD
FFEC
0016
0010
FFFA
0013
0006
0018
FFFA
0009
0010
000E
0004
0000
0001
0013
FFFA
FFFA
001C
FFFF
000B
0005
0013
0002
FFF5
0009
FFFA
0006
001E
000A
FFFB
FFF3
FFF9
000D
FFDA
0013
FFF4
0001
FFEA
FFFE
FFF5
FFF1
0006
FFE7
0003
FFFA
FFEF
000D
0018
0007
FFFC
000C
FFF3
FFEE
0013
FFF7
0003
FFFD
0012
0012
FFEB
FFF6
FFEC
000E
0037
FFF7
0000
FFF6
FFF8
000D
FFEB
FFF8
FFFE
FFE7
0004
000C
FFEA
0005
FFFC
002B
FFE6
0012
FFF4
0015
FFF0
0006
0000
0009
0002
0008
FFF6
FFEE
0003
000E
000E
FFEF
000B
0007
0006
0007
FFFB
0000
FFEF
FFFE
0012
0008
0006
FFF9
0009
FFF2
FFFA
0006
0010
001A
FFEC
0003
000C
FFF2
0014
0016
FFF7
0001
001E
FFF6
000E
FFFD
0004
FFE7
000D
FFE5
000D
FFF3
FFF6
0000
0027
FFEC
FFEB
0009
FFF5
FFF3
000B
FFF1
0009
FFF7
000D
0013
FFF7
FFF3
0006
0002
FFFB
0019
FFF6
0006
FFF8
FFFC
FFF7
000B
000A
0017
0028
0009
0022
0029
000A
0009
FFF2
FFF1
0004
FFED
0012
FFEB
FFF4
FFFA
0007
0022
FFE9
FFF2
0007
0001
FFFF
0008
FFEA
0002
000A
0012
FFEE
0012
0007
001F
0032
FFF2
000B
FFFB
0014
FFFE
0004
0007
0015
000F
0010
FFEE
FFFA
FFEB
000F
0009
0005
FFFE
0005
0007
FFF5
0006
FFED
FFF2
000B
0016
0000
0018
0001
FFEF
0009
0014
FFF9
0014
FFF6
FFF3
FFEE
FFEE
0013
0009
FFFD
FFF4
0011
001A
000A
FFFF
000E
0004
0017
0002
000E
0019
0002
FFE4
FFFA
FFFD
0004
FFFF
0012
FFEE
FFEC
0008
001E
FFFF
000E
0018
0007
FFF4
0015
001C
000F
000D
0007
FFFF
FFFC
FFED
000B
FFFE
FFEA
0004
FFF9
FFF2
FFFC
0002
000E
0002
0008
0003
FFF6
001B
0009
0014
FFE8
000F
FFFD
FFF1
0015
000A
0025
0011
001C
0020
FFF8
0017
0007
0004
FFF6
FFFC
001C
0017
0012
0001
FFF7
000A
FFF4
FFF1
0009
0014
FFF4
FFEB
0001
FFFB
FFF5
0001
FFFF
FFFC
0012
001B
0032
FFF8
0028
000F
0009
FFED
0004
000C
FFFA
FFFF
0000
0013
0015
FFF2
0010
0008
000A
FFEB
FFF8
0018
0007
000E
0002
0010
0000
001B
0006
0009
000C
FFF4
FFFF
000F
FFF3
FFFF
000D
0017
0004
FFF8
FFF8
002E
0000
000F
0006
0014
000C
001A
0009
FFFE
0014
000F
FFF1
000C
0013
FFFD
FFFD
FFFE
FFF0
000D
000A
FFF0
FFF9
000A
FFF2
0016
FFFB
FFFD
0005
000C
0005
001A
0011
0001
0016
000C
FFFB
FFEF
FFFE
FFFD
FFE8
000C
FFF8
0016
000C
000D
001A
0012
0023
0015
0001
FFFF
FFF7
FFE9
FFFA
0007
FFFF
FFF9
0009
0005
FFFE
FFFF
0018
0023
FFE9
0010
0017
FFF1
001B
0000
000F
000B
FFF2
0004
002D
001C
FFE1
0000
0005
0002
0000
FFF7
FFEF
FFFE
FFF8
FFF6
0007
FFF7
FFFD
000C
FFF7
FFFB
FFE9
FFF6
FFEB
0006
0005
0011
0000
FFEF
0000
0002
0016
FFF7
FFF0
FFFC
FFF7
FFF1
000C
0008
0010
FFD7
FFEF
0011
0012
FFF3
0023
000F
0009
FFF4
FFEC
0025
0000
FFF5
001B
FFF3
0017
000D
000C
0013
0017
0005
FFFF
0008
FFE6
0000
0010
0004
FFF3
FFFB
0008
001A
FFE8
FFE9
FFDF
002D
FFEE
FFFE
FFF9
FFE7
0003
FFEB
000A
0010
FFF6
0005
0004
FFED
FFFD
0015
0001
FFEC
0003
0018
FFDE
0009
0016
0006
FFF0
0018
000F
FFFE
FFEB
0002
FFF9
FFEC
001B
000E
000F
FFEA
000F
000D
0013
FFFE
FFF8
FFE9
0011
FFFB
FFE6
0011
FFFD
0009
FFF9
FFF8
0010
0013
FFF2
FFFE
000A
FFFE
FFF8
0011
0010
FFF5
000D
FFFE
FFFD
000F
FFFB
FFFA
FFF9
FFE9
000E
FFEB
FFEB
FFFF
FFF9
FFFF
FFFE
0013
FFE7
FFF2
0000
FFE9
FFEB
000D
0009
FFF5
0004
0001
FFFA
000F
FFFC
000C
FFEC
FFF3
0000
000B
FFF3
000D
FFEB
FFF4
000E
FFEC
FFE8
FFF7
FFEA
0007
FFF7
FFF6
000A
FFFE
FFE9
FFE7
0009
0007
0009
FFEA
FFF8
000C
000E
000B
000F
FFF4
FFEB
0009
000A
FFF6
FFFB
FFFC
FFE8
FFF1
FFF4
0008
FFF9
0007
0014
FFF8
FFF7
FFEE
FFFB
FFE9
000A
0010
0003
0012
0007
000B
0011
FFEF
FFFA
0006
FFF7
FFED
FFF9
FFF1
FFF5
FFE9
FFF6
000D
FFF2
0006
FFED
FFEF
0000
0011
FFE8
0006
0000
FFEA
FFED
000B
FFF1
000C
FFF0
000D
FFF0
0005
FFFF
FFEA
FFF0
FFF7
FFFC
0008
FFF2
0000
FFEF
FFF2
000B
FFF6
FFE8
FFFC
FFF8
0006
FFF1
FFFD
FFF1
FFEF
0003
0003
0000
0012
FFFE
FFFE
FFF9
FFE5
0006
000E
FFFE
FFEE
0010
0001
000D
0006
0004
FFF6
0002
0003
FFFB
FFEE
FFF0
FFE5
FFF4
FFF8
000F
FFF2
FFE6
0009
0010
FFEB
FFFC
0003
000A
FFF8
0007
0011
0009
0006
000A
FFE8
0001
000E
FFEA
FFE9
FFEA
0003
0011
FFFA
FFF3
FFFE
FFE8
0000
FFED
FFED
FFEB
FFF6
000B
FFFF
000C
FFE6
FFEA
0007
0012
000F
FFEB
0006
FFE6
FFF6
FFFC
0007
FFF5
FFE8
FFE6
FFF3
000D
0006
0007
FFEB
FFE7
0011
000B
FFF3
0002
000C
0011
FFEA
FFF1
0009
000D
0000
FFF6
FFFD
0011
FFEA
0006
FFF7
FFFE
FFF0
000C
FFF3
FFF4
FFFA
0002
0001
0001
FFF3
0019
0011
0006
0014
0006
FFFC
0007
FFFF
FFFD
FFFF
0005
FFEF
FFF4
0015
FFF8
FFFF
000A
FFF8
0016
FFF9
0004
FFF3
000A
FFF4
000E
FFFF
FFFA
0006
0030
0013
0028
000E
FFF4
FFFE
FFF4
FFF0
0004
FFFC
0008
FFFC
FFEF
FFF8
FFEC
0002
FFF1
0001
000F
FFF5
FFFB
FFF6
0016
FFF3
0001
000A
0017
FFFD
0012
000C
FFFB
0019
FFF4
FFF7
0007
0002
0007
0019
FFEF
001C
0009
0010
000F
0001
000D
FFF5
000B
0014
000A
0017
000A
0010
FFFE
FFE0
FFFF
0020
0014
FFF7
0013
0017
FFE7
FFED
FFFC
0001
0006
0010
0012
FFF9
000F
000A
FFF5
FFF3
0013
001C
FFF6
0006
FFEB
0014
0006
FFFF
000E
0009
0013
0006
0010
0013
0019
FFF1
FFFB
0015
FFF1
0016
FFF8
0016
FFE5
0018
FFF6
001D
0024
0006
0010
001A
0001
FFF9
0007
FFF5
0009
0011
FFF2
0005
0000
FFF1
0015
0007
FFE8
FFF8
0006
0011
FFFF
0011
FFF9
FFF0
FFFA
FFF6
0007
0011
FFEF
FFFC
0033
FFF7
003B
0015
FFF7
0011
FFEB
0009
FFF3
0003
0019
0008
FFF7
000D
FFFD
0012
FFF0
FFEE
FFF3
FFF3
FFFB
FFFC
FFF7
FFF7
FFF9
FFFC
000D
FFF3
0014
000F
0012
0010
0006
FFFF
FFFE
0014
000B
0019
FFFA
0006
000A
0011
FFFF
0018
0021
000B
FFFF
FFFB
FFFE
0003
FFFC
FFF6
FFF3
FFEC
0014
0015
FFEB
FFEE
FFF3
001A
FFFF
0015
FFF5
0019
000F
0007
FFF9
000D
FFF4
FFFC
000E
FFF2
0011
0005
0005
0004
0005
FFF8
0007
FFEF
000B
FFEE
0019
0008
0016
000F
0016
FFFB
FFED
0016
0005
FFFE
FFFC
FFFF
FFF2
0019
FFF2
FFF7
0021
FFEB
0004
FFFE
000C
000D
000B
0015
001B
000F
0007
0004
FFE9
0003
0000
0001
000A
000A
0010
000A
FFF7
FFFE
FFFE
0003
000B
FFFC
000B
0002
FFFD
0020
0039
FFF3
0024
FFFB
0003
FFF4
FFF1
0001
FFFB
0000
0008
FFFC
000F
0014
0012
0011
FFFA
FFF2
FFFE
FFF6
FFFC
0012
FFF0
FFEB
0012
0016
000A
FFFE
0005
0010
0009
0003
000E
FFEA
FFFD
FFFC
FFEF
0001
0010
0023
0001
FFF1
FFFE
0019
000A
0005
000D
0010
000E
FFF9
0007
0013
0000
FFDE
0010
001B
0003
0000
FFFA
FFF4
FFF5
FFE5
001E
000D
FFFC
FFF7
FFF5
000C
FFEE
000A
0016
FFED
0017
FFF5
0000
0013
0011
001C
000D
FFEF
0005
FFEC
000F
0007
0026
0010
0024
0001
FFF1
FFF6
FFFC
FFEB
0011
FFF2
FFEF
001A
FFF1
0013
002C
0010
FFFE
0031
FFFA
0006
FFE9
FFED
000D
000E
FFF9
000C
FFFD
0011
0002
FFFC
000B
FFEB
000D
0022
0024
FFF1
FFF4
FFFE
0007
FFF2
FFF5
FFF8
0012
0011
0015
FFF2
000D
FFFD
0005
FFF1
FFEE
FFF9
0001
0011
0008
FFF5
FFED
0008
FFFE
000B
FFEB
FFF7
FFF3
FFF5
FFF4
0009
0004
001C
0018
0023
000D
0003
001E
FFF0
FFE9
FFF9
0017
0019
0001
FFEF
FFF0
0012
FFF4
0040
0001
0011
0011
0011
0021
FFEE
0005
FFF3
FFFD
000E
FFFA
0017
0004
FFEA
FFF2
FFF2
0008
000A
0014
0009
001E
0000
000C
FFFD
000A
FFFD
000F
0008
000B
0004
000C
0013
0019
0015
FFEA
0000
FFEC
0004
FFFF
0007
FFF9
000B
FFF8
000B
0025
FFF1
001A
FFF2
000A
FFDB
0002
FFE4
0012
000B
0032
FFE7
0014
FFEA
FFF6
000C
FFE2
000F
FFD5
000F
FFF6
0016
FFDF
FFE8
FFE6
0011
000C
000D
FFD7
0010
0000
FFF5
FFF0
0016
FFF9
0023
0014
0009
0006
0015
0014
0003
FFFE
FFEC
0005
0012
0006
0006
FFEF
0018
FFF6
FFEC
FFF9
FFEC
0009
FFFD
FFE3
0013
FFFE
FFFE
000E
0020
FFE3
0014
0004
FFDF
0008
0021
FFE8
FFD8
FFE4
0004
FFDF
000A
000C
FFDD
FFEA
FFFC
FFF3
FFEC
002A
FFEC
0012
FFD9
0011
000E
0008
FFE0
FFE9
FFE1
FFDF
FFFE
0007
FFFD
0019
FFE4
0006
0031
FFE5
001A
FFEB
0017
FFF0
FFE2
0015
0001
FFEC
FFF5
000F
FFF0
0004
FFFB
0005
FFE3
FFF2
FFEC
0003
FFE8
FFFB
FFF2
FFEC
0006
0008
FFEE
0009
FFFC
FFFB
0004
FFF3
FFDE
FFDA
0001
FFDB
FFE4
0022
0007
FFF4
0005
FFFF
0003
000E
FFF9
FFD3
0004
FFEE
FFE0
FFEE
000C
FFEC
0004
FFF2
FFF0
FFF1
FFEF
FFF8
FFF5
0011
FFF0
002A
0001
0000
001A
FFE7
0000
0010
0006
0019
FFFD
001E
0009
0001
FFE3
FFD4
0013
000E
0004
FFF6
0004
0026
0010
0008
FFF3
FFF6
000E
0013
FFFE
0010
0008
0011
0015
FFE9
FFEA
0006
0009
FFEF
0027
0006
0007
FFFE
FFEE
FFEC
000C
0019
FFE3
FFE8
0017
FFDD
0013
000B
FFF6
0013
FFEA
FFF5
0010
FFEE
FFE5
FFF8
FFEF
0006
FFFA
001D
0008
0014
0009
FFF7
0004
FFFF
0004
000B
0014
0016
0008
0013
0000
FFF3
FFF9
0000
FFEB
FFEF
0001
FFFA
000C
FFF4
FFEC
0003
0007
0001
0002
0006
FFF1
FFF9
FFF3
0002
0012
FFF4
0009
FFEA
FFF4
FFEC
FFFE
0002
0011
FFE7
000E
0013
FFF7
FFFB
0004
0010
0017
0006
000D
001B
0023
0002
0007
0012
0013
0006
0014
0015
001A
0018
FFF7
FFEE
FFF8
0009
FFF5
0010
000A
000E
0015
FFF1
FFFD
0005
FFF6
FFF2
FFFF
0000
FFFF
003C
FFED
001B
0012
0009
FFFF
FFFF
FFEA
0016
0009
0009
FFF4
0016
FFF4
FFFD
FFEF
FFDF
FFEC
FFF2
FFEA
0009
000E
000F
FFF5
0001
000B
0006
FFFA
0025
0005
FFF2
0005
FFFD
FFF9
001E
000E
0015
0007
FFF4
0031
0000
FFE7
0015
000D
001A
0016
0012
FFFA
0004
FFFF
0000
0009
FFF8
FFE3
000E
000C
FFF6
0012
FFF9
FFF9
0013
FFFE
0001
0014
FFF5
0006
0017
0008
FFEF
FFF7
000A
FFFF
FFFC
0004
000C
FFF1
FFEB
000D
FFF4
FFF0
FFF0
0013
001A
000A
0022
0018
0027
FFFF
FFFF
000A
0004
FFE9
000D
0016
FFEE
FFE8
FFEA
FFEE
FFF2
FFEF
FFE7
000B
0011
000E
000A
0009
FFF3
FFEA
FFEF
0007
0001
FFFF
FFEE
FFF2
FFF2
FFFD
FFF8
FFFE
FFF4
FFF9
FFEF
0007
FFE9
0001
FFE7
FFEF
0013
FFF7
FFF9
0009
FFEA
FFFB
FFFB
FFFF
FFF8
FFED
FFEB
FFFD
0013
FFF2
FFFF
000B
FFE6
000F
0012
FFF2
0010
0011
000E
0010
0003
0009
FFF1
0000
0012
FFF4
0001
FFF4
0004
0003
000E
FFFC
0007
000B
FFFF
FFE8
000D
FFEE
0006
FFEB
0002
FFF9
FFE6
0007
FFF7
FFF2
FFF5
000C
0009
0001
0005
0006
0005
000D
000E
FFF1
FFFD
0007
000E
FFE9
FFF2
FFF2
0011
0012
FFF2
FFF5
FFFC
FFFE
FFF7
FFEE
FFEF
FFFB
FFFE
FFFD
FFEB
0011
FFEF
FFF7
0011
0000
FFEA
0009
FFF0
0012
FFF6
FFEB
FFEC
FFFC
FFF9
000C
0001
FFF2
FFFF
FFEC
0003
0002
FFE6
FFED
FFEF
FFF5
FFF7
0005
FFEA
0009
FFEC
0010
FFEF
FFEB
000C
000E
FFF3
000F
0000
0008
FFFA
FFF6
FFF3
FFEA
000E
0007
0011
FFE7
0012
000B
0002
FFF1
0004
000B
0012
FFED
FFFE
0004
FFE6
0011
000E
FFEA
FFEA
FFFD
000E
0003
FFFF
FFFA
FFE7
0012
000A
FFF0
FFF8
0012
FFF4
FFF1
0009
0007
000F
FFF2
0002
0005
000E
0007
0001
FFF9
FFF8
FFF2
0009
000F
FFF1
FFED
000C
0006
FFF2
000B
FFE4
FFF1
FFF4
FFFB
0000
0007
FFF4
FFF8
FFEF
FFEE
0007
000C
0014
FFEB
000B
FFF5
FFFD
FFFE
000F
000F
FFF2
0000
0009
0002
FFFB
FFF1
FFEC
FFE8
FFF9
FFF3
0001
FFF2
0013
FFEC
0011
FFF3
FFFF
FFF8
0005
000E
0006
FFED
000B
000B
FFE9
0009
0002
000A
0012
0001
FFF2
FFF5
0003
0005
0004
0004
0015
001E
0013
FFFA
000F
0003
FFF5
0008
0010
FFF5
0001
000D
FFDD
000C
0013
FFF1
FFFC
000B
001A
0011
FFEF
FFFC
000B
0014
0015
0007
0014
FFFD
0021
FFED
0019
FFF1
FFF0
0007
0007
0005
000F
FFEA
FFF8
0010
FFEA
0011
0007
FFEE
0003
FFEF
0005
FFF8
0009
001C
000E
0001
FFE9
001A
000D
0013
0007
0000
000A
000C
FFFB
0003
FFFD
000D
0018
FFF9
0010
0026
0017
FFFE
000A
FFF5
0022
FFEE
FFE6
0005
FFF0
0004
FFF6
0006
0001
0003
FFED
000B
0000
FFEE
0011
0003
FFEC
FFED
000D
0011
0002
FFFB
FFE9
0010
FFF5
FFF6
000A
0011
001D
0004
0013
FFFF
0004
0000
FFEF
0004
FFF4
000D
FFF1
FFEF
000A
0010
FFF8
FFFA
FFFB
FFFD
0008
0018
000A
FFFB
FFE6
FFF3
FFFB
0008
0003
0004
FFFD
001B
0002
FFFF
FFFB
0012
FFF3
FFFF
0009
FFFF
0001
0013
000B
0005
0007
FFF4
FFF9
000F
000A
000E
0000
001B
0010
FFFE
FFF7
0007
FFED
0001
0031
0000
0037
FFF7
001B
FFF3
FFF8
000F
FFFC
0009
FFFF
FFF4
0001
000F
0011
000E
0000
0000
000C
0000
0003
0015
000D
0000
0014
0007
FFFE
000B
FFFA
000E
0011
000C
0003
0003
0015
FFF3
FFFB
FFFD
FFEA
0005
FFF7
000F
0012
FFF4
0009
0016
000A
000D
0007
FFFB
FFF6
0017
FFEF
FFE1
000C
0002
0004
000E
FFF3
FFF7
FFF2
FFF3
0002
0014
FFFE
0013
FFF7
0008
FFEE
0001
0008
FFF9
002B
000C
0010
001A
000A
0001
000A
0019
FFEC
FFFC
000F
FFFF
0002
FFFC
0007
000F
0010
FFFE
FFE3
FFFE
0007
FFF7
0023
FFFB
0008
000C
001C
0005
001F
0003
FFE8
0010
0014
000B
001E
0011
0009
000B
FFEC
FFFC
0017
000C
FFDB
0001
0006
FFF1
FFF3
FFED
0004
FFE3
FFFE
0004
0001
FFEE
FFFE
0003
FFF2
FFE5
FFE3
0003
FFF7
0014
000D
000C
0009
000E
000C
FFEF
0013
FFFF
FFF9
FFF7
000F
0004
FFFF
FFF7
FFF5
FFF9
FFF0
FFEE
FFF1
0003
0016
0009
0016
FFEE
FFEA
0003
0001
FFF4
FFF7
FFF6
0008
000F
FFFF
FFFD
0018
FFE7
FFF3
0007
FFF5
000B
FFF8
000E
0011
FFFF
FFF2
0016
FFED
FFE9
000A
0028
0002
FFFD
FFFE
FFE5
0028
FFEB
0005
FFFB
000B
FFFE
0011
FFF5
FFF8
FFEA
0013
0000
FFEF
000D
0006
FFFA
0012
0010
FFFB
0019
0011
FFFD
FFFA
000D
0009
0011
FFF4
FFF3
000C
FFF2
FFF5
FFF9
0007
0001
FFE6
0019
FFF6
000C
001B
FFEF
0007
0008
0007
FFF8
0010
FFF9
FFF9
0011
000D
0006
0002
0019
FFFE
FFF0
FFE7
0006
000B
0002
FFF4
FFEC
FFF2
0011
0006
FFF8
FFEB
000F
0001
0023
001A
FFEA
0029
000F
0016
0018
000F
000A
FFF2
0019
FFF9
0013
000C
FFF6
FFFF
FFF9
0013
0002
000A
FFF4
0008
0021
FFFA
000F
000B
0016
0013
0012
FFF4
0009
FFEA
0008
001A
FFF1
FFF9
FFFB
FFFE
0006
FFEC
001B
FFFF
FFF3
0003
000D
0016
FFF4
0014
0006
FFF9
0017
0005
0017
0013
FFF4
0016
000B
0012
0002
000A
000F
FFF0
0017
0007
000A
FFEC
FFFF
0011
FFF6
0003
0018
FFEF
0003
000F
0015
FFFD
FFED
FFF2
000B
FFED
FFF0
0001
0006
FFF5
FFFB
001C
FFF9
0000
FFFE
0015
FFF5
FFFD
FFEF
0000
0010
001B
FFF1
FFEC
FFF1
FFE9
001E
FFF2
0009
0008
0006
0005
000C
FFF4
0003
FFFC
0005
0006
0013
FFED
0003
FFFD
FFF1
FFF2
0009
0000
FFF5
000F
0011
001E
FFF2
FFFA
0007
000E
FFFE
FFF8
000F
0032
FFF7
FFEA
FFE9
FFFE
0007
0014
000E
FFF3
0004
0011
0009
FFFE
FFF5
0000
001D
FFF8
FFFC
000E
000B
FFF4
0015
000C
0003
FFF1
FFEF
0009
0001
0000
FFE1
FFF1
FFF4
0000
0013
0008
000A
FFFF
FFF1
FFF2
FFF9
0015
0009
0022
FFF8
0003
FFFE
001A
FFED
0002
FFDC
0009
0000
FFF7
FFF0
0017
0021
0010
FFFA
0010
FFF9
0001
0004
0020
FFE8
FFF6
FFF7
FFEF
FFEE
0001
000C
0020
FFF5
0009
0014
0001
FFF0
FFF4
000B
FFFE
FFEE
000E
000A
FFE9
FFE7
FFF5
FFFE
FFF9
FFFC
000F
0011
0011
0009
0002
0018
0000
0018
001A
FFEA
0012
0010
FFFE
000E
FFED
000E
FFF3
FFFF
FFEB
0012
0006
0014
000D
FFF3
0004
000F
FFEE
FFF4
FFFF
FFEF
FFFC
001A
000E
FFF0
FFF5
0012
FFFB
FFFF
0028
FFF9
0032
0000
0014
0008
000A
0003
FFFA
FFEC
FFFD
FFF1
FFED
FFEF
FFF9
FFEB
0002
FFFA
0010
FFE9
0013
001E
0014
000C
0006
0005
001B
FFF3
0015
0014
0001
FFFD
FFF2
0000
001A
0003
FFFD
FFFC
FFFC
001E
0008
0001
FFF4
000B
001C
FFE9
0015
000F
0001
FFFD
0014
001F
0007
0009
000F
0011
FFFF
0000
000E
FFF7
FFF0
0013
FFF9
000D
FFFB
FFF7
FFFE
0001
0002
FFEE
FFEC
0000
002A
FFF5
FFF7
0002
0011
0010
FFFA
FFFD
FFEE
0016
000F
0009
FFFE
0014
0004
0005
0009
0005
FFF1
0012
000D
0002
FFE3
FFFA
FFEC
FFFD
FFF5
FFFB
FFF4
001A
FFF7
FFF0
FFF4
FFFD
000F
0016
001B
0000
0005
0004
000E
000E
000B
000F
0014
0003
0016
FFF2
FFFE
FFFC
FFFA
0005
FFEC
FFF5
FFFE
000F
0033
FFEE
0028
000A
FFF9
0005
FFF6
FFFF
FFF4
FFFC
FFFA
0017
0008
FFED
0004
0008
FFF9
FFE2
0000
FFEE
FFF9
0009
FFF4
FFE9
FFF7
FFF6
000A
000B
0013
0017
0009
FFFD
0003
FFF7
0013
000C
000A
FFF5
0011
FFF9
000E
FFEA
0014
FFF7
FFFC
000E
0018
0000
000B
0018
FFEF
0012
0008
FFE6
0011
001D
0011
FFF0
0014
0016
0000
0001
0016
FFF4
FFEF
0011
0012
0002
0014
000F
0010
0016
001E
0015
0016
0005
0012
0010
FFF5
0010
0003
FFF8
0014
0009
001D
000B
0012
0011
FFFD
0015
FFF1
FFFF
0000
0010
FFFE
001D
FFF4
000A
0018
0010
001D
0010
FFF9
FFF0
0005
FFF0
0000
FFF6
0011
0003
FFEE
0011
FFF0
0002
0014
000B
FFEE
0004
0003
0008
0016
0016
FFFF
000F
FFEA
0014
000D
FFFD
0022
FFF4
0015
0009
FFFF
000B
FFFA
0011
FFF7
FFFF
FFFC
0005
FFFA
FFF3
FFEC
000B
0005
FFE7
0011
0004
FFFA
0009
0009
000E
FFF1
FFF8
FFF9
FFF2
0007
000D
0004
0013
000B
0002
FFF5
0019
0014
0008
0003
0019
001A
FFFE
FFFE
FFF9
0016
000D
FFF2
000A
0008
000E
000B
0006
0005
FFE6
000E
FFF8
FFEC
FFEF
FFF3
0005
000C
FFFE
0016
FFFF
0011
0016
0011
000C
FFF1
001A
FFEF
FFF4
FFFF
0000
000E
0008
FFED
001B
0012
000F
FFEC
000D
0009
0001
FFFC
001C
000B
FFF2
0014
000A
0003
000F
0003
FFFB
FFF5
0015
FFFF
FFF2
0001
FFEA
0018
0012
0012
0003
0007
FFF3
0015
0009
FFF3
FFF1
FFEA
FFF9
000B
0003
FFF1
0006
FFEE
0006
000F
0008
FFFB
FFF7
0007
0010
FFF9
FFFE
FFFD
0009
FFFD
FFEC
000A
FFF5
0012
000E
FFFC
FFF5
0001
FFFA
FFF1
0015
FFFC
FFFD
FFEF
0001
0006
0013
FFF8
000D
FFFF
000B
0002
FFFD
0008
FFF7
0018
FFEB
FFEF
0016
FFF3
FFF0
FFEF
0016
FFFF
FFF0
FFF9
FFF8
FFF0
FFF9
000E
0005
000D
0002
FFF5
FFF8
FFEF
FFED
FFEA
0004
000A
0022
FFFE
FFF7
FFFD
0017
FFFC
FFF6
FFFA
FFE8
FFE9
FFF8
0007
FFF1
0003
FFF2
0015
FFED
0009
FFF4
FFF8
FFED
FFEB
FFEA
FFFD
0013
000A
000E
0005
FFF6
FFF5
FFF9
FFE9
000B
0007
FFF4
000E
FFFF
000B
FFEF
001F
FFF6
000C
0015
000F
FFE9
FFEA
0015
FFE0
0000
0000
FFEA
000D
0005
0008
0005
FFFE
000A
FFEA
0004
FFFB
0017
0012
FFF3
0016
FFFC
000D
FFFD
FFF2
0011
000E
0017
000B
FFF8
000A
0003
0014
FFFD
FFF6
0008
FFE7
FFF2
0012
0015
000B
FFF3
0011
000A
FFEF
0005
0015
FFF4
0004
000D
FFFA
0024
0013
0018
FFEE
0002
0012
001A
FFF8
000D
0005
FFFE
000D
000D
0004
FFF0
FFF1
FFF0
FFF0
0008
0010
FFF8
0002
000C
0005
FFF6
0014
000B
FFF9
000A
FFEB
000E
0008
FFFD
FFFC
0008
0006
0007
000C
FFF7
FFF8
0016
0017
FFFF
0002
FFF7
FFEF
000C
0018
FFF0
000B
0002
0001
FFF7
FFE9
FFEF
000B
FFFA
FFFE
FFF3
FFFC
FFF4
0006
FFE9
0004
FFEC
FFF1
0001
FFED
FFF7
0002
0002
0004
0011
FFFE
FFF3
FFF4
000E
0004
0010
0014
FFFF
0016
FFFA
000A
001D
FFF7
0004
0017
FFF7
001B
FFF5
000A
FFF9
0006
0007
000D
0000
FFF7
FFEA
0006
0017
FFF4
FFF5
0009
000E
0009
0013
0003
FFFD
FFEE
FFF8
0018
0008
0039
0016
0019
0004
0011
0008
FFF1
FFFF
FFEE
0019
0008
0017
FFFE
0010
000D
FFF3
0005
000F
FFFF
001E
000B
FFF4
FFFC
0000
001D
0015
FFFC
FFEB
000A
0007
FFF5
0008
0008
0014
0003
FFFE
FFFA
FFFF
000E
0002
0010
FFF4
000A
FFF6
FFF3
FFEE
FFF0
0015
FFFA
000A
0009
FFFC
000D
FFFD
0014
FFFD
FFF5
0013
FFEB
FFF5
0014
000B
FFF4
0005
FFFF
000C
0004
000D
0017
FFF4
FFFF
0002
FFFB
FFF4
0015
0019
0011
FFF6
FFFF
FFEE
FFFB
0016
0017
0012
FFFE
000E
0012
FFF4
000E
0009
FFEF
FFEF
0003
FFE7
FFF0
0006
FFFB
FFFD
0018
0010
0013
000E
FFE9
FFF7
0008
000B
FFF8
0009
FFFC
0000
000E
000F
FFEE
FFF2
0005
000B
FFF8
0011
FFFB
FFF2
FFFB
FFEA
0004
FFE8
0012
FFF8
0026
FFEC
0011
FFF3
0009
000A
FFE8
FFEA
0003
FFFC
FFFE
0004
FFF8
0010
FFFF
FFEF
0005
FFE9
FFF2
0005
FFF4
FFE9
0008
0003
0004
0005
FFEE
FFF3
FFF2
0016
FFF3
FFEF
FFF5
FFFF
0006
000E
000E
0000
0012
000A
0009
FFEB
FFFF
FFF8
000D
FFF2
000E
0005
0012
000C
FFFD
0027
0002
FFF6
FFF4
0020
000A
000D
FFFC
FFE8
0003
0000
FFEF
0002
FFFB
0010
FFFE
FFF2
000E
FFFE
FFF9
0008
002D
0007
FFFE
000F
FFF6
0011
FFF0
FFFD
0012
0009
FFF8
000B
0037
FFE9
FFFC
FFEB
FFF8
0005
FFF3
FFFC
0008
FFFF
FFDD
000D
FFEA
FFFE
0021
000E
0003
0000
0015
FFEB
000F
0011
0012
000F
000B
FFF5
FFF6
0011
0016
0007
0003
FFEB
0012
FFF4
FFFA
0014
FFFB
FFF6
0003
0017
0013
0003
0011
001D
0025
FFEA
0022
FFF8
000E
FFF2
FFF1
FFEE
FFEF
0014
FFEC
0004
FFF5
FFF9
FFFA
0008
0011
FFED
0006
0001
0016
0013
0002
000C
FFF4
0013
001D
FFF8
0010
000A
FFEA
0010
001A
0004
0005
FFFB
FFEF
000E
FFE8
0003
FFFB
FFE8
0018
FFFF
0002
0009
000F
0013
FFF9
0000
FFEE
FFF6
FFF9
FFF6
FFF7
0005
0008
0003
000E
000E
0005
FFF7
0015
FFEF
0003
FFF8
000A
FFEF
FFFC
0013
FFFB
0011
0006
001C
0019
FFF6
FFFB
0001
FFF4
000C
FFED
FFF2
FFFF
FFEE
FFF9
0012
0000
0013
FFF6
0009
0008
FFEE
FFE5
0001
FFE8
0016
0008
0011
002C
000B
0017
0014
FFFE
0013
FFFC
0010
FFF7
FFFB
FFFC
0013
FFFC
FFEC
001A
0010
000D
0003
0006
000E
FFF5
0011
FFF3
0000
FFF0
FFF6
000E
FFFC
FFFF
0022
003F
FFE7
0011
0006
001B
FFFF
FFF5
FFF2
0006
0008
0003
0003
FFF5
FFF6
FFF8
0005
0009
0000
FFF5
FFFF
FFFD
0017
0019
FFEA
FFFB
FFFB
000A
FFEF
0013
FFF6
FFF0
000E
0005
0012
001F
FFEF
0001
000D
000A
000E
FFFF
FFFC
0009
0013
0012
0007
FFF5
FFF5
FFF4
FFEE
0014
0005
FFF1
FFE9
000B
0004
FFED
FFE9
0005
0003
FFE2
FFEF
FFF9
000D
0002
000A
FFFE
FFF5
000A
0002
0003
FFFC
0006
000E
0017
0018
FFFA
000D
FFEC
FFF6
0014
0003
FFF8
000B
001A
0012
001E
0003
FFF4
FFF4
0012
0015
FFEB
0012
FFE4
0018
0010
001E
0026
FFEF
0004
0014
0016
0015
0002
000D
FFF8
0005
0014
0008
0012
FFF0
FFF6
000D
FFFD
FFED
000C
0003
000C
0002
FFEC
FFF4
FFEF
0016
FFF3
0016
FFFA
0013
0043
FFF0
0014
0003
FFF6
000F
000A
0010
FFFE
FFF4
FFEF
FFF6
0017
FFFE
0001
FFF8
FFF0
0004
0000
FFF5
0017
0021
0013
000E
FFF8
0013
0007
0005
0013
FFF8
0013
000B
0017
0005
FFF7
FFF6
FFEB
0010
FFEE
000A
0009
FFE8
FFF7
FFF7
0021
0018
000E
FFF6
0014
0019
FFFA
001E
0008
FFE4
FFFD
FFFB
0007
000B
FFEA
FFFB
FFFE
0015
FFFC
0001
FFFC
FFFC
FFF9
FFFE
FFF9
FFFE
0007
0002
0005
0015
0015
0000
FFFC
FFF0
FFEC
0003
FFFD
0007
FFF8
FFFF
0017
0020
0028
FFF6
0001
FFFB
FFF9
000D
FFF2
FFFB
FFDE
FFF7
FFEA
0005
FFED
FFEF
FFF8
000F
FFFA
000F
FFF0
000F
FFFC
FFEE
0015
FFEF
FFEE
0009
0003
0005
0011
FFEE
FFF4
0006
FFF8
FFFB
FFF6
FFF9
000E
FFF9
0005
000E
0012
0010
0024
FFF6
0000
FFF6
FFEB
0011
FFE7
FFED
FFF8
FFE9
FFEC
FFF2
0000
FFE9
FFEC
FFEF
FFED
FFFC
FFFF
0004
0011
FFF4
FFF6
0004
0012
0005
0002
0005
FFE7
FFF1
FFEF
FFF3
FFEE
FFEC
0005
0005
FFFA
FFFA
FFFD
000B
FFEC
000C
0008
FFF9
0016
0003
FFF4
0011
0004
000F
FFF6
FFF0
000F
FFF5
0009
0003
000B
FFEA
0001
000F
FFF5
0010
000C
0008
0011
FFF8
FFF8
000B
FFEF
FFED
000F
FFEA
FFF5
0003
0001
FFEF
FFFA
000F
FFEE
000F
FFFA
FFF8
FFE8
FFF7
0016
FFF2
FFEE
FFFC
000D
FFF7
0014
0013
0014
FFF3
FFEE
FFE8
FFFC
FFEF
0008
0000
0012
FFE9
FFEA
FFF9
0003
0011
FFFB
0010
FFF6
FFFA
FFF5
FFF4
FFF4
FFE8
FFFB
FFF8
FFEE
FFED
FFE7
FFF9
FFEC
0011
FFF7
0004
FFED
FFFF
FFE8
0004
000B
FFE7
000A
0003
FFEE
FFF3
0014
FFF2
0014
0002
0008
FFF2
0004
0002
000F
FFE5
FFF6
FFFE
FFED
0004
000C
000B
FFF2
0007
FFED
000C
FFEA
FFE8
0005
FFFE
0002
0010
0013
000A
FFE9
FFFB
0000
FFE7
0010
000D
FFF2
FFFA
FFF0
0006
0003
FFF5
0009
FFF8
FFFF
000D
FFF3
FFE9
0009
FFED
0006
FFF4
000F
FFFD
FFF6
FFED
000D
FFEF
0003
000F
FFEC
FFEA
FFFF
FFF5
FFEC
000C
FFE8
FFF6
FFEB
0003
FFFF
0006
0009
FFFC
FFF7
0011
FFFE
0005
FFEA
FFE7
FFF3
FFF1
0004
FFF3
FFFF
0011
FFF5
0001
FFFF
000F
0006
FFFC
000C
FFFB
FFF8
FFF3
FFD8
000E
FFED
FFE6
FFF2
0002
FFFA
0007
0009
000A
FFE9
0005
0006
FFF0
FFFB
0003
FFFF
0008
000F
0012
0003
0009
0006
FFF1
000B
FFFA
0005
FFEC
000C
0001
FFFF
FFEC
FFF9
FFF5
0011
FFE8
FFFA
FFF1
FFED
0005
FFED
0007
FFFF
FFF0
FFFB
FFFE
FFF2
FFF0
FFEF
0001
FFE9
000A
000B
0011
000E
FFEF
FFF3
0011
FFF9
FFEB
FFF2
000C
FFEF
0004
FFE8
000B
0003
000B
FFFC
0009
000E
FFFA
FFE8
FFEC
000A
FFEE
FFE8
FFE9
FFF2
FFFE
FFE7
FFF2
0011
FFF7
FFF8
0006
FFED
FFEA
0000
0003
FFE6
0011
FFF2
FFFF
000D
0005
0003
FFE8
FFE8
0005
FFFB
000A
0007
FFEA
0004
FFEB
FFF1
0003
FFFB
FFF2
0003
000C
FFDC
0011
0009
FFFA
FFE7
FFF7
0006
FFF5
FFF8
FFF7
0038
0018
FFEE
0003
0032
FFF5
0019
0018
0007
0004
FFED
FFFA
000D
FFFE
0012
0007
0002
000A
0005
FFF5
FFEB
FFEE
FFFE
FFEE
0008
0005
0012
FFFF
0007
000A
FFFA
FFF7
FFEA
FFFB
001F
FFF4
0019
0006
000D
FFFD
FFFC
0010
0004
000B
FFF5
FFF0
0013
0010
FFFA
FFFD
FFED
0014
FFEE
000D
FFEC
FFED
0014
FFF2
FFF3
0016
0007
0007
0011
0006
FFED
001A
000D
FFF3
FFF5
FFFC
0008
000F
0006
0022
001B
0003
000C
0012
0022
0005
0017
0010
0010
FFF5
FFF7
0017
FFEB
0001
0008
001C
FFF8
FFF6
FFEF
FFF2
0024
FFF6
000D
0014
FFF6
0013
FFF4
0000
FFEE
0002
FFF2
0017
FFFE
000B
FFF1
0007
0000
0000
FFF9
000F
FFFE
0002
FFFA
FFF0
001A
0015
0021
FFF5
0005
000C
000F
0008
FFFE
FFF9
FFF6
FFF2
FFE9
0007
0003
FFEC
000A
0015
0017
FFF8
0000
0019
000E
0018
FFFE
FFF2
FFF4
0004
FFFF
FFFA
0011
FFEB
0003
0009
FFFF
0007
0002
FFF3
FFF3
FFFA
FFE8
0010
0018
0003
0027
0004
001C
FFF3
FFF8
001C
000D
0015
0010
0002
0013
0005
0004
FFF8
0013
FFFB
0006
FFDF
000E
FFF7
FFFC
0002
000F
FFFC
000B
FFFA
FFFC
000C
FFFE
FFEC
FFF4
FFF5
000D
0004
001E
FFF8
FFF1
000F
FFF9
0021
0006
FFFC
FFF9
0015
0002
000E
0015
FFF1
FFEE
FFF8
000B
0001
0004
FFF7
0006
0003
0001
000D
000C
0009
FFE6
000C
0000
0014
0005
0002
000E
FFF9
0005
0005
0007
000B
001C
FFFD
001B
0000
0016
000C
0000
FFFE
FFF6
FFEA
FFF7
0000
0023
0015
0016
FFEE
0014
0015
FFF4
0013
FFED
FFF5
FFF0
FFF1
FFFF
000F
0014
0014
001D
0000
0008
000F
FFEE
0002
0011
FFF7
0019
FFF5
FFF2
FFF3
0006
000D
0008
FFF5
0017
FFF8
0018
0008
FFFB
0016
000B
FFF0
000F
0019
FFF0
000B
0016
000F
0032
0011
0011
FFFD
0002
FFF0
000E
FFFB
0005
0005
000A
FFF3
FFFF
0006
FFF2
FFE4
FFF9
FFEE
001A
0021
0012
FFEF
0005
000A
0018
0009
FFF8
0001
FFEC
0017
0014
FFFC
FFF3
0005
000E
FFF8
000B
001A
FFF3
000B
0011
FFFA
002D
FFFA
0017
FFF2
0016
FFFF
FFEF
0019
0004
FFF8
0013
0010
0007
FFF0
FFEC
FFFA
FFF3
FFF1
000B
0001
FFFB
0006
000E
FFFD
0002
0002
0010
0001
001B
FFFC
0016
0008
0004
0010
FFEC
000E
0016
000E
0013
FFF2
002B
000C
FFF8
001A
0015
0003
0013
0006
0010
FFEC
FFE0
000D
0000
FFF9
0004
000B
0014
0000
0001
0001
0001
FFF4
0018
FFF7
0015
FFF8
FFEA
0009
FFFA
0012
FFF8
0002
0013
FFF4
FFFD
000E
0015
0008
0013
0012
000E
0001
0016
0004
002B
FFF7
0029
000E
0018
0004
0011
000F
000B
FFFD
0010
0017
0015
000A
0012
FFEC
0007
FFDD
0011
0002
FFFD
001F
0003
0008
0011
FFFE
FFF6
0005
FFF8
FFF3
0009
000D
0002
FFFB
FFF8
FFFC
0001
FFFB
FFEA
FFFD
FFEF
FFF4
000A
FFFA
0023
000F
FFF3
0008
FFF9
0016
0012
0014
FFF9
FFF7
FFF6
000C
0016
FFFC
FFF3
FFF9
FFEE
0011
FFF7
0012
000B
0014
0001
0000
0007
0000
000D
0009
0017
FFFC
0012
FFFF
000D
0002
FFE8
0001
FFFB
FFF5
0002
FFFB
0011
0001
0002
000D
FFF0
FFF6
FFF8
0003
FFE8
000B
FFF3
0011
0000
0006
0005
FFFB
FFF8
0015
0011
0010
FFEC
0002
FFFF
0008
0009
0003
FFFD
FFFE
0009
FFFA
FFFA
000B
0011
0004
0003
0001
000D
0006
FFF3
FFF2
000A
FFF8
000A
FFF9
0036
0006
001A
FFEF
0004
0010
0012
FFFF
FFFE
0016
0007
001A
0018
FFF4
FFF1
FFF6
FFFF
0005
FFF4
000B
0013
0008
FFF3
FFEC
0009
000F
0011
0011
0015
FFEC
0008
0017
FFFC
FFF5
FFF4
FFEE
000A
000E
FFF2
FFFB
FFED
0012
000A
0009
000B
000D
0008
000C
0007
FFF9
FFF6
0011
0008
0003
FFF2
0017
FFEB
0000
FFEE
FFF9
FFEB
0017
001C
FFF9
FFFC
FFF3
FFF1
FFF8
0002
FFF0
0001
0007
0008
0006
0008
001A
FFED
FFF5
000B
000C
0015
0012
FFF2
FFFE
FFF9
0011
001E
FFF2
FFF7
0012
0003
FFF9
FFFE
FFF1
FFFD
000A
0006
0008
000D
FFEE
001E
0010
000E
0004
FFED
0009
001C
0014
0008
000B
0006
0004
0011
000B
0007
FFF2
0000
0012
0015
FFF3
000A
FFF6
0009
000B
FFF5
0013
0011
001D
002C
0009
0025
FFF4
000F
FFF7
0009
FFF5
FFF6
FFF2
FFFC
0012
000A
0003
0010
000C
FFF9
FFDD
0017
FFED
FFF1
FFFC
FFF6
FFF2
0006
FFFD
001D
FFF0
FFF5
FFEB
FFEA
000F
FFF7
FFFF
FFFC
FFFE
FFF8
0016
FFF6
0001
0012
0013
0017
0001
001B
FFF8
0003
0005
FFF6
0000
000D
0010
001A
FFEB
FFFD
FFF5
000B
FFF7
FFEB
0007
FFF5
FFF8
0013
FFF5
000A
001A
0011
FFFC
0011
FFF4
0017
FFFF
0008
0007
0019
FFFD
0011
0009
FFF1
FFF3
0016
0015
0011
001A
0005
FFFC
0007
FFF9
FFFD
0004
0000
0012
FFF6
0017
0009
0011
000D
0004
0012
0011
FFF1
0003
FFF2
0000
FFEF
FFF7
FFF4
FFE8
0018
FFF7
FFFB
FFFD
0002
FFEF
0003
FFF1
FFF1
FFF4
FFEB
000E
000C
0017
FFEF
FFF3
0008
FFFC
0000
FFEE
FFE9
FFF3
FFF6
000E
0003
0013
0016
0012
FFF1
000C
000E
FFF9
FFF8
000A
FFFF
FFF6
FFF9
FFF7
000A
000C
0011
0004
FFEF
0019
0005
000A
FFEB
FFF6
0006
FFED
FFE6
0001
0016
000F
0008
FFF7
000B
FFF1
0016
000C
FFDD
001A
FFFE
FFE5
FFED
001C
FFDD
0005
FFF2
FFDD
0009
000E
0014
FFE3
000C
0014
FFF7
0011
0017
FFE4
FFFA
FFF7
FFE6
0015
FFFF
FFF1
0012
000F
0009
FFF1
FFE0
FFF5
FFF4
FFF4
FFE9
000E
FFF7
FFDA
FFE4
FFD7
000E
FFFA
FFEC
FFE3
0009
FFDD
FFDA
FFF5
000C
FFEA
FFEF
000F
FFE4
0018
0014
0014
001F
0021
FFF5
0016
0017
0015
FFFB
FFF3
FFEF
000C
0003
0007
0020
FFEB
000B
0009
0006
0017
0019
FFF4
0008
FFF6
FFF2
FFE9
000E
0001
FFF0
0004
FFF3
0007
0022
FFEE
0002
0025
0018
0019
FFFA
000B
0005
0004
0019
FFFB
FFFC
001A
000C
FFE6
FFFE
0018
0018
0018
FFF2
FFF4
000E
001D
001C
000E
0017
FFE8
0006
FFF7
FFFD
000A
FFE2
FFFD
FFF1
0009
FFE1
FFE8
FFE6
0013
0012
0017
001D
0006
0002
0005
0000
0001
FFE1
0016
FFE8
000F
000B
0004
0005
0004
FFEE
FFEC
FFEA
FFE7
0009
FFFC
FFFC
0006
0005
FFFB
FFEE
FFE6
0014
FFDF
000A
0017
000D
FFFA
FFF6
000F
FFEA
0004
FFF3
000B
FFF3
FFE4
FFF0
0010
0009
FFE5
FFE6
FFF4
FFF7
FFF1
0010
0000
FFF5
FFFB
000D
FFE7
FFDD
FFE3
000B
0000
FFE1
0010
000F
FFE0
0011
FFFC
0000
0018
0016
0005
FFEE
0016
0015
FFF9
FFE4
0012
FFF0
FFEA
FFDD
000B
000A
FFF0
FFDD
0013
FFFF
0019
FFF0
001A
FFDD
FFEF
0010
0006
0019
0000
FFE5
FFE6
FFF6
FFF8
FFEB
0018
FFEB
0000
0010
0003
FFFE
0007
FFED
FFDE
0007
FFE5
FFE2
FFE5
0015
FFE7
0016
0018
0009
FFF1
FFE7
FFE9
0017
FFEF
0000
000A
FFFE
000C
FFEF
0021
FFED
FFF1
FFE9
001C
FFF7
FFFB
0014
0003
001F
000E
0006
FFEE
FFE5
0015
0005
0030
FFE2
000B
000E
0015
0015
000B
FFD0
FFF2
0025
FFEC
FFF0
0026
0001
0005
0007
0012
0005
001D
0004
FFF8
FFF3
0000
FFFF
001A
0012
001B
001F
001F
FFE7
0005
0000
001B
0001
000D
0000
FFDE
0000
FFFB
FFEA
001B
FFE2
FFE1
FFE6
FFDF
FFF7
FFE9
0017
000D
000D
0018
FFE3
FFEA
0018
0014
0001
000F
0003
FFFB
FFF3
0004
FFE3
001C
FFDE
FFE5
0015
FFEB
FFEB
FFF4
FFE0
FFFB
FFF6
FFF6
FFEA
FFE8
FFF8
FFF9
FFDC
FFE5
0014
FFDD
FFF6
FFE9
001B
0013
000B
FFEB
FFE1
FFF6
000F
FFFE
FFEB
FFE1
0018
0002
0011
FFDF
FFFF
0019
FFDD
FFE1
FFE7
FFF4
0001
0012
FFF7
001C
001D
001A
FFE5
0012
001F
001E
FFE6
FFFB
FFF4
0002
0012
0007
0011
FFEF
FFFA
0013
FFFB
0007
FFEF
0029
0003
0026
0000
0009
0020
FFF5
0021
0001
FFEE
FFE8
000D
FFE5
000F
FFFE
001F
0034
0018
FFE7
0010
FFEA
0007
FFF2
0015
FFFE
0011
000E
0016
0017
0005
FFEF
0011
0006
FFFE
0006
001E
0018
FFFF
FFF4
0020
0016
FFE7
0002
FFEB
FFFC
FFE8
FFEA
FFED
FFFD
0010
FFE9
FFF7
000B
000C
0004
FFEA
0003
000E
FFE9
FFEF
0009
0005
0019
000E
0019
FFEA
FFFE
FFFF
FFFC
FFFD
0014
FFF1
FFFE
FFF1
0003
000D
FFFF
0014
FFED
001A
0011
0019
FFE7
001B
0015
0018
0017
FFF6
FFFC
0005
000C
FFE6
FFFC
FFE6
FFED
FFF8
0002
000B
001B
FFF7
FFFC
000F
0008
0023
000A
0007
FFEB
000F
000D
000D
0004
FFF7
000F
000B
0002
FFE6
0011
FFF1
0017
0011
0018
0000
0001
001D
FFF2
FFED
001E
0021
0028
0018
0011
000F
FFF4
0011
001F
FFFF
FFFE
FFD0
FFEA
0005
0021
000A
FFF4
0001
000D
000E
000E
FFED
000F
0018
0004
FFE6
0015
FFE7
0014
0004
FFFC
FFFD
000B
FFF2
000B
001A
0004
FFEF
0018
0018
001D
FFF9
FFE2
FFF8
0018
000A
001D
0013
FFE2
FFE4
FFFE
FFF1
FFEF
0007
FFFE
001D
FFF3
0012
FFF6
FFF1
0020
0006
0024
FFEB
FFF5
FFEA
001E
0011
000C
0022
FFEE
FFE9
0020
FFFA
001C
000A
0004
FFE9
FFFA
0020
0011
FFF9
0015
FFFA
0002
0007
0019
0022
0023
FFFC
0004
FFE6
FFFF
0003
FFEC
0021
FFF7
FFE7
FFFC
FFFC
FFE7
0015
0005
FFEF
0000
FFE2
0005
FFFC
FFF9
FFFD
FFEC
0012
FFE4
FFFD
0013
0003
FFE5
001D
FFEA
FFF0
0011
FFEA
FFFE
0007
000F
FFE6
001C
0016
FFEC
FFFD
FFF2
FFE9
0019
0015
0006
0017
FFDD
FFFE
FFEB
000C
0000
FFD7
FFFE
000A
FFF4
FFF8
FFE6
0017
FFDD
FFEA
FFE3
FFED
FFEB
0006
0017
FFFF
0002
0015
FFDA
FFFF
000C
0003
FFEE
FFF1
FFEA
001A
FFEE
FFF6
FFFE
FFE6
FFE6
FFE8
0002
FFE7
FFE2
FFEA
FFEF
FFF5
FFE6
0006
FFF8
FFE7
000C
0005
0002
001D
FFF7
0010
FFED
FFEB
0005
FFED
0007
FFDF
FFF1
001A
FFFC
000F
001A
FFF2
FFF4
FFF6
FFEC
FFFC
000C
000F
0013
001D
FFED
FFE5
FFDD
000E
000A
FFF5
0016
FFE5
FFF6
FFFB
0007
0018
FFE9
001C
0019
0005
FFE8
0008
0002
FFF0
001A
FFE2
FFF0
FFF0
FFF4
0015
FFFA
0002
FFE0
FFE6
0010
FFF3
0007
FFE5
FFE7
000D
0013
0000
FFE0
FFE9
FFF2
000C
FFE3
FFE8
FFDD
FFE4
0014
FFF1
FFF2
FFFE
FFF7
FFF0
FFFD
FFED
0012
FFFA
000A
0000
0015
000A
FFEC
FFE0
0005
FFF2
FFE7
0016
0013
FFEC
0004
0014
FFE9
FFF6
FFE2
FFDF
0015
0008
FFE7
FFF9
FFEC
FFF7
FFF7
0007
0001
FFE7
000B
FFFD
FFEB
FFE9
0005
000D
FFE9
FFF9
FFDC
FFE1
0017
000A
FFEB
FFF7
FFF5
001E
FFFB
FFF2
FFFD
FFFB
002C
0007
FFF6
FFF0
0031
FFE9
0003
002D
0007
0026
FFF8
002D
0021
FFFA
FFE5
FFEF
0012
0008
0000
FFE9
0019
0024
FFF4
000B
0008
0017
0005
FFE5
000D
0010
FFF9
FFDC
0010
000A
000C
0014
FFFE
0020
FFF1
0019
001C
0014
0003
0021
FFED
0002
001F
0006
0014
001C
0013
FFF9
0009
001D
000C
FFEB
0021
0022
0016
0017
0018
FFF0
FFFB
0011
000E
0011
0005
FFE4
0016
FFEF
FFEA
0027
0010
0014
FFFC
000E
000B
0019
0008
001F
FFFD
0022
0028
FFFD
FFE6
0008
001D
FFEE
FFFE
000E
0012
0021
000B
0003
0007
FFFC
FFE9
FFFA
FFE7
001C
0006
0008
FFFF
FFF4
FFED
0000
0016
FFF2
FFF0
0016
FFF6
0016
001C
001C
FFDF
0000
FFE1
FFF8
FFFB
FFEF
FFFE
FFF4
0007
FFFD
0010
0014
0004
0004
FFEE
FFE9
0012
000F
0002
0011
000E
0013
FFF0
0001
FFDA
FFD9
000B
FFEB
0016
FFDE
FFDE
FFDD
000C
FFE9
FFE1
FFF4
FFF7
FFDF
0014
000E
0015
000D
FFE1
FFED
FFED
FFDB
0011
FFEE
0001
FFED
0015
000B
000D
000C
0018
0008
0001
FFF2
0012
FFD9
000E
FFF5
FFFB
FFE8
FFED
0004
FFEE
0006
FFFF
FFE1
000B
FFEF
FFED
FFF1
0008
FFDE
FFE5
000A
FFF3
FFF7
FFE0
FFFE
000C
FFEE
FFFF
FFFE
FFF3
0016
0004
0000
FFFC
FFFC
000E
FFFC
0002
0015
0011
FFEC
FFE2
FFE5
FFE7
FFDD
0013
FFE0
001C
FFDD
FFE1
000E
FFFD
FFEC
0007
FFE6
FFE9
FFDE
FFEA
FFDF
0014
FFEF
0003
FFEE
FFF4
0012
0001
0009
0005
FFE1
0012
0018
0006
0018
FFEF
FFE5
FFE4
FFF9
FFF9
FFEC
FFEE
FFF4
001C
FFFC
0018
0001
0009
0010
FFE1
FFEF
FFE6
0019
000A
FFF3
FFE4
0010
FFFE
FFEB
FFE7
FFEE
0006
FFE3
FFFA
000F
000C
0003
0001
FFFE
000B
0017
0007
000D
0014
FFE5
FFED
000F
0004
FFEB
0008
FFE1
FFEF
000E
FFFA
FFE5
0007
0001
FFF9
FFE0
FFF2
0001
FFEC
0001
FFE5
0016
0015
0010
FFF8
FFDE
FFEF
FFF9
FFDE
0016
0005
0015
FFDE
FFED
0004
FFFD
FFEA
0015
000A
FFFC
001B
FFDD
FFE0
0001
001A
000F
FFE9
0014
000E
FFFD
0011
0003
FFFD
FFF3
FFEB
FFE8
FFF9
FFDF
000B
FFF0
FFDE
FFE6
0014
FFEB
FFFC
FFE7
FFF5
000C
0004
000B
FFFA
FFE2
FFFB
0010
0003
0002
0001
0017
000D
FFF8
FFEA
0016
FFEB
FFE6
0006
FFE7
FFE4
FFE6
0002
FFEC
0017
FFF8
FFEE
FFE9
FFF1
001D
FFE7
FFE0
0006
000A
FFE2
FFF2
0019
FFF0
000A
FFED
FFE1
FFDF
0016
0008
0005
0009
0009
0010
0016
0018
0008
0000
0002
FFE1
000A
0008
000C
FFF8
0018
0001
FFF6
FFFA
FFF1
FFF6
0017
0008
FFF9
FFFC
0004
FFE9
FFE9
0019
FFF9
0006
FFED
FFE6
0004
000F
FFE1
FFDE
FFF0
000E
FFE0
0014
0018
FFF6
FFFB
FFFC
0018
FFFC
0000
FFEF
FFF8
FFEF
FFFA
FFF6
FFFE
0003
FFE1
0013
000C
0014
0012
0001
000C
0008
0010
FFED
0008
FFF9
0005
0004
FFE3
FFEF
FFE6
FFF0
0003
0000
0011
FFE8
0005
0010
FFE4
FFE4
0004
FFEC
0001
FFE9
FFFE
FFDD
0012
FFE4
FFDD
FFE9
FFF9
001A
FFFF
FFF1
FFE1
0008
FFFF
FFF4
FFF2
FFFD
000C
FFE6
FFF1
0008
FFE7
FFFD
0016
0014
FFE3
FFED
0001
0011
FFEF
FFE0
FFFA
0011
FFEC
FFE0
FFFF
0018
FFE3
0004
0011
FFFD
FFEC
FFF0
FFE8
FFFF
FFED
FFFE
FFF6
FFE5
001C
0005
000D
000F
0009
FFF5
FFF4
FFE5
FFE1
FFDD
FFF1
001B
FFDF
FFE8
FFE4
FFE6
0016
FFE3
FFE5
FFE9
0005
FFF2
FFE6
0017
0001
FFE5
FFEF
0011
0009
FFE9
FFEC
FFF0
0008
FFE2
001A
FFFF
0008
0006
0011
FFF2
FFED
FFE4
0013
FFF8
FFF8
0019
FFF1
FFEE
FFEB
000F
FFFF
FFEA
000D
0008
FFF2
0000
FFDB
FFE1
FFF0
000C
FFF3
0012
FFD3
0010
FFD8
FFF5
0019
FFEE
FFEB
000A
FFE7
0002
FFF3
FFFB
FFE8
FFEA
FFE2
FFF3
0018
000B
FFE0
0009
0016
0018
FFFD
0002
0010
0019
FFF9
FFF3
0012
FFF0
0015
0017
0003
FFDF
0011
0008
0000
FFFF
000C
0010
FFE6
FFE4
000B
FFED
FFDF
0017
FFE2
FFF2
FFE6
0018
FFF7
FFED
0017
001B
000E
0016
FFE0
FFDE
000E
FFF3
000A
001B
FFF4
FFEB
001A
FFEB
FFEB
0016
FFFB
FFEB
0006
FFEB
FFFD
FFDC
FFF2
FFFC
0002
FFF8
0015
000C
000E
000A
FFF0
FFDF
FFE8
FFE8
0004
0015
0018
0016
FFFF
0011
FFFC
000B
FFE8
001B
000A
FFFB
FFEE
0000
FFF7
FFE6
FFEF
FFF6
000B
FFEE
0014
FFF1
0016
0004
0004
0007
0007
0017
0005
FFF7
0006
FFF0
0014
0006
0017
FFFD
0003
FFF7
FFF5
0007
0017
FFF7
0024
FFF9
000D
001C
FFFE
0013
FFFF
001A
0017
FFDD
FFDC
0016
000B
FFFF
FFFD
FFF6
FFF6
000C
FFE7
FFFF
001B
0015
0017
0004
FFF0
0014
001D
000E
001A
FFEC
FFE7
FFFC
0014
0017
FFFB
FFF5
0014
0003
FFFD
FFDF
FFF7
000C
0019
FFFD
000E
FFFF
FFE0
FFFC
FFEF
FFF7
FFED
0015
FFE1
FFE9
FFF1
0017
FFF4
0007
000B
0015
FFF5
0003
FFEA
FFF9
FFE0
FFDF
0003
FFE4
000D
0011
0005
0006
FFDB
FFEE
FFE4
FFD4
000A
0003
001A
FFF1
FFE5
FFDE
FFFC
FFE8
FFFF
000F
0016
FFF5
FFE5
FFEA
000E
0002
FFFB
FFDC
000D
0011
FFFE
FFF4
FFEB
FFFA
FFFB
0003
FFFB
001C
0010
0005
FFE0
FFEC
0008
FFE8
0004
0005
FFE5
0003
FFF8
0015
FFF5
0019
0019
FFF2
0002
FFF3
0016
000A
FFFD
0011
FFDF
FFF5
0003
FFDC
0019
0000
0019
FFF2
FFFD
FFF3
FFF0
FFE6
0010
FFFF
0006
000F
000B
FFFB
FFE5
0004
FFF1
0008
FFE7
FFF9
FFEF
FFDE
FFDE
001A
FFFB
FFE0
FFFF
FFFB
0018
001B
FFF3
FFE9
FFE9
FFF2
FFEA
0018
FFF1
000E
0009
0005
000B
0015
0008
000B
FFDF
FFFB
FFF7
0016
000A
0017
0016
FFEF
0002
001C
0008
000D
000A
FFEE
0005
FFE8
0016
FFFF
0014
FFE2
FFE0
0001
FFF9
FFED
000C
FFE6
0016
FFDE
0005
FFD9
0004
001D
FFFA
0002
FFF0
FFEB
FFE1
000F
FFFB
0006
FFE3
FFE2
FFDE
FFEB
FFF7
FFF6
0006
FFEE
001D
FFEF
FFDD
0014
FFE7
FFFD
FFF8
FFF5
0003
FFE3
0021
FFEE
0016
FFF0
FFFC
0003
FFF8
FFF5
FFEA
FFF1
0005
FFFA
FFFF
000B
0001
FFE5
FFFA
000D
0011
0014
0005
001B
FFED
FFE9
0000
0003
0023
FFF1
FFED
0001
000C
FFE8
FFFF
FFD6
0000
0009
FFE7
FFEF
0007
FFFA
FFF2
FFFA
FFE7
FFFF
0000
0006
0009
FFFE
001D
FFF9
0013
0010
FFFE
FFED
FFE9
000D
0015
0017
FFF6
001C
0021
FFFF
FFF3
FFF9
FFE6
0015
0005
000F
0016
FFF3
0001
001B
FFE8
0020
0014
FFF9
FFE8
0014
0015
FFF4
0013
000B
0029
0013
0008
FFE3
001A
0020
0004
FFFE
FFFB
FFFC
0015
0005
FFE6
000C
FFEE
0017
0009
FFF1
0019
0004
FFF6
001C
0020
0019
FFED
FFE8
FFE3
0016
0018
FFED
000D
000B
FFF4
0003
FFED
FFF9
000F
0007
FFFF
0009
FFFB
FFE9
FFE3
0003
FFE5
FFEA
0004
0000
FFEE
0001
000C
FFF1
FFF1
0003
0005
0008
0013
FFFC
0007
FFEB
FFF9
0015
FFDE
FFE7
FFE2
0017
FFFA
001B
FFF0
FFF4
0012
FFDC
FFDE
FFE7
FFFE
FFDE
0002
0017
FFFC
FFF6
FFE1
FFFE
0000
0004
FFF3
FFE8
FFEC
0012
FFEA
FFFF
FFF6
FFEF
FFFA
0014
0014
FFF7
FFF5
FFE9
FFEC
FFF8
0016
0001
FFE0
FFF4
FFE0
0019
FFFF
FFF4
0011
FFE5
FFFB
0006
0019
001C
0006
FFE5
000B
FFF2
0017
FFDC
FFFA
0000
0027
0012
FFE2
000A
FFF6
FFFC
0025
FFDD
FFF4
0018
0017
0013
FFE9
000B
FFD1
FFEB
FFEF
FFFF
0010
FFFF
0011
0015
0035
FFF4
FFF4
0009
0024
000B
0012
FFEB
002F
0018
0009
FFF6
FFEF
0022
000F
001B
001B
FFF2
0019
FFF7
FFE8
0020
000B
000A
0006
FFEA
001B
000F
0014
FFFC
FFE4
0004
FFFC
FFFC
FFEA
0022
FFF0
0001
FFFD
FFEE
000F
0002
0002
FFE6
000F
FFE7
0015
FFE1
FFD9
FFFD
FFD9
0019
0020
FFEB
0014
FFF0
000D
FFEC
FFFA
0004
000E
0012
FFDB
0006
0028
0028
0019
0003
0024
001A
FFE6
0002
FFD9
000F
000A
FFE9
000E
0023
FFDD
FFDC
FFF1
0009
FFDD
FFFB
0025
FFE1
FFF7
FFFA
001B
FFFF
0026
FFE9
0012
FFFC
002A
FFEE
FFF2
002B
FFE0
000C
001B
FFFE
002A
FFD9
FFFE
FFEC
002E
002F
FFDA
FFF0
FFE2
FFEA
0011
0008
FFE0
FFEB
FFE6
0008
FFE1
FFE0
FFDF
0028
0024
FFEE
000E
FFFF
