memory_initialization_radix=10;
memory_initialization_vector=
-16,
-52,
-7,
-37,
28,
7,
-33,
-8,
-12,
-9,
-25,
13,
7,
-16,
3,
-28,
-4,
-5,
-7,
-52,
52,
-19,
2,
1,
31,
21,
25,
-34,
-1,
-17,
33,
50,
26,
35,
-38,
-34,
39,
-7,
20,
30,
7,
-44,
-28,
42,
-36,
-4,
37,
17,
-44,
-25,
0,
-2,
2,
-1,
24,
29,
-49,
-15,
-6,
17,
-19,
36,
-41,
-38,
-4,
15,
49,
-46,
-5,
-52,
-14,
52,
39,
-40,
11,
-20,
9,
0,
-19,
52,
28,
-19,
-1,
-19,
31,
-47,
-6,
-17,
-2,
53,
-49,
49,
27,
7,
-21,
-14,
9,
14,
38,
36,
43,
8,
3,
9,
30,
42,
36,
-40,
5,
-8,
24,
-46,
54,
-7,
2,
36,
-30,
17,
-48,
19,
31,
-34,
57,
-6,
32,
37,
54,
-8,
-28,
-32,
-33,
50,
19,
23,
15,
34,
37,
-5,
-54,
-38,
41,
-5,
14,
-5,
59,
39,
-47,
30,
-47,
20,
-6,
14,
39,
26,
-22,
-3,
-35,
-18,
11,
-5,
37,
15,
-38,
-54,
46,
13,
-37,
-3,
0,
-4,
-36,
45,
29,
12,
2,
1,
20,
44,
-42,
18,
-27,
-22,
2,
33,
-15,
-1,
-12,
-45,
17,
-43,
1,
-24,
-4,
0,
32,
-26,
15,
34,
-9,
-7,
32,
-33,
-12,
-40,
15,
-42,
5,
25,
26,
-45,
8,
33,
-23,
-48,
-3,
21,
36,
49,
-10,
51,
9,
47,
11,
-31,
31,
43,
-8,
40,
17,
-5,
13,
15,
-11,
-18,
6,
-28,
-1,
-56,
13,
14,
-32,
-32,
9,
4,
-28,
17,
42,
-48,
-50,
-24,
13,
4,
-56,
40,
4,
12,
18,
-19,
-22,
1,
35,
-34,
6,
-13,
58,
-38,
19,
11,
31,
17,
42,
13,
-25,
-27,
-43,
45,
43,
16,
9,
39,
-3,
22,
-29,
19,
6,
1,
-2,
-4,
-45,
-28,
8,
28,
-26,
-42,
-9,
-31,
-29,
-23,
45,
7,
8,
33,
21,
30,
45,
20,
-35,
20,
-45,
29,
-1,
27,
4,
-57,
2,
-5,
-23,
-2,
7,
38,
-50,
4,
36,
39,
-21,
-25,
-58,
44,
-10,
5,
-49,
26,
9,
-19,
1,
-34,
-5,
49,
30,
20,
24,
41,
-28,
-44,
-14,
36,
-6,
7,
34,
12,
-4,
17,
-34,
49,
-6,
-29,
-35,
8,
-44,
-42,
-10,
-26,
-51,
27,
13,
-48,
33,
51,
-33,
-14,
-42,
-10,
-21,
24,
37,
27,
-28,
41,
-48,
18,
12,
4,
50,
22,
-5,
3,
-2,
5,
55,
43,
1,
16,
6,
37,
-45,
14,
-37,
-18,
-14,
-12,
36,
-19,
-40,
-46,
35,
3,
49,
26,
-36,
2,
29,
-16,
-15,
-41,
37,
33,
41,
26,
-7,
-45,
-50,
18,
-37,
5,
45,
1,
-52,
7,
-33,
11,
-34,
33,
0,
-13,
-43,
47,
35,
7,
-16,
-26,
40,
44,
-9,
16,
18,
-44,
-41,
-45,
3,
-50,
31,
34,
-42,
49,
40,
31,
-66,
-44,
5,
33,
-44,
-46,
0,
13,
-9,
54,
-7,
-37,
50,
8,
-30,
19,
14,
-12,
34,
-15,
25,
25,
48,
-27,
-70,
-51,
44,
-25,
31,
-25,
38,
-32,
8,
31,
25,
-12,
-39,
18,
56,
37,
-10,
19,
36,
60,
5,
-8,
24,
-16,
-28,
17,
-29,
12,
-44,
-38,
45,
17,
42,
-15,
23,
-4,
28,
24,
-21,
-15,
-14,
-6,
36,
-16,
18,
-17,
19,
-41,
27,
52,
42,
-43,
14,
0,
48,
9,
-38,
4,
-10,
-19,
-25,
36,
4,
-44,
29,
12,
-31,
8,
-27,
-11,
10,
21,
-40,
-47,
20,
-36,
2,
-34,
-44,
24,
-25,
45,
-7,
-25,
-4,
-15,
-13,
-11,
-38,
18,
12,
1,
-21,
-34,
33,
-38,
15,
13,
53,
40,
18,
6,
0,
-37,
16,
4,
45,
4,
13,
26,
-8,
10,
-10,
20,
-35,
-49,
6,
1,
29,
-3,
14,
31,
-8,
2,
34,
-26,
-17,
-22,
-49,
38,
-13,
27,
14,
18,
-13,
-11,
-21,
22,
33,
-29,
-3,
5,
-25,
-28,
54,
30,
-28,
29,
-42,
-24,
-5,
-6,
38,
27,
1,
-51,
-32,
11,
32,
47,
-4,
-31,
8,
-6,
7,
40,
-18,
10,
-43,
-5,
5,
-49,
23,
41,
20,
-45,
2,
40,
31,
-41,
-47,
-21,
-9,
-2,
9,
39,
41,
-7,
-24,
-15,
-19,
50,
-26,
-15,
14,
30,
-49,
40,
17,
12,
-26,
32,
13,
31,
33,
-35,
-52,
-10,
-10,
-31,
6,
-52,
2,
-20,
-40,
27,
51,
10,
1,
37,
25,
29,
6,
-12,
-54,
-52,
23,
12,
31,
4,
-11,
13,
31,
-5,
-25,
-9,
0,
5,
-29,
-13,
48,
43,
2,
-33,
7,
41,
-38,
29,
-53,
-27,
18,
-51,
20,
-47,
-5,
41,
47,
-20,
38,
-27,
-25,
1,
-11,
25,
-16,
-25,
-19,
-34,
49,
-34,
-36,
-14,
47,
-29,
-35,
12,
36,
-28,
-46,
-49,
-34,
45,
-7,
-24,
-31,
0,
30,
-28,
-40,
-6,
6,
39,
-10,
25,
-42,
39,
22,
-22,
-14,
46,
-11,
-11,
0,
3,
-7,
9,
37,
25,
4,
-47,
-5,
15,
5,
-10,
35,
47,
12,
-25,
-19,
44,
11,
-46,
-32,
51,
-1,
39,
-46,
10,
-23,
-3,
-42,
20,
-43,
22,
-7,
10,
-12,
-39,
36,
-36,
-40,
-50,
-2,
-37,
12,
-28,
-17,
-35,
-15,
-35,
1,
-37,
-40,
-24,
-16,
-5,
-51,
-31,
15,
15,
-27,
46,
12,
-22,
-33,
-3,
8,
-36,
27,
34,
16,
28,
-24,
-41,
-15,
-14,
52,
-48,
-40,
37,
-46,
2,
-19,
-48,
-6,
45,
-42,
47,
-19,
14,
-50,
-47,
-21,
-8,
-35,
16,
44,
-8,
26,
-42,
-43,
50,
-32,
31,
22,
-11,
-24,
-3,
24,
-39,
5,
24,
27,
35,
-3,
14,
-49,
24,
-9,
36,
45,
-46,
24,
6,
-20,
10,
-39,
-49,
26,
3,
28,
-51,
36,
21,
-6,
19,
-27,
-14,
6,
-27,
15,
38,
-25,
-3,
-54,
11,
22,
26,
27,
27,
13,
16,
-20,
24,
2,
-26,
47,
-5,
1,
38,
13,
48,
-13,
-16,
14,
-9,
-49,
25,
-25,
6,
39,
47,
25,
49,
-60,
-22,
-27,
-42,
12,
15,
-51,
-30,
26,
15,
-5,
-27,
-32,
36,
-52,
-33,
12,
-7,
32,
-41,
35,
43,
-19,
-5,
-14,
-26,
12,
-18,
-23,
-34,
-29,
17,
-45,
37,
-12,
9,
33,
-49,
-26,
-32,
5,
-1,
-38,
25,
25,
-8,
39,
2,
40,
-21,
27,
22,
-30,
-12,
23,
11,
39,
24,
-24,
-46,
31,
-17,
28,
44,
27,
46,
21,
42,
22,
-35,
45,
14,
-20,
3,
18,
-1,
34,
20,
-41,
-4,
-49,
26,
3,
20,
-28,
-41,
42,
26,
-34,
24,
13,
-45,
-7,
52,
47,
-44,
-12,
-44,
17,
-17,
-8,
16,
-47,
-17,
-24,
-27,
-2,
-46,
-47,
-44,
-22,
-39,
-2,
-20,
-38,
29,
-36,
-49,
-14,
0,
22,
38,
6,
-18,
-34,
26,
-10,
50,
43,
-50,
7,
-1,
-52,
-31,
-5,
-23,
39,
39,
-15,
-33,
15,
-32,
16,
40,
14,
32,
-50,
30,
-27,
-36,
19,
-25,
1,
31,
-21,
21,
44,
-20,
-51,
-4,
-12,
-33,
35,
-1,
19,
29,
-13,
36,
-4,
41,
32,
17,
-8,
20,
-3,
-41,
4,
-38,
21,
-38,
37,
34,
-33,
-26,
26,
22,
17,
-43,
1,
-7,
-44,
-38,
-50,
47,
29,
51,
51,
29,
50,
1,
-17,
27,
10,
-13,
15,
-47,
40,
34,
-25,
47,
-29,
37,
45,
-48,
-4,
45,
-43,
-25,
-3,
11,
-47,
29,
35,
-14,
-53,
-10,
24,
-42,
-12,
-11,
-28,
-8,
-51,
32,
-19,
21,
-7,
-13,
22,
-40,
47,
37,
-62,
31,
-12,
29,
25,
57,
27,
38,
-44,
4,
6,
7,
-44,
39,
30,
-46,
-23,
28,
50,
-21,
-7,
-15,
15,
27,
34,
39,
13,
50,
14,
-16,
-19,
-5,
12,
8,
27,
-34,
37,
51,
14,
26,
-18,
-17,
-26,
1,
-31,
42,
-27,
-16,
37,
4,
-28,
-33,
43,
22,
18,
-47,
-20,
-35,
15,
42,
-45,
-3,
52,
-29,
46,
-26,
-42,
27,
0,
31,
18,
24,
36,
-20,
-33,
18,
37,
-15,
7,
35,
37,
-5,
-12,
-8,
-5,
12,
-22,
-1,
-27,
28,
20,
28,
3,
-38,
-24,
-6,
-9,
32,
-37,
6,
-15,
41,
40,
50,
-11,
-4,
-25,
-28,
10,
-42,
-21,
-2,
-51,
3,
42,
-21,
-36,
55,
43,
16,
-60,
41,
-15,
34,
-37,
-24,
-39,
-22,
23,
-17,
-36,
-13,
-41,
-42,
-52,
10,
34,
-10,
-50,
-14,
-32,
-52,
-9,
13,
-16,
24,
7,
14,
49,
-2,
-39,
-51,
46,
-41,
46,
25,
-51,
5,
-16,
22,
-13,
-16,
-9,
-17,
-36,
11,
-21,
-9,
26,
19,
-2,
-38,
62,
-8,
4,
7,
15,
35,
23,
28,
-22,
35,
24,
-33,
-16,
30,
-10,
-24,
27,
32,
27,
-4,
20,
-40,
-8,
42,
-12,
4,
12,
-39,
-45,
-15,
20,
-49,
-46,
16,
-23,
-40,
14,
-5,
35,
-31,
-49,
-49,
11,
-38,
-2,
-18,
-3,
42,
-31,
15,
25,
-26,
-19,
31,
30,
28,
-41,
-28,
9,
6,
15,
42,
6,
-8,
-32,
2,
51,
15,
33,
-15,
14,
-26,
-54,
44,
-5,
7,
-52,
-13,
19,
-46,
10,
-3,
4,
36,
-19,
0,
47,
-11,
-22,
-34,
-29,
-4,
-21,
20,
3,
-34,
41,
5,
10,
37,
34,
10,
36,
-25,
-32,
17,
40,
-21,
-7,
32,
-9,
28,
-39,
-21,
3,
13,
-25,
49,
41,
27,
13,
35,
47,
-24,
30,
27,
10,
-50,
-19,
-51,
-22,
45,
48,
-27,
4,
5,
-41,
46,
-15,
32,
-17,
-7,
39,
-49,
-28,
31,
35,
51,
-26,
-29,
-42,
44,
36,
4,
-29,
43,
14,
-20,
-38,
28,
-4,
52,
-47,
-36,
31,
-11,
47,
-32,
35,
0,
24,
42,
-49,
-2,
-27,
18,
-36,
9,
-8,
-27,
-24,
-1,
17,
-33,
-17,
-30,
8,
-15,
40,
8,
-12,
26,
19,
-36,
16,
9,
-29,
-36,
46,
4,
-29,
56,
30,
-36,
-29,
56,
-28,
-42,
17,
60,
26,
-11,
-41,
62,
-23,
43,
6,
-9,
40,
2,
-46,
-49,
42,
0,
-51,
18,
-42,
30,
-6,
-11,
-35,
31,
-11,
-16,
3,
-29,
-52,
0,
-40,
17,
22,
20,
-4,
-30,
18,
36,
23,
-27,
45,
-26,
4,
6,
-47,
-5,
-52,
32,
12,
35,
44,
-30,
5,
-46,
24,
33,
48,
-45,
34,
10,
-52,
-35,
19,
-23,
-29,
0,
-39,
19,
-16,
41,
8,
37,
44,
7,
8,
45,
-36,
40,
44,
23,
14,
22,
36,
-48,
-23,
-24,
26,
-25,
-37,
-18,
19,
-45,
-19,
32,
34,
14,
-6,
33,
-43,
39,
13,
-48,
-31,
-12,
53,
57,
26,
2,
-36,
7,
0,
-18,
39,
-17,
32,
4,
-37,
-33,
29,
25,
-13,
-4,
-22,
9,
-18,
42,
39,
-38,
-17,
14,
-18,
-14,
40,
12,
54,
13,
22,
46,
-2,
-36,
-35,
38,
30,
39,
1,
-21,
-30,
-49,
27,
11,
-26,
-46,
-38,
27,
-43,
-9,
14,
0,
16,
2,
8,
-5,
-38,
-24,
2,
38,
-45,
-30,
28,
52,
5,
-22,
-13,
-39,
38,
-39,
-18,
59,
-31,
27,
40,
37,
-12,
7,
10,
-45,
-13,
13,
48,
48,
-36,
-41,
-14,
-43,
37,
27,
-59,
-39,
29,
-31,
-42,
45,
-31,
-11,
36,
46,
51,
-35,
20,
37,
-14,
43,
43,
-15,
25,
37,
-17,
-41,
-10,
-30,
29,
-38,
-16,
-41,
-16,
-50,
-18,
3,
-32,
-8,
8,
-44,
-11,
12,
-34,
13,
48,
7,
44,
10,
-52,
26,
29,
-10,
52,
-30,
-11,
14,
-8,
30,
-45,
-43,
44,
11,
16,
42,
30,
44,
51,
14,
-20,
47,
-9,
37,
11,
-35,
-32,
40,
28,
48,
4,
-42,
-39,
57,
32,
40,
18,
37,
34,
36,
-14,
-30,
-17,
35,
19,
-5,
-1,
-42,
19,
-39,
7,
-39,
-17,
5,
30,
-44,
11,
34,
42,
30,
-38,
47,
-42,
28,
29,
-20,
-9,
10,
20,
31,
26,
45,
-48,
25,
38,
41,
18,
3,
30,
-49,
4,
-44,
43,
27,
29,
32,
-43,
13,
30,
-13,
-23,
3,
26,
29,
35,
34,
45,
11,
24,
-50,
-14,
-2,
-41,
49,
-28,
-45,
-27,
15,
27,
-48,
40,
2,
-34,
-32,
-30,
31,
13,
18,
5,
-35,
1,
-2,
-9,
-19,
34,
-21,
35,
43,
-61,
0,
-44,
-35,
17,
20,
-14,
-6,
18,
29,
49,
-41,
39,
11,
-28,
21,
-3,
44,
2,
65,
42,
-29,
-5,
-5,
-31,
29,
19,
6,
-49,
4,
4,
24,
-21,
-4,
-7,
12,
52,
-20,
-45,
-27,
7,
-45,
-50,
-51,
4,
-19,
31,
-49,
-18,
10,
-19,
32,
50,
-4,
-9,
26,
4,
-40,
45,
-51,
32,
-45,
-2,
-9,
29,
-24,
25,
19,
-12,
11,
23,
-46,
-12,
3,
12,
-27,
22,
-41,
30,
12,
27,
39,
34,
-49,
-44,
-17,
-39,
31,
-9,
-11,
25,
48,
44,
43,
-49,
5,
28,
-20,
-27,
32,
13,
-47,
4,
-47,
20,
29,
42,
46,
12,
-25,
7,
-1,
9,
43,
-25,
-23,
26,
-40,
-32,
-46,
51,
-41,
47,
36,
46,
18,
15,
-38,
3,
16,
-51,
-13,
-26,
38,
51,
41,
-33,
-46,
-33,
24,
-3,
-35,
-38,
-8,
-1,
-14,
1,
16,
8,
23,
25,
41,
22,
-30,
-13,
-7,
6,
-27,
-16,
20,
-40,
3,
60,
5,
44,
-31,
16,
-25,
21,
-32,
-7,
-34,
-33,
-12,
10,
-44,
40,
10,
-5,
19,
-27,
39,
-19,
12,
-34,
37,
11,
-37,
-21,
48,
46,
-42,
24,
-8,
1,
-3,
5,
8,
43,
47,
-8,
-1,
-50,
10,
-4,
-13,
8,
46,
-40,
27,
-13,
34,
15,
8,
-32,
15,
11,
-16,
13,
-32,
52,
6,
-36,
-17,
37,
-1,
13,
18,
-10,
17,
-43,
43,
58,
-50,
8,
47,
-62,
-1,
31,
-35,
19,
54,
-14,
-42,
-5,
-43,
-37,
25,
2,
-47,
43,
-59,
-4,
-32,
-7,
-17,
19,
-20,
10,
67,
-62,
-2,
28,
-3,
43,
62,
41,
-33,
-27,
25,
4,
-6,
26,
45,
-6,
-15,
-11,
-34,
-7,
-15,
-36,
16,
24,
-21,
-45,
-32,
14,
-12,
-4,
51,
20,
49,
49,
-18,
-30,
-8,
2,
34,
-11,
-36,
51,
44,
-23,
-31,
-19,
50,
-11,
-23,
-24,
-35,
-10,
-3,
-14,
37,
-23,
-34,
3,
26,
34,
9,
7,
-7,
-7,
2,
-15,
50,
-44,
-42,
-46,
-46,
-8,
2,
30,
1,
-10,
37,
27,
10,
-49,
-3,
41,
-15,
51,
18,
46,
14,
36,
25,
-10,
-13,
-47,
24,
-11,
-24,
-56,
-43,
-20,
43,
-24,
-4,
11,
-24,
54,
-9,
-47,
13,
3,
-12,
12,
16,
25,
50,
11,
26,
27,
-32,
48,
55,
4,
-50,
8,
35,
-11,
50,
59,
-3,
17,
-33,
53,
39,
46,
-33,
31,
-23,
25,
-23,
-3,
34,
-30,
-48,
61,
9,
17,
-5,
-21,
34,
11,
6,
-16,
-9,
30,
-6,
14,
11,
-14,
5,
-37,
-15,
44,
24,
40,
43,
-21,
-12,
16,
-19,
-41,
48,
-65,
-34,
-28,
-21,
-14,
-38,
6,
3,
34,
44,
-41,
10,
-56,
30,
-28,
-54,
36,
45,
-29,
-20,
7,
-49,
36,
-6,
19,
-6,
38,
-21,
50,
-44,
36,
44,
43,
11,
-51,
32,
9,
-32,
35,
17,
-27,
14,
44,
25,
42,
-50,
25,
-34,
-57,
-38,
-30,
-14,
50,
-44,
-29,
-17,
14,
13,
29,
-16,
-32,
23,
45,
-3,
25,
-42,
-32,
44,
57,
25,
49,
25,
-7,
-42,
38,
-31,
-8,
-40,
15,
53,
32,
13,
-42,
22,
16,
47,
22,
-34,
-25,
13,
51,
-2,
52,
-46,
1,
-47,
-12,
31,
-33,
-20,
-44,
4,
9,
-34,
-21,
20,
6,
-52,
31,
49,
-23,
38,
-40,
-20,
-25,
-9,
2,
-21,
-3,
24,
-52,
-26,
-37,
-31,
-14,
58,
-33,
2,
27,
-13,
42,
10,
28,
-14,
-13,
-36,
33,
-1,
9,
-34,
-13,
-36,
-32,
-3,
-38,
-46,
-29,
51,
-37,
38,
-36,
-34,
-27,
-10,
-20,
12,
25,
-46,
-5,
20,
21,
0,
-56,
10,
31,
40,
1,
-33,
18,
7,
-45,
-7,
22,
52,
-17,
24,
0,
50,
16,
15,
42,
-45,
22,
-1,
-15,
-24,
-1,
31,
-2,
13,
22,
-31,
-36,
-46,
39,
36,
14,
-18,
3,
-26,
-46,
31,
-3,
-32,
28,
-50,
-13,
54,
46,
-14,
46,
-49,
-25,
14,
20,
-5,
36,
4,
34,
-4,
47,
36,
-22,
28,
-30,
50,
-11,
-3,
-45,
12,
5,
-3,
47,
49,
-14,
28,
24,
-32,
24,
-31,
15,
7,
-43,
-14,
-36,
-21,
-31,
-19,
12,
20,
-19,
29,
-19,
57,
-17,
1,
50,
-20,
1,
27,
-59,
22,
-2,
41,
24,
27,
26,
-4,
-1,
-46,
-10,
-11,
-18,
38,
24,
58,
44,
2,
-29,
-41,
30,
1,
-22,
36,
-32,
-40,
31,
51,
38,
24,
-9,
24,
-5,
-11,
19,
-40,
6,
2,
-24,
4,
39,
-22,
-9,
-4,
-48,
-26,
40,
-17,
-10,
-15,
14,
-26,
-49,
2,
24,
20,
-38,
-45,
14,
-44,
-49,
33,
54,
-1,
-41,
38,
-18,
14,
18,
2,
47,
-21,
-35,
45,
22,
24,
44,
36,
-3,
-17,
-45,
12,
3,
-46,
-18,
-35,
0,
-15,
-35,
39,
26,
-10,
14,
48,
51,
11,
-38,
-33,
8,
-24,
48,
-3,
-9,
17,
47,
-31,
-33,
-8,
-51,
-21,
35,
-46,
21,
-52,
-36,
26,
-46,
-34,
-41,
1,
-43,
18,
50,
-16,
37,
7,
-36,
5,
34,
-12,
23,
25,
39,
-27,
44,
42,
-20,
20,
34,
-52,
-31,
-51,
8,
-15,
53,
41,
38,
13,
-36,
47,
5,
-16,
58,
-20,
-26,
36,
-33,
40,
22,
-28,
16,
31,
-46,
-22,
2,
11,
45,
22,
-33,
-21,
30,
-46,
-16,
24,
40,
10,
-29,
19,
-37,
17,
-45,
20,
-29,
-23,
-50,
-25,
-51,
20,
-44,
30,
-33,
-8,
-46,
43,
30,
29,
35,
-3,
40,
50,
39,
16,
16,
-7,
37,
3,
-35,
-34,
34,
-16,
-43,
10,
-31,
21,
-24,
-39,
-3,
-8,
-9,
31,
-3,
43,
5,
-6,
6,
-13,
-51,
33,
-12,
44,
2,
-46,
42,
-24,
4,
39,
-30,
21,
17,
-18,
15,
-45,
8,
50,
58,
-8,
14,
10,
57,
-21,
20,
-10,
-42,
-4,
40,
13,
12,
-33,
21,
30,
38,
53,
27,
7,
-26,
-16,
-11,
-27,
-53,
-29,
16,
45,
15,
24,
-36,
50,
34,
-25,
19,
-50,
5,
-50,
-32,
-19,
-29,
-19,
-20,
-28,
-42,
-2,
-39,
14,
23,
42,
-10,
-42,
20,
34,
32,
49,
-20,
-10,
-9,
16,
27,
-6,
-21,
38,
-10,
42,
25,
-15,
-41,
0,
-11,
-45,
-26,
52,
48,
-34,
24,
-10,
5,
50,
-32,
38,
-52,
-25,
-18,
-37,
11,
-5,
-11,
-18,
-20,
15,
-23,
-8,
51,
-44,
49,
20,
-27,
-47,
-24,
-8,
-45,
0,
-21,
43,
16,
-39,
12,
-23,
8,
8,
10,
50,
5,
55,
-49,
52,
20,
73,
44,
-20,
-30,
-17,
33,
10,
37,
26,
45,
2,
-3,
40,
18,
-32,
20,
13,
-29,
-10,
-24,
-29,
-30,
52,
4,
-20,
-55,
-23,
-13,
13,
-21,
-25,
39,
-41,
-27,
-45,
31,
-14,
-4,
-51,
18,
-48,
-1,
-11,
-20,
-53,
14,
6,
49,
44,
-28,
45,
-16,
12,
-20,
-14,
-35,
-25,
-45,
31,
-34,
45,
-46,
5,
-11,
-36,
-33,
35,
-1,
-14,
8,
-23,
-21,
35,
-29,
9,
19,
45,
-32,
36,
-38,
13,
-33,
-34,
-4,
17,
54,
38,
-23,
-16,
23,
-18,
-42,
-31,
-6,
-40,
42,
15,
-39,
31,
-4,
-24,
26,
-32,
37,
4,
-52,
-9,
38,
-39,
-34,
10,
-51,
-46,
-3,
-32,
16,
-20,
-29,
-19,
-34,
-22,
-33,
51,
23,
-42,
-41,
17,
-43,
12,
33,
35,
30,
-29,
-48,
-46,
15,
36,
-6,
15,
10,
-4,
46,
-9,
6,
41,
-17,
48,
6,
0,
-32,
27,
-6,
45,
-8,
11,
-56,
-15,
-16,
-25,
-26,
12,
45,
-16,
18,
-24,
29,
41,
1,
3,
37,
-24,
49,
26,
10,
-32,
42,
-51,
21,
39,
13,
-6,
19,
39,
-37,
-21,
-22,
-28,
-26,
-13,
-27,
25,
6,
-38,
12,
-19,
13,
-33,
-18,
15,
-40,
-47,
-36,
32,
45,
24,
17,
16,
15,
-21,
-14,
-5,
-20,
-11,
-9,
-9,
-1,
15,
21,
13,
20,
7,
-1,
22,
-12,
15,
-4,
-24,
-12,
-16,
-22,
19,
18,
17,
10,
22,
7,
18,
-5,
-13,
-19,
2,
-4,
13,
-3,
3,
-18,
4,
19,
-2,
4,
-11,
9,
0,
-19,
23,
-8,
-1,
-14,
-8,
-17,
-9,
15,
-13,
15,
-13,
-18,
6,
20,
0,
-6,
-4,
3,
4,
-13,
-8,
-8,
0,
-11,
-4,
12,
-5,
-6,
14,
-16,
5,
-21,
6,
1,
-22,
0,
-22,
3,
2,
7,
-6,
-16,
-9,
6,
13,
16,
-19,
-9,
18,
20,
13,
7,
-23,
-16,
2,
-8,
-21,
20,
-5,
-5,
18,
-24,
1,
-27,
-13,
9,
-18,
17,
2,
6,
-27,
5,
19,
13,
20,
-1,
-17,
-26,
11,
18,
19,
-7,
8,
7,
19,
12,
-17,
-2,
-5,
4,
-4,
-17,
10,
-13,
3,
-20,
-10,
-7,
-10,
-27,
-17,
-2,
-11,
-1,
18,
-5,
-16,
14,
-10,
15,
19,
14,
29,
8,
-14,
-10,
-3,
7,
-5,
-18,
-21,
18,
-5,
4,
18,
20,
0,
-14,
44,
23,
-15,
23,
-15,
1,
-14,
-6,
-1,
-14,
13,
25,
0,
26,
20,
-17,
14,
-18,
3,
14,
18,
-8,
16,
-1,
19,
-1,
-19,
24,
-8,
-5,
-4,
-12,
0,
21,
-1,
17,
19,
-10,
-7,
12,
-13,
16,
-5,
10,
-9,
21,
-6,
7,
-15,
15,
-6,
0,
15,
4,
-17,
3,
-8,
21,
-6,
-11,
2,
14,
-4,
-12,
-16,
2,
27,
15,
-5,
-8,
3,
6,
11,
14,
18,
-14,
27,
28,
3,
-6,
0,
-17,
-2,
13,
-1,
-2,
-3,
-10,
-7,
-10,
11,
-20,
-23,
-10,
-18,
11,
19,
-19,
14,
-14,
-18,
-1,
-8,
-7,
-18,
-1,
12,
10,
9,
15,
14,
-15,
-8,
7,
-3,
-3,
8,
-22,
-4,
-3,
6,
-3,
6,
-10,
-20,
-6,
-24,
4,
6,
4,
0,
13,
-5,
7,
-19,
-10,
17,
0,
16,
-22,
-7,
-6,
-4,
5,
5,
-21,
-11,
-16,
-22,
-9,
-3,
-2,
16,
5,
-3,
-25,
17,
-16,
-4,
-23,
13,
3,
-9,
2,
-4,
-10,
6,
11,
-16,
12,
18,
1,
21,
-13,
-18,
-8,
-1,
-19,
11,
-14,
-19,
-25,
-1,
3,
-26,
-16,
-25,
-3,
-2,
-12,
20,
-8,
-10,
7,
16,
-1,
7,
-8,
7,
-18,
-13,
-15,
0,
-5,
-6,
-6,
11,
7,
15,
-3,
-17,
6,
17,
3,
13,
-12,
-10,
-13,
10,
19,
-13,
-2,
8,
-17,
12,
-21,
-13,
-23,
-15,
-11,
1,
13,
3,
-16,
4,
8,
-7,
-22,
20,
3,
-22,
-22,
-15,
19,
3,
13,
-25,
21,
-20,
-5,
-14,
-18,
-25,
0,
-23,
19,
-11,
-16,
-20,
18,
15,
-19,
-3,
14,
-25,
-19,
7,
-2,
-8,
18,
-25,
-20,
-29,
11,
-8,
-18,
-2,
2,
-5,
-7,
-14,
2,
-11,
-7,
-22,
4,
-1,
-3,
-17,
20,
16,
1,
-2,
-15,
12,
-23,
-18,
19,
2,
14,
16,
17,
9,
-4,
16,
9,
20,
-19,
-2,
-19,
-18,
-9,
8,
-20,
-25,
-2,
4,
2,
2,
-20,
13,
16,
19,
19,
7,
2,
-3,
-14,
-5,
-22,
-22,
-24,
-1,
-10,
-24,
-8,
8,
-2,
-5,
9,
6,
10,
0,
-10,
0,
-14,
-17,
5,
-5,
20,
-10,
21,
3,
-6,
-4,
-32,
13,
14,
20,
16,
-10,
25,
1,
-15,
8,
4,
2,
-17,
-9,
3,
-16,
-24,
-1,
13,
28,
7,
14,
12,
-8,
18,
16,
3,
15,
20,
44,
19,
-21,
1,
-14,
28,
20,
-4,
2,
23,
-10,
8,
-18,
4,
-12,
5,
23,
17,
-8,
-11,
12,
23,
3,
-6,
30,
21,
-4,
-13,
22,
-12,
23,
-25,
-25,
-4,
-10,
-9,
19,
-12,
9,
5,
23,
-2,
36,
28,
4,
20,
-14,
-1,
6,
13,
4,
12,
13,
2,
-15,
23,
-5,
2,
-10,
9,
-29,
-33,
18,
-6,
-11,
-15,
4,
1,
0,
3,
-13,
-13,
-15,
-7,
16,
-34,
14,
-8,
-7,
23,
7,
-21,
-4,
6,
-16,
-2,
1,
19,
1,
-18,
-6,
-17,
14,
8,
-9,
-9,
3,
-15,
-11,
-28,
6,
28,
8,
9,
19,
3,
-1,
6,
2,
33,
-19,
-14,
-1,
10,
9,
-10,
9,
-11,
-10,
-9,
-2,
14,
-5,
-9,
1,
-11,
13,
0,
8,
8,
-6,
3,
9,
4,
19,
-20,
20,
-1,
-13,
-11,
-11,
1,
3,
9,
10,
-18,
27,
23,
24,
-8,
-19,
6,
0,
16,
-22,
19,
22,
8,
-7,
7,
-17,
-19,
-4,
-23,
-5,
19,
9,
16,
-9,
27,
19,
9,
34,
-24,
-7,
-13,
-11,
10,
17,
4,
16,
20,
4,
13,
24,
13,
-14,
8,
-27,
2,
-20,
-7,
6,
13,
27,
23,
-12,
8,
-8,
32,
-18,
-10,
-8,
3,
3,
17,
-6,
9,
16,
-22,
-20,
-16,
5,
15,
1,
-12,
-12,
16,
-14,
26,
2,
-1,
-19,
-7,
-10,
23,
-1,
-44,
-15,
5,
-13,
-16,
24,
20,
9,
22,
4,
22,
-14,
-8,
18,
-2,
-22,
14,
18,
0,
22,
-15,
-20,
13,
19,
19,
5,
-5,
-21,
8,
14,
-13,
18,
-3,
-16,
16,
12,
0,
13,
2,
7,
-1,
8,
-10,
3,
-20,
8,
-11,
2,
10,
-7,
16,
13,
1,
16,
-5,
-27,
-8,
-11,
-16,
10,
-20,
-21,
-14,
-1,
9,
-1,
17,
-10,
20,
23,
14,
24,
35,
-1,
4,
23,
9,
15,
17,
-16,
24,
23,
24,
12,
-10,
3,
5,
10,
-13,
-42,
-11,
14,
-37,
-21,
-19,
-7,
0,
10,
17,
-18,
25,
-18,
18,
-15,
-2,
-1,
8,
-4,
-18,
12,
2,
-24,
-8,
13,
-5,
6,
-17,
-12,
1,
-22,
-3,
7,
-10,
0,
-20,
-10,
-26,
-9,
8,
3,
5,
-13,
-21,
-2,
8,
0,
11,
-24,
14,
4,
9,
15,
-6,
5,
-26,
-7,
4,
3,
-10,
2,
-19,
-17,
2,
-7,
-12,
11,
14,
13,
5,
-24,
16,
12,
-4,
-10,
-14,
-8,
18,
4,
2,
17,
-7,
-22,
11,
-2,
11,
-22,
-14,
-15,
6,
6,
5,
-19,
18,
4,
5,
-9,
-15,
6,
-26,
0,
-7,
-8,
1,
-12,
-27,
2,
17,
11,
17,
-25,
3,
14,
1,
-6,
-10,
-11,
10,
-16,
3,
-16,
-13,
10,
3,
-19,
-11,
15,
-7,
-26,
-10,
7,
-4,
-22,
-13,
2,
-16,
9,
-15,
-14,
-16,
11,
-2,
7,
-30,
-23,
-12,
-16,
-18,
10,
-14,
23,
18,
23,
15,
16,
15,
4,
-17,
-12,
14,
18,
0,
-3,
-8,
-15,
-14,
-25,
-31,
-16,
10,
21,
6,
24,
-20,
9,
2,
-9,
16,
0,
7,
6,
-4,
-16,
-11,
7,
21,
-12,
6,
20,
13,
9,
-22,
23,
-3,
12,
16,
38,
-15,
-17,
17,
-15,
-7,
6,
7,
22,
2,
20,
-17,
19,
10,
11,
8,
0,
26,
3,
18,
-6,
-16,
-13,
1,
22,
-18,
-11,
-17,
22,
-18,
17,
7,
-20,
5,
-15,
-13,
18,
13,
-16,
2,
9,
11,
6,
15,
-18,
2,
-5,
11,
-14,
20,
-19,
-10,
17,
20,
-14,
-8,
21,
13,
7,
-12,
6,
12,
-6,
-37,
14,
-12,
-6,
-4,
11,
-8,
0,
13,
12,
4,
11,
-13,
23,
32,
0,
8,
4,
5,
17,
4,
4,
-11,
5,
21,
-9,
10,
20,
7,
7,
15,
-11,
-3,
-5,
-8,
13,
-36,
1,
8,
11,
19,
2,
-12,
13,
19,
21,
39,
-18,
-18,
22,
8,
-19,
2,
16,
-11,
5,
6,
-3,
-11,
-12,
4,
28,
1,
2,
22,
11,
10,
22,
16,
13,
4,
14,
10,
14,
-13,
5,
-18,
-9,
-17,
13,
20,
16,
1,
-8,
-3,
-13,
27,
-4,
-22,
17,
-16,
-21,
-10,
8,
21,
-13,
17,
-7,
11,
-1,
-18,
2,
2,
-20,
22,
-17,
33,
24,
-7,
19,
13,
6,
15,
0,
32,
-19,
24,
-18,
3,
7,
-9,
9,
-7,
-21,
11,
1,
0,
14,
-28,
-6,
-13,
3,
3,
1,
20,
-14,
14,
6,
-8,
-13,
-28,
-5,
30,
-3,
-9,
-5,
22,
18,
1,
14,
-20,
16,
-2,
10,
-18,
4,
-7,
11,
8,
2,
-20,
-4,
-24,
19,
14,
-17,
30,
9,
19,
-24,
-1,
-22,
-2,
3,
-22,
-5,
-3,
14,
18,
12,
22,
16,
12,
5,
-14,
18,
8,
21,
3,
-4,
-15,
-7,
-21,
3,
-25,
3,
-11,
-21,
4,
-1,
22,
-19,
-5,
-1,
-9,
-19,
-8,
-2,
-5,
36,
7,
1,
-20,
-10,
-22,
6,
7,
8,
7,
0,
-22,
5,
-1,
17,
-4,
0,
1,
-13,
18,
-8,
-19,
-24,
-25,
-13,
-14,
12,
6,
-16,
5,
-7,
-4,
-6,
20,
-18,
1,
5,
11,
-14,
-13,
-20,
19,
11,
-20,
-5,
-19,
5,
-20,
-3,
-9,
-1,
-8,
-23,
-3,
6,
9,
13,
0,
-6,
3,
-13,
-8,
2,
12,
2,
2,
5,
-9,
-24,
14,
0,
14,
-14,
-30,
6,
-16,
5,
-4,
11,
-12,
-22,
3,
-30,
11,
11,
31,
15,
7,
-21,
-11,
-9,
12,
-3,
5,
4,
-13,
-31,
14,
18,
-15,
-8,
-19,
-12,
1,
-3,
16,
-15,
-9,
5,
-2,
-17,
-17,
8,
-22,
-26,
-29,
-15,
0,
20,
6,
-11,
-4,
-19,
7,
16,
-21,
-5,
-22,
9,
-7,
-6,
-14,
-18,
20,
-13,
-20,
-21,
1,
14,
12,
15,
10,
-20,
12,
-27,
-18,
15,
-9,
-7,
-24,
17,
-19,
4,
-10,
5,
0,
3,
0,
4,
11,
20,
-11,
7,
-16,
-19,
-12,
-21,
6,
-15,
-16,
7,
4,
-24,
-12,
8,
-29,
2,
9,
4,
17,
7,
-21,
9,
15,
1,
-16,
-16,
-18,
-3,
-16,
10,
10,
-6,
3,
-1,
10,
3,
18,
17,
9,
-2,
-18,
-17,
-17,
-2,
28,
15,
10,
-6,
-7,
-16,
-49,
-11,
25,
-14,
-11,
-15,
-5,
-17,
-21,
5,
19,
-8,
-3,
0,
-21,
-12,
-11,
-14,
-10,
16,
9,
6,
19,
-6,
2,
-13,
-9,
-10,
-8,
23,
12,
-15,
12,
-18,
25,
-21,
7,
13,
17,
18,
3,
-7,
23,
11,
-20,
2,
20,
-12,
-14,
-12,
4,
22,
-17,
-11,
-2,
-7,
-1,
20,
21,
-1,
-8,
-28,
-4,
5,
-5,
-20,
-9,
-15,
-12,
7,
15,
15,
20,
12,
-3,
7,
14,
-7,
5,
-4,
14,
-18,
-8,
9,
-12,
4,
-10,
5,
24,
3,
-11,
-2,
-1,
4,
-22,
25,
-4,
16,
21,
0,
-8,
-22,
-16,
-17,
-37,
-7,
16,
-3,
-3,
-10,
-20,
10,
9,
9,
11,
-10,
10,
2,
-8,
-9,
-16,
9,
-5,
2,
6,
-24,
-21,
-4,
-6,
9,
-3,
-22,
6,
9,
12,
-21,
7,
-17,
-17,
-22,
-4,
-10,
12,
5,
-7,
-14,
-13,
13,
-19,
-1,
1,
-15,
4,
-7,
-16,
18,
-2,
-23,
-5,
2,
13,
-6,
6,
2,
-20,
-3,
-8,
-5,
-3,
-8,
-18,
-6,
-8,
-7,
-8,
-7,
-21,
2,
-11,
-21,
11,
7,
-20,
-18,
-18,
-17,
-16,
-18,
17,
25,
-17,
7,
-10,
10,
6,
-6,
-3,
-22,
11,
-22,
3,
-12,
-7,
17,
-22,
15,
4,
-9,
-21,
-14,
18,
15,
-2,
11,
-4,
-25,
-3,
-19,
0,
18,
-25,
-9,
-6,
15,
16,
20,
-1,
-24,
0,
3,
8,
-7,
-18,
-4,
-1,
-3,
17,
-11,
22,
-24,
10,
-20,
-6,
-1,
-18,
-25,
0,
-23,
5,
-14,
-3,
17,
-6,
6,
-7,
-7,
-13,
13,
-9,
2,
7,
-11,
-13,
3,
-8,
-21,
-11,
20,
-9,
-5,
-21,
13,
-19,
-22,
3,
-25,
-15,
12,
-9,
5,
17,
16,
-25,
12,
-17,
-4,
2,
-22,
12,
10,
6,
-12,
-8,
-3,
-13,
-3,
17,
6,
0,
-7,
13,
16,
-3,
-9,
6,
-12,
-17,
-16,
-16,
-8,
8,
4,
-23,
11,
-25,
-13,
12,
-19,
19,
-18,
-17,
9,
-19,
4,
7,
-25,
15,
-11,
10,
-7,
-21,
-24,
12,
-7,
6,
-4,
-22,
0,
6,
7,
-18,
19,
-9,
3,
-9,
-21,
-21,
20,
-1,
19,
-14,
13,
10,
-21,
-2,
0,
-10,
-14,
6,
-5,
-5,
18,
-24,
-9,
19,
-25,
-15,
4,
1,
-11,
-1,
-3,
6,
14,
-20,
-14,
12,
5,
18,
3,
-21,
4,
-23,
18,
25,
0,
20,
-16,
16,
15,
11,
-10,
0,
8,
10,
6,
17,
2,
-6,
15,
-7,
13,
14,
-24,
2,
-13,
-1,
16,
13,
10,
9,
12,
15,
6,
1,
1,
-6,
-6,
-8,
-23,
-15,
19,
-6,
-21,
14,
-8,
14,
7,
-25,
5,
-21,
-6,
-14,
-20,
10,
4,
-21,
4,
-21,
2,
-12,
-7,
-2,
8,
8,
-6,
-22,
-15,
-10,
11,
-6,
-18,
-16,
-13,
10,
14,
-17,
2,
18,
-10,
19,
-20,
8,
15,
-11,
14,
19,
3,
-12,
-20,
-13,
14,
3,
-8,
3,
18,
-11,
5,
11,
7,
12,
9,
-25,
7,
23,
10,
20,
-23,
20,
20,
-4,
-10,
-15,
22,
10,
7,
18,
4,
-16,
16,
5,
8,
16,
-11,
11,
0,
1,
-10,
20,
-9,
-20,
-27,
-40,
4,
-6,
-3,
17,
7,
-9,
-13,
8,
6,
4,
-14,
4,
19,
2,
22,
9,
16,
1,
15,
-1,
16,
2,
-6,
-15,
29,
5,
-25,
-8,
49,
11,
-11,
4,
-13,
9,
-1,
-2,
11,
5,
13,
6,
10,
23,
-20,
0,
-7,
15,
1,
4,
21,
-16,
7,
2,
4,
-7,
-1,
-8,
-11,
13,
-10,
-1,
-14,
-18,
22,
9,
14,
-8,
-25,
11,
5,
31,
37,
18,
-2,
4,
0,
14,
-1,
18,
14,
4,
-11,
-13,
14,
14,
-14,
1,
7,
-2,
-38,
-7,
-21,
-15,
-11,
-1,
-1,
1,
12,
-2,
15,
25,
18,
-9,
17,
-21,
13,
17,
-21,
2,
22,
-7,
-10,
16,
-17,
5,
5,
13,
-7,
-16,
-15,
9,
17,
-4,
-24,
12,
2,
8,
-18,
-29,
-19,
-4,
11,
-5,
28,
-9,
-13,
-10,
7,
27,
-8,
-18,
8,
-15,
-22,
-8,
30,
29,
-9,
-7,
23,
3,
-15,
-10,
-7,
8,
0,
-1,
60,
1,
6,
-14,
19,
2,
-6,
17,
13,
15,
-24,
13,
-1,
-11,
-2,
-1,
-3,
-12,
11,
0,
18,
10,
-10,
-9,
6,
23,
-13,
-11,
8,
-1,
15,
-27,
-38,
-22,
15,
6,
9,
29,
-32,
6,
-16,
15,
43,
-5,
27,
-25,
-4,
-7,
-5,
-4,
18,
0,
2,
-1,
18,
1,
-13,
33,
-1,
28,
-25,
-33,
-2,
-41,
-28,
-12,
31,
19,
-12,
14,
-22,
13,
-27,
33,
20,
-5,
-13,
21,
-8,
-9,
11,
5,
-14,
20,
-19,
-24,
4,
24,
15,
-10,
-9,
-19,
-22,
16,
-3,
9,
-1,
22,
1,
8,
-10,
-6,
-16,
20,
7,
5,
-1,
-1,
18,
-2,
10,
-21,
-13,
18,
-21,
-22,
-5,
20,
-16,
-1,
5,
-1,
-15,
4,
11,
-13,
-17,
-14,
45,
-5,
-22,
-12,
-8,
21,
-20,
-12,
-6,
-15,
12,
17,
-21,
0,
-15,
34,
4,
19,
2,
-18,
20,
1,
12,
-8,
-11,
-11,
-11,
-18,
-15,
14,
-13,
-18,
-3,
5,
-19,
7,
3,
15,
13,
14,
19,
9,
40,
-2,
-16,
-18,
0,
2,
-23,
3,
-2,
8,
22,
2,
-1,
-14,
8,
0,
-6,
-16,
-19,
-13,
-17,
-24,
15,
11,
4,
-17,
11,
6,
-6,
-7,
20,
-4,
-20,
-29,
-16,
18,
0,
-8,
-18,
20,
12,
25,
17,
-2,
3,
-7,
-13,
6,
7,
-8,
-16,
-8,
7,
20,
3,
-8,
-3,
-26,
13,
26,
-14,
-13,
7,
20,
-9,
-13,
30,
15,
-8,
7,
4,
-4,
-4,
-9,
2,
27,
7,
-6,
16,
20,
0,
-11,
8,
7,
-25,
1,
13,
-8,
-18,
14,
-13,
-1,
-17,
-11,
0,
11,
-11,
-4,
17,
-13,
11,
2,
12,
-10,
0,
13,
5,
11,
17,
-18,
28,
-4,
-25,
10,
-6,
-10,
-14,
-8,
-31,
1,
25,
15,
-18,
-9,
-20,
-9,
-5,
8,
21,
33,
-23,
0,
8,
-12,
-11,
33,
-4,
-11,
15,
-7,
7,
18,
-17,
9,
-25,
-16,
-8,
-20,
-4,
-24,
-27,
4,
-3,
-17,
-1,
-13,
-12,
13,
13,
1,
-18,
4,
30,
7,
22,
-11,
-9,
-14,
-16,
8,
18,
-22,
-1,
6,
-14,
-4,
-25,
7,
-15,
-6,
-25,
-8,
-2,
-15,
5,
-9,
6,
-8,
-8,
14,
-7,
-20,
-25,
-22,
-6,
-5,
-15,
-10,
11,
-6,
-10,
5,
2,
18,
10,
-3,
7,
10,
6,
-9,
13,
3,
-15,
6,
0,
-5,
-10,
-13,
7,
-12,
6,
18,
-3,
16,
9,
18,
-7,
6,
-24,
16,
-4,
3,
16,
6,
6,
-26,
-8,
21,
-9,
-22,
14,
10,
-7,
-18,
1,
14,
-20,
-13,
12,
7,
16,
7,
-9,
14,
-24,
-6,
-1,
-28,
-10,
-13,
-17,
-5,
-14,
-28,
-9,
18,
-10,
0,
1,
-24,
12,
12,
15,
-14,
-20,
-27,
-19,
-20,
-25,
19,
8,
-23,
-17,
-21,
-20,
-11,
5,
-19,
2,
11,
-6,
-10,
-1,
19,
-1,
19,
16,
-8,
-10,
-1,
-8,
30,
15,
3,
-7,
13,
9,
-16,
-11,
10,
11,
19,
9,
-11,
17,
7,
20,
14,
-14,
-11,
-16,
5,
-4,
13,
20,
0,
28,
3,
-16,
7,
13,
0,
-13,
11,
-17,
1,
-17,
-3,
13,
-14,
-1,
20,
6,
-14,
5,
16,
26,
1,
2,
-1,
22,
-17,
-6,
-16,
10,
14,
-20,
4,
-16,
21,
13,
-16,
21,
12,
-13,
13,
15,
-6,
-20,
-14,
2,
-12,
-15,
5,
2,
19,
-14,
16,
-20,
-19,
-13,
12,
7,
20,
30,
-9,
-22,
1,
-6,
2,
-2,
44,
7,
11,
-3,
-13,
10,
20,
-6,
-14,
16,
23,
0,
27,
19,
-25,
13,
-12,
-12,
25,
11,
10,
-5,
11,
17,
-4,
10,
-2,
19,
34,
29,
-15,
21,
15,
-7,
1,
26,
23,
22,
1,
25,
-14,
16,
10,
-12,
-13,
7,
-18,
-1,
2,
-10,
-26,
19,
22,
9,
-1,
21,
19,
8,
-3,
26,
2,
-6,
16,
-4,
17,
-1,
-26,
-13,
-4,
-6,
-15,
18,
24,
18,
-21,
14,
-14,
-31,
1,
2,
-2,
2,
-3,
20,
-2,
20,
8,
13,
4,
-13,
14,
-5,
-13,
7,
-1,
30,
-23,
-7,
-8,
-19,
21,
21,
-16,
15,
-3,
-19,
-2,
16,
21,
-3,
-13,
-35,
-2,
9,
13,
7,
-2,
-19,
-3,
-14,
-12,
3,
-2,
14,
-8,
-5,
-2,
-5,
-3,
-19,
-6,
12,
-4,
10,
-5,
-19,
19,
-18,
13,
-19,
-18,
-12,
-28,
-4,
10,
8,
-15,
-21,
-18,
-5,
27,
-6,
-4,
11,
-26,
23,
13,
-28,
-4,
13,
-11,
11,
-3,
29,
13,
22,
-1,
1,
-1,
1,
-18,
17,
-3,
8,
18,
19,
-5,
-33,
-42,
12,
39,
18,
-3,
-19,
9,
15,
16,
4,
5,
3,
4,
-23,
12,
-22,
-4,
15,
18,
1,
-3,
-14,
-15,
-21,
-12,
-6,
-3,
-10,
17,
36,
-14,
-5,
-17,
24,
16,
17,
1,
-10,
-22,
11,
-9,
15,
24,
18,
-16,
-3,
-16,
26,
-5,
-2,
16,
8,
7,
27,
-2,
-22,
-12,
26,
11,
-8,
-11,
-14,
17,
15,
3,
17,
3,
-21,
20,
-1,
14,
32,
25,
22,
-22,
10,
10,
-1,
17,
7,
20,
24,
3,
3,
-11,
-17,
-8,
-26,
0,
-36,
-9,
-1,
-20,
-12,
-2,
5,
5,
-26,
0,
-22,
24,
-19,
31,
18,
-28,
-9,
-5,
1,
-21,
-15,
20,
-19,
0,
25,
22,
4,
16,
17,
-4,
7,
10,
-9,
8,
-1,
13,
-8,
22,
-14,
-5,
4,
30,
-8,
-17,
-17,
-15,
-5,
20,
-12,
-4,
-12,
14,
6,
16,
2,
6,
5,
4,
7,
-18,
-4,
24,
-18,
-2,
-14,
-7,
-13,
-5,
4,
-4,
-9,
6,
16,
5,
21,
-3,
-3,
-7,
18,
-15,
20,
3,
-17,
-19,
-9,
-4,
3,
6,
4,
14,
11,
3,
28,
23,
-12,
3,
28,
-14,
-11,
4,
-9,
-12,
18,
13,
23,
23,
-20,
-9,
18,
-9,
16,
33,
-13,
-18,
-4,
22,
-2,
19,
-4,
13,
3,
2,
-20,
16,
-10,
-11,
14,
23,
-37,
-17,
-14,
-13,
-14,
20,
15,
16,
14,
0,
4,
-11,
22,
26,
-1,
-9,
15,
14,
-3,
20,
13,
-3,
19,
-15,
-8,
-12,
14,
-15,
4,
-5,
-22,
2,
0,
-19,
1,
9,
-23,
12,
11,
16,
-7,
15,
-9,
13,
3,
-22,
-22,
0,
-24,
10,
-1,
4,
20,
8,
-7,
19,
-1,
10,
-21,
5,
-3,
0,
12,
-9,
-13,
-11,
-1,
-7,
15,
-15,
5,
-7,
-15,
-8,
-21,
7,
4,
7,
-19,
-19,
-18,
-25,
9,
-20,
21,
-13,
-16,
12,
13,
4,
-24,
17,
-19,
-11,
-1,
-22,
17,
-20,
-2,
10,
22,
22,
17,
-22,
-8,
-14,
-2,
-17,
-19,
16,
0,
25,
-14,
-16,
-10,
-12,
-13,
12,
7,
-21,
3,
9,
-5,
-4,
0,
-6,
6,
16,
-10,
2,
-6,
-1,
-11,
11,
4,
-12,
-6,
8,
0,
19,
-20,
-4,
-14,
17,
-4,
0,
-15,
-8,
15,
19,
3,
-16,
23,
-7,
-19,
5,
27,
-9,
7,
4,
3,
-15,
16,
-16,
9,
12,
-1,
34,
-5,
22,
-23,
15,
20,
20,
5,
-1,
20,
18,
10,
-17,
-14,
-10,
-6,
4,
-10,
-14,
28,
4,
-7,
17,
-13,
-16,
18,
-3,
14,
13,
46,
-9,
19,
10,
18,
2,
-1,
-3,
-1,
14,
22,
5,
-5,
-11,
-17,
-5,
13,
2,
-15,
10,
-17,
-16,
17,
-15,
-15,
-15,
5,
24,
-12,
15,
-5,
9,
7,
4,
-17,
-2,
0,
5,
-8,
-9,
-18,
11,
36,
-3,
35,
-21,
-6,
9,
9,
-19,
3,
-9,
-3,
-6,
-19,
-7,
-4,
26,
-1,
22,
-3,
7,
13,
3,
9,
8,
13,
4,
-16,
11,
16,
4,
12,
-4,
14,
-18,
-10,
-20,
-14,
-13,
-10,
-13,
9,
26,
13,
-9,
-20,
-8,
-8,
-21,
23,
-3,
-10,
16,
7,
-3,
-5,
-7,
-28,
-19,
15,
34,
0,
21,
-13,
8,
13,
13,
0,
18,
5,
-12,
-9,
-4,
18,
-3,
22,
-16,
3,
1,
-2,
-9,
-4,
10,
15,
23,
-25,
8,
15,
-4,
9,
-6,
23,
17,
-13,
6,
-2,
24,
-23,
11,
17,
5,
-16,
-3,
13,
-5,
18,
15,
-6,
-2,
-3,
-4,
29,
1,
-34,
18,
-7,
22,
6,
-2,
-1,
7,
16,
-13,
4,
19,
15,
-22,
-23,
-2,
0,
35,
-5,
-22,
24,
-7,
27,
-5,
-15,
-6,
-1,
15,
-11,
-10,
-17,
23,
-12,
20,
-12,
3,
2,
-27,
-27,
-3,
17,
7,
13,
-1,
-19,
27,
2,
-13,
-6,
-30,
22,
-13,
4,
-9,
8,
-15,
15,
-7,
7,
8,
-5,
-6,
-10,
-12,
8,
21,
-14,
22,
18,
3,
-8,
8,
0,
15,
-11,
-6,
-6,
-19,
26,
12,
20,
-6,
6,
11,
-4,
20,
6,
20,
-18,
14,
1,
-5,
11,
1,
6,
11,
20,
-16,
-7,
21,
6,
-17,
41,
17,
-2,
-9,
17,
18,
15,
-15,
13,
5,
23,
1,
23,
22,
2,
15,
-7,
22,
24,
3,
22,
9,
0,
19,
-6,
-20,
-15,
-16,
-7,
20,
5,
-17,
7,
-5,
-3,
-14,
5,
5,
10,
23,
15,
5,
17,
9,
-25,
17,
-10,
-13,
5,
8,
26,
-13,
4,
-3,
1,
25,
27,
17,
-12,
-5,
13,
12,
-21,
13,
-5,
-7,
8,
17,
14,
25,
6,
11,
0,
5,
-6,
15,
24,
32,
22,
-22,
-18,
2,
-12,
-26,
4,
-26,
9,
-18,
-9,
9,
18,
10,
3,
0,
-4,
-5,
-11,
16,
-25,
-13,
-13,
-28,
-9,
5,
-10,
-4,
13,
-15,
3,
-15,
5,
-18,
-24,
-1,
16,
-21,
-24,
11,
-3,
-15,
0,
10,
-3,
16,
-18,
5,
-22,
11,
15,
5,
-23,
-15,
2,
-14,
14,
-4,
8,
-2,
12,
11,
-16,
2,
12,
-13,
-32,
-11,
-2,
-13,
1,
18,
-3,
3,
-14,
-21,
16,
2,
4,
6,
-3,
5,
-23,
-12,
-5,
7,
-3,
3,
-11,
-6,
-8,
-11,
-7,
-26,
17,
18,
9,
-20,
-2,
-16,
-20,
-7,
-20,
2,
22,
5,
1,
-12,
-20,
13,
14,
16,
16,
-12,
18,
4,
-11,
4,
-23,
-8,
-21,
-3,
11,
9,
-20,
-13,
14,
-22,
-17,
17,
15,
6,
-6,
-15,
-11,
0,
-16,
-7,
-14,
17,
15,
17,
12,
17,
19,
15,
-1,
-14,
16,
-50,
9,
34,
19,
19,
13,
15,
11,
2,
5,
10,
-1,
-4,
18,
-22,
22,
-11,
2,
-3,
18,
9,
0,
25,
11,
-17,
21,
-20,
-5,
1,
29,
11,
15,
6,
17,
24,
6,
13,
-1,
16,
-19,
2,
5,
19,
1,
-20,
14,
-19,
19,
-1,
-12,
7,
14,
13,
-7,
-8,
-2,
-5,
24,
-16,
-15,
12,
-11,
9,
-7,
11,
23,
16,
-25,
11,
24,
-2,
-5,
3,
16,
-7,
15,
9,
-13,
2,
1,
-7,
-1,
-18,
11,
0,
6,
6,
7,
-3,
-28,
-1,
-5,
-25,
-10,
15,
-4,
3,
-3,
-3,
12,
-5,
15,
23,
15,
-24,
-7,
13,
3,
0,
-19,
-4,
-18,
19,
18,
-5,
9,
-11,
22,
-13,
6,
-13,
6,
-2,
-26,
21,
-2,
10,
-21,
-40,
3,
35,
7,
21,
9,
22,
19,
21,
32,
41,
-7,
-15,
23,
-15,
-11,
-1,
-15,
-4,
-4,
11,
-18,
-5,
-15,
19,
-10,
8,
-8,
5,
50,
4,
16,
16,
11,
4,
9,
-18,
-5,
11,
10,
18,
-12,
-12,
7,
-1,
11,
-5,
23,
-12,
-1,
9,
10,
-2,
0,
14,
-11,
17,
6,
-7,
4,
14,
-21,
5,
17,
-24,
24,
13,
-1,
17,
4,
2,
21,
13,
6,
4,
-18,
13,
-1,
-5,
-1,
18,
3,
13,
-10,
18,
22,
-10,
-26,
-10,
-33,
-21,
2,
-36,
-4,
-20,
11,
8,
7,
21,
-14,
25,
5,
14,
19,
-33,
11,
15,
-21,
3,
-7,
20,
-6,
-12,
-2,
19,
14,
-8,
-18,
2,
19,
-3,
-13,
-3,
-10,
-19,
-12,
3,
-18,
-22,
-19,
-5,
15,
10,
-16,
7,
-23,
-8,
3,
15,
-6,
8,
4,
-18,
-10,
-26,
8,
0,
18,
-7,
12,
-15,
21,
-14,
25,
10,
-4,
17,
49,
3,
20,
-18,
-4,
7,
18,
15,
11,
11,
6,
-9,
1,
19,
16,
20,
12,
-8,
5,
-9,
-9,
12,
3,
-13,
-7,
4,
-3,
-9,
23,
-13,
22,
14,
-27,
-20,
20,
16,
3,
1,
14,
-6,
7,
25,
28,
-4,
1,
10,
21,
7,
20,
-5,
11,
23,
-4,
8,
21,
-15,
-17,
12,
-12,
26,
-5,
-27,
-6,
-12,
3,
3,
-1,
-6,
-16,
-5,
-22,
-8,
2,
-7,
-12,
-31,
-12,
22,
-19,
14,
25,
-2,
-10,
19,
0,
28,
7,
-9,
12,
-15,
-13,
-9,
15,
3,
7,
0,
11,
-8,
-5,
-43,
-13,
1,
-21,
-6,
-12,
22,
15,
-7,
-4,
29,
-4,
11,
24,
20,
13,
-35,
-7,
11,
10,
5,
-21,
21,
-3,
21,
22,
5,
-3,
29,
18,
-1,
-4,
-11,
-11,
-1,
14,
-6,
14,
-17,
-2,
-18,
5,
20,
22,
0,
31,
-1,
8,
19,
-5,
9,
-5,
22,
5,
7,
0,
-18,
-15,
-1,
2,
-14,
-3,
0,
5,
6,
-8,
15,
-36,
11,
-8,
7,
32,
19,
-3,
-16,
-17,
1,
22,
2,
-1,
32,
3,
23,
-4,
27,
0,
5,
-22,
23,
-23,
-33,
12,
-4,
1,
-13,
27,
-3,
-13,
26,
-11,
15,
-26,
-11,
15,
-24,
28,
27,
6,
4,
-11,
-13,
-12,
-15,
30,
4,
34,
8,
25,
1,
8,
-1,
-19,
-10,
-9,
-11,
15,
-8,
-31,
-39,
15,
12,
0,
-3,
21,
23,
-8,
-20,
36,
18,
-12,
17,
-26,
19,
10,
-5,
0,
32,
7,
-15,
-6,
-16,
13,
-2,
-15,
-17,
-14,
3,
21,
12,
6,
-17,
19,
3,
7,
5,
23,
-10,
-22,
-2,
2,
10,
5,
-11,
-6,
-17,
-12,
9,
-6,
-7,
12,
-16,
23,
5,
-30,
8,
14,
-12,
14,
-26,
-25,
0,
-19,
-3,
-6,
20,
-13,
-6,
16,
24,
32,
11,
28,
-9,
12,
5,
12,
-12,
18,
-5,
21,
9,
-20,
-11,
-9,
9,
7,
7,
-29,
-18,
-12,
-36,
-1,
-5,
-11,
19,
-2,
-4,
-26,
6,
-28,
1,
-9,
-34,
11,
16,
13,
22,
4,
-12,
-15,
18,
-24,
-1,
17,
-7,
14,
7,
-3,
-20,
-19,
-15,
-6,
-3,
-3,
-14,
-11,
9,
1,
-9,
7,
9,
19,
-2,
-26,
13,
5,
14,
10,
16,
-4,
-18,
-22,
6,
-25,
-19,
-3,
1,
-13,
15,
4,
-6,
11,
13,
-11,
-15,
14,
9,
3,
-23,
-4,
-13,
19,
-22,
-17,
15,
-8,
-2,
-16,
14,
2,
8,
-18,
-16,
-13,
-11,
-4,
10,
9,
-14,
0,
-5,
-8,
-15,
-26,
-4,
-13,
-13,
-18,
-1,
10,
-9,
-6,
-24,
-5,
-16,
-10,
8,
14,
-9,
13,
-20,
11,
-26,
-2,
-20,
2,
-12,
-7,
17,
-15,
-25,
-11,
-1,
-8,
19,
-5,
-8,
-13,
0,
13,
19,
-7,
-17,
-2,
0,
3,
-17,
-11,
-25,
-16,
-16,
-20,
-4,
-11,
16,
-13,
16,
7,
-12,
11,
-18,
-26,
16,
-14,
-6,
17,
-13,
12,
4,
1,
-23,
13,
8,
-11,
30,
-7,
-17,
-12,
2,
9,
5,
-23,
-22,
9,
10,
10,
-12,
13,
3,
9,
10,
1,
7,
4,
10,
11,
-19,
21,
-6,
19,
17,
8,
-6,
33,
1,
13,
-9,
-10,
-25,
10,
-15,
17,
-17,
6,
-13,
-13,
-8,
-27,
-10,
29,
6,
-7,
2,
8,
17,
-22,
-4,
-14,
17,
11,
-3,
13,
1,
17,
-18,
-4,
-14,
-6,
-24,
-2,
10,
1,
-5,
2,
10,
-11,
10,
-4,
-3,
4,
-18,
6,
54,
17,
-26,
-22,
18,
-3,
-8,
9,
0,
-29,
-23,
24,
18,
-22,
26,
-19,
-9,
14,
-9,
-29,
12,
-25,
-23,
-6,
9,
20,
21,
9,
1,
2,
-17,
-3,
11,
-19,
-13,
6,
-24,
14,
-21,
-17,
-16,
-19,
-17,
-11,
-20,
-19,
12,
-14,
5,
2,
-10,
-2,
-3,
14,
-12,
8,
-23,
-2,
-14,
6,
-4,
18,
1,
10,
0,
-3,
-24,
15,
18,
-7,
-9,
15,
7,
9,
19,
3,
-12,
1,
12,
-25,
-7,
10,
-19,
7,
-9,
0,
11,
-8,
0,
-14,
18,
1,
-18,
-6,
2,
-22,
2,
-19,
-20,
-23,
2,
17,
17,
-24,
15,
-2,
-8,
-23,
-10,
16,
-6,
-15,
-15,
19,
-23,
-19,
-4,
15,
13,
16,
-23,
18,
-7,
-8,
18,
11,
-20,
15,
4,
3,
-19,
13,
-18,
21,
5,
13,
-6,
-10,
-26,
14,
-8,
11,
15,
-8,
-4,
17,
-22,
-2,
-16,
19,
7,
-3,
-9,
8,
-23,
18,
-6,
10,
7,
8,
-14,
-5,
16,
-19,
-12,
11,
-5,
18,
4,
20,
-5,
-7,
-2,
-25,
-12,
20,
16,
-4,
-18,
-21,
11,
14,
-8,
24,
6,
4,
8,
-6,
15,
-22,
4,
15,
-20,
-18,
-14,
15,
-10,
10,
3,
12,
-6,
-7,
9,
29,
5,
10,
26,
45,
3,
-8,
22,
-5,
21,
11,
17,
-21,
17,
-22,
15,
-4,
25,
15,
3,
11,
5,
-19,
10,
0,
-9,
5,
0,
8,
-2,
-31,
-5,
10,
-12,
21,
-1,
-33,
0,
21,
-19,
22,
-15,
-3,
22,
-5,
-2,
27,
27,
1,
-3,
-15,
20,
6,
14,
14,
11,
19,
15,
16,
27,
-9,
12,
1,
4,
-30,
-10,
14,
-17,
-17,
-6,
-12,
15,
-10,
7,
-20,
-8,
-15,
-14,
9,
4,
-3,
-8,
10,
14,
20,
14,
-19,
20,
1,
1,
-20,
13,
-13,
15,
6,
10,
-17,
16,
-2,
9,
25,
11,
-10,
-35,
14,
26,
-19,
-4,
-2,
1,
-9,
-3,
-3,
17,
8,
20,
9,
-1,
-14,
16,
5,
-4,
-15,
-13,
-10,
21,
-18,
-11,
23,
-11,
2,
26,
6,
12,
-11,
-7,
25,
-6,
1,
18,
3,
-19,
-20,
-7,
-3,
-7,
19,
-23,
4,
-17,
5,
-5,
-13,
18,
12,
21,
23,
13,
-33,
-7,
7,
-5,
7,
-2,
1,
9,
-14,
-16,
6,
11,
-24,
20,
-3,
31,
1,
18,
15,
-11,
25,
-16,
26,
8,
19,
-11,
-1,
9,
5,
14,
-13,
21,
-23,
1,
-10,
-27,
10,
-23,
9,
-7,
17,
-3,
-13,
-5,
-1,
17,
14,
-4,
2,
-25,
11,
7,
6,
7,
2,
-3,
-7,
18,
-24,
21,
-17,
12,
6,
-2,
-14,
1,
-18,
1,
2,
-20,
-11,
2,
11,
-26,
-25,
-11,
-13,
-16,
-6,
-15,
25,
-10,
26,
15,
6,
-10,
2,
-22,
-16,
-6,
8,
10,
-3,
10,
-5,
22,
3,
7,
-20,
18,
-16,
14,
-4,
-20,
1,
-7,
16,
-14,
-6,
-3,
-20,
-23,
-18,
-23,
-4,
18,
-11,
1,
13,
-4,
-20,
-8,
-16,
-22,
6,
-19,
18,
4,
-16,
-4,
-6,
-4,
-20,
-10,
-8,
10,
-8,
17,
19,
20,
-6,
-11,
-16,
-19,
-6,
9,
-24,
9,
18,
10,
8,
-14,
4,
0,
-16,
-20,
18,
-1,
-11,
2,
-1,
-15,
-8,
9,
13,
-32,
-12,
-19,
-15,
20,
-5,
0,
-18,
-7,
5,
2,
-14,
-28,
-14,
-21,
0,
-1,
10,
1,
-10,
17,
-21,
6,
7,
-17,
-15,
17,
-2,
14,
10,
9,
12,
14,
6,
-1,
10,
14,
5,
-23,
9,
11,
-14,
4,
18,
-20,
3,
-4,
22,
-9,
3,
6,
-2,
-2,
0,
3,
11,
0,
-12,
-20,
-9,
15,
-15,
-13,
17,
6,
11,
-16,
-9,
-12,
-22,
10,
9,
1,
-24,
-22,
-10,
11,
16,
-3,
-18,
-5,
-15,
-25,
15,
-6,
2,
-26,
1,
-16,
14,
-2,
-8,
-20,
8,
-14,
-12,
3,
-27,
6,
13,
-4,
-17,
9,
4,
-13,
-20,
-23,
-7,
-9,
-25,
-24,
13,
8,
12,
-6,
9,
5,
5,
-2,
15,
-9,
-9,
-22,
-6,
-16,
8,
-25,
2,
15,
19,
7,
-24,
4,
-26,
7,
11,
-15,
9,
-19,
-21,
17,
-26,
-8,
12,
-17,
2,
16,
12,
25,
2,
28,
9,
-15,
7,
-13,
14,
-12,
14,
-5,
8,
4,
-3,
1,
1,
-26,
-13,
23,
-18,
24,
-3,
3,
22,
-12,
-13,
22,
-3,
-5,
23,
13,
-17,
-12,
-12,
3,
13,
22,
-15,
6,
-15,
-19,
-6,
-6,
-3,
-17,
-3,
3,
3,
-6,
24,
9,
16,
6,
25,
-13,
9,
9,
5,
18,
21,
-12,
13,
-2,
13,
-6,
15,
23,
22,
-16,
1,
10,
-17,
-8,
15,
-12,
23,
17,
-3,
-16,
11,
-2,
-16,
-7,
5,
0,
19,
-2,
4,
33,
-15,
-23,
9,
8,
21,
30,
3,
12,
12,
24,
-1,
-8,
25,
-6,
-2,
10,
-15,
-26,
20,
-8,
-26,
-18,
-7,
20,
17,
9,
-6,
11,
4,
-13,
17,
-15,
20,
5,
8,
-4,
16,
4,
0,
8,
-4,
29,
28,
-16,
1,
7,
10,
7,
4,
8,
5,
12,
-1,
15,
-12,
-36,
1,
36,
-4,
0,
-5,
22,
0,
-12,
28,
14,
2,
0,
24,
6,
14,
12,
17,
-7,
17,
16,
-14,
5,
7,
-19,
10,
-19,
-31,
14,
2,
20,
21,
-10,
-6,
-1,
-17,
-18,
3,
14,
19,
-13,
-3,
9,
13,
-4,
-6,
-10,
-14,
-13,
16,
17,
23,
-19,
-12,
7,
-7,
0,
-7,
17,
-3,
-5,
-7,
-12,
18,
-16,
11,
-5,
1,
12,
-9,
3,
-1,
37,
43,
-23,
19,
1,
22,
10,
11,
-2,
-2,
26,
5,
21,
1,
-4,
-10,
14,
-37,
-26,
-16,
-23,
6,
-3,
-9,
8,
3,
-7,
-5,
-2,
8,
27,
-20,
-5,
23,
17,
9,
6,
-6,
-19,
11,
-21,
0,
-17,
-25,
11,
19,
4,
-4,
-18,
6,
4,
-4,
-24,
-11,
-20,
16,
-19,
-22,
-31,
-7,
6,
-13,
9,
-13,
19,
15,
-7,
0,
-14,
-6,
-13,
15,
-10,
2,
-24,
7,
-3,
-15,
14,
-5,
7,
-12,
19,
-1,
-22,
-9,
6,
-2,
-3,
-5,
-25,
21,
8,
2,
10,
-15,
-21,
-14,
16,
-15,
-21,
-35,
-6,
0,
3,
-23,
19,
8,
0,
-21,
-15,
-6,
-9,
-7,
19,
-22,
-10,
-25,
-1,
-21,
-9,
16,
11,
-14,
19,
-10,
18,
2,
-22,
-3,
15,
14,
-17,
-19,
-10,
11,
8,
-20,
5,
16,
1,
-4,
-1,
-5,
-9,
-6,
-5,
-11,
-2,
0,
-9,
-3,
17,
-22,
-11,
-21,
18,
19,
-13,
-21,
-7,
18,
19,
4,
-4,
16,
-20,
-14,
3,
-1,
10,
24,
20,
-12,
3,
17,
-9,
1,
-13,
-24,
-6,
-10,
5,
-16,
-42,
3,
6,
-5,
-17,
9,
-14,
3,
-20,
7,
7,
-14,
4,
-2,
-4,
-20,
-19,
20,
5,
23,
12,
15,
17,
-17,
7,
-3,
9,
-17,
10,
38,
0,
3,
2,
-13,
4,
21,
17,
26,
14,
-10,
-7,
-12,
-14,
6,
13,
-6,
7,
12,
-18,
0,
0,
-13,
15,
-1,
9,
5,
19,
19,
-3,
11,
-11,
-27,
9,
-1,
16,
19,
-10,
8,
15,
8,
-5,
-1,
13,
25,
-16,
17,
-6,
15,
-5,
11,
18,
-16,
19,
-22,
32,
-14,
-6,
-3,
20,
-35,
-4,
20,
-19,
-8,
13,
29,
21,
2,
9,
13,
14,
5,
-3,
1,
-31,
10,
-10,
-5,
10,
3,
20,
-1,
15,
2,
-3,
12,
-8,
-8,
-2,
-5,
-17,
4,
-16,
-15,
15,
16,
8,
-27,
2,
-7,
-11,
19,
-1,
-2,
6,
-11,
11,
-5,
3,
-17,
-10,
-3,
-17,
-16,
-8,
-1,
6,
-24,
12,
-10,
-20,
-4,
-1,
-17,
-3,
-23,
-2,
-20,
-6,
-12,
-12,
-28,
7,
9,
13,
-2,
-8,
9,
17,
-20,
-9,
5,
-26,
-14,
-19,
0,
-13,
0,
1,
13,
-2,
9,
-4,
18,
-24,
11,
-10,
4,
12,
3,
22,
17,
14,
-6,
11,
-14,
-27,
4,
12,
6,
1,
4,
-27,
-10,
2,
8,
-27,
-21,
12,
-6,
-13,
-7,
2,
-23,
-26,
-11,
-10,
9,
1,
5,
11,
-20,
-9,
-13,
0,
-6,
-19,
10,
-21,
16,
-18,
-17,
-4,
4,
-5,
-24,
2,
11,
13,
-6,
-9,
-10,
4,
33,
3,
30,
-30,
23,
-17,
-11,
22,
4,
27,
-14,
7,
-5,
-27,
-1,
34,
-6,
4,
8,
4,
-6,
-13,
18,
42,
12,
-23,
-2,
-16,
-1,
-11,
24,
9,
19,
6,
-10,
2,
9,
-16,
24,
18,
-31,
11,
44,
15,
12,
16,
10,
33,
13,
8,
-6,
10,
0,
9,
-8,
2,
-13,
4,
1,
11,
13,
11,
-15,
12,
3,
-1,
13,
-14,
-13,
8,
34,
-3,
5,
1,
-34,
-20,
12,
-28,
36,
22,
-37,
-7,
-8,
-2,
4,
17,
37,
-24,
12,
0,
32,
-13,
-9,
8,
14,
-10,
-16,
-11,
-5,
-4,
-13,
14,
-35,
-44,
-5,
-12,
-2,
-2,
6,
-7,
-28,
19,
-12,
42,
-23,
13,
-20,
-18,
23,
0,
1,
-17,
-17,
11,
-17,
14,
-2,
-11,
-14,
-24,
-6,
2,
-8,
-26,
9,
2,
8,
-3,
-11,
-25,
7,
-3,
-10,
25,
11,
-6,
-13,
-8,
-18,
-6,
-10,
5,
-16,
5,
19,
-2,
-18,
-2,
-10,
18,
4,
-8,
-25,
18,
-22,
-13,
-8,
16,
3,
-19,
-19,
-4,
17,
13,
6,
15,
23,
20,
8,
-14,
-5,
-3,
-5,
-8,
11,
-20,
14,
-1,
-12,
-20,
-7,
-10,
-9,
1,
17,
8,
-17,
1,
-17,
-8,
-17,
0,
24,
6,
-22,
-10,
4,
-6,
7,
0,
5,
-4,
-1,
-3,
-5,
-17,
2,
15,
-20,
2,
-3,
-9,
8,
-3,
-5,
14,
11,
-5,
9,
-27,
-9,
7,
-9,
17,
-8,
-1,
8,
14,
-2,
-18,
-18,
-26,
3,
-23,
-10,
-4,
6,
-26,
16,
19,
-10,
6,
-5,
-2,
-14,
3,
7,
-15,
-3,
13,
-21,
3,
-11,
-3,
-3,
11,
8,
-15,
7,
-13,
-16,
15,
16,
-14,
0,
-17,
7,
15,
-6,
-7,
-2,
0,
-1,
-10,
11,
-1,
-9,
13,
-20,
2,
-24,
18,
2,
9,
-7,
3,
-19,
-25,
-3,
4,
4,
-26,
-1,
-7,
4,
-15,
-18,
-9,
11,
18,
11,
-22,
11,
14,
-19,
-2,
3,
-4,
17,
-15,
12,
-16,
7,
-12,
-19,
-13,
-25,
6,
-20,
-4,
-14,
21,
1,
-6,
-22,
-12,
11,
-22,
-5,
-13,
-12,
11,
11,
13,
11,
1,
-5,
0,
13,
-1,
10,
-10,
-19,
-17,
-24,
-3,
-22,
6,
-14,
7,
-18,
11,
-14,
-11,
-15,
0,
-15,
-10,
-17,
7,
1,
-8,
3,
-5,
-1,
7,
-26,
8,
18,
20,
6,
20,
-13,
-16,
-21,
-19,
13,
-4,
-11,
9,
-23,
2,
-23,
-12,
15,
15,
11,
10,
-24,
-22,
9,
-19,
-16,
-23,
16,
-5,
10,
-21,
19,
-21,
9,
5,
10,
-4,
15,
0,
5,
18,
-6,
3,
2,
-16,
-8,
-4,
-7,
-14,
18,
3,
1,
12,
-16,
9,
8,
-3,
14,
-22,
-14,
-5,
-3,
-21,
9,
-5,
24,
0,
13,
3,
-18,
-15,
-22,
-10,
-8,
-2,
12,
1,
-10,
-9,
-8,
8,
16,
14,
-21,
-18,
4,
-22,
-23,
-25,
-11,
-19,
6,
15,
20,
-18,
11,
-1,
-20,
9,
7,
12,
-13,
13,
19,
-6,
14,
-7,
14,
18,
17,
-19,
16,
25,
9,
8,
-23,
-13,
14,
-11,
16,
3,
-22,
-10,
-5,
16,
-9,
-12,
-12,
12,
-4,
-10,
14,
-4,
-16,
-16,
-12,
3,
-13,
-15,
16,
16,
-7,
9,
10,
-10,
-5,
-10,
22,
33,
-6,
0,
-10,
0,
-25,
17,
-8,
17,
-18,
5,
-18,
-20,
32,
-17,
-17,
31,
0,
7,
-23,
-2,
18,
16,
9,
19,
-16,
4,
23,
2,
-8,
14,
-8,
-16,
-4,
0,
5,
-10,
-19,
21,
23,
-3,
19,
18,
4,
-1,
-7,
7,
6,
19,
-16,
-22,
-7,
5,
-20,
1,
27,
4,
3,
-20,
6,
17,
46,
14,
-8,
12,
-14,
-12,
-5,
-8,
-5,
11,
7,
-26,
-26,
20,
2,
-19,
-15,
34,
-21,
15,
-12,
-7,
-6,
2,
19,
16,
28,
-8,
50,
-6,
-3,
19,
19,
-9,
-6,
12,
-5,
11,
6,
8,
5,
-6,
-21,
47,
-24,
4,
19,
22,
16,
2,
2,
7,
-14,
2,
-19,
22,
-3,
-13,
19,
3,
8,
-6,
2,
20,
-15,
-9,
15,
-38,
-10,
12,
-2,
-3,
-1,
-14,
16,
-16,
15,
29,
0,
-11,
19,
-12,
11,
13,
17,
-5,
17,
-14,
0,
-5,
-6,
-2,
1,
-15,
1,
-4,
15,
20,
-13,
11,
25,
-3,
19,
0,
-18,
12,
15,
3,
-10,
14,
20,
-16,
-2,
-7,
-6,
18,
-2,
14,
-2,
0,
-7,
6,
5,
-10,
-16,
4,
3,
8,
-36,
7,
17,
11,
23,
8,
-24,
-12,
-7,
31,
23,
15,
-8,
-22,
19,
4,
8,
14,
-1,
7,
24,
11,
5,
-7,
10,
-6,
-19,
4,
-16,
-27,
-12,
-36,
-29,
2,
24,
12,
-18,
1,
1,
4,
-4,
3,
-19,
-19,
13,
18,
-4,
20,
1,
-3,
19,
10,
-9,
-12,
-12,
-14,
9,
8,
-1,
2,
-8,
-19,
1,
15,
-20,
3,
3,
-5,
-3,
9,
22,
9,
2,
-13,
-19,
12,
-2,
-5,
-3,
21,
-17,
-6,
10,
-14,
20,
18,
21,
5,
-4,
21,
-3,
-17,
-24,
6,
4,
-2,
8,
-13,
19,
-1,
-12,
-17,
7,
18,
7,
9,
-16,
3,
-18,
4,
-5,
-10,
23,
2,
15,
10,
3,
-8,
-14,
-2,
11,
-1,
-24,
0,
-8,
19,
7,
-14,
-26,
18,
-19,
-10,
-21,
-11,
8,
-8,
5,
-19,
-26,
17,
10,
9,
2,
-17,
8,
-11,
-14,
11,
14,
11,
16,
-4,
-8,
-22,
-19,
-7,
-17,
11,
2,
-14,
-12,
3,
4,
6,
9,
-22,
-10,
-3,
-11,
-21,
-5,
-22,
-23,
-24,
5,
-1,
-5,
11,
14,
26,
9,
2,
-5,
6,
18,
-6,
20,
26,
0,
4,
-1,
16,
23,
24,
-23,
2,
-15,
11,
-2,
19,
27,
4,
15,
-21,
12,
33,
0,
-14,
-5,
16,
7,
12,
3,
16,
16,
-10,
1,
-8,
-21,
3,
1,
-6,
-1,
18,
33,
-20,
-5,
15,
-6,
25,
5,
-6,
-1,
-16,
2,
14,
20,
19,
-20,
18,
-12,
-14,
-13,
-4,
17,
8,
4,
-2,
20,
-10,
-12,
20,
-15,
-9,
11,
6,
-24,
0,
10,
20,
-14,
-18,
14,
8,
11,
0,
33,
4,
-22,
-4,
-6,
19,
21,
13,
-18,
-13,
24,
4,
-6,
-4,
6,
17,
9,
-10,
-20,
-25,
7,
-23,
-6,
12,
16,
-3,
-23,
-11,
12,
-14,
-17,
24,
-17,
-3,
-4,
25,
-9,
23,
-13,
16,
-18,
21,
2,
23,
16,
25,
16,
0,
-6,
-7,
-12,
6,
-14,
-3,
8,
17,
9,
-41,
-6,
8,
16,
6,
3,
15,
6,
-8,
12,
-3,
22,
14,
-12,
13,
-22,
0,
5,
1,
2,
-9,
16,
12,
2,
-22,
-10,
7,
-18,
-6,
21,
14,
15,
0,
-6,
15,
3,
-20,
-8,
-15,
2,
2,
19,
14,
1,
15,
25,
-15,
1,
4,
-7,
-14,
1,
-15,
-7,
-9,
-15,
10,
-1,
-2,
16,
5,
-32,
-21,
4,
-16,
-18,
2,
-21,
-5,
4,
8,
20,
22,
20,
7,
6,
11,
17,
-4,
6,
9,
-20,
22,
-16,
2,
3,
-11,
2,
8,
-18,
-24,
9,
-22,
1,
22,
22,
4,
-18,
26,
-12,
-2,
2,
-4,
20,
-36,
-6,
-2,
-19,
18,
13,
-3,
6,
-10,
-18,
3,
12,
-1,
27,
8,
-6,
26,
8,
-5,
-13,
-12,
6,
7,
-11,
-22,
3,
-1,
9,
27,
-15,
-2,
15,
6,
-8,
5,
-19,
-18,
27,
3,
14,
-15,
0,
0,
5,
20,
11,
0,
16,
15,
25,
-14,
-26,
27,
15,
14,
-7,
-19,
6,
10,
15,
22,
-14,
-1,
-10,
5,
0,
-9,
-4,
17,
2,
17,
27,
-6,
15,
4,
15,
-3,
19,
13,
-4,
19,
3,
8,
11,
-3,
-22,
-10,
19,
20,
-2,
1,
-5,
-15,
-18,
3,
24,
0,
-4,
6,
18,
-17,
30,
3,
-17,
13,
-15,
-4,
16,
19,
7,
8,
14,
15,
-30,
13,
-17,
-28,
-5,
-22,
33,
3,
-20,
16,
-15,
-6,
-15,
20,
1,
-30,
16,
3,
5,
21,
-13,
5,
-24,
14,
6,
-2,
11,
11,
18,
-17,
13,
-4,
3,
-2,
-8,
-22,
-6,
-14,
-10,
9,
-4,
-17,
-7,
-25,
8,
1,
15,
2,
9,
5,
-11,
-20,
6,
-3,
17,
4,
-18,
9,
8,
-22,
0,
-23,
5,
21,
-25,
0,
-24,
3,
15,
-23,
-13,
-19,
-12,
-17,
9,
17,
-12,
-12,
-9,
19,
-25,
11,
0,
-8,
-13,
-11,
-10,
16,
-16,
18,
6,
-14,
2,
-12,
8,
-14,
8,
-7,
-15,
-14,
-26,
-19,
5,
2,
-5,
-21,
-1,
-11,
17,
9,
-8,
-16,
-9,
-24,
-9,
-25,
-4,
-20,
-22,
14,
-23,
4,
22,
-16,
-14,
0,
-22,
-10,
0,
4,
-2,
-6,
8,
7,
6,
8,
15,
-14,
12,
-18,
-1,
3,
9,
10,
16,
-12,
2,
10,
-21,
-1,
0,
-6,
-22,
5,
-15,
-13,
8,
10,
8,
-6,
2,
-10,
-10,
9,
-13,
-11,
-23,
4,
12,
3,
-20,
7,
19,
-10,
9,
18,
15,
19,
-14,
7,
-9,
19,
7,
-12,
5,
-8,
-15,
7,
-8,
-24,
-12,
-5,
-22,
-6,
3,
12,
-1,
8,
-24,
10,
-14,
-8,
-9,
-6,
-22,
-3,
8,
-2,
7,
-17,
6,
1,
6,
2,
17,
-21,
-12,
2,
13,
14,
-18,
-25,
-21,
15,
-14,
17,
-18,
9,
-3,
19,
-21,
17,
3,
-21,
-2,
-12,
10,
15,
15,
-20,
-12,
9,
13,
-23,
-16,
3,
-13,
19,
-17,
7,
22,
12,
-12,
-10,
9,
9,
6,
13,
17,
-5,
-25,
13,
-8,
-24,
-10,
-18,
-4,
-16,
6,
-5,
20,
-6,
4,
18,
-5,
16,
-1,
-2,
-3,
22,
18,
-9,
15,
10,
-10,
14,
23,
-6,
21,
-17,
-14,
15,
-14,
-3,
1,
-12,
-13,
-7,
16,
6,
-17,
-6,
-4,
17,
-3,
-6,
-9,
-14,
36,
-8,
-22,
11,
-14,
4,
-3,
-10,
5,
-15,
-12,
10,
21,
2,
15,
24,
41,
-12,
-6,
4,
-5,
-3,
-5,
-10,
6,
9,
16,
14,
-11,
10,
-20,
14,
15,
-14,
22,
8,
3,
23,
-16,
-23,
23,
16,
16,
18,
-13,
11,
21,
-19,
-25,
-3,
26,
20,
-7,
-5,
-20,
20,
-16,
6,
25,
31,
9,
-13,
-6,
-3,
2,
24,
-7,
2,
14,
11,
-21,
22,
-12,
-6,
7,
12,
10,
-10,
-21,
1,
-14,
-6,
17,
-18,
-10,
-11,
21,
-6,
17,
16,
23,
-10,
3,
0,
20,
-10,
13,
-21,
1,
20,
-6,
-1,
-21,
10,
-10,
-6,
-13,
14,
-9,
21,
-1,
13,
-2,
15,
-6,
-24,
-11,
23,
-14,
-14,
0,
23,
-7,
-6,
21,
46,
-3,
7,
-5,
-21,
21,
3,
-15,
22,
10,
10,
-7,
-3,
-20,
-14,
29,
-18,
-21,
-11,
27,
-22,
12,
13,
10,
12,
-22,
0,
20,
6,
-3,
-4,
-14,
11,
21,
-2,
-4,
-19,
10,
25,
-2,
-14,
13,
-17,
6,
17,
-8,
-3,
14,
6,
-4,
10,
-29,
3,
8,
10,
17,
15,
-21,
-3,
14,
26,
35,
-6,
3,
-8,
-5,
5,
-1,
3,
-15,
26,
-6,
-2,
-5,
22,
-1,
-14,
-15,
15,
-13,
-25,
20,
-32,
-17,
23,
18,
13,
-22,
29,
-19,
0,
0,
3,
11,
-2,
15,
11,
12,
8,
23,
5,
17,
2,
19,
5,
18,
4,
-11,
16,
13,
0,
19,
26,
-5,
22,
7,
5,
-8,
-51,
15,
1,
12,
17,
-10,
7,
-12,
-6,
-14,
-4,
-16,
-11,
31,
8,
7,
-9,
-14,
-13,
-3,
-11,
4,
-3,
1,
-21,
2,
17,
-6,
-3,
21,
1,
17,
6,
13,
2,
-20,
-3,
-10,
21,
-5,
1,
12,
12,
5,
22,
-13,
-13,
16,
-7,
-6,
-12,
8,
-18,
24,
5,
-24,
-18,
-3,
-15,
2,
11,
-31,
-6,
2,
15,
13,
11,
3,
-21,
-18,
16,
17,
-2,
-5,
-8,
7,
-13,
24,
2,
9,
16,
23,
-3,
-21,
-6,
26,
17,
16,
-13,
-27,
-30,
-18,
-40,
-30,
5,
7,
11,
-6,
13,
-17,
-2,
-23,
3,
9,
4,
25,
11,
20,
10,
0,
-6,
14,
4,
1,
-18,
-2,
27,
-19,
7,
17,
-8,
-16,
6,
18,
-23,
-15,
17,
-3,
16,
14,
5,
-19,
13,
18,
19,
14,
13,
-5,
-15,
-18,
-9,
25,
-22,
21,
25,
14,
-17,
-26,
-10,
14,
1,
18,
16,
18,
9,
9,
11,
30,
14,
0,
16,
-15,
1,
-5,
-22,
-2,
-13,
24,
11,
21,
-15,
-25,
26,
13,
8,
14,
21,
24,
-1,
16,
18,
-8,
-6,
30,
-2,
-13,
-23,
-9,
-20,
25,
3,
17,
7,
-9,
18,
-29,
-4,
-5,
27,
47,
-11,
-21,
-1,
-19,
-18,
18,
15,
-9,
-12,
10,
16,
-18,
28,
-14,
4,
5,
-1,
28,
14,
20,
16,
26,
19,
-8,
-20,
28,
22,
14,
-16,
13,
1,
-6,
-19,
-9,
23,
3,
-1,
-8,
14,
17,
25,
19,
8,
13,
14,
25,
-2,
-4,
11,
-22,
18,
7,
0,
19,
-12,
-21,
-51,
13,
22,
5,
12,
-8,
-12,
-8,
5,
-11,
14,
-5,
-16,
-15,
0,
-12,
7,
-15,
18,
-3,
-2,
-23,
23,
18,
-8,
13,
-12,
-8,
24,
25,
20,
-24,
-7,
11,
19,
-4,
20,
-7,
-5,
12,
10,
2,
-6,
9,
12,
15,
-23,
-10,
23,
-15,
2,
-16,
-6,
2,
-22,
0,
6,
3,
-2,
8,
15,
-2,
3,
7,
-8,
1,
15,
-21,
16,
-6,
28,
36,
19,
2,
3,
23,
-11,
13,
27,
16,
-4,
9,
-1,
-12,
30,
-7,
23,
-11,
25,
-22,
3,
1,
-2,
-22,
-15,
18,
17,
-22,
-8,
-28,
25,
10,
27,
-6,
-6,
31,
4,
10,
1,
-1,
12,
-18,
-1,
7,
-2,
9,
12,
-5,
-15,
13,
25,
5,
5,
-23,
-17,
31,
5,
12,
12,
9,
9,
8,
0,
12,
-4,
16,
-11,
-18,
4,
19,
-7,
-10,
23,
4,
1,
16,
11,
26,
9,
-10,
8,
-15,
-15,
9,
15,
5,
3,
10,
-10,
-5,
13,
-18,
9,
12,
-1,
13,
-19,
28,
-1,
24,
21,
-11,
-21,
-28,
6,
-18,
3,
12,
3,
13,
-19,
-37,
14,
-7,
16,
10,
-10,
-16,
2,
0,
-28,
3,
-17,
-20,
-35,
18,
12,
10,
-22,
-16,
7,
-6,
-36,
13,
-16,
6,
5,
-33,
-7,
-1,
-17,
-23,
-9,
-5,
-21,
-18,
4,
-23,
-30,
-36,
27,
-12,
12,
16,
-8,
-30,
-16,
10,
-12,
-33,
-26,
-28,
24,
-7,
17,
9,
-6,
-4,
16,
-19,
-17,
-24,
-23,
-7,
-21,
-8,
-22,
-20,
1,
17,
-1,
26,
27,
-11,
-11,
4,
-25,
-35,
11,
-19,
12,
-29,
-29,
20,
14,
-8,
10,
11,
25,
30,
17,
-16,
-1,
28,
30,
-18,
-14,
-12,
-5,
-25,
-1,
30,
28,
-15,
19,
29,
-30,
5,
27,
35,
-32,
-22,
21,
2,
18,
-12,
28,
15,
-9,
14,
-28,
-14,
5,
-16,
-25,
-19,
-14,
-7,
-18,
-28,
11,
16,
0,
19,
-30,
26,
-16,
3,
29,
-12,
8,
-29,
22,
-23,
-14,
-27,
13,
-5,
-28,
21,
25,
-29,
-16,
-21,
-17,
16,
-27,
10,
14,
13,
0,
-34,
9,
-26,
26,
-34,
14,
-13,
16,
-3,
-21,
-12,
0,
-33,
-8,
1,
0,
-13,
-22,
17,
-14,
-4,
23,
20,
8,
-22,
-26,
-18,
31,
4,
-11,
20,
28,
23,
-9,
7,
21,
18,
-15,
-20,
26,
1,
-19,
27,
-26,
24,
5,
-10,
-21,
-16,
10,
33,
26,
13,
31,
5,
-1,
37,
41,
-10,
-5,
-20,
31,
5,
-29,
-27,
28,
-18,
31,
11,
12,
-1,
-19,
-14,
-5,
-26,
-11,
6,
18,
33,
17,
-10,
-1,
-16,
-6,
20,
22,
-4,
-20,
18,
5,
-19,
1,
19,
7,
-19,
6,
29,
8,
-3,
12,
-20,
-5,
-6,
2,
44,
15,
19,
-24,
2,
-21,
13,
7,
-12,
9,
14,
4,
-26,
-15,
2,
17,
-5,
0,
21,
-20,
21,
30,
26,
26,
-25,
20,
-4,
-12,
15,
-16,
-9,
10,
-16,
-8,
3,
-13,
11,
28,
19,
30,
18,
-3,
17,
-12,
16,
-23,
-16,
-18,
-24,
-34,
-14,
19,
20,
0,
13,
15,
-34,
-17,
-31,
-12,
-22,
7,
-15,
-27,
-45,
13,
-2,
14,
9,
9,
-16,
-4,
14,
-16,
11,
-15,
11,
5,
-23,
9,
-15,
19,
18,
-16,
-33,
-22,
-22,
5,
17,
-16,
-17,
-1,
7,
20,
-14,
18,
19,
3,
29,
-26,
-25,
-12,
25,
-28,
19,
3,
-4,
-11,
-13,
-31,
26,
3,
-2,
-24,
10,
-16,
-12,
-22,
-27,
0,
-24,
21,
9,
-16,
1,
-18,
18,
-1,
-13,
19,
20,
28,
4,
2,
-33,
-33,
3,
-33,
14,
-22,
-14,
3,
9,
-14,
9,
17,
16,
-29,
21,
19,
-29,
6,
-33,
-32,
-2,
7,
-27,
-17,
-24,
-3,
-22,
22,
-1,
14,
-6,
5,
15,
-6,
24,
-34,
-11,
19,
-17,
-5,
23,
17,
27,
15,
-27,
-22,
6,
-6,
-3,
-19,
15,
9,
8,
21,
-18,
21,
11,
6,
-2,
36,
-2,
32,
12,
-17,
3,
28,
31,
31,
-8,
-10,
-5,
28,
32,
9,
-12,
-22,
-18,
33,
-23,
34,
14,
-31,
-15,
-23,
8,
14,
-29,
-13,
-23,
-14,
25,
-2,
10,
-5,
9,
19,
28,
12,
30,
-7,
-27,
17,
-16,
2,
-10,
4,
-3,
-23,
21,
11,
-17,
13,
4,
5,
-14,
-23,
21,
29,
17,
-5,
20,
11,
0,
18,
22,
14,
30,
5,
43,
-16,
12,
11,
-31,
-25,
27,
-9,
-18,
11,
12,
27,
-19,
25,
-26,
28,
11,
-18,
12,
-31,
-9,
-28,
-11,
-24,
-17,
-21,
-25,
34,
9,
-10,
21,
-7,
-21,
14,
-23,
-11,
28,
20,
31,
0,
-16,
38,
-16,
22,
10,
11,
21,
35,
17,
3,
33,
-2,
27,
32,
6,
-18,
46,
24,
-13,
30,
12,
-18,
-3,
0,
15,
0,
19,
13,
34,
7,
-19,
35,
-15,
24,
32,
23,
5,
8,
-24,
-7,
17,
31,
33,
-22,
15,
18,
2,
6,
17,
-49,
27,
32,
-19,
6,
38,
6,
-11,
-9,
26,
11,
14,
40,
-17,
9,
12,
9,
21,
22,
-31,
20,
5,
-19,
-20,
-8,
-17,
-5,
-10,
-23,
23,
-21,
-6,
-22,
6,
-20,
-29,
-34,
25,
22,
-11,
17,
-5,
21,
24,
13,
-6,
11,
17,
-4,
1,
20,
-15,
-22,
7,
-14,
2,
-25,
0,
28,
-11,
-25,
28,
-5,
-13,
-11,
-7,
8,
-14,
24,
8,
-25,
1,
18,
-3,
-23,
2,
-3,
-28,
-10,
26,
3,
14,
12,
16,
-9,
-17,
-2,
-3,
26,
9,
10,
-13,
18,
35,
8,
38,
12,
13,
4,
6,
-24,
26,
7,
-19,
21,
24,
14,
-24,
-9,
12,
-28,
-5,
4,
16,
-10,
22,
-10,
-3,
11,
-8,
-11,
-23,
15,
2,
-20,
-4,
-26,
4,
1,
-3,
15,
53,
29,
24,
-26,
17,
-10,
10,
-5,
28,
7,
33,
35,
5,
-23,
-5,
20,
-5,
25,
15,
15,
24,
-13,
4,
13,
-34,
-30,
-28,
-11,
-34,
9,
-28,
-12,
-5,
-4,
-3,
-34,
10,
16,
23,
-29,
-27,
19,
0,
10,
-2,
-21,
-9,
-5,
-33,
0,
-24,
4,
-23,
-4,
-29,
9,
10,
-29,
19,
-17,
-24,
-12,
-13,
-12,
-25,
-5,
-24,
14,
15,
12,
-16,
-25,
-11,
26,
23,
4,
-30,
-27,
-31,
0,
14,
6,
12,
22,
-5,
-32,
-13,
3,
24,
-24,
-34,
4,
2,
3,
-18,
-10,
-29,
-6,
31,
-31,
24,
-13,
8,
-23,
27,
-19,
1,
-27,
17,
8,
-31,
13,
26,
12,
-23,
-9,
-20,
-23,
7,
-19,
-20,
-25,
25,
9,
-3,
-23,
-27,
26,
-24,
-16,
24,
-30,
-33,
13,
17,
22,
-22,
-17,
11,
4,
-7,
8,
16,
13,
-12,
25,
22,
34,
3,
29,
31,
2,
3,
-18,
-9,
-22,
-11,
17,
7,
13,
8,
7,
13,
20,
-5,
15,
-24,
13,
26,
1,
-27,
2,
18,
31,
26,
2,
13,
-6,
-4,
32,
3,
-15,
11,
8,
32,
26,
-9,
-25,
27,
15,
6,
-8,
-29,
20,
-18,
-1,
29,
-23,
13,
2,
4,
12,
19,
9,
36,
-23,
-19,
25,
-2,
27,
17,
-25,
-8,
-2,
-34,
22,
-8,
-9,
-11,
-16,
-3,
-3,
-21,
-19,
-6,
18,
-10,
-10,
30,
-16,
-2,
3,
-2,
-1,
22,
-1,
-16,
27,
-22,
-3,
-6,
-7,
-4,
3,
-5,
11,
24,
-8,
37,
4,
17,
-2,
46,
35,
26,
-22,
-50,
-9,
13,
-8,
4,
-15,
-18,
12,
-5,
-5,
20,
-26,
-18,
26,
-6,
36,
-4,
-5,
27,
27,
2,
6,
-10,
-8,
0,
21,
10,
-3,
38,
39,
58,
54,
22,
-20,
24,
-14,
25,
-36,
31,
41,
4,
26,
-23,
-17,
24,
-11,
-11,
20,
8,
-22,
-11,
-18,
-42,
6,
9,
-14,
-32,
-4,
-17,
30,
-18,
33,
-17,
37,
-9,
6,
-23,
5,
-58,
29,
3,
-12,
32,
38,
-19,
29,
-37,
17,
26,
6,
30,
-11,
4,
26,
14,
32,
25,
0,
11,
25,
26,
4,
10,
29,
28,
19,
16,
9,
35,
-14,
-31,
-2,
30,
-16,
-12,
22,
-23,
-18,
9,
21,
-18,
-3,
-21,
6,
-22,
15,
-21,
8,
1,
-12,
-33,
-16,
13,
-15,
0,
-11,
-14,
14,
-3,
25,
-10,
-5,
-5,
1,
18,
-5,
-21,
1,
-24,
-6,
-7,
7,
12,
-22,
16,
-6,
-18,
-23,
27,
-9,
-21,
26,
-5,
-20,
3,
18,
11,
2,
7,
-32,
-17,
-9,
-36,
-4,
21,
-26,
1,
-12,
25,
-6,
26,
-2,
-31,
-15,
26,
-31,
-2,
10,
-3,
-12,
-7,
15,
-18,
-12,
-16,
-8,
17,
-13,
20,
-27,
-1,
4,
-21,
-23,
-31,
2,
-34,
-13,
28,
29,
-35,
8,
12,
17,
9,
5,
10,
5,
-16,
12,
2,
-22,
-5,
3,
12,
-3,
12,
-10,
11,
-8,
-4,
0,
1,
30,
22,
-8,
14,
-21,
-5,
-21,
10,
-29,
-20,
30,
8,
29,
-8,
-4,
-19,
-17,
-7,
5,
-13,
-19,
2,
30,
-13,
7,
-15,
18,
13,
27,
-21,
-23,
23,
-18,
37,
-22,
9,
28,
10,
7,
-11,
21,
10,
28,
25,
3,
-19,
12,
5,
-15,
-25,
13,
17,
30,
26,
-6,
19,
2,
34,
24,
-10,
-9,
12,
-2,
47,
0,
34,
9,
5,
20,
32,
33,
10,
-24,
12,
-28,
-26,
-5,
33,
34,
29,
38,
-9,
13,
-15,
-21,
30,
31,
-13,
22,
2,
-24,
26,
-6,
21,
-9,
-17,
12,
-6,
30,
6,
-9,
24,
28,
-20,
-14,
-20,
18,
22,
-22,
17,
26,
-11,
13,
-8,
33,
-9,
6,
3,
32,
0,
13,
22,
33,
16,
-8,
-6,
27,
-7,
30,
-7,
2,
-22,
10,
-23,
21,
14,
27,
33,
-1,
-8,
15,
10,
-9,
32,
-13,
-28,
32,
-11,
8,
-6,
-29,
-5,
-9,
27,
25,
-27,
11,
-4,
9,
-10,
4,
-42,
1,
39,
-9,
28,
2,
-14,
30,
14,
31,
32,
29,
-5,
-33,
8,
-13,
-11,
-15,
-31,
18,
20,
-7,
-7,
15,
1,
-17,
-18,
12,
15,
-7,
-28,
-6,
-26,
-2,
-24,
-3,
-10,
-23,
-8,
-28,
3,
-33,
9,
-2,
20,
-10,
14,
-33,
-29,
24,
-33,
17,
9,
-3,
-34,
-24,
5,
-27,
6,
-20,
-5,
-8,
-19,
-7,
6,
-23,
26,
16,
-4,
-8,
25,
11,
4,
-14,
-21,
-33,
21,
-36,
-24,
8,
5,
-27,
-32,
17,
21,
8,
1,
-18,
-23,
-26,
-8,
0,
20,
24,
-8,
-23,
6,
3,
1,
-35,
-28,
10,
-25,
-4,
16,
-12,
-30,
-33,
26,
2,
-17,
-19,
-11,
6,
29,
25,
9,
10,
-27,
17,
-6,
-22,
4,
-5,
-25,
-12,
19,
-34,
-29,
13,
-20,
-9,
-25,
-20,
18,
9,
-9,
-12,
-29,
-1,
-22,
-2,
14,
-2,
6,
15,
26,
-5,
12,
6,
20,
-15,
-27,
-24,
17,
29,
-16,
-1,
21,
-6,
19,
22,
16,
-18,
15,
32,
-11,
29,
14,
33,
3,
34,
-24,
28,
-1,
-14,
33,
-4,
-13,
5,
-10,
-13,
-22,
-17,
-26,
0,
-19,
7,
-13,
-22,
-28,
-27,
2,
28,
35,
32,
31,
-24,
-28,
-25,
28,
-3,
-12,
14,
34,
-12,
4,
-10,
32,
-1,
-29,
35,
0,
15,
-9,
11,
-10,
18,
10,
14,
32,
-20,
-9,
-12,
18,
-27,
14,
4,
17,
14,
-5,
1,
8,
26,
15,
-8,
15,
-14,
-8,
-18,
-11,
29,
24,
25,
35,
-6,
-27,
22,
7,
-25,
-1,
-23,
-7,
-21,
-16,
29,
25,
1,
-21,
-8,
-18,
20,
-21,
-3,
13,
2,
-2,
17,
-12,
21,
-18,
-16,
-9,
24,
17,
-26,
-9,
22,
-28,
-25,
1,
-31,
-36,
21,
-17,
0,
19,
-16,
-1,
-8,
-3,
-17,
2,
-13,
19,
-21,
23,
19,
-25,
-7,
14,
6,
20,
-22,
18,
17,
-3,
-14,
11,
-13,
13,
25,
-9,
10,
1,
12,
28,
-29,
26,
-22,
1,
10,
-23,
-24,
21,
14,
-26,
0,
-15,
14,
9,
10,
-12,
-13,
5,
20,
-14,
-26,
-37,
-26,
-1,
9,
15,
10,
-31,
0,
-18,
-24,
27,
-5,
8,
15,
-9,
-33,
46,
0,
3,
-20,
-25,
-10,
-30,
35,
15,
-6,
-15,
-4,
-41,
2,
20,
-32,
-2,
-23,
-15,
22,
26,
7,
-31,
17,
-14,
2,
-52,
-24,
14,
-11,
2,
5,
-27,
18,
-32,
-14,
30,
26,
21,
-15,
0,
29,
-8,
-17,
16,
7,
13,
29,
-8,
-13,
-17,
18,
26,
8,
-21,
-1,
-24,
0,
14,
-16,
20,
-25,
-22,
-1,
-17,
23,
0,
5,
9,
-21,
14,
13,
16,
31,
8,
5,
-23,
16,
-28,
17,
-7,
27,
29,
-17,
-11,
35,
17,
-29,
12,
12,
29,
-10,
7,
17,
-5,
13,
-9,
-5,
24,
26,
-12,
-11,
30,
6,
-28,
5,
32,
-34,
-2,
-16,
12,
4,
-6,
6,
-6,
27,
13,
22,
-1,
15,
-22,
23,
-15,
21,
-37,
10,
-28,
-3,
6,
4,
-18,
-24,
17,
-2,
-10,
-33,
18,
-35,
-22,
-37,
8,
-27,
-26,
-13,
28,
11,
5,
8,
11,
-9,
-33,
24,
-20,
-20,
-5,
22,
-18,
-3,
-25,
20,
-24,
-26,
3,
21,
16,
-5,
13,
-23,
-9,
-32,
13,
1,
1,
-19,
-5,
9,
23,
2,
-21,
-9,
-22,
-2,
5,
0,
-21,
35,
-23,
13,
-15,
23,
22,
27,
-16,
-17,
-20,
-29,
-10,
-11,
-26,
-16,
-15,
26,
-9,
-12,
-6,
-10,
25,
2,
22,
-14,
-29,
23,
9,
-17,
24,
-2,
18,
14,
7,
24,
-27,
12,
15,
17,
-29,
-31,
-13,
0,
-12,
28,
30,
9,
-6,
7,
-9,
-28,
-33,
-25,
-9,
23,
-35,
24,
-21,
-23,
-14,
0,
-22,
10,
-17,
17,
8,
-33,
-31,
0,
-20,
-13,
-7,
5,
14,
-29,
15,
-23,
-22,
-21,
1,
-2,
-10,
13,
-27,
-2,
16,
0,
7,
12,
-10,
23,
-19,
13,
21,
28,
2,
14,
-20,
-12,
9,
-9,
-28,
-35,
18,
-33,
-27,
-22,
9,
23,
-1,
17,
21,
-17,
19,
-2,
18,
-27,
21,
29,
-15,
-10,
-24,
35,
-6,
-15,
9,
-27,
-22,
37,
13,
-4,
7,
-17,
17,
25,
-23,
2,
-20,
37,
39,
-33,
-11,
12,
7,
-4,
0,
6,
5,
-9,
14,
32,
-16,
-15,
14,
1,
26,
4,
-25,
-11,
-30,
32,
38,
36,
-13,
-18,
-16,
50,
12,
-30,
26,
-10,
-17,
-22,
-49,
17,
-39,
-22,
-28,
34,
-38,
3,
-7,
23,
23,
-10,
-37,
25,
25,
9,
-3,
32,
-40,
8,
47,
62,
30,
29,
-6,
43,
32,
1,
-14,
-22,
31,
31,
-38,
-57,
27,
-6,
28,
7,
-25;
