0018
002B
0018
0023
FFD5
0031
0011
FFE2
FFE0
0011
FFDF
0033
0029
001A
FFDF
000B
002C
000B
0008
0008
FFD5
0038
002A
000B
0013
FFD6
FFE0
FFDD
002B
FFD3
FFE9
FFEE
000A
002D
FFD9
0000
FFDD
0016
000C
000A
FFE4
0012
FFEB
FFFB
0002
FFD5
FFE8
FFD5
0036
FFE6
0013
001E
0032
001C
0033
FFEF
0009
FFEC
0017
0030
0023
FFDC
000C
FFFF
0014
FFE8
0000
001B
FFED
0027
0034
FFFF
FFFC
000E
002E
FFF1
0028
FFEA
002C
FFD0
FFD4
0016
0004
FFDE
001B
001D
001B
FFEA
FFE9
0001
FFD1
FFD6
0002
FFD9
001E
0027
0034
0031
002F
FFEB
002A
FFE4
FFFD
FFDC
0009
FFDA
FFE8
000E
FFD5
0034
000B
001A
0037
000C
0022
0018
FFE1
000C
0006
0030
FFD7
0001
0009
FFFC
0028
FFE2
001E
FFFD
0016
FFD1
0009
0008
0010
FFFF
FFCE
FFD6
FFFB
FFE5
FFE2
0016
0017
FFF2
001C
FFEB
0032
0021
0001
0035
001B
001E
FFEC
0023
FFD1
FFE8
0012
002B
0007
0038
FFF1
FFF9
0038
0034
0012
FFE7
FFFB
FFDD
FFED
0002
FFE7
0020
002E
002A
0029
0028
FFED
000F
FFD8
0027
0028
FFE6
000C
0021
0030
0037
000A
0023
002A
FFD2
0030
0031
FFF9
FFDC
000C
FFD8
0019
FFE9
FFD5
FFD9
FFF4
FFDD
FFD9
0012
000F
FFE4
FFE2
FFCD
FFF3
FFDB
0017
0026
FFD4
0006
0030
0032
FFEE
FFE6
0025
0015
FFFD
0017
FFE0
001E
FFEA
FFF0
0018
FFDF
0035
002D
FFE1
FFFD
0030
FFEF
FFF9
0026
FFFF
0022
0017
FFE5
FFDD
0024
0018
FFFC
0033
0034
FFEF
0033
FFE2
FFE8
FFF6
000B
FFEB
001B
FFE7
FFDD
0015
002A
FFFB
FFEE
FFE1
0024
FFD2
FFF5
0033
FFDF
FFF0
FFD6
001C
000E
FFD5
001A
0004
FFD4
001F
0028
0008
0004
0029
FFE0
0001
FFF3
0019
FFE2
0021
000B
FFDE
FFE1
FFF7
FFF2
0030
0013
FFF7
FFDF
002D
FFE6
0031
FFFA
0031
FFCA
0002
FFD2
000E
FFF5
0009
FFCC
0029
FFED
FFE0
FFD0
0021
0006
FFFD
FFFC
FFF8
001F
0023
0007
0022
0017
FFE1
FFF7
FFEC
FFE9
FFF8
0020
FFEF
FFE9
0024
002F
002D
000C
002B
0006
0023
0006
0003
001F
FFE6
001A
0019
FFD9
FFE8
0024
FFE2
0035
001B
FFD8
FFFC
0003
FFFE
FFD0
FFE2
0030
FFF8
FFEF
0019
0031
FFDF
0009
FFCF
002F
0018
0003
0010
FFCF
0012
FFCA
FFE8
FFF3
002D
FFE4
FFE9
FFD8
001D
FFD3
FFE6
FFE0
0005
0022
FFEA
0026
FFF8
0028
FFE6
001E
0014
001D
0016
FFDD
FFDF
FFD4
0000
FFEC
FFFD
0021
FFDF
FFF8
0004
002C
0033
0033
FFFC
FFDB
FFFC
FFD7
000F
FFFC
FFF9
FFEA
FFDE
0021
FFFF
000F
002A
0010
FFE0
000B
001E
FFD8
FFE4
002F
0034
FFF7
002B
FFFE
0009
0035
FFE9
001F
0012
0001
0026
002D
FFF2
000D
FFF7
FFE0
FFF3
FFE9
FFCD
FFCD
0004
FFF7
0013
0028
FFFA
FFE0
0013
0002
FFC9
FFED
FFE4
FFEA
FFF3
0030
FFD9
FFEA
FFEF
0011
0016
0018
0005
0011
000C
FFFF
0021
FFEF
0001
FFF5
FFDD
FFD0
001B
001E
FFD7
0022
0028
002D
FFCC
0027
0025
002E
0000
0018
FFF9
FFF6
FFDD
FFD6
0023
0030
FFEC
FFF5
FFFA
FFD9
FFDB
FFDF
FFF9
FFDC
0034
0004
FFEB
FFEB
FFE0
FFFB
000E
0003
002D
0003
FFE0
FFCD
0034
002D
FFCF
002C
FFF9
FFD8
FFFA
0016
0009
FFDB
FFEE
FFE5
FFFA
FFF0
0022
FFE1
000C
FFF2
0014
FFD6
002A
0013
FFD8
0023
0016
FFD1
0028
0014
FFEC
001A
0018
002F
FFFC
FFEE
FFEF
0015
FFEC
000E
0036
FFDC
0023
000C
0016
001A
000D
FFF6
0022
FFF3
002A
0013
FFE5
FFDE
FFE6
0032
FFE7
0015
002C
FFE8
0017
FFF7
001F
FFDF
FFF4
FFE8
FFF7
0008
FFDF
002E
FFDB
000B
FFEF
0005
FFEC
FFDA
0022
FFD4
FFF8
0030
FFD2
0034
FFE5
0030
0022
0034
000B
FFD3
FFFF
FFDD
000B
FFFA
000A
0027
0011
FFEB
002A
FFDC
FFDE
0014
0027
000E
000A
000C
0033
0033
FFED
0009
FFEB
FFE2
FFD0
FFF3
0028
0029
FFD3
001E
0003
0032
0001
0036
FFE1
0034
FFE4
0031
0011
0021
0030
FFE2
000E
FFD7
0004
0033
0021
0004
FFED
FFE0
0019
FFE5
0002
FFE7
0018
FFD2
0017
FFFE
0016
FFE3
FFE6
0013
FFD5
0033
FFE4
FFF1
FFE8
FFDC
0034
001A
FFD3
0008
0009
FFE8
002F
0024
0035
0019
001A
FFE5
FFFF
FFFE
000A
0014
002C
0022
0034
0031
FFEA
FFE4
FFED
002D
000C
0019
FFEF
FFF0
FFD1
001F
FFDE
0001
FFDA
FFF2
0022
0025
FFCE
000D
0008
000D
FFDC
0002
0020
0001
FFDA
001F
FFE1
001B
0012
0018
FFDE
FFCC
FFE7
0019
FFD3
FFEA
FFF2
FFED
0024
000D
FFF0
FFEB
0005
0007
0000
000E
0015
FFEE
FFF1
000D
0024
001C
0018
FFEE
000A
0015
000D
0007
FFCA
FFF2
FFFF
002B
FFCE
FFE2
0000
FFEB
FFD6
FFE3
FFF3
FFCC
FFF2
0020
001B
0024
0027
FFD3
0026
0017
FFF3
0015
FFFA
FFFB
FFF5
0019
002E
0009
FFC8
000E
FFFE
FFDA
FFF5
FFDA
001C
FFFC
FFEA
0030
0009
0017
0036
0014
FFFB
FFD4
0004
FFD3
FFD1
001E
001B
FFD2
FFFA
FFE4
FFE0
FFED
002E
FFF2
0031
FFD7
FFE8
FFE6
0018
0021
001C
FFF0
FFF4
FFD9
000D
0030
FFDB
0001
0020
0004
FFDA
0020
0028
0001
FFFF
0012
002D
FFEB
0022
0005
000F
0010
002F
0011
FFD7
0001
0001
FFF5
002C
0029
000A
FFEB
0013
0013
FFFF
FFD8
000B
0020
0028
FFDA
FFF7
FFD7
FFFC
FFD8
0022
FFE5
001E
FFD4
0024
0014
FFD2
FFFE
0029
FFCC
000C
FFF5
FFEF
0022
FFCE
0025
0007
FFE0
FFE0
FFEF
FFE2
0023
0017
002E
0007
FFF4
002A
FFD4
FFE6
FFE1
FFDA
0001
001F
FFF1
002A
000E
FFD7
001E
FFF0
001D
002E
002B
FFE8
0002
0018
000D
FFDE
0006
0001
0014
0023
0010
002E
0012
FFDC
FFE6
0002
002E
FFEF
0033
FFF6
FFFC
0008
0030
FFF7
0009
000B
0011
FFF2
FFF9
0010
FFF3
FFE5
0017
FFCD
002B
FFFF
0021
0006
FFD7
0007
0010
FFEC
FFF1
FFED
0030
FFF0
FFEE
FFED
FFDA
002A
000C
FFE4
FFF8
FFFC
0000
FFD5
FFEB
FFFE
0009
0020
FFE0
FFCB
0001
FFFE
FFFD
0023
FFF0
FFFB
0008
FFF0
0007
000D
FFE9
000B
FFF9
FFCD
FFCE
FFEC
FFE7
0027
FFEA
FFD7
FFEF
0026
FFDA
002D
FFCB
FFF3
0002
FFEE
002B
FFD8
FFE9
0020
0004
FFE8
0022
FFF2
002D
FFDE
0014
FFDE
FFD0
0002
001E
FFFA
FFF3
0019
0001
002A
FFFC
0025
0010
0025
FFDC
FFF9
0032
FFE3
FFE1
FFE1
001C
FFDB
000B
FFCD
FFF7
FFF1
0004
0033
FFDB
0028
FFEA
0015
FFFA
FFF5
0004
0005
0025
0020
0027
0013
002E
0031
FFF5
002B
000F
FFF8
FFF7
FFE6
FFF3
FFF3
0022
000C
0019
0017
FFFB
002B
FFFE
002C
0033
0005
0006
FFFD
0009
FFD3
0030
FFE4
002F
0034
FFE6
0029
FFCF
0013
FFE2
001C
FFD8
FFD4
0017
FFC8
FFF6
FFDF
FFF2
0003
0021
0020
FFF2
002A
FFCD
0005
0025
0006
0024
FFE0
FFCB
0007
FFFE
002F
FFFC
FFEE
0005
002D
FFE6
FFFF
FFEC
002B
002D
0001
FFE5
FFDC
FFDC
0008
FFE3
FFE7
0002
FFD9
0016
FFE2
0024
002E
0007
FFFC
FFD4
FFD9
FFFB
FFF2
000F
FFD4
FFF8
0013
0016
FFFC
FFF5
0033
FFD9
0018
FFED
0009
0001
0016
FFE9
FFED
FFF4
FFF1
FFF6
FFFA
FFF7
FFFA
0036
FFF3
002A
FFE3
001C
FFD1
0002
002F
0027
0029
FFEE
FFE3
0014
0034
0002
FFDB
FFF3
0026
FFEF
FFF6
0024
0005
0018
FFE7
FFD4
FFED
FFD1
FFD9
0008
0005
000E
000E
002B
0014
001C
0019
002B
FFF4
0009
FFF2
002C
0017
0005
0001
FFE1
FFEA
0006
0017
000D
FFF4
FFD5
FFEE
0029
FFD9
0018
FFD9
0005
0015
002A
FFDC
FFEC
000B
001B
001E
0014
0012
FFEA
0012
002A
FFD2
FFCE
0018
002D
0029
002E
FFD6
FFD3
FFF6
FFE5
0025
0018
FFDB
0003
0022
0005
0002
FFD8
0017
0009
0000
001A
0008
0024
0006
FFDB
002A
FFCC
0011
FFFE
FFD3
FFD0
FFFA
FFF3
FFFD
FFCF
0025
001C
FFDA
000E
001E
0019
0000
FFE6
0001
FFF8
FFEA
0014
FFD6
000D
000A
FFE9
000D
0022
0020
000F
0010
FFEC
0011
001A
0002
FFFE
002B
FFFC
FFFA
FFF7
FFE5
FFF3
FFF7
FFD4
0004
FFE6
FFE4
FFE2
0022
FFD8
FFDB
001E
FFEB
FFE6
FFF2
0019
FFE0
FFF1
FFFD
001A
FFDA
0011
FFD7
FFF5
001F
001F
000B
0015
002D
FFDE
FFD4
0027
FFD1
FFDF
0020
FFD1
0021
0003
0026
FFEA
FFFA
001F
FFD4
FFF1
0031
FFD2
002B
0022
0014
FFF7
000B
FFD9
002F
0035
001D
FFCF
FFD6
000E
001D
0033
0012
0014
0002
0031
FFF8
FFCB
FFD2
0004
0024
FFF4
FFFA
0003
0015
FFF0
FFF5
0016
002C
FFFD
FFE0
0003
FFF5
FFF6
0035
FFDC
0002
000B
0035
0017
0011
FFE1
FFFA
0031
FFE4
0007
FFE5
0017
FFDE
FFD4
0013
FFEA
FFD2
0010
0000
001C
FFE3
0031
0026
0011
0022
0034
001D
0025
FFFC
001B
FFFB
FFEB
0011
FFE0
0029
0001
FFE0
FFDF
0004
FFE4
000D
0013
0026
0028
0008
000C
0028
0001
0008
0028
FFC9
0027
FFCA
0000
FFEE
0008
FFF2
0015
FFF5
001E
FFEC
002B
FFF2
FFE8
FFDD
0020
FFD6
FFFA
FFD9
0033
000D
000F
001E
0017
0008
FFDB
0036
0026
0036
FFDC
0035
0029
FFD3
FFF2
001D
0018
0014
0009
FFE9
FFFD
FFCC
002D
0011
000E
FFD6
0027
001C
FFE5
0030
FFEA
FFF5
FFD2
0011
FFE6
FFE3
0027
FFEA
FFF9
FFD6
0021
FFD8
FFDA
0018
002D
FFEE
FFE2
FFFE
FFE5
FFD0
FFED
FFE9
0033
FFEC
0026
FFF0
FFCD
0028
0001
0021
0014
FFFF
FFE9
FFDF
FFCE
0012
0002
FFF1
0003
FFDC
000C
0028
000C
0001
FFCC
FFDB
0017
0014
FFE0
000F
0015
FFF4
FFF1
FFDA
FFD0
FFE4
FFE9
FFF0
0022
0004
FFD6
FFDC
FFD9
FFFE
0019
0029
0009
FFE0
FFFB
0029
0023
0032
0021
0027
001C
0000
FFDE
FFDA
0008
FFED
002B
0030
0025
FFEA
0032
0025
FFF9
0038
FFFF
001F
0030
FFF5
0014
FFEA
FFE1
0013
0033
0002
0035
0013
002D
FFE9
000E
FFEB
0032
0017
FFEA
FFE5
0025
000D
FFD6
0008
0028
0021
FFEE
0006
001A
0007
FFFD
FFE3
FFDD
001A
FFF3
FFC9
FFC9
002C
FFCE
FFE6
FFE5
FFCB
0023
0002
FFF5
0024
0013
FFDD
002A
FFD9
0022
0004
0014
FFDD
000F
001D
FFE3
FFCE
FFCE
0025
FFFB
FFDE
FFE0
001F
FFDD
0001
0012
0020
FFF8
FFD6
FFFE
FFEF
FFD9
FFFF
0017
0038
FFD1
000D
FFE0
002F
0033
0034
FFF3
001A
002C
001B
FFD7
FFDD
000F
FFD2
FFD3
FFD2
0028
FFD0
FFD1
0024
002D
0027
FFE4
FFE3
0034
0023
000B
FFEF
0008
0019
0025
FFD1
001C
0024
FFF2
0026
0004
FFFE
0025
FFFE
002C
000D
0015
FFFC
FFE4
0034
0003
0028
0000
0024
000A
0031
001C
0005
000E
FFF7
FFD3
FFDF
0015
FFF6
FFED
000C
000F
FFF6
FFFB
0027
0010
FFCC
0031
FFEA
0019
FFD8
FFFE
FFCE
0006
FFF1
0008
0022
0019
FFCF
FFD6
000B
FFE9
0028
FFF7
0022
0012
0029
FFDF
0008
0005
FFDE
0028
FFD6
FFDB
FFF8
0007
002C
0015
FFE2
000E
FFFC
0031
001A
0011
FFF3
002E
FFD5
0019
000E
0013
0008
002D
FFE5
0007
0013
FFD6
FFF7
0030
001C
0037
FFE3
001B
0000
FFF0
0012
002C
0019
0016
0024
0000
001F
001A
0004
FFE2
0030
FFE0
0035
0000
FFFD
FFE7
002B
FFED
0019
0013
0012
002D
002C
FFF5
0024
0015
002A
0006
0015
0000
0010
FFE7
0020
0021
0002
FFD7
0038
001D
002D
FFD9
FFE3
002B
FFE4
002C
FFDB
FFCE
002F
0020
FFDA
0022
0002
0031
FFC9
FFD8
FFF1
FFE7
0011
FFF9
0028
000A
FFEB
000E
FFFF
0026
FFCD
001D
FFE3
FFEE
000A
FFDA
000B
FFFB
0010
0009
FFF5
FFE0
0006
0006
FFCF
FFFC
0008
FFFE
001E
0022
FFEC
FFFD
FFFC
FFEC
000E
FFEE
0017
001B
002A
FFD6
0005
0012
0004
0020
0017
FFD7
FFFD
002B
FFFD
0027
FFD5
002F
FFE5
0034
FFE7
0008
0026
FFF1
FFD4
0019
0010
FFEE
FFD7
FFF3
0001
FFDD
FFD4
FFD4
002D
0001
FFD0
FFCA
002D
FFCF
0000
0012
0030
FFCE
FFE6
0027
FFCE
FFDC
0005
0025
FFFA
000A
0001
FFFB
0012
FFD7
FFF7
FFD1
0013
FFD9
0017
002B
FFFB
0007
0015
0022
0019
FFEA
002B
FFFC
FFE5
002C
FFD9
FFDE
FFE4
FFCF
FFE8
002D
0006
0029
FFF3
0028
0035
002C
FFD4
000B
001C
0017
0031
FFF3
0017
0024
000C
0032
FFE6
000A
001D
002D
FFF5
FFF7
0028
FFD1
FFE5
000C
0027
001D
FFF6
0035
0009
0011
FFDE
0005
FFEE
FFFA
0008
0021
0009
0031
0029
001C
0015
0002
0010
001B
FFE7
000D
FFEC
0023
001A
FFFD
FFE6
002F
0021
0027
FFEE
0015
FFD4
FFDF
0028
FFE2
FFD9
000E
000E
0005
FFEC
FFF8
001F
0013
002E
FFEF
000A
FFD0
0014
FFF8
0004
FFD8
000A
FFE4
FFD9
001D
0027
0033
0005
FFF8
0018
0021
FFD4
FFEB
0038
0014
0019
0001
FFE4
FFDA
FFDB
FFFE
0020
001E
FFFF
FFE3
0018
FFE4
FFE8
FFDB
FFE4
FFDB
FFFC
FFD7
0021
0000
001D
FFDA
FFED
FFD2
001A
0014
002D
0025
FFD6
FFF3
FFDC
FFF3
FFD5
001A
FFD1
001E
000D
FFF7
FFEA
FFE7
0022
0023
000D
0030
FFFB
001D
FFD5
001F
FFD1
FFD3
FFF1
0006
000B
0037
0018
FFE9
000C
FFDC
0035
FFDA
002E
002E
FFF1
FFEE
FFFC
000F
FFF9
FFF3
001D
0010
002C
0006
FFEC
FFF1
FFFD
FFF7
0017
FFDC
FFEF
0031
002C
0035
FFD9
0019
FFF3
0017
FFE6
FFD0
FFE1
FFD0
FFEB
0024
FFD4
002F
FFD5
FFDD
0004
FFD8
002B
FFD2
FFD0
FFE8
001E
0016
0028
0020
FFFB
0011
FFD4
0028
0030
0034
000E
FFD0
FFF4
000E
FFD5
FFFA
0004
FFDE
002B
001C
0018
FFF6
FFD8
FFF2
0022
FFD2
FFCD
0031
FFCA
FFEB
001C
FFF6
0012
002E
0019
FFCD
0019
FFDA
FFDB
0032
FFF6
FFD4
001F
0029
0035
FFE3
001B
002E
FFE1
FFF8
FFF1
001F
FFD5
FFF2
0028
FFE7
FFE0
0023
000A
FFDE
FFE5
FFD9
FFD2
001C
001B
0029
FFD3
FFDC
002D
002E
FFFF
FFFC
FFE6
0017
0021
FFFD
FFDF
0027
FFE2
FFD7
FFE3
000C
FFD9
FFEC
0029
FFF2
0003
FFFA
FFE2
0014
FFD3
0017
FFDC
0022
FFFE
FFD0
FFE0
FFCD
FFE2
0019
0008
000C
FFEA
0024
FFF4
000B
0024
001E
0029
FFF1
FFEA
0001
FFDB
FFD9
FFDD
FFCE
001C
001F
0029
FFE6
FFD4
0031
FFE8
FFCE
0004
FFDC
FFD3
FFE1
0014
FFF3
FFEB
FFE5
FFF8
FFF4
0001
FFF6
000A
FFDB
FFF4
FFEA
002E
001A
0008
0000
FFF8
FFD8
FFF0
0013
FFF7
FFD6
FFDD
002A
0005
FFEA
001A
001C
FFDC
0012
0017
0015
0011
0011
0010
FFF4
001E
001A
FFFE
FFE6
FFCD
FFFF
FFDC
FFD7
FFD4
FFE7
FFF9
0016
000E
FFCE
000B
FFFD
FFCF
0029
FFF9
FFE4
0013
000F
FFDC
FFF2
FFE1
0012
FFE1
000E
002F
FFDB
FFF1
FFF0
002D
001B
FFF5
002C
FFE7
002B
FFED
FFEB
FFCE
FFDD
0010
FFE4
0006
FFFC
0000
0010
FFC9
FFDB
002F
FFD1
FFEB
0027
FFD9
FFFE
000B
FFCA
FFE9
002F
FFED
002B
FFF4
0026
FFDA
FFEF
FFE3
FFD5
FFEC
FFF1
FFDF
0012
FFD3
001A
0007
000A
FFF7
FFCD
0015
0007
FFD7
FFDE
FFE6
0029
FFF7
0023
FFD1
002A
FFE1
0006
0008
0012
FFD6
FFF3
FFD8
0020
002A
FFE6
FFE6
FFCB
0016
FFE2
FFEE
0014
FFE1
002D
FFE3
FFF0
0012
001E
000F
0029
0010
FFE3
000F
FFD6
FFD5
000C
001D
FFE4
0011
001B
FFD4
FFE9
FFDB
FFED
000B
FFDB
FFE8
FFDE
FFE7
FFDF
FFE6
FFEB
FFE5
0007
0028
0020
FFE3
0027
FFF7
0011
FFF3
0003
FFD1
001F
FFF4
FFCB
FFCB
FFEC
0030
FFD8
FFEB
0002
0024
FFDF
FFDF
FFDC
0003
001A
0017
0004
FFEE
0002
FFF2
0010
FFE2
FFFE
FFD9
002A
FFCD
002B
0014
FFE3
FFD3
FFCE
FFD0
0000
000F
FFCE
FFDD
FFFC
0025
FFFF
FFE0
FFD6
0008
0014
FFED
FFDB
FFED
FFE0
FFE3
001B
FFCB
0001
002E
FFF4
0022
002E
FFD2
FFFC
FFF4
FFD9
002C
FFEF
0009
0003
FFFE
FFDA
FFD4
FFD1
0029
0025
FFF9
FFDC
FFEA
0000
0002
0027
FFE9
0001
002A
0030
FFCF
FFEA
000D
0009
FFFA
FFDD
0028
FFE7
FFE3
FFD2
FFDB
0029
0013
FFD5
FFD1
FFD5
0036
FFD7
000E
0031
0003
FFDA
0033
FFE0
FFD4
FFFB
002E
FFF2
FFE7
0031
FFD6
000D
0005
0031
0019
0036
0032
FFE3
FFEA
0021
0025
FFFC
FFE8
0004
001A
FFE3
FFFB
FFF2
002C
FFF4
001A
0011
FFEF
0015
FFE1
FFDF
FFD5
0030
0020
FFF9
FFE0
FFD5
0007
FFE4
002E
000F
FFF3
FFEA
FFE8
FFE3
FFFA
FFEE
FFD5
002A
000B
0010
FFD8
FFDB
0006
0000
FFFB
0025
0037
001D
0022
0037
FFD4
FFEB
002E
FFD4
0002
FFF7
0020
FFF4
FFE9
0010
0038
0034
000F
001B
FFD8
0003
0018
FFF5
0000
0006
0034
0009
FFE6
FFD9
0022
FFEA
FFDA
FFFB
FFF1
0025
0031
FFDF
0026
001F
FFDE
FFF8
000C
0016
FFEB
002E
FFD4
001E
FFD7
0009
0026
002A
FFDA
0023
0016
002A
0010
0028
001E
FFF8
0029
FFED
FFEE
FFF6
FFE1
FFF7
FFD1
0023
0033
FFE4
FFE0
FFD1
FFE8
002B
0008
0037
FFFA
FFD3
0014
FFF2
FFE0
FFCF
000C
FFE8
001C
FFF6
001B
FFFD
FFF9
FFDD
FFEC
FFE2
002E
001C
002C
002B
000D
000A
FFE3
001D
001F
001A
FFE6
FFFA
FFF6
FFE8
0026
0009
FFFC
0025
0023
FFD0
0007
FFE3
FFF5
FFFE
0028
FFFE
FFFC
0029
FFEE
000E
FFE6
FFED
FFDC
0011
001D
0005
0013
0020
FFF2
FFE1
000B
002E
FFE8
FFF1
0032
FFDD
FFE9
FFF7
FFEB
0010
FFFB
0029
FFF3
0002
0031
000C
FFEA
FFF1
FFD8
002C
FFD8
000A
FFE1
000A
FFDE
002C
002B
001A
0003
001F
002A
FFE9
000B
002E
0023
FFF3
FFE1
FFDE
FFF1
002F
FFFC
0023
002C
FFFD
FFEB
0002
0026
0032
FFE7
FFD4
FFF4
FFD4
0032
002E
FFF0
FFEE
001C
FFE9
0033
FFF0
FFDD
FFE6
002F
0001
000A
FFD2
FFE8
0018
FFFB
FFE6
FFED
FFFD
FFE8
FFD0
0014
FFF0
FFCC
FFDA
FFD4
0009
FFF6
FFFE
001D
0005
0014
FFD9
FFFD
002D
001F
FFE1
FFD1
0038
0001
FFD4
FFFB
0027
0024
0001
FFED
FFD1
0025
0037
FFF5
FFDB
FFD6
FFE5
FFF9
FFFB
0033
0037
0019
002B
0015
0019
FFFE
FFCD
000B
FFE5
000C
000E
0006
FFDE
FFF1
0006
FFE0
0004
FFED
0026
001C
001C
0002
FFEB
0016
000C
0019
0005
FFDF
002F
001A
000B
002A
001C
FFF1
000B
FFF5
FFE6
FFF1
FFCE
FFEF
FFE9
FFD4
FFE3
FFF3
FFFE
FFDE
FFD7
0002
FFF0
0018
FFFD
FFFA
FFE7
0013
FFE5
0009
0025
FFEE
002F
0009
0000
FFFA
0008
FFD4
0024
0034
001F
FFF8
FFEA
FFE6
FFF3
001D
0013
0031
0029
FFDA
FFEE
FFD8
0032
FFEB
0002
FFDC
0014
FFEB
FFF4
002C
0010
FFE9
FFDC
0022
0011
0003
FFD3
FFF0
0034
001F
002B
0001
FFF9
0023
001A
001D
FFFC
FFE1
FFD1
0022
0003
FFD2
FFF3
FFE3
FFDA
0026
FFFC
FFE4
000A
0034
000B
0021
002F
FFFC
0016
0032
FFD8
0027
FFFE
FFFF
0035
FFFD
FFE0
FFD6
0013
001D
0000
FFF6
FFEF
0014
001A
FFFA
FFE1
0000
002F
002D
0011
001F
FFF6
0016
FFF3
FFFB
FFE0
001E
0032
001C
0001
FFF7
001E
001B
0009
0024
FFD3
000B
0005
000A
0003
FFCF
0023
002D
FFF5
FFE5
000C
0007
0010
0007
FFE6
0026
0012
0029
FFE5
0027
0006
000D
0020
002E
002B
FFFE
0029
000D
FFDC
FFEA
FFD5
0022
002B
FFD5
0002
0017
002A
FFCD
FFD6
FFE9
FFDE
0014
FFD8
FFEE
FFDE
0013
FFF7
FFD7
FFF8
FFDC
FFFC
FFCE
0017
FFF0
0028
FFE7
FFFC
FFF1
000A
FFF6
FFF1
FFE6
0011
000F
FFE3
FFD7
0008
0009
FFF2
0027
0034
0028
0019
0003
0016
FFF2
002D
0002
0018
0013
FFEA
002C
FFD0
FFD7
FFD7
FFFE
FFD4
FFFE
0019
FFFC
FFFF
FFEF
0016
FFDF
002B
002C
0007
FFEA
FFF4
002E
0016
FFEF
FFEB
0025
0004
FFCE
0016
0023
0031
002F
FFF2
0025
0010
0012
FFE5
FFE7
FFE4
0008
FFDB
FFDC
0006
FFF1
FFE8
FFD8
0007
0000
FFD4
FFDD
FFD6
0024
FFCB
0020
FFE0
FFFA
0005
0021
FFEA
0017
0004
0036
FFE7
002F
FFE2
FFF8
FFFB
001D
0015
0028
0013
FFF6
001A
002A
001C
FFE1
0016
000D
FFF4
002F
FFE4
FFDB
0028
FFDC
0017
0020
001F
FFE3
FFFB
0028
FFCE
000E
FFDC
0037
0020
FFED
001D
000C
0012
002D
FFDB
FFDC
FFD5
FFEC
0010
FFE0
FFEE
FFE1
002F
FFEA
FFF0
FFE1
0017
FFDF
0008
001E
0034
FFD7
0007
000D
002D
0007
001D
FFE7
FFFD
000F
002C
0011
0016
0021
FFF5
0028
FFE3
0028
FFE4
FFFF
FFF4
0019
0017
FFFC
FFF2
FFEE
FFD8
FFEA
FFF8
0020
FFEB
0013
0019
FFED
FFF8
0001
002C
FFDF
0020
FFE7
FFFF
FFEA
0007
FFED
FFEB
0001
FFFA
0004
FFEC
FFF6
0009
FFE8
0003
0008
FFF7
000C
0001
FFFF
FFF1
0012
FFF7
FFF6
FFFC
FFFC
0010
000D
0006
0005
0012
FFF3
0006
FFF5
000D
0013
FFF6
000D
FFF5
0012
FFE7
0000
0001
0014
0006
000B
000F
000D
0004
FFF8
FFF6
FFEC
0009
0008
FFFD
0012
0004
0009
FFE8
0007
FFF8
0009
FFEE
FFF2
FFEE
0016
FFF8
0004
FFED
FFF4
FFF4
0014
FFFB
0004
FFF7
0003
FFEA
FFF7
0012
0007
0014
FFF8
FFF6
0011
FFF6
FFFC
FFF1
0009
000A
FFF6
FFEE
FFF3
0006
000A
0010
0009
FFF2
000C
FFFF
FFEF
FFF3
0005
FFF1
000B
FFFD
0013
FFFD
FFEC
000C
FFEF
FFFD
0012
0014
000A
FFFD
0001
FFE9
FFEF
FFEB
FFF1
FFEA
FFFA
FFEA
0000
FFFC
FFF6
0005
000C
000B
FFF8
FFE9
0006
0012
FFEF
0013
0009
0007
0001
0006
0004
0008
FFEF
FFF5
0010
0016
FFFF
FFED
000C
FFFB
FFF0
FFF8
000A
000E
FFF2
0015
0010
000D
000F
FFF6
000F
FFF2
FFEE
0002
FFED
FFF0
0004
0006
0007
0008
0002
0003
000F
0003
FFF9
FFFE
000F
0001
000E
0015
0011
FFFB
FFFB
FFFF
000A
FFFC
FFFE
000F
FFED
0016
FFFF
FFF5
FFF8
0005
0004
0006
000B
FFF6
0000
FFEE
FFFE
FFFF
FFF1
0010
0018
0003
FFF0
0011
0007
000E
FFF3
0019
0015
0003
0008
FFF0
FFF4
000B
0019
0016
0014
FFF5
FFFC
0008
0005
0003
FFF4
FFF9
0013
0009
0004
0000
000E
0007
0006
0018
FFF4
FFEE
0006
FFFD
FFFE
0014
0011
FFFF
FFEC
0009
FFFB
FFEA
0016
0017
FFFC
000D
FFF1
FFF6
FFEF
FFF3
0013
FFF5
0004
0004
FFF0
FFEA
0000
0009
0011
0005
FFF7
0009
FFF6
0008
0008
0008
0006
000A
000B
0004
FFEC
FFE8
FFF0
FFE8
0006
FFEA
0005
0005
FFFB
0011
FFF4
FFF9
FFF0
000F
FFFC
FFFE
FFEF
FFF1
000D
FFFE
FFF0
FFF0
0006
FFF8
FFEE
000C
FFEF
000D
FFFE
000B
000D
0011
FFF5
FFFA
FFF0
0005
0005
000F
0012
FFFE
FFF7
FFFC
FFE9
0005
FFED
000A
FFF0
FFEA
FFFB
FFFB
FFFF
000C
000A
FFFE
0002
FFFF
000A
FFEE
FFF2
FFF6
0008
000F
0005
FFEC
FFE8
0012
FFFB
000D
FFEF
FFFC
0009
0000
0011
FFFB
0011
0000
FFF5
0007
FFFA
FFF7
000C
FFFE
0000
FFF0
0005
000F
0000
0004
FFF8
0004
000B
FFF9
FFEB
FFF8
FFFC
0008
0011
FFFD
0005
FFEE
FFE9
FFEF
FFEF
0014
FFE7
0005
FFF8
FFFE
0002
FFFF
FFF3
0000
0019
FFFB
FFF8
0001
001A
FFF7
0005
0001
0004
0010
0010
0017
FFEF
FFFC
0011
0017
FFFF
FFF0
FFF0
0019
FFF2
0009
FFFD
0019
FFFC
FFF5
000F
FFF4
FFF0
000C
000A
0016
FFF5
0003
0016
FFFF
000B
FFF8
0004
FFEC
FFF6
FFFD
FFFC
000E
0008
FFF8
0012
0016
0004
000A
000C
0004
000E
0004
FFF2
FFEF
FFFF
0005
FFF5
FFF2
FFF5
0014
0008
FFF1
000F
0016
FFF9
0003
0018
FFF4
FFFA
FFF7
FFF0
0006
FFFF
0016
FFF5
FFF6
0003
0015
0019
000E
FFFB
FFF5
FFFE
0007
000B
0008
0006
000E
0002
FFF4
FFED
FFFA
0018
001A
0010
FFF3
FFF3
0007
FFEE
0014
FFF4
0000
FFF9
FFFD
0004
FFEE
0010
FFF3
FFF3
FFF9
0012
FFF3
0014
FFF5
FFFB
FFEF
0006
FFF4
FFEF
FFF2
0003
FFF4
000D
FFFC
FFFA
0003
0001
FFF9
FFF1
FFFA
FFF6
0012
FFFA
0006
FFE6
0006
FFF5
FFFB
000D
0008
FFF5
FFE9
000D
000E
0000
FFEF
0000
0013
0009
0002
0009
FFF4
0011
FFF2
FFF0
FFF4
0003
FFFB
0007
FFFB
FFFC
0002
FFFC
FFF7
000C
FFFB
FFFF
FFEA
FFF0
FFED
0000
FFFC
FFF7
FFEA
0000
000C
000E
FFFE
0013
FFFC
0014
0006
FFF1
0013
FFFD
0014
0012
000A
FFF3
000A
FFF5
000F
0001
0009
0009
FFEA
FFEC
FFFA
FFF0
0014
0008
FFFB
000D
FFF9
FFF4
000A
FFF7
FFFA
0008
FFEE
000F
FFFC
0007
0008
FFF7
FFF7
0003
FFF2
FFFA
FFFF
FFF6
0008
000C
FFF5
0008
FFF3
FFEE
FFF2
FFF9
0005
FFEC
FFEE
FFEB
FFF3
FFF7
FFFF
0011
FFFC
0015
0012
FFFF
000E
FFF1
0013
0014
FFEC
FFFE
FFFB
000B
000C
0000
FFF9
000B
000C
FFF1
0002
FFF7
000C
FFFC
0000
000F
FFEC
FFFF
FFF5
FFE9
FFF0
0014
FFF7
000C
FFEB
0006
0011
0009
0012
0003
0007
FFF8
FFEE
0012
FFF3
FFF2
FFED
0010
FFEA
FFFB
FFFB
000D
FFEA
0013
FFF3
0005
FFEE
000B
FFE9
FFEB
FFFC
FFFF
0009
FFE8
0012
FFF1
FFFE
000A
0011
000F
0005
FFF1
0004
FFEA
FFF0
0007
000A
0010
FFF2
0009
0009
0013
FFF5
FFFB
FFED
FFE9
FFF0
FFE9
FFFE
FFF0
000B
FFF1
FFFA
000A
0004
FFF8
0006
0010
FFFA
0003
FFFB
FFFE
000F
000A
FFF7
FFFE
FFFD
FFEF
FFF5
0001
FFF8
0006
FFF1
FFEE
000B
0013
FFF9
000B
0009
FFFB
FFF7
0000
0013
FFFD
FFEB
FFF6
FFF3
0011
0008
FFEF
FFE8
FFE9
0009
0000
FFEE
FFE7
0012
FFF9
FFF6
0001
FFF0
FFFA
000F
FFFD
000C
0010
000F
000C
FFED
0012
000C
FFFA
FFF1
0018
000E
000E
FFF3
0008
FFEE
001A
0019
0018
0017
0014
000F
FFF2
FFF5
0004
0005
0014
FFEF
0016
FFF8
0008
FFEF
FFFF
FFF8
FFF6
FFEF
0000
0006
0014
FFF1
000F
0009
0003
FFFD
FFF2
FFFA
FFF1
0002
FFED
0000
FFFB
FFF2
FFFB
FFF8
FFF5
0000
FFF0
000C
FFFD
FFF3
0018
FFF7
FFEE
0002
0017
0015
FFFF
0014
000B
FFF6
FFEE
0017
0004
0002
FFEE
000A
FFFA
0000
FFF4
FFF5
0016
0009
0003
0018
0018
0015
0011
FFFE
0013
0015
000F
FFFF
0015
0004
0019
FFEE
FFEB
0000
FFEE
FFF2
FFFA
FFF7
000F
FFEF
FFF4
FFF1
FFFC
FFF0
0003
FFF8
0009
000A
0010
001B
0013
FFF9
0018
FFF8
FFFE
000B
0017
FFFA
0008
000B
001A
0011
0019
000C
FFFD
FFE9
0003
FFF2
000C
0008
FFF9
FFF9
FFE8
0002
0008
000B
FFF9
FFEB
0001
0013
FFED
0010
FFFE
0000
0009
FFEA
0010
0009
FFF2
FFF8
FFF6
000A
FFE9
FFF1
FFF5
FFE9
FFF3
000B
0010
FFE9
000E
FFEB
0005
0006
FFE8
FFF2
FFE7
0007
FFF9
FFF3
FFF2
FFFB
FFFF
FFEF
0014
0002
0004
000C
FFF3
0003
000F
FFFE
FFF2
000F
FFFC
FFF9
000D
FFFD
FFF9
FFF4
FFF1
FFFF
FFFD
000D
FFF8
FFE8
0004
0000
0012
FFF9
FFF4
FFF7
000E
FFEE
FFF9
FFF0
0002
FFE9
FFEC
FFF7
FFE7
FFF5
0005
000D
FFF5
000B
FFE9
000F
FFF4
FFF8
FFEE
FFEC
FFF6
000E
000B
0004
FFED
FFFC
000E
0008
000C
000C
FFF8
FFFF
000B
FFE8
0011
0009
FFF1
0013
FFFB
FFFF
FFEA
0006
0011
000B
FFF0
FFE7
0001
0004
FFFA
FFE8
0010
000D
0006
0005
0007
0002
0002
FFFC
0008
FFFA
FFFF
FFF3
FFEE
0007
FFEF
0010
000D
FFFE
0011
0002
FFEE
000E
FFFB
FFED
FFF2
000A
0001
0004
FFF7
FFFD
000C
0002
0005
FFF1
FFFC
FFF6
0018
FFF8
FFFB
FFEA
FFEF
0000
0006
0001
FFF8
0016
0006
0001
FFFA
FFF1
0006
0008
000F
FFF6
000D
0001
0000
0001
0016
0002
FFF6
0014
FFEF
0008
0004
0015
FFEA
FFF6
0000
0011
FFFF
0016
000B
0018
000B
0002
0012
0013
000A
FFF2
FFFB
FFFF
FFF8
0014
0001
0005
FFFC
FFFF
0012
FFFC
0016
0004
0011
0015
000F
FFFF
0010
0007
FFFD
0006
FFF1
FFFC
001A
0007
FFFA
0000
FFFC
000B
0006
0001
000D
0000
FFF4
FFFB
0017
FFFB
FFF6
FFEF
FFFE
0000
0018
0013
000D
0019
0005
FFF7
FFFC
FFFA
0011
FFFD
FFFB
FFFA
000F
FFEC
FFE6
FFF7
0007
FFE9
FFFE
0004
000E
000C
0000
0013
FFFA
FFF0
FFF9
FFEC
0010
0000
0008
0007
0003
FFF6
FFFF
000D
FFFA
0002
000C
0000
0000
0010
FFF7
FFEB
FFF3
FFF1
FFFB
0008
FFF1
000A
0000
FFF9
0007
000E
000A
FFFC
FFF4
000E
0008
FFEC
FFFB
0006
FFEC
FFF5
0000
FFED
FFFE
0008
0005
FFF0
FFF2
000D
FFFD
FFFE
0001
FFFF
FFFF
FFEF
FFFD
000C
000A
FFFB
0009
0010
0004
FFE9
0008
FFFA
FFFC
000C
FFFA
FFFE
0002
0005
0011
FFF9
FFF2
000F
FFFC
FFE9
000F
FFF3
FFF2
000F
000C
FFF4
0004
FFED
FFE9
000F
000A
0012
0007
0015
FFEC
FFF3
FFF7
FFE8
0014
000D
FFF3
FFF7
FFF5
FFF5
FFEF
0001
FFFF
FFFE
FFFE
FFE7
000A
0000
0005
FFF3
0001
0002
000D
0004
FFEE
0002
0013
FFF5
0004
FFF9
000B
FFF9
FFE8
FFF7
0014
0002
FFF1
0000
0005
0005
000A
FFF6
FFE8
0011
000E
FFF4
0004
0016
0008
FFF9
000A
000A
0007
0005
FFFD
FFEF
000C
FFF1
0001
FFF0
000A
0010
0010
000C
0007
FFF5
0003
FFFE
FFFF
FFF0
0003
000B
FFEC
FFF0
FFE6
0000
FFF6
000A
0012
FFF6
FFF9
FFE7
000D
FFEF
0002
FFED
0005
FFF1
FFFC
FFE7
FFF6
FFE9
FFFA
FFE8
FFFE
FFE6
FFF0
0010
0001
FFF1
000D
FFF5
0013
000E
FFF9
000D
0011
000C
0004
000B
0006
FFEA
0006
0007
FFF0
FFF0
FFFB
FFF1
0001
000D
FFEE
FFEA
0011
FFEF
FFFD
FFFD
FFF1
FFF4
0011
0001
0010
FFF2
FFEC
000E
FFF2
0011
FFF9
000E
FFFC
FFF3
0010
0005
FFF7
FFE9
0001
000B
0012
0003
FFEC
FFED
FFE9
FFE9
0012
FFE8
0003
0012
000E
000F
000D
FFEF
FFF0
000C
FFFE
0017
0003
0004
FFFE
0010
000B
0007
FFF4
0016
000E
FFFF
FFF3
FFF7
0005
FFFA
FFF5
FFED
FFFF
0008
0009
0005
0007
000E
000E
FFF6
0009
0005
FFEE
0002
0001
000A
0003
0014
0007
FFFC
FFFD
0011
FFEA
0008
FFFA
0008
FFF2
FFFB
FFEE
FFF8
0009
000A
0009
FFF9
FFFC
000A
0011
FFEC
FFFD
FFF6
0012
0014
0017
FFF6
0015
000C
0017
FFFA
0019
FFFC
000A
000C
FFFB
FFF2
0000
0003
0012
0007
0018
FFF7
0011
0017
0013
FFFF
0000
0011
0003
FFED
FFF9
FFFD
FFFA
0015
000C
FFF6
FFFE
0001
FFFE
FFF4
FFF1
FFEF
FFF0
0017
FFEB
0003
0012
000B
0000
FFFB
0006
0015
FFF6
FFF8
0014
0014
0013
FFF0
FFED
0017
000A
FFEF
000A
FFEF
000D
0019
0016
FFEF
FFF0
FFEF
000F
FFF8
FFF6
0004
FFFA
000A
0018
FFFE
FFFC
0011
FFF7
0008
FFF5
0016
000D
0006
0003
0010
0011
0005
FFF8
0009
0008
FFF4
0014
0012
000A
FFF9
0016
FFEC
0009
0002
FFEE
000B
0011
FFF2
0007
FFF9
FFF1
0016
0004
FFFE
FFEC
0016
FFF4
000A
0002
0001
FFFA
0004
FFEF
FFF7
0001
0017
FFFC
0010
FFEC
0002
0004
FFEE
FFF7
FFF3
0002
0002
0012
FFFA
0000
0001
0013
0014
FFF3
0008
0005
FFFD
0006
0015
0014
FFF2
FFED
FFF8
0010
000C
0001
FFFC
FFFC
FFF9
FFF0
FFFD
000D
FFF8
0001
000E
FFEE
0012
FFEC
FFFD
000A
FFED
FFED
FFEB
0002
0013
FFF5
0017
FFFD
0011
0016
FFED
FFF3
0012
FFFA
FFFA
0007
FFEC
0002
FFEC
0004
0001
FFF1
FFF3
0018
0000
0004
0014
0007
0010
FFF1
FFF3
0014
0010
0019
FFFF
000F
FFF7
FFF1
FFF7
0000
FFF0
FFF8
FFF9
0000
0009
0002
0014
FFFC
FFEF
000A
FFFB
0012
FFF6
0018
FFEF
FFFF
000D
FFF6
FFFF
0013
FFF6
0002
0000
FFF1
000E
000F
0004
FFF7
FFEF
0000
FFFC
FFFA
0015
FFEB
FFF6
0019
FFFE
000F
FFEE
FFF1
0008
000B
0017
0019
000D
0009
FFFC
000C
0011
000B
FFF7
0010
FFFC
0001
0009
0008
0005
0008
FFEC
0006
0014
0018
0012
FFF3
FFFB
FFEC
000D
FFEF
0019
FFFB
0007
FFF4
0008
FFFC
FFFD
0003
FFFD
FFF5
0006
FFEA
FFEE
0012
0015
FFF7
FFEC
0007
0003
FFFF
0006
0011
0002
FFEF
0011
FFEA
0012
FFF2
FFF5
FFEF
FFEF
FFFC
FFF8
0000
FFF4
0011
0019
0012
FFF6
0014
FFED
0010
FFFB
0014
FFEA
000E
FFFA
FFEA
FFF5
000F
0003
FFE9
FFF7
0007
FFF6
0002
000C
FFFF
0008
FFEB
0013
0013
000F
FFF7
FFF0
0006
FFFB
0002
FFF8
0009
FFF3
FFF0
FFEA
FFEF
FFE9
FFEF
FFF2
0004
FFED
FFF3
0003
0011
FFF2
FFEF
FFFF
FFFC
0003
FFEC
FFE7
0008
FFEF
0013
0000
0001
FFEA
FFEE
FFFF
FFE8
000F
FFF5
FFF9
FFFF
000D
FFED
000B
FFF5
0002
FFE8
FFFB
0011
FFF3
FFFE
0012
FFEE
FFF8
0005
FFEA
0001
FFF3
FFFE
000C
0001
FFE8
FFEC
FFE8
0010
FFEE
0012
FFF5
FFF5
FFF0
0003
0003
FFF1
FFF7
0005
FFFB
0003
FFEF
0009
FFE7
FFEC
FFFB
FFED
000C
000E
FFEA
FFF5
FFFC
000F
000E
0013
FFFE
FFF6
FFFB
FFF1
000D
000A
FFF3
000E
FFFB
FFEB
FFEB
0011
FFF0
0011
FFF2
FFF8
FFFF
FFFF
FFF2
FFF4
0012
FFF8
FFFB
FFF0
0016
FFF7
FFFC
0016
FFF9
000A
0005
FFFE
FFED
0016
000A
0006
0003
FFF4
0007
FFF6
FFFC
0008
FFF2
0008
0013
0010
0016
0008
FFFE
0019
0015
001A
0018
FFF0
0010
0002
FFF0
0000
0008
0018
0016
0005
0018
000A
FFF4
FFEE
0013
0016
FFFF
FFEF
FFF1
FFFF
0019
0003
FFF8
0005
000D
FFEE
0018
FFF4
FFEF
0003
0007
0013
000D
FFFB
0005
000A
0004
0015
FFF6
FFF0
000D
0008
FFFA
FFF1
0015
0000
FFFA
0004
0013
0006
0004
FFF6
0014
FFF0
FFEE
0009
0016
000E
0009
FFED
0009
0017
0019
FFF2
FFFE
000A
0018
0003
0005
0003
FFFD
FFF9
FFEA
FFFB
0003
0018
000A
000A
000C
000F
0002
0008
FFF8
FFFB
FFF7
0006
0009
FFED
0002
0017
0008
0015
FFEE
0012
0004
0004
000C
0013
000C
FFEB
0007
FFED
FFED
FFF4
0010
FFF7
FFEB
FFF8
FFF2
FFFD
FFF0
FFF4
0009
FFF9
FFFB
FFFA
000A
FFF5
FFFF
0007
0004
FFF3
0014
FFEF
000E
FFF0
FFEF
0013
FFFE
FFF8
0000
0008
0004
0010
FFFD
0003
0015
FFF9
FFED
000D
0006
FFEE
FFEC
FFEB
FFFB
FFED
FFF2
0002
000F
FFF4
0008
0019
0001
000F
0011
FFFA
000F
0009
FFEF
FFF4
FFEA
FFF9
FFFA
0014
0014
000D
000C
0008
FFF7
FFF9
0008
0010
FFF0
FFFB
0003
FFF6
FFFC
0006
FFF4
000D
000B
FFEE
0011
FFF6
0005
000F
0004
FFF5
FFFE
FFEC
0001
000F
0002
FFEE
0011
FFF9
FFFF
000F
FFF3
000D
FFF3
FFFB
0016
0013
0001
FFE7
FFF9
0014
0015
FFF8
0018
0000
FFF1
FFFA
FFF9
FFEF
0005
0002
FFF8
0003
000C
FFED
0005
FFF5
FFE8
FFF0
0003
FFE7
0002
FFED
FFFC
FFEE
000B
000A
0011
0006
0005
FFED
0007
0003
FFEC
FFF7
0003
FFF3
FFEE
FFF9
FFF2
FFEB
FFEA
FFE9
FFFF
FFEA
000D
FFFD
0003
FFEC
000C
0008
FFEA
FFF0
FFEC
0005
FFEF
FFF0
0005
0011
FFFF
FFF1
0008
000C
0000
0014
FFF8
FFEF
FFF0
FFF9
FFFF
FFE9
FFF7
FFF6
FFF5
000C
FFF7
000A
000A
000A
000F
0008
FFEC
FFFB
0007
000C
FFF1
0010
FFFC
0000
0007
FFF5
0000
0013
0009
0006
FFF1
000F
000B
FFEF
0006
FFEF
0013
FFEC
0010
0000
0005
FFE9
0010
FFF4
000F
000E
0010
0002
FFFD
0001
0005
0007
FFFF
FFF2
FFF8
FFF5
FFF1
FFFD
000A
FFF4
FFF9
FFE9
0003
000A
000A
0013
0008
FFFB
FFF5
0008
0006
0012
000D
FFFF
0003
FFEB
FFF4
FFFD
000C
000F
FFF0
FFED
FFFB
0005
FFF8
FFFB
0004
FFF6
FFF7
000D
FFEC
0008
0009
FFF0
FFF2
FFFA
FFF7
FFEA
0008
FFF8
FFFD
FFEE
FFEE
0014
FFFF
000A
FFFF
FFF9
0000
000F
FFFE
0005
FFEE
FFFC
0005
FFE9
FFE8
FFF7
FFFA
FFEC
FFFC
0006
FFF3
000A
0003
000B
0007
FFED
FFF8
0011
FFF1
0011
FFF9
FFE9
FFF4
FFFE
FFF4
FFFE
0014
000C
0012
FFF4
000E
0013
0000
0015
FFF7
FFED
0002
FFF5
FFEC
0004
FFE8
FFE9
0009
FFFA
FFEA
FFFE
0004
FFEA
0006
0011
0008
000A
0009
000D
0001
0002
000E
FFFA
FFF3
FFF2
FFFC
FFF7
FFFF
FFFC
000C
0011
FFEE
0004
FFFF
FFEC
0001
0000
FFEB
FFF5
FFFE
FFFF
FFF7
FFFF
0007
FFF4
FFED
FFEA
FFED
000E
FFE9
FFF8
FFED
0001
0006
FFEB
FFFD
0006
0007
0002
000D
FFFB
0018
FFEF
0000
0003
000F
FFF9
FFF3
FFEE
0000
FFF9
0000
0002
FFF3
0015
FFF1
FFF7
FFF9
0003
FFEF
000A
0000
FFFA
FFF6
FFF5
000D
0013
000C
0003
0009
FFF3
0009
0018
FFFC
0017
FFFB
0017
0012
FFF2
0008
FFFC
0000
0001
FFFB
0009
0017
001A
0007
0005
0016
0003
0017
FFF0
0016
FFEE
000D
FFF0
FFF7
000B
0008
001A
0011
0016
0009
0007
FFF6
000A
0015
0004
0005
0011
0002
0005
000E
FFFE
FFFE
0006
FFF5
0015
0015
001B
FFF0
FFF1
FFFB
FFF4
000E
0008
FFF5
FFF0
FFF5
FFFD
0002
000A
000E
0005
0004
000C
FFFC
FFFD
0001
0016
000C
FFF2
FFF4
0014
FFF5
0006
0017
0009
0019
FFFD
0010
FFFD
000D
000F
0006
0014
FFFA
000B
0016
FFFE
FFF2
FFF1
0002
001A
000A
FFFF
0009
0006
FFF6
FFEE
0018
000E
FFF5
FFF0
FFE9
FFE9
0011
FFF9
FFFA
000E
000C
0004
FFEE
FFE9
FFF0
FFE7
FFEB
0002
0005
0011
0014
FFFD
0004
FFF2
0003
0006
0010
FFFA
FFFD
000E
FFEE
000E
000A
FFF9
FFFE
0013
0008
0005
FFEC
0005
FFEB
FFF5
FFF4
FFED
0008
FFF3
000F
FFF7
FFFC
FFFA
FFF6
FFFA
0009
FFF8
FFEB
FFF0
0010
000A
FFFF
0010
0000
0013
0000
000E
FFEC
000C
0004
0006
000E
FFF9
000E
0008
000B
FFF1
FFF0
0009
FFEE
FFEC
FFED
FFF1
0003
0005
000A
FFEF
FFEF
0011
FFF3
0014
FFF4
FFF5
FFF9
0007
0007
0009
0014
0005
0006
FFF7
0014
FFFF
FFEF
FFFC
0007
FFF7
FFED
0006
FFFF
FFEF
FFEC
FFFF
000A
FFEA
0008
FFEF
0013
0010
0001
0008
0008
FFEC
FFF5
FFEB
FFFA
000B
FFEB
000C
FFEB
FFFB
000F
0006
0001
FFFE
0007
0011
FFE9
FFEE
FFE8
0013
0010
000F
0000
0011
FFEC
FFF4
0005
0007
FFF9
0010
0006
FFEF
0008
0009
FFEC
000E
FFF6
FFE9
FFEB
0003
FFFD
000C
0012
000F
FFEF
FFEF
000C
000C
FFE9
FFEF
0002
0013
FFEA
FFF4
FFEB
0009
FFFE
0011
0009
0002
0000
FFFE
000B
0012
0008
FFEC
0006
FFEE
FFEC
FFF4
0002
0005
0010
0009
0011
000A
FFF6
0003
FFEA
0003
FFFF
FFF5
FFFA
FFFB
FFFB
FFEB
FFF5
0009
000A
FFF7
0002
FFE9
0003
FFEE
FFF5
000E
0005
FFF6
FFF1
0012
FFF2
0005
000D
000E
FFE9
0003
000D
FFFA
FFFF
0007
FFFB
FFF7
000B
0003
000E
000C
FFEE
FFFE
FFEA
FFF9
FFE9
000A
0013
0011
0013
0010
0008
FFEE
FFF2
FFED
FFFF
FFE9
000B
FFF8
000A
FFF5
000A
0001
0011
FFF4
FFFA
0015
0007
0003
0014
FFFA
FFEE
FFF7
0009
FFFA
FFFE
FFFA
000C
FFF0
FFFC
0006
FFEA
0009
FFFA
0014
FFF6
000C
0003
FFF6
000D
FFF5
000A
0006
000E
0006
000B
0003
0002
000E
0004
000A
FFFE
000C
0011
0007
FFFC
0000
0014
000B
FFEE
0008
FFEC
0006
000C
FFF2
FFF9
FFF6
FFFF
000A
FFF5
0014
000A
FFFE
000B
FFEC
FFF7
000B
FFF1
0010
FFF4
FFE9
0013
FFF6
FFF8
FFEA
0005
FFFD
0004
0004
0000
FFF5
FFF8
FFF9
000B
FFF6
FFF1
FFEF
0013
FFE9
FFFE
0009
FFF1
FFF6
FFFC
FFF2
FFEC
FFF1
FFFD
FFF0
FFFC
FFF8
FFF3
000C
0001
FFF2
0000
FFF6
0010
000E
FFF1
0001
0009
FFFF
0003
000C
FFF3
0010
FFFA
0002
000E
0012
0004
000D
FFFF
0006
FFFB
FFF8
0009
000B
FFF3
FFFD
0007
0002
000B
0004
FFE8
000E
FFEA
FFEF
0001
000D
0006
000C
FFFD
FFEA
FFF3
FFEE
FFF3
FFF9
FFE6
0006
FFEA
0003
FFF7
000F
0000
0001
0007
0012
FFF1
FFF1
0006
0008
0013
0011
FFF6
0007
FFF5
FFF9
FFE6
0008
0004
0001
FFE6
FFEA
0008
0011
FFF6
000A
FFE8
000C
FFE7
FFEB
000D
0013
FFEA
0010
0010
0008
000D
FFF2
FFF6
0012
FFFF
000C
000C
FFEA
0001
FFF3
FFF0
FFF8
FFF3
0011
FFED
FFED
FFE8
000F
0008
FFEF
0002
FFF3
FFF0
000E
000C
000E
0001
FFE9
0007
FFF9
0009
0013
000E
0007
0006
FFF2
0011
000E
0012
0002
FFEE
FFEB
0017
FFF5
FFF8
FFEC
000F
FFFE
FFE9
000D
0011
FFF8
FFEB
FFED
000B
0011
FFE6
FFFD
0002
0006
FFF6
FFEA
FFEB
0011
FFF6
FFF1
0009
0010
FFF4
FFED
0000
FFEE
FFF1
FFEA
0008
000E
000D
FFE9
FFF1
000B
0014
FFE8
0013
FFFE
0002
0009
FFFB
0000
FFF5
FFEF
0013
FFFB
FFE9
FFEC
FFF1
000C
0000
FFF5
0013
FFF6
0001
FFEE
FFF7
FFF4
0002
0008
FFFD
FFFD
0000
FFEE
FFF9
FFED
0015
FFFB
0003
FFEA
0007
FFED
FFEE
0014
000F
FFFB
FFEE
FFED
FFFD
0007
FFFF
FFED
0005
FFF9
0010
FFFF
FFF2
000C
FFF6
FFF5
FFED
0001
000D
000B
0001
0009
FFF2
FFEB
FFEB
000E
000F
0009
0006
FFF7
FFFA
FFEC
000D
FFF9
FFFD
FFF7
FFEC
FFEB
000E
0012
FFFC
FFE9
0000
FFFB
FFFC
FFED
0013
0012
FFFE
000A
FFFD
FFF3
0000
FFF5
000A
0010
FFFF
FFF3
0010
0013
FFEB
FFF8
FFED
0000
FFF3
000F
FFF5
FFEC
FFEB
FFF8
FFFC
FFF9
FFFC
FFF0
0002
FFF2
FFFB
FFF7
0001
FFFC
000D
0003
0005
FFED
0009
FFF6
0010
0009
FFF1
FFFB
000D
FFF2
0012
0003
FFF5
000B
FFF2
FFF7
FFFD
FFF5
0014
0013
FFE9
FFEC
0000
FFF5
000B
FFF0
000C
000C
FFFE
0013
FFF3
FFEB
FFFD
000D
0013
FFF5
000C
0002
000E
0001
000D
FFFD
0010
0000
0003
FFFD
000C
FFEA
0008
FFF2
FFF2
0012
FFFD
FFFE
FFF0
0010
0001
FFED
0010
0002
0002
0008
FFF0
FFEC
0000
FFFB
000F
FFF2
000B
FFF5
FFED
000A
FFF9
0000
FFF4
FFEF
0010
FFF0
FFE8
0010
FFF2
FFF9
FFF7
000C
0010
0013
FFF6
FFEA
0013
000A
0006
0005
FFF3
FFF7
000F
FFED
FFEA
FFFB
FFEA
0005
FFF1
FFFD
FFF5
FFFF
0013
FFF7
FFFA
0006
000C
FFEF
000A
FFF5
0006
0012
FFEF
000F
0000
FFE8
000F
0010
0003
FFED
FFF6
0013
000B
0007
0008
FFEA
0010
0004
000C
0010
000B
FFEB
FFEC
FFF9
FFEE
000F
FFFB
000F
000B
FFF8
FFFB
FFFE
0000
FFFC
0005
FFF3
FFF5
000F
FFEA
FFEE
FFFF
0011
0008
FFF5
FFFE
000E
FFF8
000A
FFFD
0008
FFF7
000D
0008
FFF9
FFFE
FFE9
0000
FFE9
0003
FFF1
0002
FFED
000C
0000
0003
000E
0010
0009
0000
FFFD
0000
0004
FFEF
000A
FFF5
0013
FFF5
FFF4
0005
FFF1
0006
FFFF
0013
FFE7
FFFA
FFEF
0008
0009
FFFD
FFED
0003
0000
000E
FFEB
FFFF
FFEE
FFEC
FFEE
000F
FFF8
FFE9
000F
0006
000E
FFEB
FFFD
FFF9
0004
FFF4
FFEB
FFFB
000F
0001
0004
0007
0006
0001
FFEA
0010
FFEB
0002
000A
FFEA
FFFE
FFF2
0001
0009
FFFD
FFFB
000D
0009
FFF0
0010
0010
FFF4
0011
000D
0000
FFF8
0012
FFEF
FFF1
0002
000E
FFF8
001A
0007
000D
FFF6
000A
0012
0001
0002
0019
001A
0009
FFEB
0002
FFFD
0013
0014
FFF7
000E
001A
FFFF
0016
0019
0001
0003
FFF3
FFF7
0014
FFFE
FFFB
FFFD
0001
FFF8
FFF1
FFF3
FFF4
000D
0006
0007
0012
0006
FFFC
001A
000C
FFF6
0012
0018
0002
0003
000C
FFF9
FFF0
0017
0017
0000
000F
FFF4
0007
000E
000B
000C
0002
FFF4
0007
0010
000C
0018
FFF4
0019
FFF3
0013
0006
0005
000A
0013
0011
0004
0010
FFF8
0010
0005
FFFE
0015
FFFF
0017
FFF3
0004
FFF3
FFF6
FFFF
0004
FFFC
FFF5
FFF1
FFFD
FFF9
FFF2
FFFC
FFFE
FFFC
FFF2
0018
0015
000F
001B
FFF4
FFEF
FFF5
0008
FFF9
0000
001A
0014
000C
FFF6
0015
FFF7
0007
FFEE
0007
FFFC
0014
FFF1
FFF9
FFFB
FFF6
FFEE
FFFC
0011
FFF2
000A
FFF2
FFED
FFEB
0017
FFF0
FFEA
0000
000F
FFF3
0010
0007
0003
000C
000D
0009
000C
000F
000B
FFF5
000B
FFF6
0014
FFF1
FFEE
FFF8
0000
000F
FFF2
FFFE
FFEF
FFF9
000A
0015
000F
0000
FFF5
000E
FFF7
0000
FFFF
FFFA
FFF3
0000
0006
FFFB
FFF1
FFF3
FFEB
0001
0017
FFFB
FFF9
0009
0016
FFF1
FFED
FFEA
FFF9
0015
0014
FFEA
0000
FFED
FFF2
FFF6
FFF5
0008
0001
0015
FFFF
FFF9
0008
0016
FFF8
0008
FFF2
0015
0004
0010
000E
0005
0015
0007
FFF5
0008
000A
FFED
FFF0
000D
000B
0001
000C
FFED
FFF1
FFE8
000C
0008
FFFD
0008
0014
FFFD
FFEF
FFF4
FFF5
000B
FFEE
0011
0012
FFEC
0015
FFF4
FFFC
FFEC
0000
FFF5
FFF2
0009
000F
0005
FFEA
0017
FFFC
FFF3
FFEA
FFF3
FFF9
FFEA
FFFE
0007
000F
0006
0006
FFF8
000F
0013
0007
0008
FFEE
0014
FFFC
0005
FFF5
FFEB
0008
0000
FFEB
FFFF
0000
000C
0015
0007
FFEA
FFFA
FFF8
0011
FFFC
FFFC
000B
FFE8
0008
0007
FFFA
FFF8
000E
000C
FFF1
FFFC
FFEC
000E
FFF2
FFFD
FFF4
0007
FFEC
0005
0001
000E
000B
FFF8
FFF4
FFEC
FFFB
000E
0009
FFF5
FFF3
000E
FFEA
000B
0006
0004
FFFA
FFEB
0011
FFFB
FFFF
FFEC
0010
FFFC
FFF7
FFED
FFFD
0012
FFF9
FFFD
0016
FFFA
0007
FFEC
FFF2
FFF6
000B
FFE8
000E
FFFE
FFFA
FFF0
0015
FFEB
FFED
000C
0007
FFFB
FFEC
FFF4
FFF4
0001
0000
0007
0009
FFF7
0007
000A
FFED
0014
FFEA
FFEC
000B
FFEB
FFEB
FFFA
FFEF
FFF8
FFFB
000C
000B
0008
FFF2
000D
FFEB
000D
FFFD
FFF5
FFF5
0006
000D
000E
0019
0000
0017
FFFD
FFF7
FFF7
0002
0012
0005
0018
FFF8
FFFA
FFEE
FFFA
0000
000C
0005
FFF6
FFF9
0002
FFF1
001A
000D
FFFA
0007
0011
0011
0002
FFF3
0006
0015
0006
0005
FFEE
0016
0006
FFF2
0001
000F
FFF4
0007
FFF0
FFF5
FFF1
FFF9
000A
FFFC
0002
0003
000A
FFEE
0006
0011
FFFD
FFFA
0000
000D
0003
0010
0017
0015
0015
0017
0016
0007
0000
FFF2
0009
0013
000F
0003
0013
FFF1
FFF9
FFF5
0019
FFEE
0019
FFF5
0003
FFED
FFF5
FFF5
000C
001A
FFF6
0008
0008
0010
0016
FFF2
0003
FFFC
0007
FFFA
FFF7
FFF5
0012
0004
0002
FFFF
FFFA
0012
000A
FFF2
0012
FFF2
0017
000E
FFED
0003
000C
FFF3
FFFA
0008
FFF5
000D
0012
FFF9
000C
0018
0000
0016
0001
000E
0018
0018
FFF2
FFFB
0002
FFF5
FFFA
FFF2
FFF5
FFF8
0010
FFF4
0005
0014
0013
000E
FFF0
FFEA
FFFB
0009
000F
FFEF
001A
FFF6
0006
FFFD
FFF1
0006
0003
001A
FFF5
0000
000C
0013
FFEF
0010
FFF2
FFF8
0000
FFF8
FFFA
FFFC
0010
0018
FFF3
0014
FFEE
0012
FFFC
FFF1
0013
0005
0009
0011
0012
0007
000E
000F
000C
FFEF
FFEF
0003
FFF7
0019
0009
0013
0000
0010
FFF2
FFF4
FFFD
FFF8
FFF5
FFEA
000E
000C
000A
FFFF
0001
FFF3
FFF8
0010
0011
000A
0011
FFF6
0000
0014
FFF6
000D
000A
0008
0001
0018
0017
0003
FFF8
FFEE
0005
0009
0013
0008
FFF3
0015
000C
0003
FFED
FFEF
0007
0001
FFF5
0006
FFF0
FFF5
000D
0012
0003
FFFE
0014
0005
0001
FFE8
0016
FFF2
0008
FFFF
0013
0011
0002
000C
0005
0003
0006
0000
FFEE
FFFB
FFF8
0006
0017
FFFC
FFF2
0009
FFFB
FFF7
0016
0002
FFFF
FFF4
0007
FFFD
FFF8
0015
0014
0004
FFF9
000B
0009
0014
0010
000F
000D
000C
FFF6
FFEC
0016
0005
0004
FFF5
0015
FFFD
0007
FFFF
0001
000D
FFF1
FFF2
FFFE
000D
0011
0008
FFF2
FFF0
0003
FFFE
FFF0
0007
FFEE
000D
FFF1
FFF2
0004
0012
0007
FFF0
FFFF
FFFC
0012
FFF6
0009
0014
000C
FFF7
000A
FFFE
FFF2
0006
000E
FFF8
FFF9
0000
000E
0005
000F
0012
0006
0013
FFF8
0012
FFFE
FFF8
FFF1
0009
FFF1
FFEC
0002
FFFE
0010
0013
0012
FFF4
FFF1
0002
000E
FFFA
FFFE
001B
0017
0003
FFF3
0000
0004
000C
FFFF
0018
FFF0
FFF1
0010
0006
FFFC
FFEB
0017
FFF9
001A
000E
FFFE
0000
0002
0008
001A
0004
FFFA
FFF1
FFFA
FFF0
FFF5
0014
FFFC
000F
FFF9
0006
FFF8
000C
0002
0009
000E
0000
0005
FFFE
FFFC
FFF9
FFFC
0015
FFFF
FFEE
000C
0003
0016
FFFE
0011
FFF2
0002
FFF2
FFFF
FFFC
0008
000A
000F
0017
FFF8
0008
FFF9
0001
FFF7
FFEF
0009
0012
0003
FFF0
FFF2
0019
0002
0001
000D
FFEA
0008
FFF5
001A
000D
FFF5
FFF3
0003
0007
FFFF
0009
FFEF
0006
FFF6
FFEF
FFF7
FFFB
FFF1
0005
0002
0001
FFF1
FFF2
0009
0003
FFFA
FFF9
FFF8
0017
FFFE
FFF5
FFF2
FFED
0019
FFF0
0019
000F
0007
FFF8
000F
FFF8
FFF1
FFEE
0016
0000
FFED
0009
0009
000B
FFF8
000A
FFEE
FFF8
0015
0018
0015
000C
0016
0015
FFF5
000D
FFF1
0018
000F
0003
FFF9
0007
FFFE
FFEC
0002
0006
FFFB
0000
FFFE
0017
FFEE
0015
FFF8
FFF0
000D
0001
FFF3
FFF7
FFFF
FFFB
0010
FFF3
000E
FFF6
000E
FFF4
0007
0011
0011
FFF6
0017
FFFB
0019
0011
FFF9
FFEF
0007
0014
000C
0010
FFF7
000E
0016
FFEF
000D
0017
FFED
FFFD
FFF9
FFFF
0004
FFF9
0002
FFF9
0011
0001
0014
0008
FFF8
FFFC
FFF2
0019
0003
0005
0009
0017
0015
0007
000E
FFFB
0015
FFF1
0016
FFFD
FFFF
0002
FFF3
FFF6
FFF6
FFF4
0009
000B
FFF2
0003
000B
FFF8
0008
0007
FFF2
FFFA
0008
FFFB
0010
0011
FFF0
0018
000A
0002
FFEF
FFF4
0015
0000
FFEF
FFEC
0003
FFF6
0005
0018
0010
0000
0004
0000
000F
FFF0
0014
FFF0
0017
FFF3
FFFF
0017
000B
001A
0014
0007
000D
000C
0004
FFFA
0015
FFF0
0012
000A
FFF3
FFF4
0014
FFF1
0016
0015
FFEE
FFFC
FFF2
0012
FFFA
0009
FFF8
FFFB
FFF9
FFF2
0010
FFF8
FFFC
000B
FFF3
FFF4
0003
FFFF
FFF7
0010
FFF0
FFED
0013
0010
0011
FFFC
FFEE
0006
0013
FFF5
000F
FFE9
0007
FFF8
0011
FFFD
FFFB
0008
FFF2
0004
0017
FFF9
000A
0006
FFF8
FFEE
FFF0
FFFA
FFF0
FFEF
0003
FFEB
0004
FFEC
0009
0015
FFF7
000C
FFF0
0010
FFED
FFEC
FFEE
0000
FFF1
FFF5
0001
FFFC
FFF8
0012
0003
0002
FFF8
FFF3
0014
FFEB
000E
FFF0
0004
FFED
000A
0015
FFF2
0008
000A
FFEF
0011
000D
0003
000E
0001
0011
FFED
0008
000B
000A
FFF7
0008
FFF5
000A
FFEC
0014
0007
0006
0010
000E
FFF9
0009
0004
FFF7
000F
FFF1
0011
FFFE
FFEF
FFF3
000C
0012
0002
FFF4
FFEE
FFF5
FFF9
000F
FFF5
0008
FFF7
0009
FFF3
FFF1
0002
0000
FFFB
FFEB
0001
FFE8
000F
000E
FFF9
000C
FFF7
FFEF
FFF7
FFFB
FFEB
0006
0004
FFF8
FFED
0010
000D
000F
FFF5
FFF6
FFFD
0014
000F
0015
FFF7
000D
FFFF
FFFB
0005
0005
FFF6
0002
0004
FFFB
0014
FFFC
FFEF
0003
FFFF
FFFF
FFF0
FFED
0007
0012
0014
0007
000A
FFEB
0015
0010
FFFD
FFEC
FFF2
FFF5
FFEC
0017
FFF0
000E
FFED
FFF2
000F
FFEB
000B
FFF6
FFF2
FFED
FFFA
0001
FFED
0006
0011
0007
FFF6
0003
0012
FFF1
0013
000E
FFEC
FFF9
0003
FFFC
0010
FFF3
FFEC
FFED
0007
0013
FFEE
FFFD
FFF3
FFFF
FFFD
000F
0017
0008
0004
FFFC
0014
0001
000C
FFF9
FFEC
0001
0008
0008
FFF4
0010
FFF5
0013
FFF6
FFF5
0006
0008
0000
FFF7
000A
0016
000B
0005
001A
0009
FFF8
FFF5
0007
FFFA
FFF1
FFF6
FFFC
FFF2
FFF1
FFF8
FFF3
000D
000B
0016
FFF9
000E
FFFE
000F
FFFA
0017
0005
000A
000B
0000
FFF2
001A
0001
FFEC
FFFD
0015
FFF3
FFF4
FFF6
000F
0008
000F
000A
0002
000F
0012
0014
FFF3
000B
FFEB
FFF8
FFFD
000A
000A
0012
FFFA
FFFB
001A
0005
0009
FFF6
0005
0012
FFFD
0011
000A
FFEF
0017
FFF9
0015
000C
FFF9
FFFB
0009
0012
0005
FFF9
001A
0008
FFFB
FFFD
FFFE
000D
0010
FFF9
FFFF
FFF2
FFFF
FFFE
FFF2
FFED
FFFD
0007
0002
FFF9
FFF9
0019
FFEA
FFF8
FFFE
0003
0014
0017
FFFE
FFE8
0019
0016
FFFB
0018
0007
FFF6
0001
001B
0012
FFFA
FFEE
FFED
000B
0017
FFEE
FFFE
0015
0011
FFF7
000F
0007
0017
FFF8
0019
FFED
FFFA
FFFF
FFFA
FFF3
FFEB
FFFC
0016
000B
FFFA
0000
0001
0000
001B
0018
FFF6
FFF7
FFFA
0012
FFF2
FFF6
FFF6
0012
0001
0013
FFF4
FFF5
FFF5
FFF6
0002
0019
FFF3
0004
FFF2
FFF6
0016
FFED
0012
000C
000F
0000
0001
FFED
FFF2
FFF6
0001
FFF5
FFF7
FFEC
0010
FFF1
0006
000D
0007
0007
0013
FFEF
0006
0003
000B
0009
FFF5
0015
0006
001A
0017
0009
0006
000E
0006
0005
FFF7
0012
0005
0013
FFED
000D
0007
0000
FFF7
FFEB
0001
FFFB
0003
0017
0017
0016
FFF4
0002
FFF9
FFF3
0013
000F
000E
FFF8
0006
000C
FFED
FFFF
0001
0004
0017
FFF7
FFFA
0001
FFF0
FFF3
0011
0015
0017
FFF0
000E
0018
FFF3
FFF3
0000
000C
0011
000C
0013
0018
FFFA
0010
FFEE
FFF3
FFEF
0002
0002
FFEF
FFEC
0012
0012
FFFD
0005
FFE9
FFF5
FFFD
0000
0007
000B
FFF1
FFEB
0014
000C
FFF7
FFFF
0006
0002
000F
0001
0008
000D
FFF3
0009
0009
FFF0
FFEC
0002
FFEE
FFE9
FFF7
000F
000F
FFEE
0004
FFF5
0000
FFF5
0006
FFF7
FFFC
FFF7
0000
FFF5
FFF8
FFED
0014
0007
FFEE
000B
FFED
FFF0
FFF5
0008
FFF8
0014
FFFC
FFFC
000A
0004
FFF7
FFED
0001
0008
0006
FFEE
0011
000D
000A
0010
FFF1
FFF4
000B
0008
0009
FFEA
0010
FFF9
FFF1
FFEE
0005
FFEA
FFF9
0000
0007
FFEA
0003
FFFA
0000
0001
FFFF
FFF9
0007
0000
FFFD
0011
FFF0
000B
0009
FFF1
0000
FFF2
0002
000B
FFF0
FFEE
0001
FFF7
0003
FFFF
FFFB
0009
0003
FFFA
0001
FFF3
FFF2
FFEC
0004
FFEE
0012
FFEF
FFFF
FFF3
FFF3
0011
000F
0005
0012
FFEB
0010
FFEF
FFEA
FFFF
FFF8
FFFF
FFFD
FFE9
000C
000C
FFFD
FFED
FFEE
0005
0002
FFFC
000C
0001
FFF5
FFF7
FFFA
FFEC
FFF0
0008
0009
0000
FFEB
0007
FFFE
FFEC
FFFA
000B
FFFA
FFEF
FFF5
000F
FFFD
FFFB
0012
0006
FFF9
FFF6
FFF4
0002
FFF0
000A
0007
FFF6
0005
0004
FFF1
FFF0
0010
FFF9
000D
0011
0002
FFFF
0005
0013
0005
FFE9
FFE8
FFFF
FFE8
FFEA
0004
FFED
000D
FFF3
FFED
FFF1
FFF9
0007
FFFC
FFFB
000B
0002
FFF1
000A
FFF3
FFFE
FFFB
FFF3
FFFF
0005
000F
FFF9
FFE9
0004
FFEB
FFFC
0010
000F
0006
0014
FFF7
0010
000B
FFFF
000D
0005
FFE8
FFEE
FFEA
0001
FFF3
000F
0010
FFFE
0003
0000
FFF5
FFEE
FFF9
0004
0001
FFE8
000E
FFF8
0013
0007
FFFA
FFE9
000A
0007
FFF9
FFF2
000E
FFF7
0003
FFF4
0010
0002
FFF1
000D
0010
000E
0011
FFF5
FFF2
FFEF
000D
000D
0000
FFFF
0002
FFEF
0003
FFEB
FFF4
FFF4
FFFE
FFE8
FFF7
FFFE
FFFE
0012
000F
FFFE
FFFD
FFEA
FFFC
000F
0012
0014
0012
000A
0006
FFED
0001
0008
FFF8
FFF7
0002
FFEE
FFEE
FFF7
FFF0
FFE7
0000
FFEC
FFF7
FFFA
0007
FFE8
FFFE
FFEE
000E
0001
0013
0001
FFEB
0007
000D
FFEC
0003
0007
0003
0012
0014
FFE9
FFEF
FFFA
FFF1
FFF5
FFF5
FFF4
0005
FFF3
FFF6
FFF7
FFF4
0011
0003
0000
0001
0009
FFF8
0002
FFF6
0005
0001
000A
FFEF
0013
FFF2
FFEC
FFEC
0005
FFED
FFF1
0007
0005
0005
0015
0004
000A
FFF3
0010
0008
FFFD
FFEC
0012
0001
0007
FFF7
0009
FFE8
FFF8
0018
FFFA
0019
FFF9
FFEE
0018
0015
FFEA
000E
000C
0000
FFF3
FFFC
0016
0005
0015
FFF6
FFFA
0016
0002
FFFD
FFFB
FFFE
0007
0016
FFFD
0016
0004
0012
FFFE
0008
FFF8
000A
0006
FFFD
0012
0016
0016
000A
FFF1
FFF1
000F
0007
FFEE
FFF5
000B
FFFC
0012
FFF9
FFF5
000D
FFF3
FFFB
0001
0006
FFF9
0002
000E
FFFF
FFF4
0001
0008
FFFD
0010
0014
0000
0012
000D
FFF6
0009
FFF0
0005
0016
0002
FFFB
FFF9
FFF6
FFF9
FFF9
0006
0016
0005
0004
FFFD
FFF5
000A
FFF5
0018
0001
FFF6
0002
0000
FFF8
FFF3
0015
FFEF
0006
FFFB
0009
0006
0015
0012
FFEF
FFF7
0014
0002
0010
0014
FFF4
FFF1
0002
0004
0003
FFF6
0009
FFEE
001A
FFFC
0002
000F
000C
0014
FFF1
FFFA
FFF4
000F
FFFA
FFEE
FFE9
FFEA
000C
0016
0011
FFFB
FFFC
FFFB
0008
FFEC
0015
0005
0014
0003
0012
FFFA
FFF2
FFF0
FFEC
000F
FFEE
000F
0001
0003
0016
FFF9
0015
FFFA
FFEA
000E
0005
0004
FFFC
FFFF
FFF2
FFFB
0007
0012
0005
FFFC
000C
0004
FFFA
000A
0002
FFF9
0002
0000
0004
FFE9
0015
FFFC
0002
FFEA
0007
FFF3
FFF0
FFF0
FFFE
0005
0004
0000
FFFD
0013
000F
000E
FFF7
0014
000C
0001
FFEF
FFF7
FFEE
FFF7
0000
FFFC
000B
FFFC
FFED
FFED
0004
0012
FFFE
FFFE
0016
FFEE
FFF2
FFFB
FFF1
FFF2
0001
0004
000E
0007
FFFE
FFF5
0010
000D
FFF1
FFE9
FFFA
FFF0
000F
0013
FFFE
FFE9
FFF9
0015
FFED
FFEC
0008
000F
000F
FFEE
0011
0000
FFED
FFEE
0015
0001
FFFE
FFEA
0008
0016
FFEF
0008
0007
FFF4
FFFE
0006
FFF1
FFED
0000
FFF1
FFEE
0000
FFEE
FFF3
FFF6
000B
FFF3
FFF0
FFE7
FFF5
0010
FFEA
FFFA
FFF1
FFF4
FFFA
FFFA
000C
000B
0016
FFF6
0005
0018
0017
FFED
0010
FFF7
FFED
0006
FFF9
0017
0018
0015
0008
0015
FFED
000F
0018
FFF0
FFF0
0002
FFF8
FFF2
000D
000B
000B
FFF2
000E
0014
FFEC
0014
0009
FFFB
0008
FFF3
000D
000C
000B
0004
000C
FFF4
0005
FFFC
0008
0001
FFFD
FFFB
0011
FFF6
FFF3
FFF4
0013
FFFF
0005
000C
FFF7
0004
0018
0000
0008
FFF5
000A
FFF9
0018
FFEF
FFF5
0008
0006
FFED
0019
0001
FFF5
0008
FFF6
FFEC
0004
000C
0002
0001
000F
000E
FFF3
000A
FFFB
FFF7
0017
0008
FFF0
0005
0009
0017
000A
FFED
FFF7
0009
FFF2
FFEE
0003
FFEC
FFF3
0004
000E
000D
FFEE
0001
FFF1
FFFF
001A
001B
FFFD
0018
001B
FFFA
0009
FFF3
0004
FFF3
0011
0015
0007
000A
FFFC
000C
0010
FFF4
0016
0000
FFF3
0012
0006
FFF5
000D
FFF4
0013
0017
0015
FFED
FFF8
0006
FFF1
FFEF
FFED
0001
FFF3
000C
0010
0019
000B
0001
001A
FFF4
0012
FFFD
0015
FFFB
0009
FFF6
0004
000C
FFF0
FFFC
000F
FFF0
FFFF
0009
0007
0011
0015
0015
0013
FFF1
0013
FFFC
000C
0016
000E
0002
000A
FFF2
0001
FFEF
FFF1
0013
FFFA
FFEF
FFF8
0004
000E
0004
FFF0
0010
FFF0
000F
0012
0018
0017
0015
000E
0004
FFF2
FFF3
FFEC
0010
FFF6
FFF1
0010
0000
000D
FFF9
FFFE
000B
0007
0000
0010
001A
FFFF
0011
FFF5
0001
FFED
FFF9
FFFF
000F
FFFB
0004
FFFD
FFE6
0014
FFF0
0016
FFF5
0018
FFFB
0009
0005
0019
0004
FFF6
FFF5
FFFF
FFED
0007
FFFB
000F
FFF0
0017
001A
0010
0011
0007
FFEE
FFF4
0012
FFF1
000A
FFF4
000F
0001
FFF7
0003
FFF6
0017
FFFA
000B
000F
0010
000F
000C
FFF5
FFEF
FFF9
000A
001B
0008
001A
FFEE
FFF8
FFFD
FFFD
0006
FFED
000E
FFFE
0016
0003
FFF2
0014
FFF7
0008
FFF3
FFF5
0002
FFFA
0009
0010
0018
0003
0005
FFF5
0008
0005
0012
0005
0016
0012
0015
0011
0006
0009
FFFD
0008
FFF2
FFFE
000A
FFF7
0000
0011
FFED
0000
FFEF
FFF7
FFED
0014
FFF4
0011
FFF4
FFF0
FFF0
FFEB
FFF0
FFFD
0015
0004
0009
0008
FFE6
FFF9
0018
001A
FFF1
FFEF
0011
FFFB
0018
FFEE
FFF8
FFF3
FFF3
0008
FFF5
000C
000C
000D
0009
FFED
001A
0013
000B
000E
FFF0
FFFD
000B
FFEA
0010
0006
FFEF
0005
0008
0011
FFF0
FFF6
0012
FFF5
FFFC
000A
0008
FFF2
FFFC
000F
0011
FFE7
FFEC
FFF0
FFFF
0004
0009
FFF5
FFFB
FFEC
FFE6
FFEE
FFED
000E
FFEA
0005
FFF9
FFF6
0007
000B
0012
FFEE
0002
FFEF
0006
FFF5
FFF6
000B
000F
FFEF
FFE8
FFF3
0006
0000
0006
0000
FFF2
FFF3
FFF5
000C
FFFB
000F
0000
0009
FFE9
FFFF
FFF5
FFF3
0001
FFF0
0006
0003
0015
000D
FFF9
FFFC
0013
FFE9
000D
0012
0006
0011
0007
0009
FFEC
FFFE
0003
FFEF
FFEB
FFF7
FFF3
FFEF
FFF3
0002
000F
0010
0006
0012
FFEB
0015
FFF4
FFFC
0004
FFF3
FFF9
FFEA
FFFA
FFFF
0011
0007
FFF2
FFF2
FFF4
FFEA
0004
FFF9
FFED
0012
0010
FFEA
000E
FFEF
0006
0011
0005
0001
0008
FFF7
0008
0012
FFEE
0010
FFFB
FFED
0003
FFEA
000F
FFEE
FFE7
0007
0003
FFF3
0011
0010
FFEE
FFFC
000A
FFF5
FFEC
FFF3
FFEE
FFEF
FFFA
000B
FFF9
FFFF
FFF6
FFEC
FFF6
FFEB
FFF9
FFF0
0011
FFE8
FFF7
000A
FFFB
000E
0003
FFFF
FFE8
FFFE
FFF3
0006
FFF5
0005
000C
FFF9
FFF5
000E
FFF0
0009
FFFC
FFF0
000E
FFF5
000D
FFFD
FFEC
0011
FFFF
000C
0001
FFF1
0014
0013
FFF4
0002
FFFB
0003
000D
FFE8
FFED
FFF2
FFEE
FFFD
FFF1
FFF3
0010
FFFA
0012
FFF5
0002
0003
0004
FFEE
FFF2
FFF8
FFEF
FFFF
0007
0014
FFF9
0010
000E
FFF3
000B
FFF9
FFF0
FFE8
000C
FFF3
000B
0003
FFEB
0001
0004
FFE9
FFF0
0002
FFF1
000C
FFFE
FFF9
FFFF
FFFF
FFEE
0012
000A
0011
FFF3
FFEC
FFF4
FFEC
FFF5
0016
0012
FFF2
FFF8
FFEA
FFFC
0013
000F
000C
FFFC
FFFE
0014
FFF2
FFF2
000B
FFF7
0001
000F
0008
000E
FFF3
FFF5
0002
0015
0015
FFEF
FFFE
0010
FFEA
FFF5
FFF8
FFF6
0006
FFFD
0002
FFFA
0002
0008
000E
FFEB
0016
FFFA
FFFE
000C
000E
000B
FFF7
FFED
0006
000E
0003
FFF3
FFFE
FFEC
0002
0013
FFF6
0006
0005
FFFF
0006
0002
0006
0001
FFF5
FFEE
FFEE
FFEE
FFF4
000F
0016
000E
0005
000D
FFFA
0010
0002
0014
FFED
FFFB
0015
0011
FFEA
FFF6
0003
0014
0009
0009
0000
FFFB
FFEE
0007
FFFA
FFF1
0002
000F
FFFF
0012
0001
000E
FFFF
0006
0004
FFEB
FFF7
FFFD
0015
FFEC
0010
0012
FFFA
000D
FFF2
000D
000B
0003
FFFE
FFE7
0013
000A
0015
FFF2
0002
FFF7
FFFE
FFF6
0011
0017
FFFD
FFFB
0003
0011
0001
0009
FFF8
000C
FFFA
FFF3
0004
0002
0012
0006
FFFB
FFF1
0019
FFFE
0012
FFF1
FFF6
000F
0000
FFF8
0013
0008
0009
FFFB
FFF9
0000
FFF3
FFFC
FFFB
0009
0013
FFF4
0005
FFF4
FFF0
000E
0017
000B
0004
FFF1
000D
0007
FFF5
0019
FFF0
0015
FFF2
FFFA
FFEE
0001
000A
FFFF
FFF2
FFF0
000F
000D
0016
FFF8
FFF7
0004
FFFF
FFF5
000C
FFF3
0006
0011
FFEE
0006
FFFC
000F
FFF1
FFF8
FFF6
FFEE
000B
0017
FFFC
FFF8
FFFE
FFEE
0013
0004
FFF2
FFFE
FFFF
000F
0004
000C
0007
0004
0016
FFF9
FFFC
0009
0011
FFF8
0005
FFF3
0009
0009
000B
FFEC
0016
000E
0007
0007
0009
0000
000D
0013
0012
0018
0002
0001
FFF9
0014
0000
0018
0008
0013
0004
000D
FFF5
FFF1
FFEF
0011
0004
FFF5
000D
FFFF
0012
0008
FFFC
FFF9
000C
0001
FFF7
FFF9
FFEE
0002
FFF9
000C
FFFB
FFED
0016
FFF6
FFEE
0010
FFE9
FFF9
0002
FFEF
000E
0011
FFFB
FFE6
FFF2
000E
FFFB
000E
000F
0009
0000
000F
FFF8
FFFF
000E
000D
FFFA
000F
000E
FFF8
FFE8
0003
FFF9
FFF3
FFEE
000B
0009
FFFF
FFEE
0010
0003
FFF7
0006
0006
FFFC
000A
FFFA
FFFD
000F
FFF2
FFF3
FFE8
FFF3
FFE8
FFFE
FFEA
FFF1
FFF4
000D
FFF0
0000
FFFE
0007
0001
FFF2
FFE9
0006
000D
FFED
0003
FFFD
000E
FFEE
FFF8
FFFB
0006
FFFF
FFFB
0011
FFEE
FFF6
000E
0007
FFF4
0001
000B
FFEE
0012
FFE9
FFEB
000B
000F
000C
0001
FFE8
FFF5
0003
0010
FFF1
FFF2
FFE6
000C
FFF8
0003
FFFD
0007
FFEA
FFEC
0003
0007
FFF3
0004
0014
FFFB
FFEE
0014
000F
0010
0011
0006
FFF9
000E
0019
0008
FFED
0005
FFF8
0011
FFF9
FFF9
FFF6
000D
FFED
0019
FFFB
0019
0016
000A
000C
FFF1
FFF2
FFFF
FFF7
0004
0003
FFFC
0009
000F
FFEE
0004
0015
FFF8
FFF9
000A
0019
0009
001A
FFF8
FFFB
000B
000A
000F
0018
0003
0007
FFFC
000B
0003
0012
FFF8
FFFD
FFF9
FFFB
0008
FFFE
FFF3
0008
0016
0014
0004
0005
FFFB
0009
0000
FFF4
0010
FFEC
FFF5
FFF0
0000
0006
0013
FFF6
000D
000B
FFF0
FFF1
FFF9
0017
000C
FFFD
000E
000B
0005
0012
0010
0004
0003
FFEE
FFF0
FFEA
000C
FFEF
FFF2
FFFE
FFEE
0009
FFFF
0014
FFFF
FFF4
FFF0
0012
0010
FFF8
0017
000E
FFEF
0011
FFF3
FFF8
000A
FFFE
0012
FFFB
0014
0002
FFF5
000C
0010
0009
0003
FFF2
FFF0
0004
FFEF
FFED
FFF1
FFEC
0012
FFFD
000F
FFEF
0011
0007
0001
0012
0015
000F
FFED
FFFD
FFED
FFEF
000C
0015
0009
FFFE
0006
0002
0013
0005
0001
FFFB
0018
FFFC
0002
0015
FFEC
0012
FFF6
0018
0016
FFFC
FFFE
0013
FFFF
0019
0013
FFEB
FFF1
0000
0007
0013
FFF0
0005
0011
FFF6
0006
0002
FFF5
0019
0012
FFFC
0008
0003
FFFB
0011
FFFC
FFF3
FFF1
0010
FFF9
0003
FFEF
0015
FFF5
FFFA
0008
FFF8
0003
FFEA
FFFA
FFEC
0013
FFF7
FFF5
0011
000B
FFEF
000D
FFEC
FFF6
000C
FFF8
0009
FFF7
0011
0012
0000
0016
FFF3
FFEE
FFF6
0012
FFF1
0007
FFEF
FFF1
0004
FFFB
0007
0017
000E
FFF5
0005
0004
0015
000A
000E
FFF1
0015
0016
FFED
0014
0009
0006
FFF8
FFFD
FFF1
0000
000C
0010
0000
FFFF
0004
0013
0013
FFF2
FFF7
000B
FFEF
FFF7
0011
FFF7
FFF3
FFF2
000E
FFFB
FFF3
FFF9
0010
FFF6
FFFF
000C
0010
FFF7
0008
0009
000E
FFFD
0000
FFF5
FFEF
0011
0010
000C
FFF4
0016
FFFE
0019
0002
FFEB
FFFF
0008
FFFD
0004
FFF7
FFFD
0005
FFEC
0011
FFF2
0016
FFFD
FFF8
0012
0012
0003
FFFB
000F
0005
0011
0007
0018
FFED
FFFA
0008
0010
FFF2
FFEE
FFFF
0014
FFEB
0018
0001
FFED
0008
000A
000F
0017
FFF2
0017
FFF0
0015
FFFF
0001
FFFE
0000
0018
FFF6
0000
0003
0009
0001
0009
000E
0014
0000
0001
0011
FFEE
FFE8
0008
0012
FFF0
FFFD
0011
0010
0001
FFF4
000B
FFFA
0004
0015
0000
FFF9
0014
0016
FFFC
FFFE
FFE7
FFF4
000F
FFFD
FFF6
0004
FFFC
FFFC
0002
000D
FFF2
FFEB
0015
FFF5
FFED
FFED
0000
0000
0010
0009
FFFA
FFF2
0019
0007
FFF3
0014
0012
FFF0
0016
0017
FFFE
0010
0014
FFFF
0019
0013
0011
0012
FFFA
0005
0001
001A
000F
FFFE
0006
FFFE
0013
0002
FFF9
0009
0000
FFF8
FFFA
0019
000F
FFFF
FFF7
FFFA
0001
000A
FFEE
0012
0013
FFEE
0012
FFF0
FFF7
000E
FFEC
FFF9
FFEF
0009
0019
000A
FFFD
0013
FFF7
0000
FFFC
FFFB
FFFE
0007
0006
0000
0008
FFED
000A
FFF8
0014
FFF4
FFF3
0012
FFEE
0012
0010
FFFF
FFEB
FFFC
FFFB
0001
FFFC
0013
FFEB
FFF1
FFF5
0014
000C
0018
0016
FFF6
FFFE
0009
0007
FFF6
000B
FFFC
0014
FFF2
0012
0013
000D
0010
FFEF
FFF5
0006
000A
0013
FFFE
FFEC
FFFF
0018
0004
000E
FFFF
000D
FFE9
0012
FFE7
FFF3
0003
FFF2
0012
0003
0010
FFF7
FFF0
0001
FFFB
0006
FFF6
FFF0
0003
0002
FFF3
0011
0013
0012
0009
000B
0011
0000
0003
FFF4
FFED
FFF0
FFFE
FFEF
0000
FFF6
0013
FFFA
FFF6
FFFB
FFF0
000F
FFFF
FFF8
FFFF
FFF4
FFEA
0007
0007
FFEA
0001
FFEE
000C
000D
0011
0003
FFF9
FFFB
FFFF
0002
FFF1
FFFA
000F
FFFA
0013
FFFC
FFFA
0007
0006
FFF9
FFFE
FFF6
000B
FFFD
FFF0
FFF4
0003
0010
0002
FFFC
FFF5
0000
0006
FFEA
FFE9
FFE8
000F
FFEC
0002
0005
FFFD
FFFE
0003
000E
0011
FFFB
FFEC
FFFF
FFE7
FFF5
FFF9
0004
FFFB
000A
000C
FFF5
0002
000C
FFEA
FFFA
FFEB
FFFB
0011
000D
FFF6
FFEE
0009
000B
000B
0004
0008
000E
FFEC
0008
FFF5
0013
0006
0009
FFFE
0002
0010
FFEC
000E
0007
0006
001A
0009
0009
0009
FFF0
0000
FFF1
FFF7
000F
0011
001A
0008
FFFA
0000
FFFE
0012
FFF7
000A
FFF5
0005
FFFB
000D
0017
0011
FFF2
0008
FFEE
0003
FFF2
FFFE
FFFC
0005
000D
FFEF
0012
0014
FFEE
FFFB
FFFA
000F
FFF6
FFFD
0009
FFFD
0002
0006
FFF2
0000
FFF8
0011
0000
0009
FFEC
FFF9
000F
FFF6
FFED
000B
FFFF
0007
FFF7
0012
FFEE
0006
FFFD
0019
FFFC
0004
FFED
000B
0007
FFFF
0001
0010
FFFA
000E
FFFA
000A
0018
0002
0007
FFEE
FFF1
0012
FFEF
0011
FFF8
FFFC
FFF1
0012
0011
FFF3
0003
FFEB
FFFC
0007
000E
FFF9
0002
FFFD
0002
0017
0008
0016
0011
FFF3
FFE9
0010
0005
FFE9
FFF3
FFF7
0008
FFF5
FFF0
FFEE
FFF6
001A
FFEF
0001
FFEA
000C
FFEF
0010
FFF8
000F
0007
FFEA
FFE9
0000
0007
0005
FFED
0005
FFEB
FFF8
FFE8
FFF0
FFFB
000F
FFF0
FFF7
FFE8
000F
FFF2
FFF3
0008
FFEC
FFF8
0004
FFEF
0009
0004
FFF0
FFF8
FFFA
FFEC
FFFF
0015
0003
FFF4
000A
FFFD
0001
0008
000C
0012
FFEC
FFF7
FFFA
0004
0004
000A
0009
0011
0011
FFF6
FFF9
0011
0005
000B
FFF5
FFF3
0008
FFEA
0007
FFFC
0002
FFE9
FFF9
000A
FFEF
FFF9
FFF5
FFF6
0009
FFF8
FFFC
FFED
0002
FFF9
0013
FFF7
FFF5
000D
FFEC
FFF3
0002
0005
FFF6
FFF3
FFFB
FFFA
0012
000B
FFFE
0008
0000
FFEA
0003
0014
0006
000F
FFF7
0011
0008
FFEB
FFF5
FFFA
FFFA
FFF0
FFF9
FFEB
FFEF
0006
FFE8
0012
FFF0
FFEE
000E
0008
FFEA
000E
FFEC
0014
FFF8
FFFB
FFFD
FFEF
FFF5
FFEC
0006
FFF4
FFEE
0001
000B
0006
FFF5
FFEA
000D
000F
FFF5
0006
0009
0007
FFFC
000F
FFF7
FFEB
0012
FFFF
FFF0
FFFE
FFEF
FFFF
FFF5
FFF5
FFF8
0005
0006
FFE8
0006
FFE9
FFE8
000E
FFE8
FFEE
0005
FFE6
0002
FFE9
FFF7
0006
0002
000D
FFFE
0006
0001
FFF4
000A
FFED
FFEF
000D
0002
0005
FFFD
FFF8
0011
0000
FFFF
000C
FFED
0008
FFEF
0006
FFFE
0001
FFF3
FFEA
FFEC
FFF9
000A
FFF9
0013
0008
FFF7
FFF4
000D
000A
0004
0000
0008
0000
000A
0003
FFF1
000F
FFFA
FFEE
FFF7
FFE8
FFF0
000E
0007
FFF1
FFFD
000D
0001
FFF2
0007
FFE9
0008
FFF9
0010
000D
0013
000F
FFF1
FFF0
FFEB
0005
000F
0016
FFF5
0010
FFE7
FFF9
000D
000E
000C
FFF6
FFE8
FFF5
FFEE
0008
0016
000D
FFFD
0011
0012
000F
0001
0012
0017
0003
0017
FFFF
FFF6
0019
FFEF
FFEF
0013
0001
FFFE
FFEE
0002
FFFF
000C
0012
FFEE
000B
0019
0017
001A
FFF4
FFFE
FFF8
0017
0003
0006
000E
0010
FFF8
FFF8
0007
FFF4
0018
0005
FFFB
FFED
FFFB
0015
0017
0017
000C
FFF4
0009
0002
FFF4
0014
FFF4
0010
000F
0002
0010
FFF1
0009
0011
0015
0003
FFF7
FFF5
FFFD
0007
FFFE
0005
0004
0016
000E
0005
FFF8
0000
FFE9
000B
0012
FFFC
0004
0017
FFF8
FFF7
0019
0003
0004
0018
FFF1
0011
0011
0015
FFF9
0002
FFF5
0001
FFED
0006
0006
FFFB
FFF6
FFF8
0019
FFFB
0019
FFED
FFFF
000B
0011
FFF9
0005
FFF9
FFF8
FFF1
FFF4
0016
FFFB
FFF6
000C
FFFC
0015
0008
FFFF
0005
0001
0014
FFF9
FFF4
FFE9
0013
FFF2
FFEA
FFFB
0013
0000
FFFC
FFE9
000B
0014
0002
0000
0011
FFF8
FFFB
0015
0005
FFF2
FFFA
FFEC
0009
0008
FFEC
FFF6
0015
FFF5
0001
0001
0015
FFF7
FFF1
0001
0012
FFF5
0009
FFF1
0000
0001
FFFB
FFFD
0006
FFEB
FFF8
0006
FFF0
FFF8
FFF0
FFF9
0012
FFFF
0010
FFFE
000F
0000
FFF4
FFF0
0004
FFEE
FFF2
FFEF
FFEA
0001
0000
000A
000E
FFF8
000F
FFEB
000D
FFEF
FFF0
0003
0013
FFFE
0010
0000
000A
FFEB
FFE9
0008
0003
0001
FFFC
FFEE
0002
0007
0001
0015
FFF4
FFF6
FFEA
FFFA
FFFF
000B
0009
000A
FFED
000B
0014
FFF2
FFF9
0005
0010
0015
FFF8
0014
FFEB
000D
0013
FFF1
0001
0015
FFFA
FFFB
000E
FFEB
0006
FFF5
000E
0000
FFF2
FFF6
FFED
FFEA
000E
000C
0000
FFED
FFF2
0011
0001
FFFF
FFFA
FFF0
0012
0011
FFF1
000E
0001
000F
000A
000D
0010
0008
FFEC
FFF1
0011
FFF5
0006
0013
FFF3
FFF3
0015
0012
0003
000F
FFF1
0003
FFFA
FFFF
FFF6
FFF8
0001
FFF3
0007
0009
FFEA
0004
FFF3
FFF1
0006
FFEF
FFFC
FFFC
FFFE
FFF1
0011
0005
FFF9
0004
0017
0008
FFED
FFEE
0017
FFF8
FFFF
FFEF
000A
0017
0013
000F
FFED
FFF7
000D
0007
FFF0
0017
000D
FFF7
0001
0003
FFFE
FFFE
000D
0013
000F
000A
0005
FFEB
FFF1
FFF8
000A
FFEC
FFFC
0002
0013
FFFF
FFF6
0012
FFF5
0001
0006
FFF1
0006
000B
000B
FFFF
FFF2
000C
000A
FFFD
FFEE
0009
FFEE
FFFB
FFFC
0016
000E
0007
000E
FFFC
FFF8
000C
0012
000D
0017
FFFF
000C
000A
000A
FFE9
0014
0009
0001
000A
FFE9
FFF0
FFF0
FFFB
0012
FFF5
FFE9
0001
000F
0003
0013
FFEE
FFFE
FFFA
0011
FFEC
000C
FFE8
FFF5
0005
000E
FFE8
0008
FFF0
0001
FFFD
000E
0011
FFF0
FFFD
000E
FFF5
FFEE
FFED
0000
FFF0
000B
0011
FFF3
FFED
000A
0006
0009
FFE6
FFEB
FFFA
0008
0007
FFF9
0010
FFE7
FFFE
0007
FFFB
000A
0000
0004
000D
FFF9
FFF8
FFF2
FFE9
000B
000C
FFF8
FFF7
0007
FFF7
FFF6
FFE9
0013
0001
FFF6
FFEE
000B
FFF7
0011
FFFF
FFF4
FFEF
0006
FFFF
FFF8
FFED
FFEF
000D
FFF4
0002
FFFF
FFF2
0007
0008
0002
FFEC
0011
FFE9
FFF8
FFF1
0000
FFF6
0005
0005
0012
FFF9
FFEE
000B
FFFE
000E
000B
FFEB
FFFB
FFF2
FFEB
000B
FFEB
FFF5
FFF3
FFF0
FFE9
FFF9
FFE6
0009
000E
FFFB
000B
0005
FFEB
FFFD
FFF2
0011
0009
0003
000B
0002
FFEF
FFF5
0009
0019
FFEC
FFFE
0005
FFFD
0000
000D
FFEA
0007
FFEF
000D
0006
0005
FFE9
FFE8
FFED
FFFD
0014
FFF4
FFFD
0014
FFF1
0007
FFF0
FFFE
0004
0018
FFF8
0003
FFF8
FFE9
0009
FFF4
0008
0012
0014
FFF6
FFFD
0006
0017
FFF4
0014
FFEC
0018
FFED
FFE7
FFF1
FFE9
FFFE
000D
FFF2
0010
FFF1
0012
0016
FFFB
0014
FFFD
0004
0016
FFFD
FFED
FFE8
0018
0002
FFFF
FFFC
FFF0
FFFF
FFE6
0003
0013
0020
FFE6
0014
FFFA
FFE5
FFF7
001E
0013
0023
0018
FFF9
000A
0017
0013
0019
000C
FFFB
0018
0010
0012
FFFB
0001
FFFC
000C
0011
FFF9
001D
000D
0012
FFF5
0013
FFF2
000F
001E
FFF7
FFF6
0014
FFF1
FFEC
FFF7
FFF7
0023
0013
FFFE
FFEC
001D
FFFD
000F
0013
FFFD
0016
FFEB
0015
000E
0007
FFEF
FFEF
FFFB
000C
0005
000B
FFEC
FFED
FFFA
FFDA
0008
0013
FFEC
0000
0019
001C
FFE0
FFE9
FFE4
0013
FFE5
0011
0017
FFFC
0017
000A
0006
0004
FFF2
0002
0002
FFE9
000E
0017
0004
FFED
000A
FFF6
001B
FFF6
000D
001A
0003
0004
001A
000B
FFF0
FFE0
0007
000A
FFF2
0009
FFFE
FFE0
000C
0007
FFE1
FFEA
FFE0
FFEC
FFDC
FFFF
FFEF
000C
FFE6
001A
0003
0007
FFE0
FFE1
0010
FFFA
FFF5
FFF7
000A
FFF7
FFED
0007
FFE1
FFFD
FFFB
0006
0012
FFE7
0004
0012
0006
FFE9
FFFA
0000
0017
0008
000E
FFF6
FFF0
000A
FFDB
FFFF
FFFB
FFF5
FFEC
000A
FFDD
FFDE
000D
FFE6
FFF0
FFEB
FFFB
FFFD
0019
FFE2
001E
FFF7
0003
0004
FFFB
000C
FFE8
0018
000B
000A
0004
000D
0014
000B
FFF4
001F
0012
FFFF
FFEA
001B
0020
0006
FFEA
FFEF
000F
FFFC
0006
001A
FFF9
0022
0018
FFF4
FFF1
000A
0009
FFEC
0014
FFF9
FFF6
001B
0008
FFF8
0014
0005
000E
FFE9
FFE6
0000
0021
001E
000C
FFEE
0001
0014
001B
FFFC
0022
0022
0005
001C
FFEC
FFED
0019
001A
0005
FFEA
0015
FFEC
0016
FFEB
0013
0000
FFFF
FFEE
0001
FFF1
FFEB
0012
FFEC
FFE7
FFEE
FFF0
FFE6
FFE1
001C
000A
0005
FFFF
0019
0010
0007
FFEA
0004
FFEA
FFF7
0015
FFF4
FFEF
000A
FFEA
0001
000E
001A
FFE5
000A
FFFE
FFF1
FFF2
000E
FFFB
000A
001C
FFFE
0015
FFF6
000F
0005
FFE9
000D
0010
0021
FFF2
FFE5
FFF6
0003
FFF3
0016
000A
001C
FFFD
0016
FFE3
001F
FFE9
FFFC
0007
0000
FFFD
001B
0023
0021
0004
0001
FFEC
FFF2
0016
001B
FFFB
0003
FFF3
FFFF
FFF7
FFF4
FFF4
001F
FFF9
001D
FFF6
FFEA
FFE7
0004
0019
001C
0014
FFEE
0022
000B
0020
0000
0014
FFF4
0011
001D
FFEC
FFE9
FFFE
0003
FFEC
0008
0000
FFFD
001A
0014
FFE8
FFEC
0019
FFFD
001B
FFEC
FFFC
001C
000B
0001
FFEE
0002
FFE7
000A
0005
0005
0006
FFEA
FFFC
FFF1
0012
FFE8
0010
0015
FFFC
0004
0017
FFE9
0006
FFF8
FFE2
FFF6
0003
0016
FFEB
FFE0
0003
0001
FFF1
FFE5
FFF5
0012
0009
0015
FFF8
0016
FFE7
FFDD
FFF9
000B
FFE5
000A
0010
000E
FFDF
FFF9
0001
FFE4
000C
0013
000B
000B
0017
FFF6
0003
FFFE
000F
0014
000F
FFEB
FFE4
FFF2
FFE7
0014
0014
0006
FFF3
FFDD
0006
0016
FFE8
FFFD
0013
FFF8
0009
FFFE
FFEC
000C
FFF6
FFF3
FFF0
FFE7
FFF7
000C
FFF5
0020
0017
FFE9
001F
FFF6
0016
0010
FFE7
FFFA
001D
0002
000C
0012
FFE9
FFE6
0017
0001
FFF3
FFF0
000F
FFFB
001C
0011
FFF8
000D
FFEB
0004
FFFC
000D
000D
0022
0019
0016
0011
FFED
0004
000B
FFE5
0000
0017
0006
FFEE
0004
0017
0003
FFFA
000A
001A
FFF8
FFEB
0009
FFF1
FFEF
000D
FFE0
FFE0
FFE8
FFDF
0000
0018
0005
000F
FFFE
FFE8
FFDF
0006
000C
FFF3
FFFF
0006
FFE7
FFF4
FFF7
FFF8
0018
FFE3
0002
0015
FFDE
FFEF
FFFB
0009
0011
001D
0007
FFF6
0006
0014
0011
001C
0003
FFE5
FFF3
FFE6
000A
FFFD
0016
FFF1
0010
FFF8
FFE7
000A
0000
FFF0
000B
FFFF
0019
001C
FFE6
0011
0003
FFFA
0006
001B
0006
FFE1
001A
FFFD
FFFF
0005
FFE6
0000
FFFB
0015
FFE7
FFE7
FFE5
FFEF
000C
0009
FFE0
0002
FFFE
FFE4
FFF9
FFE3
FFF0
000C
0011
FFEB
001D
FFF2
0007
001B
0006
FFF3
FFE0
000C
0016
FFE6
FFE2
FFEB
FFE8
0012
FFFC
FFE6
FFFB
0012
FFF6
FFF0
0006
FFF2
FFE0
FFEA
FFE4
FFFC
FFF1
FFFE
0014
FFF0
FFED
FFF3
0004
0009
FFED
FFF9
FFE6
0013
0023
FFF4
FFEF
000D
000B
000E
0014
FFF3
0013
0024
FFFF
0016
0011
0013
0001
001A
FFF7
0005
0013
001E
000C
0022
FFE8
FFE4
0012
000E
FFE8
000D
0015
0005
0019
0007
001D
0005
000B
0020
000E
0001
FFE7
0008
FFED
000E
0003
FFE8
001A
FFF7
0016
FFE9
001F
0014
001A
0012
0015
0006
0004
000A
0004
0002
0004
FFEC
0015
FFF1
000F
FFFF
FFF3
FFEC
001B
FFE9
0004
000E
0022
FFE7
FFFB
FFF1
001B
001C
FFF4
FFEC
0014
FFF9
FFEE
0008
0018
FFEC
FFF6
FFF4
000C
FFF7
FFF5
0000
FFF1
FFF2
FFEA
0021
000D
000E
FFF5
0019
001A
FFE9
0009
0011
FFFD
FFED
0014
0016
FFEE
001A
000C
FFFB
0004
000B
0020
FFF9
0009
0019
0019
0013
FFF6
FFE5
000D
FFEB
0003
FFF0
0003
0016
FFF4
0007
0005
001D
FFE7
FFF6
0006
FFE3
FFF2
0005
001C
000C
0009
FFEF
FFFC
001D
FFF3
001C
0006
FFFF
FFFE
FFF0
000E
001F
0000
001C
001C
FFEC
000B
FFF7
FFF1
FFF8
0021
FFEB
0015
FFEB
0019
0014
0012
000F
0020
FFF5
0007
0008
FFF5
FFEA
FFEE
0002
0007
001B
0014
001B
FFEC
0009
FFEA
FFEE
FFF8
FFF0
0022
0004
0004
000B
0010
000C
FFEC
0016
FFF8
001B
0019
0001
0004
0013
FFEE
FFDE
0005
FFFE
000D
0000
FFE9
0000
FFFF
FFEA
0002
FFEA
FFF3
0018
0002
000F
000B
000C
0009
FFF1
000A
0007
FFFF
0008
FFF9
FFE2
0007
000A
000F
FFF2
FFFE
0008
FFE2
0000
FFEB
FFFF
FFF3
FFEE
FFEB
FFE4
FFEA
000C
FFDF
FFF4
FFFB
0008
FFF6
0015
FFEE
FFFF
FFED
FFDF
FFE3
0000
FFDE
FFE9
FFF5
000D
FFF4
0008
001D
0010
FFFF
FFEA
001E
FFFB
000B
FFFB
001E
FFEE
0014
FFED
000C
FFF4
FFEA
0009
001E
FFEF
FFFA
0010
FFFE
0013
0009
FFF7
FFFB
FFF7
0016
FFE7
0018
FFEA
000A
0003
FFE3
000E
FFF1
0022
0009
0012
FFE6
000E
0020
0017
FFEE
0013
FFE7
FFED
0022
001D
FFEB
0006
FFFB
FFF8
001B
001E
0004
0001
FFE4
FFF5
FFEB
001B
FFF2
001E
FFFF
0015
FFF0
0003
FFE6
0013
0022
FFEF
FFED
0006
FFFD
000D
0009
001B
FFF8
FFEF
FFF3
0019
000E
FFEF
FFFA
FFFE
000F
FFE8
FFF9
FFE6
0000
0021
000D
FFEF
0008
FFE4
0014
FFE5
0023
000D
000C
FFEF
0019
FFEE
FFFF
001D
FFEC
FFEE
FFF0
FFF1
0022
FFF0
001C
FFFF
0021
0011
0005
FFE9
FFF5
0017
FFE7
000D
FFFC
001D
0001
FFED
0011
FFE8
000E
FFF5
0000
0002
FFF1
0003
0006
FFFE
0013
0003
0015
FFFA
FFFE
FFEF
FFF8
0004
FFEA
FFE1
0016
0002
000C
FFE0
FFEA
0001
FFEB
0002
FFF5
FFFA
FFFF
FFEB
0002
0005
0006
0008
FFF3
FFE9
FFF4
001C
FFEB
001D
0012
0000
FFF2
FFFB
FFF2
0019
0005
0001
0007
0007
FFE5
FFF9
0011
001C
0005
FFF0
FFE9
FFE5
FFFA
0012
0018
FFF4
FFF7
0000
0016
FFDE
FFE7
FFF2
000D
FFF6
000F
0015
0012
000A
0019
0006
FFE8
FFF8
0013
FFE2
001D
FFF1
FFEC
FFF0
0007
000A
001B
FFEF
FFDE
0003
FFE9
0016
FFF0
000C
FFF0
FFDF
FFE6
001E
0018
FFDF
0006
0001
FFF3
0018
FFF8
FFEC
000D
0001
FFE0
FFED
0002
0002
FFF1
001C
FFFF
001A
FFEC
0013
FFE3
FFF2
FFE8
0019
FFF6
000D
FFDE
000B
FFE8
0003
001B
FFDE
001D
FFF4
FFDF
0008
FFEE
FFF3
FFE2
FFE8
001D
FFDE
001B
FFF6
000F
FFFC
0008
0004
FFFE
FFFC
0015
0004
FFFD
FFED
000A
FFFC
FFF8
000B
0018
FFFF
FFF1
FFFB
FFEB
0016
FFFF
FFDF
FFFD
FFFC
FFF1
001D
FFEA
000A
FFF0
FFF2
FFEE
0016
000A
FFE2
001A
FFF8
FFEA
FFF0
FFED
0017
FFF0
000C
0002
FFEF
FFE4
FFEF
0011
FFFB
0015
FFDE
FFFC
000D
FFEA
FFEC
001A
FFF7
0003
0015
0003
FFEC
FFDE
FFE5
FFEA
000B
0016
FFE8
FFEC
0008
FFFE
FFF6
FFEF
FFE4
0010
FFFC
0019
000F
000D
001A
FFEC
FFEE
0014
000F
FFE6
0013
FFE8
0004
FFF5
FFF8
000F
FFEE
0001
FFF5
FFF9
0004
0016
000B
FFFC
0019
FFEC
001A
FFE1
000C
FFEC
FFE2
001C
0009
FFDF
FFFD
0016
FFFB
0010
0007
0014
FFEC
0003
0019
001A
FFFF
FFE1
FFFC
FFE4
0004
0018
FFF0
001A
001B
FFEE
0011
0000
FFEE
FFFB
0011
001A
FFE7
0011
FFFC
0000
001A
FFFF
0019
0012
0000
FFF3
FFEC
FFE8
FFF6
FFE4
FFF8
FFE6
FFE0
0012
0006
FFF6
FFF0
0018
0004
FFE1
FFEC
0001
FFE0
FFE0
000E
0016
000A
FFED
0004
0011
FFFC
FFF9
0003
0009
0015
0012
FFFB
000E
0018
001C
FFEB
0009
0013
0018
001A
0017
001C
FFE3
FFF7
0000
0019
0012
FFED
FFEB
FFDD
FFF2
FFF5
0000
FFDC
FFE3
0003
0001
FFE2
FFFD
0008
0008
FFE2
FFE0
FFFB
FFF8
0015
FFF9
FFF4
FFFE
FFEA
FFF8
0005
FFF8
FFFE
FFFF
001B
FFDF
0013
0010
FFE1
FFE8
FFF5
FFF1
0004
FFE8
FFF0
0015
FFE7
000D
0002
FFEB
FFEA
0014
000C
0009
FFF6
0018
0014
FFF2
000B
FFE9
0017
FFF1
FFFE
0024
FFEC
FFFD
0012
0014
0001
000F
FFFC
FFEF
0011
0007
0000
FFEA
001E
FFEC
FFE7
FFF6
FFE4
FFEA
0023
FFF7
0023
FFF7
0000
000E
0023
000D
FFF9
0017
001B
FFE5
0016
FFFA
FFFB
001E
0005
FFED
FFE4
0000
000C
000E
FFFE
FFEE
FFF3
001C
FFE7
FFFD
000A
000A
0012
FFE7
000B
0007
000A
0018
000F
000E
FFF2
0020
FFF6
0020
000C
000D
001A
FFE5
0002
FFF5
FFEE
FFE9
FFED
FFFC
FFF8
000B
FFF7
000B
FFE8
FFEF
FFFA
0019
0012
FFEB
0000
0005
FFF4
FFE7
0015
0001
0004
FFFE
FFEF
FFE7
FFF6
FFFE
FFEE
0006
FFF5
FFF4
FFE5
FFEF
0012
FFE5
0008
FFF5
FFE6
0011
0003
0004
001A
0006
0011
FFFE
FFEF
FFF2
FFED
0006
0021
000E
0016
FFEB
0014
FFFD
FFF5
0003
0004
0017
0002
FFFA
001D
FFF2
000B
FFF1
0006
FFEA
0017
FFE5
001A
0003
000C
FFF9
0015
001A
0004
0013
FFF2
FFFF
FFF4
FFF7
0008
0007
FFE8
0002
0002
0017
0014
FFF0
001D
FFF7
000D
FFF6
000F
0006
000F
0013
FFFA
FFE4
FFEE
FFDE
FFF1
FFEF
FFFF
FFF3
0018
0016
0016
0013
FFE0
FFE3
FFE0
FFF0
0018
FFF7
FFFF
0000
FFE4
0004
0011
0006
FFE4
0019
FFF6
FFE7
0016
FFDF
FFE0
0013
0005
FFF5
001A
0002
FFEC
FFF3
0010
FFE5
000F
0018
FFF7
000B
0010
000A
0016
000C
000C
FFE2
0013
0014
0018
0004
FFDE
FFFD
0003
FFED
0007
FFEF
0006
FFED
0014
0016
001A
FFF8
000A
FFF0
FFE6
0000
0019
000B
0015
0005
0001
FFF5
0013
001A
FFF5
0010
FFEF
FFE9
FFFF
FFE4
001B
0001
000C
FFF0
0015
FFE6
000C
0019
FFEE
0015
FFFC
0005
FFFB
FFFC
0002
0005
FFF9
001C
FFFD
0019
FFE8
000C
FFF4
0017
FFFB
FFF3
FFFD
0001
FFF8
0019
001D
001F
0015
000B
0010
0020
0020
FFF8
0019
001F
000D
0014
0023
FFF7
0018
001E
000C
000E
0012
001C
0004
0008
001B
0014
FFF1
FFFB
FFFE
FFFC
FFF8
FFEA
000D
FFFA
0017
001C
001B
FFFF
FFF6
0008
0001
FFF9
0004
001B
0006
FFEE
FFF1
001A
FFFC
FFE9
0021
0014
FFEA
FFE6
FFF7
0009
000E
0004
FFE5
0013
FFEA
000A
0022
000D
0001
FFF3
0023
FFF0
001E
FFEE
FFEF
0001
FFFB
001B
0007
FFF7
FFFD
FFE5
000C
FFE7
000C
000B
000F
000C
0018
0003
FFF2
0004
001D
0008
0000
FFF8
0014
001B
0009
0012
001E
FFE3
FFF5
000D
FFF9
001D
000D
FFF8
0019
FFFE
FFE9
000F
FFE9
FFF9
FFEA
FFE3
FFEF
0003
000F
0009
FFDF
0017
FFF7
0005
000E
001A
001A
FFEE
001C
FFF9
FFED
0003
FFEC
000D
001B
0000
000E
0015
FFF9
0008
FFFC
FFE4
FFE1
000A
FFF5
FFF4
0001
0004
0006
0001
0015
FFF3
FFED
0013
FFE4
FFFA
0012
FFF9
FFE0
0003
FFE6
0013
FFFD
001D
FFEB
000B
FFEA
FFDD
0017
0002
FFE3
FFF5
001B
0018
001A
0008
FFF0
FFEC
0013
FFF4
FFFA
FFE7
001A
000D
0022
0015
FFF5
FFE3
FFFF
FFFF
0001
FFE8
FFF1
0020
FFEC
FFEB
FFE7
FFEE
0023
0015
FFEF
FFFF
FFEB
000B
FFE5
0003
FFF7
FFE5
0024
0015
001B
0008
0019
FFEF
FFF2
0017
0016
001C
0000
FFE7
0020
0005
FFFD
0023
0001
FFF4
FFF4
FFEC
0001
0015
000E
0008
FFF9
FFF1
FFEF
FFF2
001A
FFFB
000D
FFE9
0001
0006
0022
FFED
FFEF
FFE9
0023
0006
001C
000B
0011
0019
0009
0018
0005
FFF0
FFF0
001D
0003
FFF1
FFE5
0007
0019
0006
FFEA
0023
FFF9
FFF6
001A
0012
FFFF
0004
0001
000B
FFFE
FFFC
FFE9
0022
FFFC
0002
001D
0001
000A
0010
FFF1
0010
FFFF
0018
000B
0015
0003
0016
FFF7
000C
FFFF
FFE6
0008
FFEC
0003
0015
FFF3
FFE0
0015
FFF2
0013
000A
FFFB
0016
0000
0005
000F
FFFD
FFF2
FFEC
FFF3
FFF3
0006
0014
001A
FFF3
FFED
0001
FFFB
0003
001A
000F
FFF1
FFF8
FFFC
FFEB
FFFE
FFF5
FFE1
0001
FFE1
001A
FFF7
FFE7
0009
001C
0013
FFF7
000C
0011
0012
000D
FFE0
0003
0002
0000
0013
FFF0
0006
FFE4
0015
001D
FFF4
FFF0
FFF4
FFEF
FFFE
000C
0019
0018
FFDF
FFEF
0018
FFEC
0001
FFDB
FFF9
0006
FFE6
FFF6
0002
FFEB
0017
FFED
0009
FFF7
FFDD
001A
FFF4
FFF7
FFF2
0024
0004
0019
FFF2
0020
0014
000D
000C
001E
FFF4
001A
FFF4
FFF9
0008
FFF6
FFFD
FFE6
0014
FFDB
FFE1
0022
0010
0000
FFD7
0029
0005
FFF9
0012
FFF1
000F
002B
FFE7
0023
002C
0026
FFE7
0024
002D
000D
0018
FFEC
FFEE
0008
002B
0007
FFE2
0003
001B
0015
FFE0
0008
FFF5
FFDE
0014
000A
002C
FFF8
0014
0013
FFD6
FFE3
FFE7
FFE3
FFE9
FFF1
001A
0005
FFE9
FFE4
0012
000A
FFF5
0005
0023
0005
000B
