memory_initialization_radix=10;
memory_initialization_vector=
-40,
51,
8,
29,
15,
25,
41,
-38,
44,
39,
-9,
31,
11,
36,
44,
19,
-41,
16,
-7,
19,
-48,
-29,
-28,
-1,
-7,
-41,
-1,
0,
7,
-42,
35,
39,
-40,
13,
-31,
8,
47,
47,
15,
38,
5,
-11,
46,
37,
-25,
-11,
43,
7,
-45,
-24,
-25,
47,
-41,
27,
40,
-18,
33,
53,
-10,
-19,
7,
-22,
-35,
41,
47,
38,
-21,
8,
27,
-13,
44,
28,
-13,
3,
15,
28,
10,
-16,
31,
1,
18,
-10,
15,
54,
-10,
46,
1,
-22,
14,
41,
-42,
51,
34,
-36,
51,
-33,
53,
52,
35,
-14,
-11,
-12,
-24,
5,
8,
35,
47,
0,
-11,
-15,
-26,
26,
5,
27,
16,
7,
4,
2,
-6,
40,
-37,
-20,
-10,
0,
35,
-43,
34,
-44,
-41,
15,
3,
-32,
47,
16,
-29,
-27,
18,
-34,
-19,
-24,
-2,
-36,
35,
26,
-18,
28,
54,
15,
5,
49,
27,
-36,
8,
-19,
31,
-24,
36,
23,
-22,
-24,
39,
12,
-20,
-41,
-25,
43,
-41,
3,
-2,
27,
-40,
11,
-12,
-35,
43,
32,
26,
-51,
-32,
-6,
-21,
-20,
-35,
30,
-46,
-33,
-5,
-36,
3,
-2,
-6,
20,
55,
40,
8,
-35,
-5,
13,
20,
31,
44,
33,
-23,
9,
48,
27,
23,
-39,
35,
29,
-35,
13,
-16,
42,
-8,
-40,
6,
-10,
46,
-7,
-36,
6,
-32,
25,
-29,
3,
-37,
-35,
-51,
34,
37,
-37,
-35,
-36,
43,
-50,
29,
-38,
45,
37,
-35,
-17,
9,
12,
-43,
10,
17,
24,
24,
-34,
-32,
29,
-39,
-41,
41,
31,
42,
13,
9,
-34,
25,
-22,
22,
-19,
-52,
-42,
48,
-26,
-52,
15,
-28,
51,
-46,
16,
5,
-19,
-8,
-24,
-1,
46,
-22,
-41,
-14,
-28,
-9,
-41,
-20,
52,
49,
-7,
39,
12,
-4,
19,
24,
40,
30,
49,
8,
5,
23,
-37,
-23,
22,
30,
1,
-34,
22,
-10,
-46,
-36,
3,
23,
-4,
-11,
-13,
6,
10,
-21,
-45,
36,
19,
52,
14,
37,
-32,
44,
-30,
-45,
-18,
22,
54,
-8,
48,
-27,
37,
25,
-29,
-29,
34,
-44,
-36,
21,
22,
-32,
-4,
-47,
-33,
-36,
-33,
-2,
-47,
-27,
15,
-45,
-10,
-18,
-31,
31,
-8,
40,
25,
0,
8,
-55,
-44,
-1,
-47,
-43,
20,
5,
4,
-54,
-56,
9,
2,
36,
-11,
43,
38,
44,
34,
-34,
-25,
56,
31,
-17,
7,
44,
5,
32,
24,
-7,
49,
-49,
52,
43,
1,
-30,
-18,
-12,
-29,
-6,
-30,
14,
-23,
-2,
-51,
24,
36,
-21,
-47,
16,
-1,
-49,
-3,
50,
15,
9,
-36,
-6,
-12,
-1,
-39,
46,
-47,
21,
21,
35,
-18,
43,
20,
15,
21,
46,
54,
40,
52,
1,
22,
-43,
48,
38,
-36,
-42,
-12,
-47,
-29,
-25,
37,
40,
-24,
-5,
0,
-5,
-34,
53,
30,
23,
-14,
13,
-34,
10,
41,
-16,
14,
0,
-36,
24,
26,
-5,
15,
38,
-43,
-24,
-16,
7,
-47,
5,
-23,
-39,
-48,
19,
-15,
3,
41,
8,
-51,
-41,
10,
-33,
31,
-45,
-28,
-24,
34,
-19,
28,
-48,
9,
-43,
40,
-51,
-24,
-11,
-2,
3,
42,
26,
-11,
31,
29,
-25,
34,
34,
-24,
12,
-51,
-35,
-6,
-29,
5,
-53,
-40,
23,
38,
23,
-46,
-38,
-37,
44,
1,
-24,
34,
19,
-44,
-39,
16,
-20,
2,
-10,
-20,
5,
2,
29,
-31,
-15,
-51,
-40,
46,
-21,
-20,
-33,
-4,
-5,
2,
31,
-16,
-31,
30,
9,
-55,
17,
-41,
17,
-4,
34,
-23,
21,
40,
30,
-21,
-7,
-36,
-15,
38,
-30,
-26,
12,
7,
16,
47,
27,
26,
-34,
-47,
9,
-16,
21,
8,
-16,
-49,
44,
-16,
-43,
-2,
-13,
38,
-4,
-14,
-41,
39,
14,
-39,
9,
-52,
28,
10,
22,
47,
2,
-32,
-29,
25,
-17,
22,
11,
18,
2,
-8,
30,
11,
41,
-52,
-45,
28,
31,
39,
-20,
21,
40,
51,
37,
-4,
-29,
49,
-46,
-20,
21,
-31,
54,
49,
52,
18,
7,
44,
38,
29,
24,
32,
-7,
-46,
7,
-41,
-13,
35,
41,
41,
15,
14,
-7,
41,
35,
-27,
48,
-31,
-4,
-27,
1,
35,
-32,
-51,
-15,
-38,
35,
-1,
11,
48,
-48,
28,
-34,
17,
-1,
-52,
-18,
52,
-49,
1,
-25,
-19,
34,
-1,
28,
-48,
11,
-12,
29,
35,
-45,
47,
37,
-37,
44,
24,
-44,
26,
29,
4,
-29,
-15,
24,
31,
11,
-14,
-5,
35,
-34,
-10,
-51,
-8,
32,
18,
-50,
19,
5,
4,
34,
-42,
8,
-18,
36,
-9,
21,
-26,
-34,
10,
-20,
-1,
-15,
-14,
16,
-12,
28,
39,
50,
28,
22,
-43,
-45,
-52,
-34,
26,
20,
-7,
3,
-24,
-49,
5,
-9,
-44,
0,
-50,
2,
-32,
-50,
25,
-31,
30,
-28,
16,
20,
-44,
16,
13,
-37,
20,
-18,
-11,
-19,
50,
-36,
-26,
-27,
28,
-25,
-13,
35,
24,
54,
-19,
49,
-12,
3,
33,
16,
-41,
26,
55,
31,
13,
-13,
34,
-17,
34,
15,
-29,
-31,
-20,
11,
-11,
44,
35,
27,
-42,
-52,
-50,
-18,
16,
-22,
30,
-28,
55,
15,
1,
-26,
-25,
-49,
15,
44,
23,
15,
0,
-26,
41,
19,
50,
-30,
1,
15,
-30,
26,
43,
-23,
-17,
-48,
-52,
-46,
6,
-38,
38,
-8,
3,
-20,
8,
8,
-1,
-53,
-54,
-18,
38,
42,
-32,
-3,
37,
-9,
-6,
-7,
-26,
-42,
45,
21,
54,
-4,
-15,
-11,
-4,
42,
49,
8,
44,
-39,
-42,
-23,
-33,
-20,
-44,
15,
14,
-7,
-38,
-19,
-38,
22,
6,
-5,
35,
45,
-2,
-22,
-6,
-8,
-23,
-16,
-51,
1,
50,
39,
2,
31,
-10,
7,
47,
-31,
37,
-54,
-44,
47,
40,
-50,
4,
30,
8,
-7,
-21,
-54,
-17,
-7,
29,
-50,
-23,
48,
-4,
-47,
26,
-52,
-13,
-38,
21,
38,
11,
32,
33,
-30,
17,
9,
-31,
44,
-40,
10,
33,
6,
52,
-41,
-32,
10,
-30,
-1,
8,
29,
-49,
2,
-47,
-54,
31,
-47,
18,
33,
27,
-52,
-16,
20,
-49,
-38,
16,
23,
48,
-37,
40,
-6,
-55,
-20,
-25,
-49,
22,
-5,
-52,
-49,
-21,
-6,
-25,
-46,
-29,
-42,
-37,
-36,
-36,
-19,
38,
-4,
15,
17,
-22,
-17,
13,
34,
-18,
-11,
-27,
10,
16,
16,
-38,
5,
1,
19,
-42,
-3,
41,
41,
26,
42,
-47,
23,
50,
56,
24,
-21,
22,
-49,
-25,
9,
42,
-12,
14,
48,
46,
1,
-15,
39,
27,
-26,
8,
-1,
-27,
34,
-11,
-9,
23,
9,
-33,
42,
-22,
-41,
38,
-14,
48,
3,
26,
46,
-20,
9,
-12,
-51,
-43,
-53,
-9,
13,
-49,
21,
41,
-52,
21,
15,
15,
35,
-5,
15,
-1,
-33,
-12,
-33,
-4,
24,
40,
47,
30,
43,
-8,
-1,
-13,
7,
-25,
-21,
3,
-27,
24,
4,
50,
-34,
-2,
-17,
-2,
34,
-37,
38,
42,
-9,
42,
-20,
-22,
38,
6,
-19,
48,
-41,
-24,
16,
51,
43,
27,
40,
0,
16,
38,
36,
-33,
-23,
47,
-19,
33,
-9,
27,
5,
36,
2,
-21,
14,
-26,
53,
32,
-28,
21,
15,
24,
-18,
-17,
19,
34,
-34,
-23,
35,
24,
-23,
-25,
33,
9,
41,
-44,
-41,
1,
-38,
-52,
-30,
-52,
-2,
-46,
12,
26,
-36,
-14,
28,
35,
-53,
38,
-31,
26,
-10,
-28,
14,
-2,
20,
44,
-6,
-35,
44,
28,
-8,
-10,
11,
-23,
-31,
3,
-14,
7,
-24,
-34,
-56,
4,
6,
-8,
-24,
-2,
48,
-18,
13,
41,
-15,
15,
-6,
6,
-2,
37,
-48,
10,
-53,
15,
-18,
-29,
-14,
-20,
-41,
-15,
30,
36,
-5,
-7,
-10,
44,
16,
-40,
10,
1,
24,
6,
45,
5,
-37,
12,
-10,
-57,
-40,
-2,
-50,
41,
25,
3,
-46,
-17,
9,
38,
37,
14,
-46,
8,
36,
-2,
-3,
50,
26,
-53,
-19,
40,
-50,
-15,
-50,
36,
22,
-52,
13,
-11,
41,
16,
-17,
50,
29,
-30,
-14,
-34,
-6,
40,
-12,
-8,
-43,
-12,
48,
31,
11,
-19,
54,
4,
29,
-26,
10,
-49,
9,
8,
-13,
42,
-45,
55,
19,
53,
-6,
21,
-38,
-44,
-28,
7,
16,
9,
38,
-37,
32,
-2,
-21,
47,
-38,
38,
-49,
-2,
19,
17,
44,
-6,
-45,
-27,
42,
-14,
37,
36,
-10,
35,
4,
27,
45,
-14,
-37,
-14,
-10,
16,
-37,
-47,
-8,
36,
8,
-49,
-37,
-18,
-15,
-13,
28,
7,
10,
15,
-19,
14,
11,
-44,
-9,
-46,
-32,
28,
37,
16,
20,
-26,
22,
45,
44,
2,
36,
-7,
-20,
7,
-43,
22,
34,
43,
22,
-19,
0,
18,
-44,
-27,
19,
-35,
-16,
42,
-21,
40,
24,
24,
-42,
-46,
15,
-29,
49,
24,
50,
-19,
36,
-36,
-47,
5,
11,
30,
27,
-40,
45,
20,
3,
-4,
45,
39,
-4,
-34,
9,
42,
-43,
-38,
40,
-16,
-5,
25,
44,
-27,
-44,
16,
-22,
-47,
22,
-19,
-11,
45,
46,
8,
11,
-51,
39,
-49,
-29,
50,
30,
-41,
40,
0,
50,
46,
-7,
-49,
-5,
25,
46,
45,
-9,
30,
11,
34,
40,
-19,
31,
40,
11,
32,
-4,
-21,
45,
-37,
-2,
0,
-11,
20,
16,
-30,
13,
-55,
38,
-30,
-51,
-54,
29,
-31,
-24,
-43,
9,
25,
-35,
-3,
2,
-29,
39,
50,
-16,
-2,
-45,
9,
23,
-41,
23,
-31,
-26,
50,
30,
-17,
-33,
44,
27,
-47,
32,
41,
-10,
-7,
-21,
-40,
-40,
5,
16,
9,
47,
33,
-6,
-43,
25,
2,
-13,
0,
35,
27,
-17,
-22,
-32,
27,
-11,
29,
-54,
30,
35,
-7,
35,
45,
7,
44,
45,
16,
27,
12,
-4,
44,
3,
22,
-41,
-6,
-2,
46,
11,
6,
42,
-9,
46,
-41,
1,
-13,
-12,
-32,
-32,
-4,
26,
25,
-47,
24,
7,
-7,
16,
14,
44,
11,
40,
-55,
47,
-26,
-18,
-24,
-2,
4,
49,
-31,
22,
-31,
12,
-3,
34,
1,
46,
12,
-44,
-15,
46,
-41,
0,
-18,
-2,
25,
-22,
9,
34,
-55,
-42,
-3,
6,
-3,
-36,
-15,
-41,
32,
-19,
-49,
24,
-6,
36,
47,
42,
-28,
-24,
-1,
-22,
20,
1,
24,
-39,
-9,
-8,
13,
-2,
0,
11,
-25,
-26,
47,
-26,
16,
-36,
-6,
-31,
-9,
36,
34,
-20,
45,
4,
10,
36,
-48,
11,
25,
32,
42,
-47,
33,
-41,
-32,
-46,
23,
6,
12,
-40,
7,
-47,
-10,
24,
34,
-55,
-46,
39,
-43,
-7,
22,
14,
-28,
22,
34,
-14,
-23,
-39,
35,
-1,
-14,
10,
-48,
-40,
-49,
-44,
-29,
15,
-46,
-19,
18,
8,
34,
-46,
32,
-9,
19,
-41,
-28,
-39,
17,
-48,
2,
-28,
-27,
25,
15,
21,
-13,
-8,
31,
-10,
24,
-14,
-31,
-6,
-2,
-6,
-15,
-8,
34,
-33,
16,
20,
19,
-17,
5,
-7,
-9,
-26,
-52,
40,
30,
-53,
9,
-29,
-1,
-24,
20,
7,
26,
42,
43,
-9,
46,
11,
-36,
31,
40,
18,
-17,
-43,
33,
35,
-2,
-50,
9,
-41,
-11,
-26,
-5,
-46,
-33,
-28,
8,
-26,
47,
40,
-47,
-39,
17,
-43,
2,
-12,
5,
51,
-14,
-40,
28,
47,
-14,
-20,
2,
29,
38,
1,
-4,
23,
-33,
42,
33,
12,
-51,
-56,
-18,
-6,
35,
2,
-10,
-16,
29,
-33,
24,
4,
28,
-14,
-33,
6,
31,
8,
-40,
47,
12,
-17,
38,
-50,
1,
-18,
3,
-25,
-17,
8,
-37,
-22,
-35,
18,
-36,
4,
38,
44,
-12,
40,
25,
28,
-34,
27,
-15,
20,
-7,
41,
14,
42,
41,
32,
48,
-12,
19,
-49,
-23,
-49,
-36,
36,
-51,
5,
0,
22,
-27,
-52,
12,
-24,
18,
33,
40,
-33,
-5,
14,
5,
22,
-9,
-53,
19,
31,
36,
4,
-42,
-35,
25,
27,
-50,
-26,
1,
40,
-3,
36,
-7,
13,
16,
-23,
42,
3,
-9,
-48,
-15,
-47,
28,
-3,
38,
-45,
-9,
-23,
20,
43,
-35,
-31,
-53,
-35,
-30,
40,
17,
49,
30,
-9,
20,
17,
36,
-32,
32,
6,
2,
-2,
18,
-3,
26,
29,
-8,
-53,
-53,
48,
37,
0,
-42,
11,
39,
48,
18,
1,
-41,
36,
-3,
-25,
43,
55,
57,
-40,
-31,
35,
-19,
38,
16,
-21,
-19,
30,
-33,
48,
56,
-15,
-29,
-20,
-29,
-52,
-34,
-27,
33,
2,
4,
-24,
-30,
-42,
-46,
20,
-22,
-12,
47,
-18,
1,
37,
-53,
-7,
-16,
38,
0,
4,
-46,
6,
4,
-37,
-16,
-37,
-53,
25,
-48,
30,
-47,
-45,
24,
-6,
20,
-47,
39,
11,
1,
21,
-7,
-4,
34,
9,
17,
-37,
-9,
39,
44,
-17,
-24,
50,
-4,
20,
27,
52,
36,
-40,
-7,
-44,
7,
-3,
-6,
-45,
-24,
1,
55,
-9,
-20,
-47,
17,
41,
-3,
39,
-48,
2,
-20,
-39,
19,
40,
-23,
25,
-37,
-33,
-50,
-4,
-43,
-40,
52,
-47,
-50,
34,
7,
26,
-3,
-8,
-25,
-39,
39,
-49,
-21,
22,
23,
29,
-3,
-24,
33,
-49,
53,
-29,
41,
34,
-25,
37,
-34,
47,
46,
38,
-2,
43,
24,
34,
31,
-19,
-22,
37,
16,
-13,
17,
-41,
-2,
32,
51,
39,
33,
31,
-17,
56,
-1,
3,
16,
-7,
12,
36,
34,
-16,
-41,
-12,
-20,
31,
-16,
-31,
22,
-46,
-48,
19,
-3,
16,
35,
37,
29,
24,
6,
27,
43,
15,
-45,
45,
-16,
-10,
-15,
-11,
24,
-49,
-52,
16,
33,
-45,
-11,
35,
-40,
-15,
6,
-27,
-51,
33,
0,
41,
44,
10,
-21,
16,
-48,
33,
39,
-24,
33,
31,
23,
-44,
25,
40,
-41,
15,
37,
38,
-7,
10,
31,
21,
-15,
-5,
12,
-42,
-18,
0,
-8,
-21,
-29,
10,
-36,
22,
-13,
-21,
37,
38,
54,
32,
22,
-45,
-41,
-19,
37,
45,
26,
4,
-18,
30,
-38,
7,
43,
-41,
36,
11,
-18,
15,
12,
-8,
2,
-35,
-6,
22,
-38,
24,
-4,
-27,
-17,
5,
9,
-11,
-52,
44,
-41,
-47,
-27,
-11,
-45,
-19,
7,
-38,
-9,
20,
-34,
-5,
47,
40,
4,
-31,
27,
-15,
-16,
-51,
-5,
-14,
-10,
12,
14,
23,
-10,
-11,
-7,
25,
42,
14,
-4,
-1,
-24,
-36,
-35,
-33,
47,
36,
4,
25,
-24,
48,
-28,
-46,
20,
-4,
11,
-42,
-20,
-52,
20,
-9,
-27,
-12,
45,
-31,
-28,
20,
-38,
17,
-50,
12,
36,
8,
-17,
51,
-29,
-29,
-47,
0,
34,
-37,
-19,
12,
-17,
-3,
-28,
-48,
-52,
-4,
25,
40,
37,
8,
30,
-21,
8,
12,
-13,
-5,
-44,
-27,
30,
12,
-35,
-11,
-26,
-36,
-31,
30,
-28,
-39,
-41,
17,
-45,
17,
10,
-31,
-5,
-29,
-3,
42,
-28,
-43,
23,
-23,
-38,
10,
-28,
-21,
0,
-32,
-33,
17,
9,
-3,
17,
37,
5,
14,
-8,
44,
-33,
25,
-7,
22,
21,
-27,
-54,
-38,
8,
-46,
21,
-6,
41,
-47,
6,
-40,
-29,
-4,
16,
13,
-36,
29,
-31,
40,
-22,
15,
-42,
-16,
2,
-25,
-44,
38,
-51,
-11,
-10,
37,
-42,
48,
-13,
54,
-6,
57,
-14,
-2,
-11,
26,
7,
47,
-40,
-33,
-18,
-37,
9,
56,
58,
-32,
-37,
-51,
32,
25,
-6,
22,
24,
-27,
9,
-24,
-11,
-1,
41,
28,
-17,
11,
32,
-53,
31,
31,
-49,
33,
-33,
-46,
-36,
-41,
-5,
33,
45,
33,
30,
-34,
26,
-3,
-38,
10,
-17,
-48,
-8,
-41,
0,
-45,
28,
-26,
21,
29,
-17,
-40,
32,
42,
2,
-6,
40,
30,
28,
-31,
41,
38,
15,
-37,
-38,
5,
27,
-24,
52,
34,
-2,
29,
23,
-2,
49,
-28,
-29,
31,
46,
-50,
-21,
-38,
-19,
19,
-20,
34,
-15,
-3,
-46,
-44,
42,
20,
-38,
17,
39,
-9,
-10,
46,
-42,
36,
16,
19,
-13,
-18,
33,
-19,
-12,
23,
-40,
19,
0,
27,
46,
-39,
-46,
-3,
11,
-28,
-44,
46,
-51,
12,
14,
-46,
-29,
50,
46,
-34,
11,
44,
-31,
-11,
-10,
-31,
-11,
-28,
-3,
-29,
-1,
3,
2,
37,
44,
-24,
19,
-38,
26,
-56,
-42,
33,
-37,
17,
1,
55,
0,
13,
46,
-11,
18,
36,
7,
-26,
53,
-23,
-31,
-5,
42,
-17,
-23,
-38,
25,
17,
30,
-35,
31,
43,
-10,
25,
21,
-20,
7,
-48,
-52,
-30,
30,
-41,
0,
5,
-47,
30,
17,
38,
-52,
18,
-35,
-31,
-21,
34,
6,
25,
26,
31,
-10,
-11,
-37,
-49,
-18,
-23,
-42,
0,
-32,
41,
18,
-50,
7,
19,
16,
-42,
26,
-42,
19,
16,
6,
-46,
34,
47,
54,
17,
19,
30,
-6,
48,
-10,
-11,
40,
-10,
-7,
-17,
-7,
-17,
-36,
55,
40,
-19,
32,
-51,
-29,
-35,
50,
-25,
-19,
-4,
-18,
-44,
38,
-25,
8,
21,
26,
-45,
39,
7,
8,
-4,
31,
-17,
-21,
-7,
-23,
25,
4,
-7,
-36,
24,
25,
-38,
-51,
16,
-5,
-7,
-50,
1,
44,
-48,
46,
31,
-30,
-25,
-25,
-10,
-17,
-48,
-8,
21,
-40,
-32,
-2,
21,
6,
30,
3,
15,
8,
18,
53,
-19,
-39,
-45,
-22,
-15,
15,
-38,
14,
31,
13,
32,
51,
-23,
46,
42,
-10,
34,
-51,
19,
16,
-23,
19,
12,
-36,
0,
30,
26,
-16,
-22,
20,
17,
-17,
-50,
18,
0,
3,
52,
-16,
-37,
-44,
10,
14,
-20,
-29,
30,
-25,
-39,
-51,
-7,
13,
4,
-50,
4,
-3,
-3,
-24,
-37,
36,
-45,
-22,
42,
26,
-3,
-34,
-45,
33,
15,
29,
-31,
-32,
-33,
-39,
31,
-38,
-35,
24,
40,
-24,
14,
-1,
-4,
-43,
-2,
-42,
-13,
32,
16,
-26,
9,
29,
-19,
-2,
-51,
-17,
10,
-40,
5,
25,
-6,
-49,
9,
3,
51,
-47,
-23,
-24,
-52,
-48,
51,
-19,
-35,
39,
31,
-24,
-16,
37,
-31,
44,
-26,
-20,
-49,
-48,
-38,
13,
18,
37,
-18,
31,
29,
0,
41,
35,
-48,
0,
-41,
-1,
-13,
-33,
-6,
2,
-15,
-8,
13,
-42,
45,
-27,
51,
-6,
0,
52,
-38,
39,
-50,
-11,
15,
-52,
-37,
-31,
-27,
5,
41,
-21,
-14,
41,
-28,
-40,
-1,
-43,
49,
-44,
-28,
21,
-4,
-21,
48,
-50,
-49,
-24,
32,
-15,
-37,
18,
33,
6,
36,
9,
7,
46,
46,
1,
8,
5,
55,
-18,
-30,
48,
54,
45,
-37,
-11,
-5,
-5,
-49,
9,
50,
-35,
44,
4,
-46,
-15,
-29,
22,
-54,
49,
-50,
7,
29,
6,
38,
-20,
8,
18,
38,
36,
32,
-11,
-35,
-14,
-33,
-45,
-46,
-10,
46,
8,
-6,
2,
0,
-15,
-18,
13,
18,
51,
49,
19,
-27,
34,
-39,
29,
12,
39,
17,
-8,
15,
-45,
26,
23,
21,
45,
-37,
-12,
25,
16,
48,
48,
28,
-34,
-32,
6,
24,
27,
-11,
2,
-39,
-25,
-7,
-36,
-6,
29,
-5,
12,
-14,
33,
55,
1,
-18,
-12,
50,
43,
31,
35,
33,
18,
46,
9,
0,
-34,
6,
-19,
-47,
34,
-48,
-33,
20,
-32,
28,
33,
-8,
34,
-18,
55,
-3,
54,
25,
17,
26,
53,
38,
26,
39,
22,
-45,
-26,
32,
-24,
-4,
-15,
-31,
43,
53,
0,
20,
-3,
-8,
-35,
13,
46,
-30,
-1,
9,
-37,
33,
-16,
-26,
-16,
35,
-26,
46,
39,
-55,
21,
33,
26,
36,
10,
47,
-8,
45,
15,
46,
37,
10,
-12,
-49,
3,
19,
31,
48,
-34,
52,
-40,
17,
54,
-31,
30,
0,
25,
-23,
22,
-46,
41,
-35,
41,
-11,
23,
52,
39,
-19,
-31,
23,
-16,
10,
16,
39,
5,
-37,
0,
-51,
39,
49,
4,
34,
8,
-54,
-3,
-34,
44,
36,
48,
-5,
-31,
18,
2,
-4,
24,
26,
30,
-8,
-16,
16,
12,
-17,
45,
16,
7,
-19,
-37,
-12,
41,
-32,
-29,
-41,
8,
-42,
19,
49,
5,
31,
-40,
51,
-17,
2,
-42,
-24,
32,
-45,
-30,
54,
-29,
-1,
23,
35,
-20,
-20,
11,
19,
33,
-33,
20,
8,
-33,
-44,
-18,
-16,
-18,
34,
0,
-40,
-40,
-4,
13,
39,
-42,
2,
16,
-53,
-19,
0,
-40,
34,
-5,
4,
-18,
8,
-11,
5,
-18,
-8,
-20,
-19,
1,
-8,
-2,
-7,
-8,
22,
9,
-8,
-12,
-23,
4,
-4,
-21,
-17,
-14,
-4,
-23,
-14,
16,
-4,
-1,
-7,
1,
9,
-21,
-10,
-20,
-3,
-18,
-16,
12,
-8,
-6,
3,
5,
12,
-14,
-11,
-19,
-21,
-10,
-14,
-1,
-15,
14,
1,
-7,
-7,
-25,
-16,
4,
11,
-18,
-3,
-19,
16,
-2,
13,
-13,
4,
0,
-15,
2,
-18,
5,
7,
6,
-5,
-5,
-5,
-15,
16,
-12,
14,
-12,
12,
11,
16,
-8,
16,
-16,
-21,
-1,
-7,
-8,
7,
10,
-18,
-11,
2,
16,
-3,
-23,
-24,
-15,
-10,
-12,
-2,
-4,
-12,
19,
1,
9,
2,
14,
4,
-18,
-18,
-8,
-9,
21,
-7,
-23,
15,
2,
-9,
-25,
-7,
-9,
13,
16,
19,
-6,
23,
2,
-2,
21,
-16,
14,
12,
-14,
22,
26,
-20,
-7,
-17,
-19,
13,
3,
11,
12,
-6,
-5,
4,
15,
-10,
25,
10,
3,
-19,
-22,
8,
24,
-16,
-18,
10,
-20,
-20,
3,
-12,
3,
27,
0,
-14,
-4,
-17,
-1,
-8,
-16,
-14,
2,
22,
-5,
20,
18,
-9,
0,
7,
18,
19,
17,
11,
-14,
9,
8,
24,
-4,
3,
-1,
-14,
16,
-16,
-1,
-2,
8,
-8,
18,
-3,
-3,
-16,
4,
-3,
-16,
1,
-17,
4,
-15,
1,
5,
-6,
-1,
-22,
-9,
1,
-22,
11,
22,
19,
4,
25,
-8,
-13,
24,
-4,
19,
8,
11,
-15,
-11,
17,
-15,
2,
8,
-21,
-6,
-7,
12,
-9,
12,
17,
23,
-21,
24,
-1,
7,
24,
-2,
-16,
17,
3,
5,
-16,
1,
13,
12,
-21,
-5,
17,
-3,
-12,
-27,
-2,
0,
6,
-16,
-12,
-20,
8,
-1,
-20,
1,
-22,
-16,
5,
-4,
19,
7,
-1,
6,
-11,
13,
-18,
-8,
-4,
-19,
3,
-10,
-17,
15,
-13,
14,
-18,
-5,
-3,
7,
-7,
-12,
6,
17,
15,
-21,
-25,
17,
13,
-24,
-11,
-24,
2,
-8,
8,
-24,
11,
7,
-8,
11,
1,
2,
-4,
-13,
-7,
3,
-20,
6,
12,
2,
5,
-4,
-13,
-15,
-17,
2,
-10,
18,
9,
-10,
-24,
3,
11,
-3,
-9,
15,
-23,
15,
-3,
1,
-15,
-15,
-5,
-12,
-2,
8,
14,
-16,
3,
-12,
-13,
-19,
-26,
8,
9,
-5,
-16,
-22,
9,
-12,
2,
-16,
3,
-20,
2,
7,
-25,
-12,
9,
17,
14,
3,
-5,
25,
9,
-19,
11,
-13,
22,
24,
3,
13,
16,
-8,
21,
-11,
1,
13,
-17,
-6,
-10,
4,
9,
2,
-13,
1,
24,
-2,
-7,
-9,
-15,
6,
-21,
-11,
14,
24,
-13,
16,
2,
-3,
0,
2,
10,
13,
0,
14,
22,
13,
18,
-12,
-3,
10,
-8,
-4,
-13,
3,
8,
9,
7,
10,
-14,
-16,
-16,
2,
13,
-11,
0,
-6,
2,
0,
9,
2,
-2,
18,
4,
2,
-8,
0,
10,
2,
3,
1,
-14,
-16,
5,
-8,
20,
12,
14,
-15,
11,
-4,
-8,
5,
-3,
-9,
-7,
-12,
7,
-14,
34,
-10,
5,
19,
-2,
-5,
-4,
7,
-4,
-1,
8,
14,
-2,
22,
-16,
-16,
8,
-11,
12,
20,
-10,
21,
-19,
16,
-6,
20,
0,
15,
7,
-7,
9,
-6,
-11,
13,
-10,
-23,
25,
-2,
-6,
-13,
-13,
-19,
-6,
-10,
3,
6,
14,
18,
10,
-2,
-15,
20,
-2,
17,
-7,
17,
5,
5,
-6,
-12,
-13,
17,
3,
8,
11,
12,
2,
-4,
-17,
7,
-7,
17,
14,
-10,
5,
10,
14,
12,
0,
-7,
-10,
16,
12,
-4,
6,
15,
-14,
-4,
4,
19,
19,
-1,
3,
-13,
-12,
23,
6,
5,
-5,
-6,
22,
6,
21,
-12,
-13,
-11,
-16,
26,
17,
4,
-1,
15,
22,
-13,
-11,
7,
-5,
15,
-9,
6,
-20,
-19,
-12,
13,
-16,
-19,
-2,
-22,
-4,
17,
-6,
-2,
23,
19,
-3,
1,
-10,
-17,
-14,
22,
21,
-12,
16,
-14,
20,
-11,
-15,
12,
4,
-20,
-10,
-15,
-10,
12,
10,
5,
6,
8,
0,
0,
-1,
11,
0,
-21,
18,
11,
-12,
-16,
-11,
5,
-13,
5,
-4,
19,
-24,
-11,
20,
-22,
-14,
-16,
-24,
-23,
-16,
-1,
-18,
13,
-17,
18,
15,
-19,
14,
-2,
-10,
18,
-20,
-18,
19,
4,
-7,
-16,
-21,
-21,
3,
16,
-21,
-21,
9,
-17,
3,
-16,
-2,
5,
-15,
-15,
16,
13,
-23,
18,
-8,
0,
10,
-24,
9,
11,
7,
-3,
11,
-10,
14,
-14,
-5,
5,
5,
-17,
-11,
-7,
14,
-1,
10,
-15,
-14,
-22,
-8,
7,
-21,
18,
-9,
-21,
-22,
3,
-15,
-19,
12,
6,
10,
-2,
-13,
-4,
-24,
-6,
-1,
-9,
-19,
-8,
-2,
-2,
-8,
-4,
-6,
-23,
-26,
-6,
11,
3,
-14,
20,
-5,
0,
17,
-25,
-3,
-19,
-20,
-20,
-22,
16,
-13,
-23,
-7,
-11,
-15,
17,
-4,
15,
-13,
11,
17,
-19,
-19,
19,
-26,
18,
14,
2,
6,
-8,
-11,
-22,
-16,
-20,
19,
-24,
11,
17,
4,
-21,
-8,
16,
18,
18,
-1,
16,
6,
-23,
5,
-8,
-6,
-9,
20,
-24,
2,
-21,
-20,
-16,
-4,
-6,
6,
-9,
13,
14,
3,
1,
12,
-18,
2,
-13,
-21,
6,
-13,
8,
15,
-5,
-19,
16,
-14,
17,
-12,
-24,
-3,
-6,
-25,
-13,
-20,
7,
-3,
17,
-13,
19,
13,
5,
-25,
18,
14,
-11,
-12,
-6,
-1,
21,
4,
-13,
2,
22,
-12,
2,
8,
-15,
-5,
-23,
-5,
7,
8,
3,
18,
-9,
8,
17,
1,
14,
12,
-19,
-10,
-21,
12,
-21,
-4,
-10,
3,
10,
-11,
8,
-20,
9,
-1,
-5,
-20,
-4,
4,
-22,
10,
-21,
-12,
-17,
3,
-3,
-16,
-5,
11,
-5,
-21,
18,
-9,
13,
20,
-3,
17,
-6,
-18,
-10,
8,
-10,
-3,
-5,
14,
9,
-16,
1,
-13,
-8,
-7,
-17,
-11,
-10,
0,
5,
-25,
15,
10,
17,
-10,
6,
6,
-6,
-20,
-2,
-18,
7,
0,
-21,
1,
-7,
-22,
-11,
15,
-10,
0,
7,
-8,
14,
-12,
6,
14,
-14,
7,
7,
8,
-8,
13,
-2,
15,
19,
4,
-4,
-6,
-7,
-7,
-11,
18,
-3,
-12,
-8,
-17,
16,
-20,
7,
16,
-14,
8,
-18,
17,
14,
-15,
-21,
-17,
-18,
-3,
-9,
-23,
17,
2,
10,
-20,
12,
-1,
-24,
12,
5,
-8,
-4,
-16,
6,
-9,
-17,
0,
7,
-19,
-18,
-8,
-11,
2,
-1,
18,
-11,
-9,
-20,
1,
-23,
-14,
14,
-12,
-23,
11,
10,
11,
-18,
-22,
-2,
-17,
-24,
-24,
-25,
-20,
4,
-9,
5,
4,
-19,
4,
-22,
17,
15,
5,
-3,
-22,
5,
-18,
5,
3,
-2,
1,
-25,
-8,
-2,
-10,
-17,
5,
-11,
-1,
-23,
11,
-14,
0,
-23,
-13,
-20,
-16,
-10,
-2,
-5,
-3,
19,
-7,
21,
16,
-12,
-4,
-23,
-20,
-11,
18,
13,
-15,
-6,
-3,
-21,
11,
-9,
-18,
-1,
-2,
12,
11,
-16,
12,
6,
15,
9,
13,
17,
-10,
3,
-6,
16,
11,
1,
-20,
4,
5,
14,
7,
-15,
1,
8,
-26,
-13,
10,
13,
-14,
12,
-1,
2,
3,
19,
-3,
4,
-17,
5,
6,
10,
17,
-17,
-13,
0,
0,
2,
2,
-10,
-3,
-22,
8,
0,
1,
13,
-10,
-8,
-8,
-10,
8,
-3,
5,
-11,
11,
1,
-20,
-1,
17,
11,
-1,
17,
-10,
-17,
15,
2,
-8,
-6,
19,
13,
-16,
-1,
3,
12,
6,
-10,
21,
-6,
-3,
-1,
1,
-2,
9,
14,
-14,
0,
14,
24,
19,
10,
3,
18,
6,
18,
24,
22,
10,
-8,
9,
26,
19,
-8,
-3,
-20,
1,
11,
13,
-17,
8,
7,
-8,
0,
-5,
-17,
-17,
6,
5,
23,
-22,
22,
-14,
22,
-8,
4,
-3,
17,
26,
10,
-11,
-8,
-23,
-13,
6,
-9,
21,
-19,
12,
-21,
17,
-21,
-8,
-16,
6,
-3,
-1,
12,
16,
10,
-3,
-11,
-18,
15,
20,
-2,
6,
2,
-23,
-20,
-10,
-14,
13,
4,
17,
-10,
-6,
-1,
15,
1,
-15,
8,
-12,
-2,
6,
-20,
-10,
-7,
-12,
-13,
4,
-24,
17,
-20,
-22,
-9,
13,
7,
8,
-23,
10,
-1,
5,
-22,
-7,
-23,
-16,
11,
5,
18,
13,
2,
-12,
10,
-19,
20,
16,
-4,
18,
14,
-9,
14,
-13,
20,
-12,
-9,
4,
-4,
0,
-23,
12,
16,
-15,
1,
-19,
15,
-12,
-14,
6,
-9,
-4,
-18,
-1,
-6,
7,
7,
-11,
7,
14,
9,
17,
-10,
3,
-3,
-7,
6,
4,
-17,
17,
15,
2,
-18,
18,
-4,
-14,
-22,
-4,
12,
15,
14,
-5,
-6,
-13,
-17,
11,
21,
-7,
2,
-23,
0,
-22,
18,
-16,
15,
-18,
3,
11,
-17,
8,
-21,
5,
-3,
8,
12,
11,
-15,
19,
-9,
-14,
16,
-6,
-15,
6,
5,
0,
18,
12,
6,
-3,
15,
-19,
5,
-7,
-18,
-24,
-11,
-13,
19,
10,
-1,
6,
-7,
7,
3,
-6,
-4,
-25,
5,
8,
-22,
20,
-20,
5,
6,
-9,
-4,
17,
-4,
-22,
10,
-2,
1,
-15,
15,
10,
-5,
-2,
13,
13,
-8,
-1,
-20,
18,
12,
5,
-18,
-5,
5,
-14,
-13,
-20,
-11,
3,
-22,
-3,
-11,
-3,
15,
-10,
-4,
-20,
-19,
-21,
-10,
-14,
-3,
12,
-17,
17,
-16,
-22,
-11,
-3,
-19,
12,
-25,
9,
19,
3,
12,
7,
-17,
-15,
8,
-14,
-11,
-16,
12,
-16,
4,
-2,
-25,
-2,
1,
-7,
0,
11,
9,
18,
22,
-10,
4,
-16,
5,
19,
-23,
14,
9,
20,
15,
-21,
-6,
19,
-11,
-22,
18,
-17,
19,
19,
-22,
1,
-21,
-6,
-16,
-21,
18,
-12,
1,
6,
14,
11,
16,
-19,
18,
-12,
-14,
8,
-5,
21,
-20,
-21,
-3,
-20,
21,
-1,
15,
-1,
16,
7,
4,
-17,
-3,
-20,
5,
14,
-23,
17,
17,
-12,
18,
-14,
-10,
16,
18,
-22,
-9,
-19,
-7,
-5,
19,
-22,
-9,
-21,
-4,
16,
8,
9,
-19,
-20,
9,
19,
-17,
18,
21,
-14,
9,
15,
-2,
-10,
2,
-8,
8,
12,
-17,
6,
-7,
-1,
13,
14,
-17,
15,
11,
8,
16,
-3,
-4,
13,
-19,
-4,
8,
-9,
16,
26,
6,
16,
-17,
16,
-9,
1,
-7,
1,
13,
-17,
1,
9,
-22,
13,
12,
21,
-20,
-2,
-22,
-9,
-2,
16,
-13,
15,
-7,
0,
-13,
11,
-16,
10,
6,
-19,
6,
16,
-4,
12,
3,
-6,
0,
-11,
11,
16,
22,
-2,
22,
-16,
11,
5,
-21,
28,
-16,
22,
-11,
-3,
-6,
-4,
8,
-9,
7,
26,
-9,
-9,
-1,
16,
18,
-19,
-13,
18,
11,
-6,
19,
-18,
15,
3,
4,
-22,
25,
-11,
-18,
17,
16,
2,
-4,
13,
-6,
25,
26,
5,
5,
-11,
-4,
15,
-9,
-20,
-3,
-4,
-3,
3,
4,
-3,
15,
-14,
-8,
-13,
24,
-10,
26,
24,
20,
21,
-1,
-2,
-2,
-9,
-2,
2,
12,
-2,
14,
-2,
1,
-9,
-17,
5,
3,
7,
0,
2,
6,
-16,
-13,
12,
18,
16,
15,
20,
-1,
-1,
1,
10,
-6,
-13,
-12,
15,
-9,
3,
4,
-18,
22,
14,
19,
-17,
-18,
20,
4,
8,
10,
15,
7,
-18,
-23,
24,
-8,
11,
-5,
14,
21,
11,
14,
22,
-8,
3,
18,
-14,
-16,
-7,
-5,
28,
5,
24,
-11,
-2,
-1,
9,
23,
-10,
2,
-15,
21,
26,
-2,
1,
-16,
19,
3,
-5,
-1,
21,
11,
-20,
-8,
-12,
-2,
22,
-1,
14,
-19,
24,
8,
20,
3,
-8,
20,
26,
7,
6,
-3,
13,
16,
2,
-13,
-12,
-15,
-4,
2,
-11,
13,
-3,
21,
10,
25,
2,
17,
4,
-1,
-7,
25,
4,
9,
-6,
-10,
0,
13,
27,
20,
9,
5,
-3,
-11,
18,
22,
14,
26,
-13,
-18,
2,
-20,
15,
6,
10,
10,
7,
-15,
-3,
-11,
8,
-21,
-17,
10,
9,
6,
11,
25,
11,
-4,
3,
13,
16,
-14,
-5,
22,
27,
-9,
2,
-14,
22,
14,
17,
21,
-12,
-13,
-2,
-15,
14,
0,
-13,
0,
13,
-6,
-6,
-14,
-19,
-12,
-12,
13,
-2,
-1,
-23,
-16,
-4,
17,
-25,
-23,
-18,
14,
-3,
-13,
14,
13,
6,
-11,
18,
10,
13,
-7,
2,
-10,
-10,
17,
-17,
9,
2,
18,
-23,
-18,
4,
-13,
12,
19,
-17,
7,
-8,
8,
-20,
11,
14,
13,
-11,
9,
-1,
7,
13,
-20,
5,
-9,
-11,
-26,
-7,
-17,
16,
8,
14,
-15,
-22,
-12,
-3,
7,
-20,
15,
-21,
3,
2,
15,
-22,
-22,
-21,
-16,
-9,
-13,
15,
-3,
-9,
12,
-4,
-5,
18,
-11,
7,
-15,
-23,
1,
-14,
20,
6,
-3,
-10,
-5,
0,
15,
-10,
19,
11,
-19,
8,
13,
-1,
3,
9,
19,
18,
-1,
7,
5,
-17,
18,
20,
6,
-15,
-3,
-3,
5,
14,
-17,
7,
15,
18,
-25,
13,
12,
-7,
-7,
12,
0,
28,
-15,
5,
1,
13,
1,
-16,
-8,
-4,
18,
11,
-12,
4,
-14,
3,
-7,
-2,
-16,
-12,
17,
1,
24,
17,
0,
4,
21,
-22,
-9,
14,
19,
25,
-16,
9,
-3,
6,
13,
-15,
-11,
26,
26,
26,
-14,
-11,
-16,
9,
22,
13,
6,
24,
-7,
15,
23,
-11,
-10,
21,
16,
2,
-12,
13,
-11,
19,
19,
-5,
21,
16,
9,
-3,
-18,
23,
8,
8,
17,
1,
-7,
5,
1,
-4,
7,
34,
-18,
24,
12,
-19,
-14,
-16,
-9,
1,
-6,
10,
17,
-3,
-10,
-2,
-11,
29,
3,
1,
-2,
14,
20,
2,
3,
5,
5,
23,
-4,
-7,
-1,
-7,
3,
25,
6,
3,
-3,
23,
18,
14,
8,
3,
13,
-10,
29,
-19,
8,
1,
-18,
-5,
18,
-2,
18,
-14,
-2,
1,
-11,
-15,
-9,
20,
19,
1,
1,
-4,
15,
-7,
8,
16,
-22,
5,
-6,
14,
-13,
17,
-6,
-14,
17,
15,
-23,
5,
-5,
6,
9,
-17,
19,
-8,
-1,
-6,
-6,
-1,
-10,
-15,
21,
0,
18,
18,
15,
-21,
10,
7,
-9,
10,
-15,
7,
-13,
-12,
-7,
-21,
-3,
2,
-17,
-4,
18,
-12,
9,
19,
-4,
-6,
-9,
17,
-11,
-20,
21,
18,
0,
-6,
8,
6,
-23,
-10,
-9,
-17,
-6,
-9,
-5,
16,
15,
-11,
-21,
-7,
-11,
-16,
-21,
-10,
7,
-15,
-15,
12,
-6,
3,
16,
17,
-23,
18,
-1,
21,
19,
-14,
0,
-20,
8,
-3,
9,
-22,
-13,
-21,
-21,
8,
-4,
-10,
-11,
-21,
9,
14,
5,
18,
13,
-19,
18,
-15,
12,
7,
15,
-9,
15,
-8,
13,
4,
-2,
8,
11,
8,
4,
3,
7,
-12,
4,
-7,
-19,
-3,
-1,
-15,
16,
5,
-7,
-5,
-19,
16,
-16,
16,
4,
11,
-6,
13,
12,
-13,
14,
-19,
26,
19,
25,
0,
25,
23,
18,
-16,
18,
4,
-5,
22,
-13,
13,
-9,
12,
18,
-18,
13,
-20,
-7,
-15,
1,
4,
1,
6,
26,
-16,
-8,
19,
16,
20,
14,
-8,
-2,
5,
3,
24,
16,
19,
-15,
-17,
-6,
-17,
12,
20,
-16,
-1,
8,
23,
15,
-13,
-13,
6,
-4,
-8,
27,
3,
18,
14,
-4,
2,
8,
-17,
23,
14,
-13,
0,
18,
9,
-9,
-4,
-14,
-5,
-19,
22,
2,
-14,
14,
10,
27,
1,
-9,
8,
15,
-2,
-12,
-20,
-7,
14,
7,
-20,
-18,
-22,
12,
-12,
-18,
-20,
19,
7,
-15,
-17,
-23,
-1,
-18,
-17,
8,
20,
-18,
-15,
16,
19,
5,
-16,
-21,
6,
-3,
-18,
-18,
16,
8,
-10,
-21,
15,
3,
-20,
-4,
6,
-24,
-16,
-15,
6,
-23,
-3,
0,
17,
-2,
15,
4,
-17,
-11,
-11,
-7,
13,
21,
17,
15,
-5,
6,
-24,
8,
20,
3,
14,
19,
-15,
-17,
3,
9,
-24,
0,
1,
-4,
5,
11,
10,
-23,
16,
7,
-7,
-21,
-22,
13,
15,
-1,
-21,
-5,
12,
15,
-5,
-21,
1,
2,
-13,
-5,
-13,
-17,
5,
-25,
19,
-7,
-18,
16,
2,
-20,
-2,
-2,
-14,
-22,
9,
-17,
-19,
22,
-6,
-22,
-15,
15,
-5,
19,
-1,
-24,
-4,
5,
10,
-6,
10,
-8,
4,
16,
17,
-7,
11,
-8,
18,
-9,
-12,
6,
25,
-3,
21,
9,
3,
-7,
-2,
12,
-11,
-9,
18,
17,
-12,
12,
-15,
0,
19,
25,
15,
14,
18,
-14,
4,
4,
20,
-5,
-10,
-1,
23,
8,
11,
-17,
2,
24,
-13,
-3,
-9,
-3,
-5,
1,
1,
-14,
-12,
0,
19,
-16,
21,
9,
24,
4,
-2,
13,
-20,
-8,
-13,
-3,
-1,
7,
-17,
8,
-3,
13,
-5,
25,
6,
12,
-13,
-4,
10,
17,
-9,
-8,
8,
-10,
-1,
-12,
17,
-10,
2,
9,
-7,
-6,
-18,
15,
30,
-17,
-11,
23,
2,
14,
14,
18,
-6,
16,
-8,
-2,
-20,
23,
6,
14,
-14,
-17,
-10,
12,
1,
18,
-1,
19,
15,
23,
14,
-2,
5,
19,
21,
18,
25,
-14,
-2,
-12,
3,
19,
-18,
-18,
5,
0,
-12,
-14,
11,
17,
-1,
24,
-3,
-18,
-20,
10,
11,
13,
23,
2,
12,
-12,
-8,
-14,
3,
-5,
-19,
7,
-3,
-20,
-18,
-18,
-4,
-7,
23,
-1,
-2,
-3,
13,
1,
-4,
11,
3,
11,
-6,
11,
1,
-17,
19,
-8,
15,
20,
-17,
-13,
20,
-7,
-16,
8,
-11,
14,
-4,
-16,
14,
-14,
-12,
-10,
-1,
13,
21,
-16,
23,
-13,
12,
5,
6,
18,
26,
-22,
19,
16,
1,
8,
2,
15,
-9,
-12,
12,
-11,
7,
-3,
-9,
16,
21,
10,
10,
17,
7,
-5,
7,
-16,
-4,
-15,
-13,
4,
22,
-16,
4,
-16,
22,
14,
-16,
-8,
25,
5,
4,
22,
18,
13,
10,
-12,
-12,
15,
16,
0,
-20,
20,
0,
-18,
-11,
0,
4,
11,
6,
-1,
-20,
8,
1,
-6,
-4,
-21,
-10,
20,
-9,
16,
6,
-15,
-1,
-5,
18,
16,
20,
-21,
-25,
12,
-13,
-18,
-5,
12,
17,
0,
16,
15,
5,
21,
-17,
21,
4,
2,
5,
22,
17,
13,
-8,
2,
21,
21,
-7,
-16,
17,
-1,
13,
2,
4,
-18,
-5,
-3,
-15,
-10,
-3,
18,
-4,
-19,
-5,
6,
-13,
23,
-18,
21,
-20,
-1,
19,
-7,
4,
-12,
4,
21,
4,
19,
7,
-22,
22,
0,
-5,
-23,
7,
-10,
-10,
-11,
-21,
11,
33,
7,
2,
-7,
-9,
-15,
-19,
16,
-21,
18,
30,
8,
6,
-9,
-26,
19,
-10,
10,
-17,
-12,
0,
-20,
-13,
-21,
-1,
24,
-17,
-18,
22,
-7,
-11,
19,
9,
19,
-13,
-8,
25,
0,
-1,
-1,
15,
18,
8,
3,
18,
16,
13,
-12,
-4,
16,
-19,
19,
-14,
-3,
19,
4,
-14,
-8,
6,
-1,
14,
18,
9,
-15,
17,
-20,
-12,
0,
25,
-16,
-15,
23,
5,
0,
22,
-10,
-5,
6,
-10,
-12,
11,
15,
-14,
17,
10,
20,
21,
-1,
15,
-17,
15,
-14,
22,
11,
-6,
1,
20,
-21,
13,
-11,
-17,
8,
-5,
9,
-10,
1,
-11,
1,
-8,
21,
0,
1,
6,
-8,
1,
2,
-20,
-13,
21,
8,
22,
19,
-16,
-12,
-19,
-6,
-7,
-21,
24,
4,
-16,
-18,
-1,
-18,
19,
20,
9,
-12,
4,
14,
9,
-6,
18,
-6,
-5,
13,
-6,
-5,
13,
19,
-2,
6,
23,
11,
10,
27,
-22,
12,
-14,
-9,
8,
-20,
9,
0,
-14,
2,
-14,
-13,
14,
-16,
10,
-7,
-15,
11,
-23,
0,
-5,
-10,
15,
7,
18,
-11,
12,
-4,
-10,
16,
-22,
-13,
-7,
8,
-14,
7,
-25,
4,
1,
-21,
14,
3,
-13,
-11,
12,
-6,
-7,
14,
9,
13,
18,
-23,
3,
13,
-1,
-9,
-15,
-14,
14,
9,
18,
12,
-3,
16,
0,
-25,
-3,
0,
7,
5,
-12,
-9,
-19,
14,
-6,
-10,
-26,
3,
11,
-21,
13,
-10,
8,
18,
-20,
-10,
16,
-6,
3,
3,
9,
-22,
10,
21,
-12,
20,
8,
17,
-24,
13,
13,
7,
-14,
-6,
11,
3,
-14,
9,
4,
2,
-6,
16,
15,
-3,
-18,
21,
7,
4,
-13,
21,
10,
-25,
19,
1,
-8,
4,
-17,
2,
-5,
-9,
-4,
17,
14,
-1,
-6,
0,
16,
-7,
1,
-20,
-15,
18,
16,
26,
1,
14,
-15,
-13,
0,
-4,
12,
10,
-12,
4,
-15,
-6,
16,
-15,
-13,
-14,
4,
4,
-2,
-5,
10,
3,
-2,
7,
1,
3,
26,
-2,
5,
-16,
4,
-10,
-1,
4,
18,
-14,
-14,
9,
10,
-8,
-13,
-6,
29,
5,
10,
13,
-13,
14,
5,
14,
-4,
2,
-15,
-7,
-4,
1,
-15,
-20,
-3,
4,
5,
14,
22,
-18,
-6,
-6,
-11,
-16,
11,
15,
20,
21,
6,
-2,
11,
4,
10,
-6,
-13,
3,
17,
-18,
9,
-21,
20,
10,
1,
28,
-5,
-2,
12,
10,
-9,
0,
-18,
25,
19,
-8,
-14,
3,
9,
25,
23,
-11,
20,
27,
-5,
3,
8,
-11,
0,
-21,
13,
-17,
0,
-19,
-3,
-17,
-3,
-6,
5,
-17,
-10,
-13,
0,
1,
9,
0,
20,
18,
8,
-7,
-17,
-19,
22,
10,
-9,
0,
24,
25,
-16,
20,
6,
6,
13,
-10,
24,
-15,
-12,
20,
-3,
-5,
-4,
-22,
2,
-15,
-12,
25,
17,
11,
16,
-17,
-1,
13,
15,
10,
0,
-16,
-20,
-11,
-17,
2,
14,
8,
-7,
-3,
-2,
11,
6,
-9,
21,
-5,
11,
-5,
-3,
8,
-13,
-8,
5,
5,
-13,
-7,
23,
14,
10,
-2,
27,
11,
6,
21,
15,
-9,
2,
-1,
-5,
1,
24,
-5,
4,
4,
-8,
-2,
-9,
12,
17,
19,
-10,
-21,
-19,
1,
2,
3,
-9,
5,
0,
9,
-2,
-20,
-3,
11,
4,
-11,
-16,
10,
1,
15,
13,
1,
21,
-16,
10,
-16,
-19,
-5,
26,
-1,
-8,
18,
15,
-16,
-5,
17,
-9,
18,
-19,
-2,
-13,
14,
24,
23,
-18,
2,
23,
17,
7,
21,
7,
22,
-17,
-7,
2,
5,
10,
-2,
11,
4,
-11,
-10,
4,
-7,
-6,
-10,
-6,
-8,
-1,
7,
-3,
19,
1,
-11,
-5,
7,
14,
7,
6,
-3,
-2,
8,
2,
-14,
21,
7,
14,
4,
-19,
-16,
18,
15,
-16,
8,
5,
4,
-6,
-10,
-10,
9,
-5,
-14,
1,
-18,
-12,
22,
-2,
-18,
-11,
9,
10,
9,
0,
18,
-6,
-19,
15,
10,
14,
15,
-6,
11,
20,
21,
15,
20,
-15,
15,
3,
-3,
-5,
19,
19,
-12,
9,
18,
-15,
-4,
0,
-7,
-11,
8,
10,
5,
20,
-1,
-11,
-6,
-6,
14,
18,
1,
3,
19,
-6,
20,
-17,
22,
-9,
24,
-8,
-11,
-1,
-12,
-10,
-9,
-10,
-8,
21,
25,
-9,
-16,
-16,
-18,
-4,
3,
11,
-12,
19,
0,
-5,
-1,
-17,
5,
7,
23,
21,
-11,
3,
-17,
3,
7,
-5,
-11,
19,
6,
-1,
6,
19,
-14,
0,
9,
14,
16,
5,
12,
8,
-14,
-14,
-20,
-7,
8,
-12,
13,
22,
20,
18,
11,
27,
-3,
1,
18,
2,
-24,
-19,
-18,
10,
-4,
-11,
8,
13,
22,
21,
2,
-23,
21,
-3,
-14,
-18,
19,
5,
-12,
23,
-3,
-16,
21,
17,
-1,
-5,
20,
-13,
-13,
7,
-14,
2,
11,
3,
-11,
7,
1,
-15,
10,
0,
4,
-11,
16,
-2,
-3,
-15,
4,
16,
-5,
-19,
21,
-9,
-7,
2,
2,
1,
-12,
25,
6,
-19,
21,
0,
21,
-17,
-17,
0,
-7,
-17,
3,
26,
24,
-6,
23,
-4,
-2,
10,
10,
-21,
7,
-2,
1,
-8,
-20,
-13,
-15,
11,
16,
-16,
7,
12,
-14,
-4,
-1,
-9,
-1,
-11,
4,
-1,
-20,
23,
-12,
24,
-13,
-12,
-2,
-5,
14,
20,
11,
14,
23,
1,
21,
-5,
-5,
3,
9,
14,
19,
0,
-10,
-18,
-13,
-2,
-11,
-7,
-18,
-18,
-19,
2,
-7,
-15,
15,
2,
15,
-12,
24,
19,
-8,
-14,
-11,
-5,
-12,
-3,
12,
-22,
-2,
16,
-2,
-18,
-3,
15,
-8,
17,
13,
13,
22,
22,
-1,
-23,
9,
11,
-17,
-9,
-16,
6,
-17,
27,
14,
-19,
25,
-12,
14,
-16,
-6,
2,
1,
-11,
4,
16,
13,
-3,
22,
5,
0,
17,
-15,
-6,
24,
-10,
8,
-2,
3,
9,
7,
-8,
-19,
-12,
-18,
20,
-1,
25,
-1,
-15,
-4,
8,
-8,
-20,
-19,
-8,
9,
12,
4,
-15,
21,
2,
-2,
5,
24,
26,
7,
-21,
1,
-8,
16,
-15,
0,
-9,
-14,
-17,
-19,
13,
-11,
22,
22,
20,
14,
5,
9,
-1,
-3,
-10,
-3,
-20,
-15,
-14,
-21,
0,
-6,
23,
15,
-14,
25,
5,
-1,
-13,
19,
6,
1,
-11,
18,
-15,
14,
26,
26,
2,
1,
20,
9,
-9,
12,
-1,
20,
16,
-16,
12,
-12,
21,
17,
-9,
-9,
-14,
-21,
24,
11,
5,
1,
-23,
-6,
-10,
-22,
8,
7,
10,
2,
12,
-2,
22,
19,
-11,
19,
-12,
15,
-6,
20,
-11,
-13,
7,
5,
24,
6,
-19,
6,
-18,
13,
8,
14,
-17,
-8,
-19,
14,
-18,
-22,
-10,
-16,
-9,
-11,
17,
2,
5,
-9,
14,
-9,
5,
-6,
18,
17,
5,
-13,
-15,
11,
11,
8,
16,
9,
-8,
-7,
6,
8,
-14,
0,
-4,
-20,
-21,
-14,
-3,
-9,
-3,
11,
-18,
2,
-24,
-17,
5,
18,
8,
-19,
13,
14,
18,
-10,
-23,
-8,
12,
9,
13,
18,
6,
-15,
11,
7,
-20,
1,
-9,
-25,
-19,
16,
-19,
-17,
10,
19,
-21,
4,
19,
12,
17,
-14,
4,
9,
19,
-21,
-5,
-1,
-17,
-15,
-6,
18,
12,
-1,
17,
-10,
5,
0,
-5,
-9,
-4,
12,
-1,
6,
-6,
-16,
20,
4,
-23,
-16,
-6,
3,
2,
7,
-6,
-24,
-1,
-9,
17,
19,
-18,
-14,
-7,
-13,
-2,
-12,
2,
18,
13,
-20,
18,
11,
-13,
16,
9,
18,
3,
16,
-19,
17,
2,
12,
15,
11,
13,
-3,
-9,
-12,
-12,
4,
10,
3,
12,
-15,
-17,
-2,
-22,
-19,
-3,
-3,
-3,
-10,
5,
-5,
8,
3,
-13,
2,
-8,
-4,
-20,
2,
-17,
-15,
5,
-23,
19,
-3,
2,
4,
9,
15,
11,
6,
9,
-9,
8,
-17,
0,
-10,
-19,
16,
18,
-4,
19,
-7,
3,
-5,
-24,
1,
-14,
0,
5,
7,
10,
20,
6,
24,
12,
-4,
4,
6,
-19,
14,
-13,
-5,
2,
11,
9,
14,
21,
3,
-15,
8,
16,
-12,
30,
4,
-5,
6,
-6,
-9,
-21,
-13,
-17,
13,
15,
-24,
-13,
2,
-17,
-4,
3,
-2,
-8,
-3,
18,
-11,
2,
-21,
7,
12,
-9,
-12,
-8,
-7,
16,
-21,
0,
10,
-24,
-5,
-23,
20,
10,
11,
-18,
17,
-7,
-11,
16,
-4,
-17,
-19,
16,
10,
17,
4,
1,
-18,
-13,
-6,
-10,
-11,
-18,
6,
-5,
-7,
-19,
-24,
-17,
-21,
11,
-10,
-8,
-5,
2,
17,
-4,
3,
-14,
-9,
-4,
-8,
-22,
-1,
-8,
18,
-3,
6,
1,
9,
13,
8,
3,
15,
1,
-9,
-17,
-4,
15,
14,
-12,
-12,
-22,
9,
-18,
-7,
17,
9,
-5,
-2,
-16,
-20,
-23,
-10,
-1,
-4,
-1,
17,
1,
-11,
-7,
-12,
-7,
16,
-16,
7,
7,
19,
-18,
12,
5,
20,
17,
16,
-15,
-23,
-20,
-1,
-22,
-21,
-13,
15,
8,
-7,
9,
18,
17,
0,
-9,
6,
-23,
-14,
4,
-5,
-7,
-7,
-18,
9,
-7,
-13,
22,
20,
11,
-17,
10,
12,
-2,
-17,
5,
18,
-4,
0,
17,
-12,
7,
-13,
-10,
-18,
-1,
3,
-10,
20,
12,
1,
27,
8,
19,
11,
-16,
23,
3,
22,
10,
-12,
-18,
-9,
9,
5,
-7,
15,
-9,
13,
23,
10,
-5,
-1,
20,
20,
-2,
-14,
-20,
2,
-11,
8,
27,
22,
2,
-11,
17,
-12,
-10,
-3,
1,
-10,
2,
4,
12,
21,
3,
22,
5,
14,
-13,
-12,
-3,
-16,
-6,
-1,
-14,
1,
-20,
16,
-16,
9,
24,
9,
8,
-19,
-5,
16,
23,
0,
-7,
12,
18,
17,
3,
-14,
-10,
-10,
13,
-8,
21,
4,
-19,
-2,
-13,
19,
10,
-9,
-14,
-20,
9,
-5,
13,
8,
25,
21,
-9,
-7,
10,
21,
-20,
11,
15,
27,
4,
12,
18,
16,
4,
18,
-2,
6,
-13,
-18,
23,
18,
3,
15,
-7,
23,
9,
-11,
-12,
-11,
26,
23,
8,
14,
-1,
5,
7,
12,
5,
14,
15,
8,
13,
9,
2,
12,
15,
-17,
-14,
-15,
9,
6,
-4,
8,
16,
11,
0,
16,
-18,
16,
-16,
14,
8,
-11,
-19,
-12,
-14,
20,
-3,
24,
-6,
2,
-8,
8,
14,
12,
11,
-6,
-3,
22,
-4,
10,
-19,
21,
-15,
4,
4,
10,
-7,
-19,
16,
10,
19,
22,
8,
1,
-5,
5,
-15,
-14,
14,
19,
-17,
-2,
7,
-21,
-9,
-7,
21,
-18,
5,
7,
13,
0,
20,
21,
-4,
9,
-11,
6,
14,
7,
-7,
9,
18,
25,
-7,
-19,
0,
13,
-6,
-9,
6,
-19,
10,
-9,
-2,
-15,
14,
-8,
-7,
18,
-8,
22,
-12,
12,
-6,
-7,
9,
-3,
-18,
-9,
10,
-19,
15,
25,
0,
12,
26,
-13,
-17,
-12,
2,
-1,
3,
-10,
14,
-17,
3,
4,
24,
-2,
-21,
-6,
-2,
23,
-19,
20,
-15,
11,
7,
-20,
14,
10,
-18,
14,
3,
17,
25,
-10,
-14,
25,
-5,
-18,
17,
26,
-18,
6,
-20,
-10,
14,
-7,
13,
18,
12,
-4,
-10,
7,
23,
-2,
-17,
8,
-14,
10,
24,
-11,
0,
1,
-1,
-3,
16,
-2,
17,
-10,
25,
-5,
-11,
13,
-3,
-17,
14,
10,
9,
15,
17,
18,
1,
-15,
1,
20,
-7,
5,
-4,
3,
22,
15,
-5,
23,
18,
-19,
2,
15,
-20,
-6,
-20,
15,
-11,
-14,
-5,
9,
-19,
3,
2,
-18,
11,
-13,
13,
-5,
7,
10,
-9,
5,
23,
5,
22,
-14,
-14,
3,
-16,
0,
13,
17,
3,
20,
3,
-1,
-5,
-12,
18,
-9,
-9,
17,
20,
5,
3,
11,
12,
23,
10,
-9,
11,
-10,
4,
6,
16,
-3,
-17,
5,
-4,
-2,
-8,
-11,
-9,
15,
-2,
0,
23,
-18,
17,
11,
1,
-21,
11,
-1,
3,
-15,
5,
7,
0,
15,
-17,
23,
18,
-15,
-3,
8,
16,
6,
-2,
-7,
-9,
-7,
-19,
11,
-9,
1,
2,
-9,
19,
-18,
15,
1,
2,
12,
22,
15,
10,
1,
-8,
14,
13,
6,
-17,
-13,
13,
-21,
-18,
17,
13,
-8,
-21,
17,
16,
-19,
-21,
-15,
3,
13,
14,
4,
9,
-18,
17,
-22,
10,
-13,
13,
2,
-16,
9,
-4,
1,
-14,
15,
23,
-7,
-14,
8,
24,
23,
-1,
-8,
23,
-20,
-12,
3,
25,
-2,
24,
-15,
-2,
17,
18,
0,
17,
25,
12,
-14,
6,
-14,
-15,
-7,
-2,
-2,
4,
-5,
-16,
11,
5,
8,
22,
-17,
10,
-19,
8,
8,
25,
-22,
20,
16,
12,
7,
-7,
23,
6,
-9,
18,
-4,
25,
6,
16,
23,
-2,
10,
17,
22,
3,
16,
25,
-11,
5,
-5,
24,
17,
-12,
2,
-16,
21,
-8,
8,
11,
15,
19,
-9,
27,
-7,
-5,
4,
-2,
17,
-9,
-1,
24,
-2,
2,
0,
24,
-7,
20,
-10,
-15,
14,
14,
1,
9,
-9,
12,
3,
-20,
-3,
6,
13,
22,
22,
-20,
-15,
21,
1,
-13,
13,
-1,
2,
24,
17,
22,
10,
-16,
5,
18,
13,
26,
21,
11,
14,
-4,
11,
-11,
-20,
0,
8,
15,
-16,
10,
-7,
9,
2,
-16,
-3,
-12,
-21,
13,
-18,
-1,
19,
-18,
1,
-19,
9,
-10,
6,
-21,
-14,
-9,
-21,
24,
2,
5,
-1,
-8,
22,
13,
7,
0,
-21,
0,
1,
5,
0,
-7,
-4,
15,
3,
1,
-8,
-3,
-20,
-1,
18,
-10,
-12,
6,
-13,
-3,
16,
11,
-21,
-15,
13,
8,
22,
23,
8,
-11,
-15,
9,
1,
-3,
0,
3,
-19,
-18,
-3,
-8,
20,
-14,
10,
-3,
2,
-14,
12,
-13,
-7,
4,
2,
16,
-20,
-19,
-4,
10,
-3,
23,
-17,
-13,
-1,
-23,
7,
-14,
8,
0,
22,
-5,
4,
2,
14,
-18,
-6,
1,
6,
6,
-3,
10,
-2,
0,
-15,
-2,
20,
-21,
24,
-5,
19,
-21,
-13,
-2,
13,
14,
-4,
-16,
-13,
0,
15,
-3,
16,
22,
-7,
27,
14,
-21,
-16,
-8,
3,
-7,
16,
15,
-7,
19,
-6,
13,
-18,
9,
13,
14,
1,
16,
15,
4,
11,
19,
3,
5,
11,
2,
12,
-11,
22,
5,
21,
0,
14,
-17,
0,
26,
17,
-5,
-4,
-5,
18,
13,
-8,
4,
9,
-4,
-2,
21,
3,
3,
23,
-4,
7,
14,
-2,
8,
-17,
-8,
16,
4,
-12,
19,
-5,
3,
9,
-4,
23,
16,
3,
-11,
25,
8,
9,
1,
-12,
-11,
-11,
19,
6,
14,
11,
18,
13,
-8,
-3,
-1,
-17,
12,
12,
10,
-4,
7,
-11,
3,
19,
8,
25,
2,
-13,
23,
-10,
1,
6,
17,
-7,
-5,
2,
7,
7,
22,
-18,
13,
20,
-1,
10,
5,
-24,
3,
16,
-22,
11,
-24,
-22,
-12,
4,
16,
-21,
-3,
-23,
19,
-5,
1,
6,
-16,
-24,
19,
-5,
19,
-14,
-14,
-26,
-7,
0,
-19,
16,
-21,
-1,
1,
-17,
-9,
6,
16,
-1,
-2,
0,
0,
13,
5,
3,
1,
16,
-18,
-2,
-22,
-24,
-20,
5,
-2,
-4,
-8,
-16,
3,
-8,
12,
13,
-14,
20,
-26,
3,
-4,
6,
18,
-24,
-4,
0,
-21,
-20,
-9,
-21,
-14,
-9,
-16,
-8,
-25,
-9,
-6,
-18,
-18,
20,
0,
-2,
-20,
-14,
-14,
-21,
-3,
18,
-4,
16,
10,
1,
-19,
18,
-14,
6,
-2,
2,
-20,
8,
-24,
7,
-1,
-10,
-16,
-19,
-24,
-5,
17,
18,
-1,
4,
-2,
12,
9,
17,
0,
12,
-22,
-8,
-18,
14,
12,
-17,
-4,
-10,
2,
12,
17,
8,
22,
16,
5,
-17,
7,
19,
15,
-18,
-4,
-14,
-9,
16,
-10,
8,
-17,
-19,
7,
-12,
-6,
-17,
1,
7,
-4,
2,
-14,
19,
-19,
11,
0,
15,
6,
12,
25,
19,
9,
-8,
20,
0,
1,
8,
-3,
18,
-8,
-11,
-2,
-12,
22,
8,
7,
21,
11,
20,
7,
1,
-5,
9,
-3,
22,
1,
19,
-5,
-8,
-7,
21,
11,
-17,
21,
6,
7,
-9,
6,
-17,
-8,
-9,
15,
10,
-4,
1,
9,
-11,
8,
-10,
17,
-20,
18,
-18,
-9,
15,
2,
11,
-2,
-19,
8,
-10,
28,
3,
-4,
-18,
11,
20,
16,
4,
-6,
-1,
26,
21,
9,
24,
-13,
23,
-15,
-18,
29,
-3,
-15,
14,
-14,
22,
16,
-11,
25,
23,
6,
-6,
-20,
-21,
8,
12,
4,
-8,
-14,
16,
-14,
4,
11,
0,
21,
14,
19,
7,
-9,
18,
10,
19,
-14,
-14,
19,
-5,
-13,
-8,
-17,
-12,
12,
-8,
17,
-20,
13,
20,
-2,
-13,
4,
23,
1,
19,
-9,
-2,
-9,
4,
-13,
-11,
-14,
7,
-18,
10,
-8,
-3,
15,
-9,
9,
3,
-5,
0,
4,
-11,
5,
25,
22,
-6,
-17,
19,
3,
24,
5,
-9,
2,
-21,
-8,
8,
21,
13,
26,
10,
-17,
-4,
17,
0,
31,
0,
-12,
-4,
0,
-2,
-4,
-7,
1,
-5,
2,
18,
0,
-14,
9,
15,
1,
-2,
2,
6,
-11,
-15,
11,
5,
-6,
-17,
-3,
22,
1,
-10,
13,
-22,
20,
-11,
29,
-21,
-1,
4,
-8,
9,
-3,
-2,
-18,
10,
3,
-16,
7,
14,
22,
-9,
26,
-7,
14,
-19,
14,
14,
-13,
-2,
-11,
11,
-15,
-12,
2,
1,
-6,
25,
-10,
-13,
-12,
-2,
17,
-4,
17,
25,
-7,
2,
-2,
1,
16,
10,
2,
14,
24,
12,
-17,
4,
11,
6,
20,
10,
-1,
-11,
10,
4,
15,
-13,
14,
9,
16,
-2,
-11,
17,
22,
-2,
-5,
0,
-4,
-14,
22,
11,
-3,
3,
-5,
-15,
-11,
5,
2,
-21,
-16,
19,
15,
12,
-11,
3,
-3,
1,
11,
5,
3,
-7,
4,
22,
2,
6,
7,
22,
22,
19,
-1,
-20,
3,
11,
15,
-12,
1,
-14,
19,
-14,
7,
-13,
-11,
-3,
-9,
-10,
21,
-19,
21,
21,
-12,
-7,
-11,
8,
13,
-3,
24,
21,
19,
-9,
-15,
27,
-6,
26,
-23,
12,
-18,
-21,
9,
-26,
5,
3,
2,
-2,
-21,
-1,
-11,
8,
14,
4,
-8,
-12,
16,
-16,
-17,
-15,
-9,
-10,
16,
-1,
-13,
0,
-21,
20,
6,
-18,
15,
-24,
0,
15,
-13,
-15,
5,
-20,
-18,
1,
16,
-2,
-9,
-17,
-2,
-10,
-10,
-13,
-5,
-11,
13,
17,
-22,
-13,
-11,
-7,
7,
0,
6,
-7,
-6,
-24,
18,
6,
12,
-5,
6,
-1,
5,
-1,
-22,
-19,
-8,
-1,
-22,
14,
-21,
13,
17,
-1,
-9,
-12,
-4,
-22,
4,
-10,
16,
14,
-14,
12,
4,
4,
-1,
18,
11,
-21,
-2,
1,
29,
15,
-16,
-14,
16,
-2,
12,
-23,
19,
-6,
-14,
-9,
18,
-17,
9,
-18,
11,
-26,
-10,
-19,
19,
-15,
-10,
9,
2,
-14,
19,
4,
10,
-12,
16,
23,
-3,
6,
-5,
4,
20,
25,
-17,
-1,
8,
-15,
1,
23,
21,
-20,
15,
17,
-20,
23,
-4,
25,
5,
5,
-18,
-6,
10,
-2,
-7,
17,
-18,
-2,
0,
-20,
-10,
-12,
9,
20,
3,
-22,
20,
12,
-5,
-13,
4,
8,
-5,
4,
-10,
-15,
24,
4,
-4,
12,
-15,
20,
-16,
12,
-12,
13,
-2,
-11,
2,
-13,
-6,
6,
19,
-8,
2,
-3,
-3,
19,
-14,
22,
-15,
8,
-16,
6,
-9,
0,
-6,
-3,
-5,
-7,
21,
20,
-20,
-10,
28,
4,
-2,
-17,
-1,
-13,
-13,
-10,
-6,
-5,
0,
13,
4,
11,
3,
7,
15,
28,
1,
-9,
17,
16,
-13,
14,
-7,
22,
2,
-7,
17,
-20,
-15,
-5,
1,
3,
-1,
28,
-7,
4,
13,
8,
8,
-21,
9,
8,
19,
8,
1,
12,
12,
-22,
-1,
3,
10,
-2,
-10,
19,
12,
-6,
13,
20,
0,
9,
-18,
-10,
-11,
-13,
18,
5,
-12,
-8,
-9,
-10,
-10,
-23,
-17,
7,
-12,
-3,
20,
22,
11,
18,
-20,
23,
-3,
19,
-14,
-11,
8,
15,
-14,
-6,
1,
-4,
-6,
11,
8,
-15,
16,
1,
4,
-4,
-11,
-8,
3,
17,
18,
4,
-11,
21,
-9,
-13,
-3,
16,
-9,
-9,
-8,
-13,
15,
23,
15,
23,
6,
3,
-10,
-2,
14,
-15,
8,
-5,
-16,
-12,
7,
-4,
-8,
5,
-6,
-1,
37,
26,
-17,
24,
-5,
-6,
-15,
-5,
4,
-16,
-13,
-1,
9,
24,
-28,
18,
-8,
6,
5,
10,
16,
-7,
6,
0,
7,
-15,
-10,
-8,
-3,
-14,
20,
25,
11,
-7,
-17,
20,
20,
-18,
14,
-18,
5,
14,
-14,
-11,
-14,
-3,
8,
-5,
-11,
-7,
1,
-16,
6,
-2,
21,
11,
17,
-13,
-1,
-14,
-14,
3,
27,
25,
0,
-21,
0,
-6,
12,
12,
9,
25,
-13,
-18,
13,
8,
1,
-11,
-9,
5,
-19,
-4,
23,
10,
9,
-2,
-2,
-18,
-16,
18,
7,
16,
13,
-3,
0,
-6,
11,
10,
12,
4,
-2,
17,
23,
8,
-19,
14,
-2,
-3,
-1,
21,
15,
-3,
7,
22,
19,
8,
-13,
19,
-12,
0,
-7,
-12,
14,
-16,
23,
-8,
13,
0,
18,
-3,
16,
-2,
-6,
-12,
-8,
-5,
19,
-14,
-5,
16,
-17,
17,
0,
-17,
8,
9,
6,
4,
2,
-5,
-12,
-6,
6,
14,
-6,
12,
-12,
4,
1,
-9,
8,
-8,
19,
20,
-11,
21,
0,
15,
-17,
-2,
-20,
-13,
10,
-21,
13,
18,
-3,
-1,
21,
-8,
-15,
-9,
6,
18,
-17,
9,
10,
2,
-6,
16,
25,
6,
19,
-13,
-16,
-19,
19,
-11,
4,
-8,
20,
-9,
16,
17,
-5,
-1,
20,
4,
2,
4,
14,
26,
-17,
5,
-12,
11,
15,
-6,
15,
-16,
-1,
-2,
6,
16,
4,
-13,
0,
-14,
8,
10,
-8,
10,
-16,
-18,
-6,
8,
25,
7,
9,
-2,
30,
7,
7,
10,
-19,
1,
20,
10,
-16,
-9,
20,
3,
4,
13,
-13,
0,
22,
8,
0,
15,
-7,
20,
-17,
26,
9,
-16,
-2,
-17,
18,
14,
7,
16,
12,
-15,
12,
-17,
-6,
14,
20,
8,
2,
2,
12,
14,
12,
7,
21,
-11,
-3,
22,
15,
18,
16,
11,
3,
-13,
-2,
24,
-13,
2,
16,
21,
-17,
9,
-2,
18,
-16,
-2,
2,
-5,
7,
-1,
18,
6,
2,
22,
-9,
24,
1,
20,
-13,
-3,
0,
-6,
-8,
-9,
18,
-9,
-19,
-16,
6,
-16,
-1,
9,
3,
-11,
-8,
5,
-10,
14,
7,
17,
-11,
16,
5,
-19,
16,
-4,
-3,
8,
-9,
-2,
23,
-9,
8,
-10,
-9,
-21,
10,
-1,
16,
0,
-14,
19,
0,
-12,
11,
16,
22,
20,
21,
10,
-15,
-21,
6,
2,
-13,
20,
11,
2,
-9,
-21,
-14,
8,
30,
-2,
-1,
-3,
8,
0,
23,
14,
-7,
-7,
0,
-12,
-16,
-4,
-12,
0,
12,
-1,
26,
21,
-15,
-8,
-5,
-7,
14,
0,
6,
-10,
0,
20,
13,
17,
-5,
18,
4,
-9,
19,
17,
14,
-14,
7,
-6,
0,
11,
23,
4,
-8,
0,
6,
18,
-19,
-14,
-13,
-12,
-2,
-11,
21,
27,
-11,
0,
6,
5,
3,
3,
12,
3,
13,
24,
-10,
-9,
11,
13,
1,
-7,
-11,
11,
-9,
19,
7,
-8,
18,
21,
7,
14,
-17,
10,
3,
-6,
10,
-6,
26,
22,
21,
11,
14,
-9,
7,
15,
-5,
-4,
-11,
8,
-7,
3,
17,
26,
13,
13,
-14,
15,
-3,
-8,
22,
-14,
-19,
-15,
-15,
14,
10,
14,
-10,
-15,
-14,
17,
-2,
-6,
7,
21,
1,
20,
-19,
25,
22,
3,
6,
-10,
-17,
-14,
4,
-8,
-17,
20,
22,
-15,
-4,
7,
-5,
23,
-13,
-19,
-9,
-8,
-4,
4,
-10,
16,
-3,
2,
-14,
-3,
0,
-22,
-1,
12,
9,
2,
0,
-4,
17,
15,
-14,
-19,
2,
-13,
-23,
-22,
10,
2,
10,
-8,
-16,
7,
-22,
11,
-6,
-4,
-7,
16,
-17,
-12,
1,
-25,
7,
0,
-15,
-11,
8,
-22,
15,
-7,
13,
13,
2,
13,
2,
-5,
-15,
-5,
13,
-20,
13,
-19,
12,
-26,
-15,
10,
18,
19,
17,
3,
3,
-5,
-16,
-20,
-6,
-22,
9,
-16,
-2,
-2,
-7,
-11,
17,
-16,
4,
3,
-16,
0,
-21,
6,
4,
0,
-4,
-23,
9,
2,
0,
-23,
15,
-6,
-8,
-17,
-22,
15,
-16,
-7,
-13,
-16,
9,
-23,
3,
-8,
12,
2,
-14,
-24,
3,
16,
-13,
1,
-9,
-13,
2,
18,
-22,
21,
-11,
1,
-15,
-25,
-23,
15,
-26,
-9,
-1,
-19,
7,
-25,
11,
21,
-5,
-24,
-5,
6,
-14,
8,
12,
-9,
5,
12,
-24,
1,
12,
-4,
-15,
-16,
-3,
-4,
-10,
4,
-17,
-8,
-3,
9,
16,
13,
-1,
10,
-2,
-25,
5,
10,
-5,
15,
-7,
-1,
14,
-22,
13,
11,
15,
2,
-11,
-24,
19,
-6,
-17,
1,
-2,
6,
-21,
-24,
-3,
7,
0,
-22,
3,
10,
-23,
11,
14,
14,
15,
7,
-14,
-22,
8,
8,
-16,
-20,
17,
17,
-25,
-8,
17,
-15,
-15,
-22,
-21,
-8,
17,
-10,
0,
11,
-1,
-7,
2,
7,
16,
4,
9,
-8,
-3,
5,
-13,
-25,
8,
-5,
-8,
-8,
-22,
-20,
-21,
13,
-16,
-8,
-13,
-24,
-25,
12,
3,
-14,
-25,
13,
18,
-18,
-14,
-14,
-15,
2,
-18,
-18,
6,
-5,
-7,
16,
-2,
0,
22,
9,
11,
-5,
17,
-19,
24,
21,
2,
-6,
23,
-10,
14,
9,
7,
-1,
-2,
-7,
15,
-12,
4,
-7,
-15,
-9,
-17,
22,
-16,
-1,
14,
18,
9,
-18,
6,
-10,
-3,
-6,
-11,
8,
-18,
8,
-12,
11,
-15,
5,
17,
10,
13,
23,
3,
-7,
-6,
26,
17,
-1,
17,
-15,
-18,
-13,
21,
-17,
-7,
-16,
-17,
3,
-7,
-7,
-1,
2,
19,
2,
11,
9,
-2,
22,
-1,
13,
20,
0,
8,
6,
-2,
21,
-18,
-6,
17,
-3,
10,
-21,
1,
-6,
11,
-16,
6,
-3,
15,
-12,
-8,
-6,
-18,
11,
-17,
7,
-1,
7,
4,
-9,
11,
-8,
-10,
3,
3,
-13,
-15,
12,
2,
25,
-16,
5,
2,
-9,
-4,
-8,
4,
-12,
-4,
19,
14,
3,
26,
12,
-12,
19,
9,
22,
-2,
13,
-11,
-9,
-17,
-4,
-8,
25,
-2,
-7,
10,
-5,
13,
14,
8,
20,
-7,
27,
7,
-5,
-20,
-17,
-12,
-16,
-16,
0,
0,
21,
-8,
18,
20,
-18,
17,
-8,
-7,
-11,
12,
-12,
-17,
-9,
-8,
19,
20,
2,
9,
25,
11,
25,
-5,
1,
-5,
-16,
1,
-6,
25,
11,
-6,
-5,
6,
13,
8,
16,
1,
4,
18,
0,
-8,
2,
1,
-11,
16,
-18,
-6,
-3,
1,
-19,
2,
1,
19,
-1,
0,
22,
17,
-21,
11,
4,
22,
-9,
26,
24,
21,
0,
14,
-14,
13,
-6,
7,
9,
32,
2,
5,
-18,
-8,
-10,
6,
-6,
-6,
1,
-5,
-13,
4,
-7,
-16,
8,
-14,
29,
-10,
12,
-16,
-6,
12,
-11,
20,
0,
-9,
-8,
16,
-2,
2,
8,
-11,
-7,
-15,
15,
0,
-11,
13,
9,
-7,
-10,
-13,
-5,
-20,
13,
0,
15,
-2,
-17,
-1,
-23,
19,
-24,
9,
-21,
2,
18,
-5,
4,
-22,
-22,
-24,
-18,
-23,
-5,
7,
-22,
5,
-25,
17,
-20,
-12,
8,
1,
16,
18,
-12,
8,
-15,
-21,
-6,
-1,
19,
14,
20,
2,
-17,
22,
12,
3,
6,
20,
-22,
10,
-8,
1,
18,
-8,
1,
12,
13,
-17,
-19,
20,
-17,
-23,
5,
-4,
7,
13,
-22,
-2,
17,
-10,
-12,
-9,
-10,
9,
-10,
6,
10,
13,
-20,
-5,
9,
17,
-22,
-10,
-7,
-13,
-14,
10,
-17,
0,
-12,
18,
12,
-11,
1,
-9,
-23,
-24,
17,
2,
-4,
5,
1,
7,
-5,
8,
20,
8,
-10,
-11,
14,
3,
-9,
-10,
15,
14,
13,
15,
15,
4,
-1,
22,
-4,
18,
13,
9,
-19,
11,
-6,
17,
-14,
-11,
14,
7,
-10,
17,
-9,
5,
3,
15,
-3,
-2,
9,
22,
11,
-2,
11,
4,
14,
-11,
14,
6,
-20,
10,
-10,
-2,
15,
-7,
8,
-18,
8,
3,
-17,
16,
-17,
-18,
23,
0,
29,
-19,
-16,
-21,
-17,
3,
8,
-8,
22,
-4,
-14,
-15,
16,
10,
-8,
-13,
21,
29,
14,
17,
-6,
-20,
-10,
24,
13,
21,
-18,
9,
10,
10,
-20,
11,
-16,
-8,
-17,
17,
7,
13,
7,
2,
13,
20,
-11,
9,
-16,
-15,
-20,
7,
-7,
16,
12,
8,
-22,
-9,
-9,
-2,
-15,
-21,
23,
-17,
-8,
-6,
9,
-1,
-16,
-2,
16,
1,
-11,
-6,
14,
6,
2,
11,
11,
-22,
13,
-3,
9,
-17,
-1,
-22,
10,
10,
-18,
9,
-21,
2,
-5,
-9,
-17,
3,
-5,
11,
-8,
-21,
-5,
-12,
4,
-23,
5,
-11,
7,
-2,
-8,
3,
-11,
-9,
13,
-8,
-23,
-5,
-11,
7,
18,
-16,
-6,
-9,
-22,
-7,
-18,
-6,
-4,
1,
17,
15,
9,
-7,
10,
-11,
-4,
21,
-3,
-3,
1,
13,
14,
1,
2,
-23,
-25,
10,
16,
10,
-21,
3,
11,
12,
-22,
-24,
14,
-9,
13,
-15,
5,
-17,
16,
-10,
-16,
-9,
-3,
-8,
3,
-5,
-24,
-18,
14,
-2,
-24,
-3,
-11,
-16,
-22,
3,
17,
-21,
-2,
8,
-19,
16,
7,
0,
-13,
3,
-16,
-11,
9,
17,
7,
16,
-3,
13,
-15,
2,
11,
-13,
-4,
-12,
18,
-1,
20,
-7,
-12,
0,
-16,
-26,
-12,
-14,
-9,
5,
-25,
10,
8,
8,
-19,
-8,
13,
8,
13,
4,
3,
-1,
-15,
-13,
10,
-26,
4,
9,
-18,
18,
1,
-26,
-12,
-22,
-18,
13,
-12,
5,
-9,
17,
0,
13,
17,
-23,
-24,
15,
-22,
-7,
2,
13,
7,
4,
-18,
-8,
0,
11,
-21,
10,
1,
20,
16,
-12,
-9,
-14,
-11,
10,
-6,
-24,
-25,
13,
-25,
1,
7,
9,
-16,
10,
-3,
-10,
-14,
-4,
-26,
-22,
-16,
18,
9,
1,
-2,
2,
-6,
-14,
12,
3,
15,
16,
8,
-2,
-5,
1,
-10,
-9,
-6,
11,
-25,
0,
9,
-22,
4,
-4,
16,
-11,
-22,
7,
-12,
-15,
-12,
11,
-21,
-23,
-8,
16,
-5,
5,
-8,
-14,
20,
13,
12,
-19,
-18,
-1,
16,
-13,
-8,
-21,
-15,
18,
-22,
17,
-14,
-3,
-14,
4,
-22,
-16,
16,
-10,
-8,
19,
3,
16,
-6,
-14,
-14,
17,
-13,
-17,
-2,
-8,
15,
1,
7,
6,
-15,
-20,
-7,
11,
-13,
-6,
-11,
-11,
20,
-19,
8,
-21,
9,
8,
-9,
5,
21,
1,
-10,
16,
14,
-8,
-1,
-20,
15,
9,
7,
-21,
5,
12,
-8,
7,
-15,
3,
-4,
-6,
14,
4,
16,
-10,
4,
-18,
9,
21,
10,
10,
13,
-8,
-18,
2,
-13,
-12,
12,
-14,
-11,
24,
-12,
-17,
-14,
-3,
-13,
-24,
18,
0,
-16,
-12,
-20,
3,
9,
-12,
5,
-20,
-12,
-11,
0,
4,
13,
21,
-7,
2,
21,
-14,
5,
13,
13,
4,
17,
11,
2,
11,
0,
12,
6,
18,
15,
25,
-7,
-15,
20,
16,
11,
13,
-18,
6,
-1,
-13,
3,
-11,
-16,
1,
-15,
-17,
18,
-1,
-1,
-12,
6,
9,
-15,
18,
10,
-10,
22,
-16,
-13,
1,
-5,
-10,
4,
-7,
22,
9,
-10,
6,
10,
-5,
-9,
10,
-11,
-6,
13,
-12,
13,
7,
-3,
9,
-4,
3,
-15,
-2,
3,
-3,
12,
9,
4,
10,
12,
-7,
23,
-14,
4,
-9,
-1,
-3,
7,
-13,
17,
-7,
5,
22,
10,
11,
7,
26,
24,
19,
22,
-3,
16,
-10,
18,
8,
-9,
24,
26,
14,
9,
7,
16,
0,
2,
-4,
-6,
20,
21,
-22,
14,
0,
-12,
-15,
3,
-8,
14,
-8,
24,
2,
-4,
14,
20,
-8,
16,
-17,
3,
10,
-14,
12,
-24,
-20,
14,
10,
14,
11,
8,
-8,
-23,
23,
3,
11,
3,
-5,
-14,
-20,
-9,
-12,
-19,
13,
4,
-3,
-24,
21,
-11,
-7,
-6,
-13,
-7,
4,
19,
2,
2,
18,
-17,
14,
2,
7,
4,
-14,
-14,
-24,
-23,
18,
8,
-17,
16,
-14,
-8,
12,
-3,
-14,
15,
-20,
19,
-11,
-24,
4,
19,
2,
15,
2,
-13,
-15,
-8,
13,
-13,
7,
14,
-1,
15,
5,
16,
-2,
-12,
-11,
6,
3,
10,
-5,
-7,
17,
1,
13,
-17,
-9,
-1,
19,
21,
-12,
11,
7,
-14,
5,
10,
13,
-20,
8,
-21,
-2,
-20,
-8,
-22,
-2,
-7,
-12,
-5,
18,
-2,
-23,
-8,
4,
12,
-23,
18,
17,
11,
17,
18,
10,
6,
-19,
4,
12,
-10,
-14,
-18,
8,
-1,
-7,
4,
4,
-9,
-13,
21,
-16,
1,
2,
-8,
6,
14,
3,
-12,
-19,
5,
0,
14,
10,
-13,
15,
6,
12,
-2,
-13,
-19,
-12,
1,
16,
-1,
4,
2,
-24,
-7,
16,
-18,
-1,
-8,
-7,
2,
-4,
-12,
-22,
-22,
-3,
4,
-14,
9,
-16,
-22,
-4,
13,
-9,
20,
-9,
-11,
-13,
-14,
-1,
-16,
14,
-5,
-14,
11,
15,
-7,
-13,
20,
11,
-14,
6,
-22,
-19,
9,
18,
-22,
-15,
16,
13,
-7,
-14,
12,
-12,
-15,
-23,
19,
19,
-16,
-11,
-20,
16,
14,
-25,
-16,
-8,
11,
-18,
16,
-13,
-7,
15,
-12,
-2,
-8,
-2,
-15,
7,
1,
-1,
-9,
0,
13,
-9,
3,
2,
-19,
-6,
-8,
15,
0,
0,
-11,
12,
24,
17,
-17,
-16,
18,
5,
20,
14,
-14,
4,
11,
3,
22,
20,
-20,
14,
-6,
-13,
-3,
18,
6,
19,
-13,
6,
-5,
-13,
2,
8,
1,
-13,
-4,
13,
-2,
22,
3,
1,
-7,
-8,
-20,
21,
-10,
-3,
20,
10,
-7,
-17,
-6,
-12,
14,
0,
-16,
14,
0,
22,
6,
-13,
-4,
5,
-14,
-19,
23,
14,
-12,
5,
-7,
6,
-24,
-14,
27,
16,
27,
21,
-21,
16,
11,
18,
-2,
10,
11,
-13,
20,
-19,
11,
-11,
-32,
-25,
0,
8,
-36,
-16,
-7,
-18,
-10,
-33,
27,
11,
16,
9,
-30,
-7,
-21,
24,
-32,
10,
-32,
-18,
-20,
4,
28,
10,
5,
-33,
-13,
10,
-33,
26,
-8,
7,
27,
15,
4,
9,
-30,
-25,
-27,
-8,
-26,
0,
2,
-23,
-10,
-28,
-33,
-5,
-5,
-34,
-11,
27,
-33,
-20,
4,
24,
-12,
-24,
-6,
-33,
9,
15,
-3,
6,
26,
-2,
-26,
-17,
23,
-16,
-16,
-11,
-32,
-4,
6,
15,
22,
-23,
0,
-2,
-22,
11,
-9,
-25,
-2,
-22,
-20,
-15,
30,
-32,
-31,
-24,
25,
-31,
-5,
-16,
-25,
-29,
0,
22,
-28,
-15,
20,
-19,
14,
2,
-36,
-31,
-33,
14,
-34,
25,
-1,
-11,
-15,
23,
-12,
-3,
3,
-17,
-28,
-34,
12,
-14,
-32,
5,
21,
22,
22,
-4,
-23,
20,
-6,
19,
-35,
-23,
16,
-32,
-13,
-30,
-20,
25,
24,
-30,
-25,
25,
16,
-14,
-1,
22,
16,
-7,
24,
-11,
-21,
2,
-8,
2,
-34,
-19,
-11,
-18,
-8,
20,
-15,
-6,
-2,
-19,
-19,
34,
1,
-22,
-24,
12,
19,
-2,
-13,
-11,
-6,
-10,
-5,
18,
27,
14,
-5,
23,
7,
17,
-7,
29,
9,
-1,
15,
-11,
-21,
-25,
1,
22,
-4,
-1,
-24,
-16,
7,
-11,
25,
1,
5,
-30,
2,
-24,
-8,
-20,
20,
-6,
29,
-4,
31,
16,
32,
6,
-9,
31,
-6,
-19,
12,
11,
2,
-28,
-23,
-17,
17,
-23,
0,
-5,
16,
-14,
6,
25,
15,
-15,
-27,
-19,
-9,
4,
18,
1,
23,
25,
-17,
22,
-29,
7,
-25,
-12,
-10,
15,
17,
32,
-9,
-3,
32,
0,
25,
-28,
33,
20,
12,
21,
-20,
17,
-14,
-20,
-18,
-15,
-5,
-24,
-1,
15,
8,
16,
-16,
28,
29,
-5,
27,
-2,
-14,
-3,
3,
-8,
8,
-18,
-17,
12,
14,
-24,
-25,
-27,
-21,
-14,
19,
-22,
13,
18,
25,
9,
15,
31,
-1,
-8,
16,
-1,
-27,
-11,
-15,
-21,
-13,
30,
24,
34,
6,
-2,
18,
12,
-23,
10,
-19,
28,
-21,
-9,
12,
-2,
30,
17,
-16,
34,
-21,
34,
-9,
-2,
11,
35,
13,
27,
0,
33,
-6,
29,
14,
26,
-15,
35,
-5,
-27,
24,
35,
-5,
-24,
-27,
-10,
-6,
-20,
6,
31,
-10,
17,
-8,
-4,
-14,
24,
-25,
-26,
-5,
11,
9,
23,
-16,
-17,
10,
-8,
13,
23,
9,
4,
4,
-17,
-18,
27,
-18,
25,
22,
0,
13,
-2,
12,
-30,
6,
1,
1,
24,
-16,
-20,
4,
14,
-1,
30,
28,
-20,
19,
6,
16,
14,
-23,
14,
4,
-13,
4,
-5,
-5,
-10,
31,
-11,
17,
-20,
-25,
-5,
-21,
32,
-19,
14,
12,
-28,
-12,
-17,
-14,
-16,
6,
-9,
3,
1,
-22,
4,
27,
-15,
12,
12,
-8,
25,
32,
-13,
2,
34,
5,
34,
-8,
6,
15,
35,
-8,
-6,
-15,
31,
-6,
27,
16,
28,
-9,
35,
28,
11,
-12,
1,
38,
23,
12,
33,
26,
15,
-24,
25,
19,
-9,
12,
22,
-11,
20,
16,
9,
-22,
-9,
-24,
0,
-35,
13,
5,
-27,
-9,
-26,
-25,
-17,
17,
2,
0,
-10,
-23,
19,
-1,
-18,
-20,
4,
4,
28,
8,
20,
16,
-10,
15,
11,
-34,
7,
9,
14,
5,
-4,
3,
-3,
-19,
-20,
-17,
-15,
9,
18,
27,
-32,
-16,
-37,
-21,
-8,
-10,
9,
22,
-24,
13,
11,
-27,
-30,
-24,
7,
-1,
-7,
-7,
-5,
23,
-13,
-14,
10,
3,
-30,
2,
2,
2,
21,
-20,
-15,
21,
11,
6,
14,
8,
-16,
-21,
-30,
22,
7,
11,
11,
9,
11,
-26,
4,
23,
14,
11,
16,
-2,
24,
6,
-24,
15,
-15,
-32,
-17,
-36,
-36,
-30,
-10,
-24,
-35,
-9,
-10,
1,
-35,
17,
-26,
-3,
-20,
-17,
-4,
-7,
8,
8,
-21,
-2,
-32,
0,
-8,
-13,
34,
31,
3,
20,
10,
19,
34,
15,
-9,
2,
30,
17,
30,
15,
-25,
9,
-13,
-25,
31,
-15,
20,
-19,
22,
23,
35,
-12,
-28,
33,
-10,
30,
28,
-16,
26,
21,
-23,
-23,
-3,
24,
31,
-3,
-3,
-8,
4,
24,
-26,
-17,
33,
2,
-12,
32,
-5,
-8,
-1,
28,
-6,
16,
1,
10,
-2,
31,
11,
23,
22,
-22,
32,
-26,
-5,
20,
6,
-6,
11,
-17,
-18,
-1,
-9,
10,
27,
-22,
-5,
27,
-18,
-20,
-2,
-28,
28,
-16,
18,
31,
-17,
-6,
30,
27,
-24,
30,
-5,
-11,
29,
11,
-25,
-19,
-9,
-6,
-25,
17,
-20,
-8,
35,
-11,
-4,
-14,
31,
-20,
9,
21,
-17,
-19,
23,
28,
12,
-28,
-16,
35,
27,
-11,
-20,
-21,
-6,
29,
-29,
-34,
1,
-1,
-27,
4,
25,
17,
-8,
12,
27,
7,
-7,
26,
-36,
4,
-20,
4,
9,
25,
-26,
24,
-34,
26,
-30,
-18,
25,
-36,
-25,
-35,
10,
-1,
14,
4,
16,
-17,
17,
-33,
15,
19,
2,
22,
10,
2,
21,
-12,
-35,
10,
25,
-36,
-35,
-31,
-6,
20,
-30,
21,
22,
24,
-18,
9,
-29,
-18,
10,
1,
33,
24,
-18,
13,
-20,
-12,
-17,
-22,
-26,
34,
5,
-8,
11,
25,
28,
16,
26,
-19,
9,
-13,
30,
32,
-24,
13,
27,
17,
18,
18,
-21,
21,
-26,
-21,
34,
-6,
13,
12,
-21,
-4,
34,
20,
5,
-24,
17,
-3,
-10,
-26,
34,
30,
27,
-8,
-2,
26,
-23,
27,
28,
28,
-22,
14,
-2,
-26,
9,
19,
-15,
-16,
6,
-15,
-27,
-11,
26,
21,
14,
11,
-24,
8,
4,
-10,
16,
8,
27,
29,
4,
-27,
2,
23,
-2,
-15,
25,
-34,
9,
-3,
9,
17,
-25,
14,
-19,
29,
9,
29,
-1,
-25,
6,
-28,
-12,
-9,
-20,
-6,
4,
-24,
-32,
-4,
12,
-21,
-8,
-11,
-27,
-13,
4,
-5,
-16,
-34,
-17,
-3,
22,
29,
-25,
-26,
5,
-22,
-21,
10,
29,
34,
-10,
21,
35,
-8,
17,
18,
26,
15,
6,
3,
20,
23,
-12,
19,
32,
14,
-25,
-21,
23,
30,
-5,
19,
21,
7,
16,
24,
28,
22,
-2,
-17,
19,
20,
-6,
20,
35,
-15,
11,
14,
-18,
-3,
25,
12,
15,
33,
-15,
-5,
-25,
-30,
-18,
33,
-5,
-13,
-6,
-22,
-7,
7,
-14,
1,
-1,
-4,
-12,
-12,
-11,
-7,
33,
23,
31,
23,
-25,
21,
-24,
11,
-5,
-13,
-18,
27,
15,
21,
4,
-14,
-13,
-6,
-4,
33,
-14,
-23,
5,
6,
-15,
-17,
-18,
23,
20,
-13,
17,
0,
18,
2,
-25,
27,
1,
-7,
26,
4,
23,
27,
16,
30,
-12,
27,
0,
6,
2,
-22,
-9,
17,
25,
34,
-2,
-4,
10,
15,
34,
-8,
-5,
4,
-10,
-6,
28,
14,
-7,
30,
-25,
25,
10,
-6,
1,
32,
-5,
-1,
27,
10,
3,
13,
-4,
28,
-4,
-9,
24,
-27,
9,
7,
-23,
5,
-3,
10,
-26,
-14,
-19,
27,
19,
-17,
-27,
-19,
-20,
31,
8,
-6,
21,
31,
-12,
13,
-16,
-3,
-12,
-9,
3,
-17,
-10,
33,
20,
-24,
4,
2,
-8,
33,
-2,
8,
15,
21,
24,
30,
28,
-4,
-5,
29,
30,
-9,
0,
25,
-25,
-6,
8,
22,
-22,
-13,
-9,
-1,
-9,
-15,
-14,
-22,
-18,
13,
25,
-14,
-11,
20,
-11,
32,
27,
-1,
13,
-2,
22,
-9,
-25,
-25,
10,
26,
30,
2,
-3,
-15,
0,
-20,
13,
-6,
7,
4,
-15,
35,
26,
13,
11,
-7,
-20,
12,
21,
-16,
-15,
2,
-15,
-9,
3,
33,
23,
-27,
4,
1,
-10,
-12,
13,
-17,
21,
11,
-25,
-27,
-3,
-28,
30,
-4,
24,
-15,
30,
1,
16,
28,
-6,
22,
-1,
8,
29,
-15,
-10,
13,
31,
8,
14,
29,
-8,
33,
-10,
2,
15,
18,
25,
26,
-23,
16,
14,
34,
12,
16,
-22,
-19,
13,
-11,
20,
-5,
6,
-17,
6,
25,
-17,
8,
4,
30,
-19,
-2,
5,
-23,
1,
-7,
30,
-20,
-5,
-9,
9,
27,
35,
24,
-8,
-20,
28,
-9,
-5,
7,
2,
20,
-22,
-24,
19,
19,
8,
10,
34,
-7,
-16,
0,
33,
3,
14,
11,
7,
-15,
11,
-16,
-13,
28,
30,
4,
11,
-21,
-10,
11,
-12,
3,
-27,
14,
4,
28,
-15,
-15,
-22,
-12,
7,
24,
13,
26,
21,
-9,
9,
-15,
-3,
8,
19,
13,
13,
20,
-23,
-22,
16,
-27,
-25,
-18,
-29,
-12,
32,
14,
30,
20,
20,
26,
5,
-15,
9,
-31,
-10,
-15,
-14,
-7,
12,
-22,
14,
22,
17,
19,
12,
14,
11,
-22,
4,
5,
26,
34,
5,
1,
16,
-29,
11,
-13,
-4,
-22,
-6,
-2,
-3,
23,
2,
-19,
-15,
-25,
14,
18,
-26,
26,
-6,
10,
-8,
-11,
-24,
20,
-8,
-20,
-21,
28,
-16,
-7,
18,
33,
-17,
-24,
-11,
12,
22,
11,
-10,
17,
27,
-24,
20,
27,
19,
31,
3,
-18,
8,
8,
20,
24,
-15,
-11,
-17,
14,
1,
11,
1,
-1,
3,
-12,
-8,
-10,
14,
-28,
-18,
-26,
3,
-14,
31,
9,
-1,
-22,
-23,
-3,
7,
-4,
-11,
-19,
-13,
-17,
13,
7,
3,
-13,
0,
18,
-24,
29,
-8,
26,
22,
10,
-11,
36,
15,
-27,
-8,
-18,
22,
-12,
-11,
23,
-16,
13,
-31,
-3,
-5,
19,
19,
-8,
17,
-15,
14,
16,
-19,
-27,
-22,
-15,
-23,
13,
26,
-1,
-28,
5,
7,
33,
21,
2,
12,
14,
18,
-15,
20,
19,
-23,
30,
1,
-28,
22,
-9,
-10,
-11,
22,
3,
9,
2,
-6,
1,
22,
23,
13,
21,
-10,
33,
15,
-12,
-16,
-11,
27,
-5,
33,
9,
25,
2,
-9,
-18,
-14,
26,
-8,
-2,
-23,
4,
24,
2,
2,
-22,
33,
7,
-13,
32,
27,
-12,
-17,
-17,
-1,
-3,
-15,
-4,
18,
37,
34,
-15,
18,
-24,
-16,
-16,
18,
-26,
6,
-5,
24,
0,
13,
20,
-20,
-11,
-25,
-23,
4,
22,
17,
24,
-26,
-22,
-25,
-20,
-33,
8,
7,
1,
-30,
-2,
-26,
8,
-12,
27,
3,
-30,
20,
-25,
-3,
1,
10,
25,
19,
22,
4,
-25,
-29,
18,
-16,
-37,
-3,
6,
11,
-31,
1,
-7,
-31,
-10,
-22,
7,
-30,
-20,
14,
-36,
18,
-24,
5,
-21,
15,
-13,
-11,
-18,
7,
10,
-10,
-23,
-25,
16,
24,
-2,
28,
0,
17,
-10,
-19,
25,
18,
-22,
-32,
-32,
-26,
-26,
7,
1,
-18,
-18,
-36,
7,
-4,
16,
25,
-4,
-27,
1,
6,
-2,
27,
22,
-29,
14,
24,
-9,
2,
2,
-27,
2,
10,
-25,
-26,
8,
-24,
18,
-34,
-3,
-30,
11,
-3,
-3,
-9,
3,
-1,
5,
-25,
-1,
22,
-34,
-14,
-11,
20,
-22,
4,
15,
-24,
-1,
-21,
30,
-13,
33,
-8,
13,
-3,
6,
20,
0,
-2,
-27,
27,
-10,
18,
31,
-3,
0,
5,
7,
-11,
27,
-1,
15,
32,
10,
14,
22,
14,
4,
31,
24,
28,
-10,
-2,
11,
-11,
-4,
-21,
32,
21,
17,
-28,
15,
-15,
34,
28,
31,
10,
-21,
21,
28,
6,
-6,
13,
26,
29,
-21,
3,
-21,
29,
31,
16,
-12,
-27,
6,
0,
27,
12,
-27,
16,
6,
-33,
-10,
-8,
14,
-29,
-24,
-6,
-23,
-4,
28,
5,
-15,
27,
-8,
-13,
-20,
-23,
-27,
-35,
8,
14,
-11,
-4,
27,
3,
21,
-16,
22,
1,
-17,
-21,
11,
-21,
17,
1,
8,
5,
23,
19,
27,
-30,
18,
25,
9,
-30,
2,
-5,
-29,
29,
-22,
16,
28,
27,
16,
-18,
-6,
-25,
17,
6,
-8,
-25,
-10,
10,
8,
24,
-12,
15,
30,
-28,
-5,
-8,
-22,
0,
14,
-30,
-6,
-7,
-8,
-24,
-13,
31,
7,
-5,
9,
-23,
26,
-15,
8,
30,
8,
-15,
-2,
0,
-17,
3,
16,
-20,
-32,
31,
10,
-19,
36,
-22,
-21,
14,
-20,
7,
-22,
22,
3,
30,
25,
16,
-2,
-24,
1,
-6,
10,
15,
-7,
-34,
-29,
17,
-5,
-29,
14,
28,
0,
-18,
24,
-18,
-10,
-25,
-16,
25,
16,
-27,
-11,
8,
-18,
-27,
11,
-23,
-16,
-24,
-28,
-17,
21,
-33,
-30,
-3,
30,
-8,
-22,
17,
-35,
5,
16,
16,
21,
11,
-14,
-23,
-34,
13,
-28,
-31,
5,
11,
1,
4,
6,
-2,
-34,
10,
-24,
28,
21,
11,
10,
18,
23,
16,
4,
27,
-3,
20,
27,
-5,
16,
17,
23,
-17,
-32,
-32,
4,
24,
-31,
7,
-27,
21,
4,
-38,
-37,
-22,
-25,
16,
-6,
20,
-18,
24,
4,
-9,
-22,
-23,
28,
-16,
13,
5,
8,
-38,
25,
-21,
6,
3,
-10,
2,
25,
4,
-7,
4,
7,
-29,
3,
9,
-34,
18,
19,
-23,
-31,
-3,
4,
25,
-36,
-23,
-10,
21,
24,
-16,
-27,
10,
33,
30,
17,
6,
22,
5,
6,
26,
3,
9,
26,
-4,
1,
20,
-21,
12,
-27,
-7,
-2,
35,
-31,
12,
-9,
24,
-25,
4,
-13,
-10,
3,
4,
0,
6,
35,
-21,
40,
-34,
-38,
-16,
20,
4,
46,
38,
14,
5,
20,
-30,
11,
49,
-27,
17,
-4,
-28,
-27,
28,
15,
18,
-14,
-21,
-35,
21,
-37,
2,
-18,
13,
15,
9,
28,
22,
-1,
5,
23,
-6,
-13,
13,
-23,
-2,
21,
34,
45,
25,
32,
42,
-4,
24,
38,
21,
-42,
0,
-20,
37,
-10,
20,
11;
